的 </w>
， </w>
。 </w>
和 </w>
在 </w>
. </w>
会 </w>
、 </w>
是 </w>
国 </w>
了 </w>
有 </w>
议 </w>
为 </w>
年 </w>
于 </w>
, </w>
个 </w>
2 0
行 </w>
人 </w>
) </w>
( </w>
们 </w>
对 </w>
定 </w>
到 </w>
1 </w>
/ </w>
要 </w>
家 </w>
0 </w>
他 </w>
2 </w>
中 </w>
法 </w>
作 </w>
用 </w>
动 </w>
与 </w>
以 </w>
委 员
及 </w>
国 家</w>
委员 会</w>
月 </w>
出 </w>
员 </w>
题 </w>
3 </w>
5 </w>
些 </w>
20 0
展 </w>
并 </w>
4 </w>
力 </w>
会 议</w>
其 </w>
第 </w>
将 </w>
问 题</w>
联 合
我 </w>
性 </w>
6 </w>
务 </w>
能 </w>
上 </w>
》 </w>
《 </w>
- </w>
面 </w>
案 </w>
7 </w>
； </w>
国 际
间 </w>
8 </w>
" </w>
日 </w>
： </w>
9 </w>
报 告
时 </w>
地 </w>
过 </w>
来 </w>
约 </w>
关 </w>
报告 </w>
一 </w>
理 </w>
不 </w>
联合 国</w>
一 个</w>
别 </w>
组 织
权 </w>
供 </w>
组织 </w>
或 </w>
我 们</w>
件 </w>
者 </w>
发 展</w>
助 </w>
所 </w>
种 </w>
国际 </w>
生 </w>
提 供</w>
1 9
你 </w>
政 府
工 作</w>
政府 </w>
项 </w>
后 </w>
该 </w>
而 </w>
） </w>
（ </w>
下 </w>
况 </w>
得 </w>
施 </w>
长 </w>
据 </w>
次 </w>
构 </w>
方 面</w>
关 于</w>
体 </w>
就 </w>
度 </w>
制 </w>
进 行</w>
化 </w>
利 </w>
期 </w>
向 </w>
应 </w>
也 </w>
域 </w>
以 及</w>
这 些</w>
这 </w>
业 </w>
持 </w>
方 </w>
本 </w>
前 </w>
括 </w>
程 </w>
续 </w>
包 括</w>
成 </w>
立 </w>
通 过</w>
社 会</w>
情 况</w>
方 案</w>
团 </w>
机 构</w>
果 </w>
大 </w>
同 </w>
入 </w>
求 </w>
加 </w>
全 </w>
民 </w>
分 </w>
亚 </w>
可 </w>
代 表
其 他</w>
女 </w>
式 </w>
还 </w>
多 </w>
20 1
明 </w>
说 </w>
内 </w>
执 行</w>
部 </w>
有 关</w>
19 9
意 </w>
目 </w>
经 济
都 </w>
新 </w>
此 </w>
由 </w>
号 </w>
处 </w>
现 </w>
特 别</w>
区 </w>
行 动</w>
金 </w>
秘 书
则 </w>
使 </w>
他 们</w>
外 </w>
活 动</w>
统 </w>
人 员</w>
决 议</w>
进 </w>
查 </w>
被 </w>
条 </w>
组 </w>
妇 女</w>
建 议</w>
所 有</w>
没 有</w>
论 </w>
公 约</w>
子 </w>
等 </w>
安 全</w>
经济 </w>
源 </w>
事 </w>
项 目</w>
当 </w>
点 </w>
但 </w>
人 权</w>
取 </w>
量 </w>
平 </w>
划 </w>
请 </w>
至 </w>
义 </w>
它 </w>
术 </w>
合 作</w>
段 </w>
工 作
事 会</w>
款 </w>
大 会</w>
需 要</w>
心 </w>
缔 约
童 </w>
何 </w>
物 </w>
从 </w>
理 事会</w>
可 以</w>
计 </w>
言 </w>
标 </w>
里 </w>
规 定</w>
护 </w>
区 域</w>
根 据</w>
可 能</w>
经 </w>
样 </w>
位 </w>
须 </w>
见 </w>
受 </w>
策 </w>
系 </w>
着 </w>
调 </w>
儿 童</w>
门 </w>
提 出</w>
强 </w>
然 </w>
权 利</w>
法 律
她 </w>
名 </w>
交 </w>
技 术</w>
决 定</w>
洲 </w>
措 施</w>
料 </w>
已 </w>
系 统</w>
保 </w>
支 持</w>
A </w>
准 </w>
品 </w>
署 </w>
必 须</w>
示 </w>
数 </w>
界 </w>
影 响
1 0</w>
代表 </w>
合 </w>
止 </w>
影响 </w>
发 </w>
管 理</w>
届 </w>
1 2</w>
计 划</w>
研 究
任 </w>
去 </w>
决 </w>
列 </w>
级 </w>
境 </w>
好 </w>
政 策</w>
学 </w>
效 </w>
器 </w>
高 </w>
0 0</w>
算 </w>
元 </w>
少 </w>
a </w>
法律 </w>
各 </w>
席 </w>
口 </w>
育 </w>
认 为</w>
如 </w>
道 </w>
重 要</w>
给 </w>
类 </w>
目 标</w>
要 求</w>
资 源</w>
且 </w>
常 </w>
秘书 长</w>
更 </w>
服 务</w>
促 进</w>
继 续</w>
么 </w>
一 些</w>
和 平</w>
采 取</w>
加 强</w>
“ </w>
保 护</w>
队 </w>
步 </w>
起 </w>
能 力</w>
信 息
努 力</w>
治 </w>
额 </w>
司 </w>
书 </w>
文 </w>
行 为</w>
提 交</w>
确 保</w>
球 </w>
研究 </w>
使 用</w>
除 </w>
: </w>
尔 </w>
” </w>
重 </w>
场 </w>
述 </w>
主 要</w>
缔约 国</w>
产 </w>
资 </w>
机 </w>
部 分</w>
把 </w>
主 义</w>
视 </w>
任 何</w>
切 </w>
院 </w>
备 </w>
作 为</w>
这 种</w>
注 意</w>
斯 </w>
教 育</w>
识 </w>
庭 </w>
美 元</w>
部 门</w>
政 </w>
局 </w>
？ </w>
率 </w>
1 1</w>
建 立</w>
% </w>
实 </w>
非 </w>
主 席</w>
因 为</w>
这 个</w>
文 件</w>
已 经</w>
天 </w>
如 果</w>
因 此</w>
援 助</w>
世 界</w>
草 案</w>
够 </w>
设 </w>
序 </w>
略 </w>
话 </w>
先 生</w>
审 议</w>
易 </w>
实 现</w>
期 间</w>
解 </w>
地 区</w>
举 行</w>
信息 </w>
费 </w>
成 员</w>
之 间</w>
管 </w>
环 境</w>
益 </w>
基 金</w>
C </w>
虑 </w>
让 </w>
望 </w>
害 </w>
关 系</w>
份 </w>
正 </w>
各 国</w>
审 查</w>
很 </w>
· </w>
增 加</w>
照 </w>
领 域</w>
实 施</w>
最 </w>
参 与</w>
考 虑</w>
得 到</w>
共 和
作 用</w>
这 一</w>
想 </w>
第 二
武 器</w>
开 展</w>
公 司</w>
罪 </w>
全 球</w>
共和 国</w>
自 </w>
因 </w>
相 关</w>
便 </w>
开 </w>
例 </w>
议 程</w>
信 </w>
有 效</w>
室 </w>
订 </w>
表 </w>
指 出</w>
商 </w>
架 </w>
持 续</w>
战 略</w>
训 </w>
表 示</w>
获 得</w>
讨 论</w>
员 国</w>
己 </w>
责 </w>
程 序</w>
致 </w>
自 己</w>
其 中</w>
方 法</w>
中 心</w>
代表 团</w>
协 调</w>
先 </w>
资 料</w>
达 </w>
支 助</w>
小 组</w>
作 出</w>
预 算</w>
斯 坦
克 </w>
基 础
格 </w>
但 是</w>
处 理</w>
比 </w>
型 </w>
发 展
一 项</w>
诉 </w>
一 步</w>
盟 </w>
解 决</w>
测 </w>
及 其</w>
始 </w>
正 在</w>
险 </w>
由 于</w>
能 够</w>
工作 人员</w>
意 见</w>
活 </w>
证 </w>
事 务</w>
导 </w>
政 治</w>
d </w>
特 派
未 </w>
击 </w>
提 高</w>
时 间</w>
认 </w>
布 </w>
e </w>
士 </w>
1 5</w>
目 前</w>
复 </w>
人 民</w>
兰 </w>
中 国</w>
培 训</w>
做 </w>
问 </w>
方 式</w>
机 制</w>
美 国</w>
许 多</w>
非 洲</w>
一 种</w>
3 0</w>
它 们</w>
20 </w>
任 务</w>
开 始</w>
进 一步</w>
同 时</w>
人 口</w>
条 约</w>
特派 团</w>
什 么</w>
近 </w>
说 明</w>
围 </w>
势 </w>
减 少</w>
秘书 处</w>
n </w>
调 查</w>
即 </w>
估 </w>
利 用</w>
b </w>
法 院</w>
否 </w>
参 加</w>
情 </w>
斯坦 </w>
取 得</w>
病 </w>
标 准</w>
评 估</w>
制 定</w>
确 定</w>
判 </w>
平 等</w>
质 </w>
框 架</w>
不 是</w>
象 </w>
发展 中
发展中 国家</w>
价 </w>
部 队</w>
留 </w>
分 析
原 则</w>
语 </w>
进 程</w>
验 </w>
具 有</w>
伙 伴
制 度</w>
又 </w>
强 调</w>
生 活</w>
各 种</w>
办 法</w>
官 </w>
目 的</w>
费 用</w>
不 同</w>
而 且</w>
询 </w>
冲 突
数 据</w>
一 次</w>
察 </w>
那 </w>
素 </w>
工作 组</w>
接 </w>
以 便</w>
这 样</w>
冲突 </w>
希 望</w>
歧 视</w>
战 </w>
拉 </w>
军 </w>
范 围</w>
分析 </w>
机 会</w>
文 化</w>
发 言</w>
代 </w>
现 在</w>
存 在</w>
办 </w>
报 </w>
成 为</w>
犯 罪</w>
此 外</w>
条 件</w>
称 </w>
1 4</w>
必 要</w>
第 三
责 任</w>
特 </w>
需 </w>
发 生</w>
诺 </w>
; </w>
1 3</w>
应 该</w>
章 </w>
结 果</w>
一 般
基础 </w>
200 5</w>
候 </w>
适 当</w>
200 8</w>
为 了</w>
励 </w>
确 </w>
贸 易</w>
缔约 方</w>
维 持</w>
单 </w>
行 政</w>
是 否</w>
接 受</w>
值 </w>
善 </w>
办 事
进 展</w>
对 于</w>
运 </w>
应 当</w>
办事 处</w>
族 </w>
200 6</w>
犯 </w>
会 员国</w>
1 8</w>
录 </w>
公 共
排 </w>
水 </w>
* </w>
付 </w>
反 </w>
按 照</w>
地 方</w>
暴 力</w>
201 0</w>
1 6</w>
咨 询</w>
造 成</w>
主 </w>
设 立</w>
造 </w>
消 除</w>
最 后</w>
联 盟</w>
革 </w>
产 生</w>
P </w>
边 </w>
建 设</w>
许 </w>
专 家</w>
200 9</w>
全 面</w>
注 </w>
工 </w>
放 </w>
正 式</w>
家 庭</w>
? </w>
不 能</w>
待 </w>
投 资</w>
置 </w>
容 </w>
命 </w>
200 7</w>
足 </w>
自 由</w>
具 体</w>
司 法</w>
— </w>
s </w>
各 项</w>
举 </w>
受 到</w>
200 4</w>
办 公
知 </w>
限 </w>
市 </w>
承 诺</w>
断 </w>
户 </w>
协 助</w>
头 </w>
c </w>
企 业</w>
予 </w>
如 何</w>
帮 助</w>
师 </w>
恐 怖
负 责</w>
做 法</w>
低 </w>
之 </w>
鼓 励</w>
充 分</w>
设 施</w>
欢 迎
并 且</w>
资 金</w>
图 </w>
1 7</w>
2 1</w>
人 道
1 0
流 </w>
变 化</w>
欢迎 </w>
变 </w>
利 亚</w>
严 重</w>
择 </w>
就 是</w>
安 排</w>
用 于</w>
义 务</w>
以 色
201 1</w>
性 别</w>
共 同</w>
e r
2 5</w>
实 际
较 </w>
车 </w>
监 测</w>
形 式</w>
过 程</w>
难 </w>
认 识</w>
吗 </w>
知 道</w>
艾 滋
具 </w>
市 场</w>
积 极
著 </w>
涉 及</w>
定 书</w>
健 康
议 定书</w>
事 项</w>
绍 </w>
协 定</w>
1 9</w>
愿 </w>
往 </w>
l </w>
色 </w>
尼 亚</w>
纳 </w>
土 </w>
一 切</w>
地 位</w>
改 革</w>
小 </w>
预 防
完 成</w>
人 们</w>
200 3</w>
节 </w>
再 </w>
第 五
仅 </w>
业 务</w>
基 本</w>
3 1</w>
以色 列</w>
集 </w>
争 </w>
均 </w>
两 个</w>
200 0</w>
办公 室</w>
看 </w>
a r
儿 </w>
西 </w>
当 局</w>
尤 其</w>
2 2</w>
200 2</w>
S </w>
字 </w>
挑 战</w>
时 候</w>
例 如</w>
巴 勒
5 0</w>
监 督
规 则</w>
谈 判</w>
选 举</w>
午 </w>
那 些</w>
线 </w>
表 明</w>
写 </w>
日 至</w>
批 准</w>
束 </w>
201 2</w>
像 </w>
林 </w>
二 </w>
这 方面</w>
尽 管</w>
健康 </w>
之 后</w>
控 制</w>
法 庭</w>
2 4</w>
成 果</w>
武 装
身 </w>
介 绍</w>
利 益</w>
出 现</w>
0 00</w>
采 用</w>
B </w>
个 人</w>
令 </w>
关 切</w>
适 用</w>
2 3</w>
附 件</w>
难 民</w>
状 况</w>
第 十
直 </w>
守 </w>
毒 </w>
德 </w>
国 内</w>
票 </w>
属 </w>
只 </w>
非 政府</w>
厅 </w>
仍 然</w>
领 </w>
路 </w>
a n
以 下</w>
改 善</w>
管 理
障 </w>
200 1</w>
念 </w>
刑 </w>
速 </w>
疗 </w>
案 件</w>
以 来</w>
教 </w>
记 </w>
银 行</w>
临 时</w>
关 注</w>
金 融
阿 拉
收 入</w>
优 先</w>
众 </w>
人道 主义</w>
[ </w>
L </w>
． </w>
校 </w>
站 </w>
之 前</w>
禁 止</w>
直 接</w>
存 </w>
评 价</w>
原 因</w>
报告 员</w>
监督 </w>
住 </w>
增 长</w>
社 区</w>
气 </w>
生 产</w>
态 </w>
载 </w>
开 发
络 </w>
这 项</w>
南 </w>
一般 </w>
非 常</w>
仍 </w>
限 制</w>
第 四
手 </w>
两 年</w>
乎 </w>
散 </w>
联合 </w>
无 法</w>
2 6</w>
立 法</w>
o r
虽 然</w>
阿拉 伯
然 而</w>
领 土</w>
申 </w>
独 立</w>
快 </w>
i </w>
现 有</w>
高 级
最 近</w>
残 疾
因 素</w>
宣 言</w>
E </w>
稳 定</w>
班 </w>
2 7</w>
保 障</w>
建 </w>
理 会</w>
] </w>
内 容</w>
碍 </w>
按 </w>
重 申</w>
整 </w>
经 费</w>
履 行</w>
顾 </w>
一 份</w>
结 构</w>
同 意</w>
世 界
201 3</w>
或 者</w>
2 8</w>
防 止</w>
199 9</w>
失 </w>
临 </w>
巴勒 斯坦</w>
积极 </w>
广 泛
安 理会</w>
集 团</w>
一 致</w>
科 </w>
划 署</w>
选 </w>
过 去</w>
免 </w>
恐怖 主义</w>
风 险</w>
了 解</w>
一 直</w>
功 </w>
联 邦
材 料</w>
不 会</w>
挥 </w>
回 </w>
第 六
需 求</w>
6 0</w>
联 系</w>
才 </w>
通 </w>
空 间</w>
洋 </w>
新 闻
联合 国
人 类</w>
坛 </w>
导 致</w>
综 合</w>
收 到</w>
产 品</w>
某 些</w>
之 一</w>
成 功</w>
夫 </w>
结 束</w>
瓦 </w>
！ </w>
打 击</w>
养 </w>
比 亚</w>
发 现</w>
关 键
协 商</w>
伙伴 </w>
针 对</w>
广泛 </w>
配 </w>
普 遍
4 0</w>
受 害
多 数</w>
吁 </w>
另 </w>
土 著</w>
规 划</w>
呼 吁</w>
请 求</w>
2 9</w>
审 计</w>
带 </w>
实际 </w>
199 8</w>
选 择</w>
军 事</w>
伊 拉
论 坛</w>
三 </w>
准 则</w>
这 是</w>
协 议</w>
威 胁
阶 段</w>
承 认</w>
纳 入</w>
知 识</w>
威胁 </w>
岁 </w>
离 </w>
驻 </w>
您 </w>
事 件</w>
扩 大</w>
程 度</w>
保 证</w>
台 </w>
第 一
制 订</w>
警 察</w>
哥 </w>
指 导</w>
越 </w>
专 员</w>
遵 守</w>
结 </w>
营 </w>
19 8
对 话</w>
设 计</w>
推 动</w>
定 期</w>
运 动</w>
健 </w>
景 </w>
干 </w>
有 人</w>
欧 洲</w>
层 </w>
面 临</w>
o </w>
g </w>
全 国</w>
条 款</w>
危 机</w>
发 挥</w>
献 </w>
总 统</w>
群 体</w>
却 </w>
上 述</w>
网 络</w>
t </w>
收 </w>
只 有</w>
该 国</w>
i n
空 </w>
学 校</w>
记 录</w>
释 </w>
核 武器</w>
采 取
俄 罗
保 健</w>
财 政</w>
雷 </w>
完 全</w>
裁 军</w>
预防 </w>
开 发</w>
违 反</w>
侵 犯</w>
经 验</w>
整 个</w>
偿 </w>
重 点</w>
来 自</w>
D </w>
结 论</w>
我 国</w>
伊拉 克</w>
基 金
从 而</w>
底 </w>
联邦 </w>
长 期</w>
传 </w>
欧 洲
起 来</w>
片 </w>
非 法</w>
告 </w>
重 新</w>
担 </w>
加 入</w>
城 市</w>
学 生</w>
明 确</w>
观 察
占 </w>
科 学</w>
员 额</w>
符 合</w>
1 5
一 样</w>
职 </w>
马 </w>
设 备</w>
1 3
你 们</w>
巴 </w>
更 加</w>
国 家
发 达
发达 国家</w>
大 学</w>
助 于</w>
习 </w>
经 常</w>
控 </w>
改 进</w>
网 </w>
星 期
h </w>
伙伴 关系</w>
还 是</w>
房 </w>
成 员国</w>
当 地</w>
准 备</w>
不 断</w>
合 同</w>
土 地</w>
确 认</w>
购 </w>
病 毒</w>
一 起</w>
水 平</w>
不 过</w>
岛 </w>
一 级</w>
张 </w>
同 样</w>
试 </w>
丹 </w>
模 </w>
每 个</w>
谢 </w>
千 年</w>
年 度</w>
无 </w>
急 </w>
就 业</w>
下 列</w>
应 对</w>
神 </w>
所 述</w>
普遍 </w>
内 部</w>
粮 食
感 到</w>
拥 有</w>
人 数</w>
有 助于</w>
基 于</w>
公 民</w>
村 </w>
措 </w>
质 量</w>
还 有</w>
局 势</w>
乏 </w>
旨 在</w>
贡 献</w>
海 </w>
宪 法</w>
法 官</w>
恢 复</w>
保 持</w>
工 具</w>
安 全
罚 </w>
官 员</w>
播 </w>
久 </w>
显 示</w>
未 来</w>
做 出</w>
达 到</w>
钱 </w>
种 族
一 名</w>
文 书</w>
终 </w>
感 </w>
给 予</w>
公共 </w>
要 性</w>
环 境
编 写</w>
裁 </w>
民 主
民 主</w>
倡 议</w>
带 来</w>
扩 散</w>
孩 子</w>
映 </w>
基金 会</w>
爱 </w>
应 用</w>
申 请</w>
女 士</w>
亲 </w>
解 释</w>
％ </w>
专 业</w>
联 </w>
行 动
很 多</w>
副 </w>
现 象</w>
东 </w>
每 </w>
规 模</w>
本 国</w>
刑 事</w>
保 留</w>
死 亡
1 8
e n
指 标</w>
贩 运</w>
穷 </w>
派 </w>
I </w>
进 入</w>
受害 者</w>
国际 法</w>
范 </w>
托 </w>
重 大</w>
落 实</w>
境 内</w>
编 制</w>
缺 乏</w>
首 脑
索 </w>
服 </w>
孩 </w>
坏 </w>
充 </w>
改 变</w>
总 部</w>
资 产</w>
反 映</w>
计 划署</w>
价 值</w>
列 入</w>
册 </w>
回 顾</w>
有 些</w>
管 制</w>
举 办</w>
观 </w>
实 体</w>
下 午</w>
支 付</w>
所 以</w>
输 </w>
调 整</w>
来 说</w>
艾滋 病</w>
西 亚</w>
证 明</w>
宣 传</w>
声 明</w>
日 本</w>
6 3</w>
手 段</w>
组 成</w>
相 互
远 </w>
走 </w>
拘 留</w>
尊 重</w>
传 统</w>
1 4
允 许</w>
库 </w>
看 到</w>
条 例</w>
构 成</w>
部 长</w>
通 知</w>
理 由</w>
会 议
词 </w>
支 </w>
贫 穷</w>
分 配</w>
宗 教</w>
提 到</w>
遇 </w>
友 </w>
民 族</w>
港 </w>
提 议</w>
协 会</w>
民 间</w>
核 </w>
反 对</w>
危 险</w>
大 多数</w>
享 有</w>
大 量</w>
数 量</w>
败 </w>
满 足</w>
伤 </w>
议 会</w>
省 </w>
那 么</w>
达 成</w>
201 4</w>
女 性</w>
后 续</w>
出 口</w>
统 计</w>
油 </w>
今 天</w>
2 .
农 业</w>
规 </w>
宣 布</w>
意 义</w>
万 </w>
成 立</w>
酷 刑</w>
四 </w>
迫 </w>
州 </w>
总 </w>
社 会
超 过</w>
一 点</w>
关键 </w>
药 </w>
困 难</w>
生 物</w>
能 源</w>
访 问</w>
非 正式</w>
199 7</w>
最 大</w>
如 此</w>
美 洲</w>
补 充</w>
委 会</w>
曾 </w>
支 出</w>
似 </w>
1 .
然 后</w>
万 美元</w>
以 上</w>
卫 生</w>
实 行</w>
端 </w>
一 部分</w>
艾滋 病毒</w>
换 </w>
3 5</w>
英 语</w>
升 </w>
只 是</w>
财 务</w>
6 5</w>
行动 计划</w>
签 署</w>
索 赔
历 史
o n
吧 </w>
呢 </w>
细 </w>
授 权</w>
1 7
卡 </w>
若 干</w>
6 1</w>
兴 </w>
有 权</w>
馆 </w>
A d
人 权
采 购</w>
为 此</w>
效 率</w>
党 </w>
登 记</w>
绝 </w>
估 计</w>
十 年</w>
染 </w>
一 定</w>
职 能</w>
卫 生
练 </w>
残疾 人</w>
周 </w>
来 源</w>
运 输</w>
6 7</w>
而 言</w>
权 力</w>
主 任</w>
拟 议</w>
治 疗</w>
通 常</w>
星 </w>
光 </w>
地 点</w>
佳 </w>
森 林</w>
另 外</w>
协 调
感 谢</w>
特 殊
渡 </w>
在 内</w>
领 导</w>
各 方</w>
今 后</w>
避 免</w>
6 2</w>
汗 </w>
售 </w>
4 5</w>
五 </w>
衡 </w>
重 要性</w>
形 </w>
学 习</w>
装 </w>
提 案</w>
如 下</w>
a l
6 4</w>
收 集</w>
改 </w>
修 订</w>
a t
徙 </w>
5 5</w>
模 式</w>
人 民
证 据</w>
5 7</w>
属 于</w>
贫 困
团 体</w>
答 复</w>
观察 员</w>
更 好</w>
尚 未</w>
欢 </w>
马 里</w>
生 产
加 拿
青 年</w>
机 关</w>
拟 订</w>
阿 富
骤 </w>
促 </w>
米 </w>
每 年</w>
5 8</w>
a m
步 骤</w>
苏 丹</w>
y </w>
增 强</w>
亿 美元</w>
靠 </w>
息 </w>
3 3</w>
价 格</w>
日 内
移 民</w>
籍 </w>
牙 </w>
单 位</w>
送 </w>
损 失</w>
6 6</w>
4 8</w>
三 个</w>
降 </w>
气 候
－ </w>
喜 欢</w>
核 心</w>
印 度</w>
3 2</w>
安 </w>
阿富 汗</w>
径 </w>
课 程</w>
Ad d</w>
担 任</w>
鉴 于</w>
毒 品</w>
成 本</w>
阿拉伯 </w>
嫩 </w>
亚 洲</w>
多 边</w>
财 产</w>
从 事</w>
指 </w>
几 个</w>
赛 </w>
疑 </w>
讨 </w>
乐 </w>
部 署</w>
满 </w>
再 次</w>
太 </w>
罪 行</w>
绩 </w>
5 9</w>
气候 变化</w>
外 国</w>
伊 斯
N </w>
移 徙</w>
贴 </w>
加 以</w>
自 愿</w>
创 造</w>
黎 巴
常 驻</w>
f </w>
高 级</w>
F </w>
告 诉</w>
传 播</w>
专 门</w>
交 流</w>
里 亚</w>
199 6</w>
不 要</w>
通 信</w>
农 村</w>
比 例</w>
加拿 大</w>
宪 章</w>
出 版
3 4</w>
以 前</w>
工 业</w>
真 </w>
寻 求</w>
一 位</w>
3 6</w>
比 较</w>
战 争</w>
1 00</w>
第五 </w>
黎巴 嫩</w>
轻 </w>
诉 讼
行 政
体 制</w>
事 务
特殊 </w>
5 1</w>
干 事</w>
弱 </w>
越 来
第二 十
编 </w>
预 </w>
3 7</w>
套 </w>
共 同
涉 </w>
媒 体</w>
纲 领</w>
敦 促</w>
至 少</w>
贸 易
其 它</w>
5 2</w>
系 列</w>
勤 </w>
金融 </w>
引 起</w>
数 据
赔 偿</w>
新闻 </w>
第二 </w>
典 </w>
5 3</w>
密 </w>
相 </w>
她 们</w>
法 国</w>
十 分</w>
觉 </w>
今 </w>
a s
基础 设施</w>
找 </w>
a l</w>
债 务</w>
公 众</w>
甚 至</w>
题 为</w>
发 表</w>
买 </w>
7 0</w>
精 神</w>
统 一</w>
商 定</w>
运 作</w>
流 离
流离 失
主 题</w>
最 终</w>
第六 </w>
王 国</w>
迅 速</w>
语 言</w>
趋 势</w>
予 以</w>
移 </w>
射 </w>
越来 越</w>
余 </w>
相 信</w>
观 点</w>
踪 </w>
维 护</w>
救 </w>
公 平</w>
概 念</w>
5 4</w>
首脑 会议</w>
障 碍</w>
依 据</w>
最 佳</w>
公 开</w>
w w
的 话</w>
核 准</w>
纽 约</w>
不 仅</w>
草 </w>
4 9</w>
重 视</w>
初 </w>
才 能</w>
复 杂
两 </w>
欧洲 联盟</w>
任 命</w>
5 6</w>
母 </w>
龄 </w>
此 类</w>
自 然
纪 </w>
电 话</w>
定 义</w>
一 年</w>
召 开</w>
领 导
理 解</w>
显 </w>
反 应</w>
粮食 </w>
r </w>
似 乎</w>
武装 </w>
销 </w>
盖 </w>
赏 </w>
兵 </w>
技 术
声 </w>
多 样
医 疗</w>
化 学
死 </w>
日内 瓦</w>
a n</w>
趣 </w>
预 期</w>
承 担</w>
真 正</w>
首 先</w>
流离失 所</w>
检 察
网 站</w>
群 </w>
性 质</w>
计 算</w>
服 务
良 好</w>
非 洲
商 业</w>
第 一</w>
顾 问</w>
3 9</w>
体 系</w>
年 人</w>
听 </w>
谈 </w>
依 照</w>
历史 </w>
检 查</w>
高级 专员</w>
除 了</w>
3 8</w>
指 控</w>
贸 发</w>
股 </w>
东 西</w>
灾 害</w>
磋 商</w>
举 措</w>
遭 受</w>
朋 友</w>
享 </w>
日 期</w>
数 字</w>
表 现</w>
缺 </w>
背 景</w>
立 即</w>
索赔 </w>
伊 朗
6 8</w>
税 </w>
预 计</w>
合 作
美 </w>
济 </w>
建 筑
愿 意</w>
转 </w>
物 质</w>
职 位</w>
交 易</w>
实 质
工 人</w>
4 4</w>
双 方</w>
这 里</w>
4 7</w>
4 6</w>
与 会
死亡 </w>
返 </w>
训 练</w>
俄罗 斯</w>
居 </w>
平 民</w>
触 </w>
捐 助</w>
4 1</w>
解 决
两 性</w>
不 得</w>
紧 急</w>
辆 </w>
贫困 </w>
邀 请</w>
古 巴</w>
政 治
降 低</w>
律 师</w>
辩 论</w>
管 辖
事 实</w>
实质 性</w>
威 </w>
落 </w>
4 2</w>
含 </w>
开发 署</w>
分 别</w>
199 5</w>
居 民</w>
司 法
住 房</w>
剂 </w>
药 物</w>
职 业</w>
i s
那 个</w>
详 细</w>
开发 计划署</w>
力 量</w>
客 </w>
转 让</w>
捐 款</w>
类 似</w>
很 大</w>
历 </w>
19 7
’ </w>
探 讨</w>
板 </w>
顿 </w>
所 作</w>
事 情</w>
身 份</w>
卫 </w>
几 乎</w>
形 成</w>
家 庭
状 </w>
生 效</w>
上 午</w>
阿 尔
狱 </w>
破 坏</w>
当 前</w>
音 </w>
资 助</w>
姆 </w>
白 </w>
弹 </w>
清 单</w>
发 出</w>
上 诉</w>
疾 病</w>
外 交
4 3</w>
误 </w>
没 </w>
西 班
与会 者</w>
3 .
德 国</w>
指 定</w>
澳 大
下 降</w>
决 策</w>
o u
执 行
货 币
6 9</w>
找 到</w>
主 管</w>
行 使</w>
园 </w>
清 </w>
私 营
专 家
占 领</w>
引 </w>
全 球
8 0</w>
及 时</w>
火 </w>
特 定</w>
明 显</w>
公 正</w>
考 </w>
讲 习
不 可</w>
最 高</w>
加 勒
异 </w>
容 易</w>
高级 别</w>
途 </w>
发 言
飞 机</w>
损 害</w>
全 部</w>
海 洋</w>
那 样</w>
烈 </w>
出 席</w>
香 港</w>
一般 性</w>
这 次</w>
世 纪</w>
随 着</w>
捕 </w>
刻 </w>
采取 行动</w>
忍 </w>
女 孩</w>
诉讼 </w>
杀 </w>
减 </w>
201 5</w>
待 遇</w>
人 士</w>
工 程
起 诉</w>
少 数</w>
旦 </w>
往 往</w>
读 </w>
意 味
R </w>
石 </w>
本 身</w>
主 义
电 子</w>
之 外</w>
专 题</w>
至 关
会议 室</w>
时 期</w>
一 系列</w>
力 于</w>
竞 争</w>
致 力于</w>
足 够</w>
名 单</w>
讲习 班</w>
提 </w>
虐 待</w>
er </w>
讯 </w>
审 判</w>
至关 重要</w>
刑 事
婚 </w>
接 触</w>
赞 赏</w>
联合 王国</w>
财 务
难 民
沃 </w>
京 </w>
楼 </w>
墨 西
福 利</w>
修 改</w>
适 应</w>
视 为</w>
花 </w>
出 来</w>
专家 组</w>
索 马里</w>
有 限</w>
专 门
座 </w>
罗 </w>
山 </w>
复杂 </w>
各 级</w>
私营 部门</w>
拒 绝</w>
扬 </w>
电 </w>
小 时</w>
处 于</w>
秘书 </w>
获 </w>
吃 </w>
澳大 利亚</w>
职 责</w>
不 足</w>
押 </w>
经 过</w>
中 央
迪 </w>
合 理</w>
生 命</w>
平 衡</w>
此 种</w>
截 至</w>
以 后</w>
相互 </w>
太 平
任 择</w>
地 雷</w>
英 国</w>
4 .
那 里</w>
筹 备</w>
基 本
最 新</w>
陆 </w>
基 </w>
! </w>
领导 人</w>
码 </w>
数 目</w>
意味 着</w>
毁 </w>
大 约</w>
国际 公约</w>
卖 </w>
o n</w>
199 4</w>
令 人</w>
工 程</w>
监 狱</w>
劳 动
剧 </w>
离 开</w>
评 论</w>
外 地</w>
志 </w>
迟 </w>
9 0</w>
数 额</w>
消 </w>
六 </w>
固 </w>
科 技
立 场</w>
所 涉</w>
沙 </w>
早 </w>
意 识</w>
侵 害</w>
T </w>
维 亚</w>
筹 资</w>
为 什么</w>
一 下</w>
试 验</w>
卢 旺
i c
原 子
以 外</w>
研 讨
援 </w>
科 学
人权 委员会</w>
不 可
研究 所</w>
研讨 会</w>
俄罗 斯
工作 队</w>
跟 </w>
针 </w>
富 </w>
弃 </w>
分 子</w>
句 </w>
大 规模</w>
征 </w>
不 到</w>
救 济</w>
即 使</w>
聘 </w>
尼 </w>
第 一次</w>
巨 大</w>
7 7</w>
妇 女
卢旺 达</w>
表 决</w>
压 力</w>
民主 共和国</w>
年 龄</w>
大 部分</w>
制 裁</w>
用 户</w>
审 </w>
腐 败</w>
土 耳
楚 </w>
页 </w>
旅 游
停 止</w>
拟 </w>
觉 得</w>
印 度
叫 </w>
块 </w>
e l
少 年</w>
随 后</w>
各 个</w>
第 七
种 族</w>
i t
… </w>
事 实
科 威
所 载</w>
货 物</w>
屿 </w>
人 力
禁 </w>
最 好</w>
夺 </w>
理 论</w>
m </w>
巴 西</w>
增 进</w>
统 计
科 索
电 子
全 体
攸 关</w>
后 果</w>
太平 洋</w>
主 权</w>
墨西 哥</w>
共 </w>
过 渡</w>
巴 基
科索 沃</w>
相 同</w>
特 别
满 意</w>
来 文</w>
也 许</w>
199 0</w>
裔 </w>
苦 </w>
商 品</w>
妇 </w>
多样 性</w>
父 母</w>
日 益</w>
维 </w>
k </w>
欧 盟</w>
供 应</w>
清 楚</w>
各 自</w>
拉 丁
假 </w>
答 </w>
店 </w>
技 能</w>
打 算</w>
食 物</w>
信 托</w>
加勒 比</w>
延 长</w>
治 理</w>
v </w>
保 险</w>
母 亲</w>
状 态</w>
申 诉</w>
第三 </w>
华 </w>
债 </w>
译 </w>
6 .
男 子</w>
自 然</w>
兴 趣</w>
暴 力
结 合</w>
调 查
一 条</w>
武装 冲突</w>
投 票</w>
创 新</w>
刚 果
今 年</w>
令 人
刚 </w>
第五 十
谁 </w>
讲 </w>
遭 到</w>
钟 </w>
委 </w>
各 地</w>
平 均</w>
贷 款</w>
w </w>
' </w>
在 于</w>
思 </w>
巴基 斯坦</w>
助 理</w>
计 算
影 </w>
便 利</w>
C N</w>
尽 </w>
捐 助
修 正</w>
分 发</w>
1 2
资 格</w>
享 受</w>
维 也
官 方</w>
科威 特</w>
俄罗斯 联邦</w>
途 径</w>
评 </w>
而 是</w>
供 资</w>
效 果</w>
利 于</w>
露 </w>
维也 纳</w>
5 00</w>
全体 会议</w>
G </w>
当 然</w>
补 </w>
获 取</w>
未 能</w>
信 任</w>
账 户</w>
类 型</w>
拉丁 美洲</w>
集 中</w>
开 放</w>
岛 屿</w>
实际 上</w>
土耳 其</w>
i l
意 大
检察 官</w>
启 动</w>
下 来</w>
唯 一</w>
提 及</w>
多 年</w>
重 建</w>
主 席
脑 </w>
大 家</w>
预 测</w>
埃 及</w>
攻 击</w>
更 新</w>
法 治</w>
规 范</w>
流 动</w>
不 再</w>
人力 资源</w>
本 文</w>
压 </w>
包 </w>
社 </w>
袭 击</w>
北 </w>
稿 </w>
风 </w>
通 报</w>
安 保</w>
南 非</w>
原 </w>
协调 员</w>
一 天</w>
态 度</w>
距 </w>
昂 </w>
销 售</w>
总 是</w>
7 3</w>
种族 歧视</w>
打 </w>
用 途</w>
刚果 民主共和国</w>
初 步</w>
查 明</w>
20 0</w>
半 </w>
行 业</w>
厂 </w>
事实 上</w>
数据 库</w>
廷 </w>
5 .
方 向</w>
199 3</w>
对 此</w>
憾 </w>
贫 </w>
掉 </w>
他 人</w>
汽 车</w>
提 请</w>
犯 罪
外 部</w>
指 南</w>
船 </w>
高 兴</w>
e s
批 </w>
包 含</w>
利 比
伊斯 兰
方 针</w>
遗 憾</w>
看 法</w>
是 因为</w>
C O
为 止</w>
扰 </w>
海 地</w>
国 籍</w>
判 决</w>
怕 </w>
贵 </w>
起 草</w>
变 得</w>
乱 </w>
or g</w>
医 生</w>
当 时</w>
私 人</w>
候 选
利比 里亚</w>
道 路</w>
和 平
公 布</w>
正 如</w>
残疾 </w>
国 民</w>
废 物</w>
劳 动</w>
劳 工</w>
角 </w>
7 5</w>
广 </w>
核 查</w>
岸 </w>
转 移</w>
不 利</w>
报 道</w>
可 能
表 达</w>
之 下</w>
一 届</w>
既 </w>
灾 </w>
爆 炸
北 京</w>
工 发</w>
主席 团</w>
尼 日
怎 么</w>
制 造</w>
特 点</w>
放 在</w>
返 回</w>
模 型</w>
合 众
供 应
额 外</w>
实 践
污 染</w>
仅 仅</w>
观 察</w>
相 当</w>
透 明
M </w>
谨 </w>
化学 品</w>
利 坚
使 得</w>
意大 利</w>
总 额</w>
期 限</w>
将 会</w>
资 本</w>
加 拉
依 然</w>
订 正</w>
投 入</w>
正 常</w>
双 边</w>
几 内
执行 局</w>
错 </w>
功 能</w>
笔 </w>
每 天</w>
独 </w>
总 体</w>
简 单</w>
悉 </w>
0 .
斯 拉
协 作</w>
达 尔
教 育
心 理</w>
规 划署</w>
一 方面</w>
之 中</w>
勒 </w>
症 </w>
提 供
遣 </w>
美 利坚
展 开</w>
西班 牙</w>
卫 星</w>
修 </w>
候选 人</w>
2 8
密 切
共同 体</w>
塞 </w>
显 然</w>
全 世界</w>
美利坚 合众
克 斯坦</w>
附 属</w>
差 异</w>
议 事
所 有人</w>
旅 行</w>
剥 夺</w>
削 </w>
难民 署</w>
幕 </w>
积 </w>
福 </w>
e s</w>
百 分
酌 情</w>
只 要</w>
海 洋
可能 性</w>
采取 措施</w>
工 资</w>
奇 </w>
址 </w>
哥 伦
最 低</w>
这 么</w>
战 略
哪 些</w>
层 面</w>
子 女</w>
种族 主义</w>
专 </w>
主 流</w>
相 对</w>
r i
语 文</w>
错 误</w>
富 尔</w>
朝 鲜
鱼 </w>
瑞 士</w>
极 </w>
律 </w>
宜 </w>
黎 </w>
透明 度</w>
达尔 富尔</w>
宾 </w>
试 图</w>
强 迫</w>
有 时</w>
摘 要</w>
男 女</w>
若 </w>
裁 决</w>
指 示</w>
中 期</w>
我 要</w>
保 护
分 享</w>
差 </w>
美利坚合众 国</w>
殖 民
议事 规则</w>
报 表</w>
维 和</w>
第三 十
消 费
依 赖
p </w>
医 院</w>
载 有</w>
幅 </w>
组 成
争 取</w>
轮 </w>
故 </w>
学 院</w>
动 物</w>
特 设</w>
常 设</w>
原子 能</w>
组成 部分</w>
生 殖
客 户</w>
更 为</w>
全球 化</w>
二 十
南 斯拉
主 持</w>
国 政府</w>
爱 尔
干 预</w>
现 金</w>
工程 处</w>
中 东</w>
区 域
笑 </w>
冷 </w>
差 距</w>
当 事
阿 根
次 级</w>
相 应</w>
国家 一级</w>
a d
上 升</w>
赞 扬</w>
现 行</w>
停 </w>
c h
叙 利亚</w>
边 界</w>
印度 尼
发 布</w>
群 岛</w>
集 体</w>
女 童</w>
逮 捕</w>
晚 </w>
外 交</w>
竞 争
密 切</w>
有 利于</w>
伊 </w>
醒 </w>
付 款</w>
气 候</w>
父 亲</w>
V </w>
法 令</w>
和 解</w>
伤 害</w>
剥 削</w>
大 使</w>
暴力 行为</w>
堂 </w>
科 特
洁 </w>
进 步</w>
迪 瓦</w>
爱尔 兰</w>
雇 员</w>
正 确</w>
延 </w>
津 贴</w>
科特 迪瓦</w>
补 救</w>
八 </w>
7 2</w>
证 书</w>
u n</w>
以 期</w>
速 度</w>
热 </w>
诉 人</w>
执 法</w>
o l
后 勤</w>
基 地</w>
投 资
效 力</w>
颁 布</w>
成 就</w>
年 代</w>
九 </w>
面 前</w>
决 心</w>
回 答</w>
警 </w>
环 </w>
教 师</w>
多 少</w>
老 </w>
事务 部</w>
欧 </w>
案 文</w>
2 9
妇女 地位</w>
拟 定</w>
只 能</w>
分 类</w>
有 所</w>
婚 姻
测 试</w>
并 非</w>
第二 次</w>
鲁 </w>
民 众</w>
车 辆</w>
进 口</w>
法 案</w>
地 球</w>
贷 </w>
男 性</w>
中央 </w>
担 保</w>
容 忍</w>
建筑 </w>
199 2</w>
自 由
3 0
合 法</w>
团 结</w>
公 务
尽 可能</w>
一 家</w>
世界 银行</w>
非洲 联盟</w>
第四 十
派 遣</w>
失 踪</w>
现 实</w>
身 体</w>
取 消</w>
坚 持</w>
三 届</w>
u n
习 惯
道 德</w>
感 觉</w>
完 整</w>
南 部</w>
啊 </w>
燃 料</w>
任 期</w>
经 历</w>
抗 </w>
上 文</w>
开 支</w>
潜 在</w>
环境 署</w>
199 1</w>
居 住</w>
法 规</w>
伊朗 </w>
减 轻</w>
相 比</w>
确 实</w>
酒 </w>
弹 药</w>
切 实</w>
遇 到</w>
食 品</w>
部 长
握 </w>
共 识</w>
印度尼 西亚</w>
慢 </w>
人 力</w>
特 征</w>
阁 下</w>
军 队</w>
位 置</w>
有 力</w>
第四 </w>
深 </w>
筹 措</w>
货币 </w>
藏 </w>
挪 威</w>
单 独</w>
床 </w>
恩 </w>
利 亚
阻 碍</w>
防 治</w>
根 本</w>
酬 </w>
波 斯
汶 </w>
克 兰</w>
石 油</w>
用 来</w>
首 </w>
严 格</w>
适 </w>
盘 </w>
经 营</w>
平 台</w>
替 代</w>
除 非</w>
业 绩</w>
逐 步</w>
续 性</w>
赋 予</w>
肯 定</w>
购 买</w>
7 4</w>
阿根 廷</w>
体 现</w>
布 隆
王 </w>
担 心</w>
出版 物</w>
合 并</w>
诸 如</w>
高 度</w>
装 置</w>
青 少年</w>
因 而</w>
函 </w>
透 明</w>
预防 犯罪</w>
免 费</w>
证 实</w>
独 立
授 </w>
制 止</w>
u r
阿 </w>
恐 </w>
十 </w>
堡 </w>
军 事
即 将</w>
具 体
塞 拉
实践 </w>
国 人</w>
7 1</w>
申 诉人</w>
递 </w>
得 以</w>
良 </w>
7 .
帝 汶</w>
软 件</w>
争 端</w>
财 政
访 </w>
合作 伙伴</w>
埃 塞
解决 办法</w>
死 刑</w>
哈 </w>
渐 </w>
战 斗
公务 员</w>
必 </w>
处 罚</w>
管辖 </w>
埃塞 俄
类 别</w>
新 西
充 分
家庭 暴力</w>
多 个</w>
现 代</w>
i n</w>
R e
丽 </w>
人道 主义
辑 </w>
根 </w>
短 </w>
东 帝汶</w>
人道主义 法</w>
ww w</w>
参 考</w>
惩 罚</w>
仲 裁</w>
波斯 尼亚</w>
利 昂</w>
荷 兰</w>
储 存</w>
吁 请</w>
场 所</w>
高 专</w>
面 对</w>
调 动</w>
3 00</w>
7 6</w>
比 赛</w>
o m
赞 同</w>
思 想</w>
塞拉 利昂</w>
大 楼</w>
「 </w>
麦 </w>
第 一个</w>
快 速</w>
食 </w>
刑 法</w>
适 合</w>
曼 </w>
」 </w>
年 来</w>
摩 洛
去 年</w>
定 性</w>
辱 </w>
无 论</w>
记 者</w>
咨 </w>
材 </w>
效 益</w>
4 年</w>
乌 克兰</w>
作 出
葡 萄
全 体</w>
不 得
同 一</w>
镇 </w>
议 题</w>
对 象</w>
代 理</w>
推 广</w>
别 人</w>
阐 述</w>
货 </w>
取 决
取决 于</w>
以 往</w>
四 个</w>
倍 </w>
信 仰
紧 急
装 备</w>
分 钟</w>
胞 </w>
一 旦</w>
寻 找</w>
塞 浦
系 统
河 </w>
塞浦 路
释 放</w>
常 常</w>
危 害</w>
命 令</w>
后 来</w>
漠 化</w>
消 费</w>
瑞 典</w>
角 度</w>
排 放</w>
认 可</w>
突 出</w>
阅 </w>
制 作</w>
出版 </w>
公 民
严 </w>
国 防
证 人</w>
驱 逐
哥伦 比亚</w>
谴 责</w>
可 靠</w>
亮 </w>
预 算
跨 国</w>
牌 </w>
年 底</w>
反 恐</w>
埃塞俄 比亚</w>
自 身</w>
促 使</w>
监 管</w>
新西 兰</w>
旨 </w>
南斯拉 夫</w>
科技 </w>
强 烈</w>
成 绩</w>
3 年</w>
更 大</w>
资 源
克 罗
I I</w>
年 度
拿 </w>
演 </w>
推 进</w>
二 届</w>
屋 </w>
教 训</w>
7 8</w>
周 期</w>
款 项</w>
摊 </w>
r e
回 应</w>
融 资</w>
想 要</w>
促 请</w>
闭 </w>
手 册</w>
布隆 迪</w>
附 近</w>
阿尔 及
斯 洛
计 数</w>
概 述</w>
申 请
会 计
R C</w>
运 行</w>
武装 部队</w>
a b
位 于</w>
例 子</w>
妨 碍</w>
值 得</w>
曾 经</w>
混 合</w>
该 项</w>
生 态
几 年</w>
巩 固</w>
涵 盖</w>
普 通</w>
儿 子</w>
持 久</w>
未 经</w>
某 </w>
还 要</w>
修 正
审 理</w>
摩洛 哥</w>
议 员</w>
u </w>
教 科
控 制
永 远</w>
示 范</w>
时 代</w>
览 </w>
专门 机构</w>
加 沙</w>
男 人</w>
尼日 利亚</w>
碳 </w>
荒 漠化</w>
捐助 者</w>
依赖 </w>
族 裔</w>
直 到</w>
连 </w>
体 化</w>
外 层
外层 空间</w>
修正 案</w>
表 示
199 4年</w>
四 届</w>
季 </w>
阿 塞
纸 </w>
拜 疆
可 是</w>
阿塞 拜疆
负 担</w>
自 治</w>
确 立</w>
穿 </w>
失 去</w>
可 行</w>
湾 </w>
星 期</w>
融 入</w>
幸 </w>
塔 </w>
斗 争</w>
放 弃</w>
整 体</w>
一 体化</w>
书 面</w>
旧 </w>
苏 </w>
兹 </w>
菲 律
城 </w>
生殖 </w>
死亡 率</w>
感 染</w>
婚姻 </w>
药 品</w>
职 务</w>
7 9</w>
显 著</w>
滥 用</w>
讨 论
坡 </w>
券 </w>
细 则</w>
意 思</w>
意 愿</w>
估 计数</w>
联合 会</w>
安全 理事会</w>
199 3年</w>
建 设
8 7</w>
声 称</w>
e n</w>
箱 </w>
事 业</w>
共 计</w>
帝 </w>
受 理</w>
产 出</w>
首 次</w>
希 腊
脆 弱</w>
物 品</w>
菲律 宾</w>
庇 护</w>
8 5</w>
谓 </w>
约 翰
恶 化</w>
小 岛屿</w>
C C
难 以</w>
缅 甸
信息 技术</w>
萨 </w>
一 道</w>
分 摊</w>
波 </w>
吸 引</w>
女 人</w>
圭 </w>
个 月</w>
少 数
真 的</w>
受害 人</w>
描 述</w>
松 </w>
与 其</w>
怎 样</w>
乌 干
O </w>
联 网</w>
参 与
注 重</w>
与 此
公共 部门</w>
任 何
总 理</w>
世 </w>
变 成</w>
学 家</w>
小 型</w>
际 </w>
图 书
衡 量</w>
自然 资源</w>
消 息</w>
七 届</w>
利 比亚</w>
协 商
劳动 力</w>
交 换</w>
三 年</w>
讨论 会</w>
画 </w>
期 望</w>
乌干 达</w>
细 胞</w>
政治 权利</w>
管理 局</w>
八 届</w>
实 验</w>
旅游 </w>
拉 圭</w>
遭 </w>
尽 快</w>
澄 清</w>
不得 不</w>
敦 </w>
北 部</w>
具 备</w>
终 止</w>
争 议</w>
过 境</w>
发 起</w>
征 聘</w>
观 念</w>
格 鲁
孕 </w>
激 </w>
设 法</w>
空 缺</w>
期 待</w>
英 文</w>
定 于</w>
伊斯 兰</w>
市 场
五 届</w>
艺 </w>
一 套</w>
情 报</w>
特 性</w>
人民 共和国</w>
准 确</w>
列 出</w>
无 核武器</w>
行 预</w>
痛 苦</w>
阿尔及 利亚</w>
泰 国</w>
实 地</w>
会 计</w>
自 我</w>
倒 </w>
简 要</w>
格鲁 吉
监 禁</w>
役 </w>
就 此</w>
要 素</w>
相 反</w>
部长 级</w>
a c
退 休
加 快</w>
设 想</w>
五 年</w>
灭 </w>
电 影</w>
界 定</w>
人 口
图书 馆</w>
建 造</w>
8 3</w>
C E
有 着</w>
最 高
产 权</w>
A C</w>
妈 </w>
秩 序</w>
清 洁</w>
什 </w>
u s
知 识
恤 金</w>
净 </w>
薪 金</w>
运 用</w>
潜 力</w>
奥 地
卫生 组织</w>
毕 </w>
8 .
承 </w>
检 查
最 初</w>
第 九
舞 </w>
r o
味 </w>
㈠ </w>
中 有</w>
缩 </w>
很 快</w>
重 返</w>
教 授</w>
亦 </w>
本 次</w>
引 渡</w>
信 贷</w>
商 业
任 意</w>
尼 斯</w>
员 工</w>
8 1</w>
雇 主</w>
患 者</w>
年 轻</w>
政 党</w>
正 是</w>
操 作</w>
很 少</w>
工 业
听 取</w>
赞 成</w>
消费 者</w>
被 告</w>
宗 旨</w>
询 问</w>
下 文</w>
格鲁吉 亚</w>
推 迟</w>
㈡ </w>
蒙 特
艺 术</w>
人 居</w>
发言 者</w>
已 有</w>
9 5</w>
动 员</w>
两 种</w>
主 管
肯 尼亚</w>
阿塞拜疆 </w>
版 </w>
信仰 </w>
志 愿
称 为</w>
卷 </w>
亿 </w>
怀 疑</w>
酸 </w>
戏 </w>
应 急</w>
主 动</w>
替 </w>
a y
循 </w>
8 2</w>
登 记
教 学</w>
消 耗
年度 报告</w>
第三 次</w>
彻 底</w>
古 </w>
z </w>
机 场</w>
观察 团</w>
4 00</w>
核 裁军</w>
太 阳
at i
关 心</w>
克 服</w>
前 景</w>
跑 </w>
增 </w>
有 利</w>
老 年人</w>
e t
森 </w>
马 来
照 顾</w>
认 真</w>
静 </w>
好 处</w>
掌 握</w>
驱逐 </w>
黑 塞
阻 止</w>
克罗 地
声 音</w>
拨 款</w>
听 到</w>
自 动</w>
想 法</w>
事 故</w>
割 </w>
东 道
管辖 权</w>
看 来</w>
规 约</w>
W </w>
对 待</w>
供应 商</w>
8 4</w>
破 </w>
劳 </w>
电 视</w>
讲 话</w>
马 拉</w>
8 6</w>
前 往</w>
生 育</w>
豁 免</w>
教科 文
特 里亚</w>
气 体</w>
飞 行</w>
教科文 组织</w>
塞浦路 斯</w>
低 于</w>
刚 果</w>
有 所
伙 </w>
习惯 </w>
私 </w>
高 等
妻 子</w>
液 </w>
设 置</w>
西 非</w>
日 起</w>
奥地 利</w>
a h</w>
6 00</w>
文 章</w>
角 色</w>
限 于</w>
减 贫</w>
谅 解</w>
徒 </w>
男 孩</w>
厄 立
黑塞 哥
厄立 特里亚</w>
口 头</w>
重 复</w>
黑塞哥 维
指 数</w>
一 致
矿 </w>
投资 者</w>
黑塞哥维 那</w>
警 察
看 见</w>
尼 亚
U N
共 有</w>
马来 西亚</w>
家 人</w>
希腊 </w>
并 未</w>
百分 比</w>
9 8</w>
咨 询
伊斯兰 共和国</w>
联 络</w>
树 </w>
使 用
应 付</w>
塞 尔
受 益</w>
有 效
脱 </w>
登 </w>
8 8</w>
持 续性</w>
隆 </w>
生 物
外 勤</w>
民 国</w>
负 责
h t
销 毁</w>
国 内
9 6</w>
巴勒 斯坦
通 讯</w>
智 利</w>
就 业
护 理</w>
提 名</w>
罗 马</w>
合 法
公民 权利</w>
退 </w>
检 测</w>
誉 </w>
叙 利亚
互 动</w>
财务 报表</w>
创 建</w>
枪 </w>
多 种</w>
陷 </w>
惯 例</w>
餐 </w>
0 0
计算 机</w>
玻 利
委员 </w>
案 例</w>
至 于</w>
i r
与此 同时</w>
经 委会</w>
时 间
用 品</w>
所 谓</w>
丈 夫</w>
出 于</w>
海 关</w>
安 装</w>
丰 富</w>
两 次</w>
9 .
足 以</w>
一 半</w>
东道 国</w>
9 2</w>
C h
优 势</w>
一 场</w>
许 可</w>
排 除</w>
哈 拉</w>
将 来</w>
欧 元</w>
遣 队</w>
总 数</w>
电 脑</w>
缅甸 </w>
损 </w>
交 通</w>
翻 译</w>
介 </w>
两 项</w>
正 规</w>
注 册</w>
几内 亚</w>
许 可
敏 感</w>
人 道</w>
补 偿</w>
9 1</w>
提 醒</w>
年 轻
初 级</w>
本 届</w>
逐 渐</w>
建设 性</w>
9 7</w>
课 </w>
深 入</w>
监 察
节 目</w>
少数 民族</w>
完 善</w>
备 忘
柬 埔
9 3</w>
柬埔 寨
塞 尔</w>
随 </w>
美 国
作 业</w>
主 张</w>
取 代</w>
安 哥
月 份</w>
事 先</w>
9 9</w>
医 疗
首脑 </w>
备忘 录</w>
或 许</w>
植 物</w>
下 去</w>
巴 布
肉 </w>
加 上</w>
o s
男 女
回 到</w>
奥 </w>
出 生</w>
俗 </w>
荣 </w>
t h
紧 张</w>
拨 </w>
失 败</w>
成 年人</w>
缓 </w>
告 知</w>
削 减</w>
裁 军
眼 </w>
不 够</w>
曲 </w>
淫 </w>
或 是</w>
N F</w>
裁军 谈判</w>
阿拉伯 叙利亚
提供 援助</w>
阿拉伯叙利亚 共和国</w>
备 选</w>
故 事</w>
克罗地 亚</w>
负 </w>
培 训
瓜 </w>
发 放</w>
邮 件</w>
伍 </w>
我 会</w>
尊 严</w>
决 策
贯 </w>
锁 </w>
A l
e l</w>
许可 证</w>
性 能</w>
当 选</w>
劳 工
私 营</w>
大 韩
七 </w>
大韩 民国</w>
早 期</w>
耶 路
耶路 撒
培 养</w>
粮 农
收 益</w>
外 国人</w>
导 言</w>
爆炸 </w>
毛 里
印 发</w>
补 贴</w>
9 4</w>
比 利
加 速</w>
温 </w>
8 9</w>
丹 麦</w>
裂 </w>
惠 </w>
一 只</w>
烟 </w>
方 便</w>
会 上</w>
遵 循</w>
伊朗 伊斯兰共和国</w>
上 帝</w>
a h
孟 加拉
士 兵</w>
ar </w>
大 型</w>
近 东</w>
u l
植 </w>
痛 </w>
名 义</w>
巴 黎</w>
否 则</w>
撒 哈拉</w>
分 布</w>
耶路撒 冷</w>
陈 述</w>
金融 机构</w>
营 养</w>
粮农 组织</w>
限 度</w>
缺 少</w>
伦 </w>
两 名</w>
i m
每 月</w>
这 位</w>
工 会</w>
动 力</w>
世界 各地</w>
失 业</w>
不 论</w>
名 字</w>
所 列</w>
柱 </w>
囚 犯</w>
渔 业</w>
情 形</w>
有 用</w>
化 学</w>
提 高
测 量</w>
援 助
人 格</w>
短 期</w>
生态 系统</w>
考 试</w>
尼 泊
共 体</w>
安哥 拉</w>
人 人</w>
保 存</w>
五 个</w>
结 婚</w>
制 性</w>
约 束
约 旦</w>
卖 淫</w>
孟加拉 国</w>
保 险
音 乐</w>
信息 系统</w>
发 射</w>
忙 </w>
加 剧</w>
不 应</w>
无 论
关 联</w>
礼 </w>
正 义</w>
新闻 部</w>
睛 </w>
波 兰</w>
白 俄罗斯</w>
周 年</w>
第四 次</w>
危 地
密切 合作</w>
职 业
衣 服</w>
某 种</w>
看 看</w>
名 额</w>
概 算</w>
一 件</w>
农 民</w>
最高 法院</w>
价 值
病 人</w>
吨 </w>
暂 停</w>
. .
研 </w>
比 如</w>
墙 </w>
边 缘
年轻 人</w>
强 奸
载 于</w>
独 特</w>
大 陆</w>
震 </w>
弟 </w>
审 计
驻 地</w>
特 遣队</w>
内 罗
链 </w>
末 </w>
芬 兰</w>
於 </w>
伦 敦</w>
频 </w>
经济 体</w>
内罗 毕</w>
获 悉</w>
汇 编</w>
公 里</w>
金 属</w>
移 交</w>
航 </w>
来 看</w>
安 置</w>
目 录</w>
e d</w>
紧 </w>
背 </w>
X </w>
警 方</w>
a k
胎 </w>
交 通
民 族
绝 对</w>
为 期</w>
眼 睛</w>
这 份</w>
麻 醉
理 想</w>
一 方</w>
联 络
突 尼斯</w>
十 一届</w>
问 责
恐怖 </w>
宁 </w>
自然 灾害</w>
血 </w>
各 类</w>
饭 </w>
缔 结</w>
随 时</w>
现 代
8 00</w>
秘 鲁</w>
雇 用</w>
出 售</w>
经 验
有 害</w>
信 心</w>
康 复</w>
汞 </w>
S h
微 </w>
基 准</w>
毁 灭
充 足</w>
亚 美
转 变</w>
工作 者</w>
Re v</w>
废 除</w>
以 此</w>
互 联网</w>
交 付</w>
毁灭 性</w>
必 要
H </w>
名 称</w>
里 兰
于 是</w>
电 视
明 白</w>
文 本</w>
据 称</w>
感 兴趣</w>
奖 </w>
改 为</w>
六 届</w>
主 办</w>
得 出</w>
房 间</w>
组 合</w>
这 类</w>
始 终</w>
约束 力</w>
不 管</w>
连 接</w>
危地 马拉</w>
会计 准则</w>
祝 </w>
5 年</w>
1 1
婴 儿</w>
导 弹</w>
配 置</w>
生 存</w>
检 </w>
格 式</w>
着 手</w>
妈 妈</w>
策 略</w>
不 久</w>
经 理</w>
职 等</w>
体 育</w>
强 化</w>
重 于</w>
可 持续性</w>
推 行</w>
完 </w>
房 子</w>
第二 个</w>
工 艺</w>
瓜 多
厄 瓜多
旋 </w>
帮 </w>
耶 和
下 面</w>
斥 </w>
身 上</w>
雨 </w>
比利 时</w>
柬埔寨 </w>
航 空</w>
比 率</w>
国 民
纪 念</w>
耶和 华</w>
时间 表</w>
融 合</w>
问责 制</w>
认 定</w>
菌 </w>
变 革</w>
附 加</w>
亡 </w>
快 乐</w>
发 达</w>
菜 </w>
多 次</w>
a g
全 面
I n
非 常
渠 道</w>
专门 知识</w>
坚 定</w>
邻 国</w>
国际 法庭</w>
总 结</w>
有 限
晚 上</w>
任何 人</w>
小 学</w>
谷 </w>
志愿 人员</w>
调 解</w>
形 势</w>
近 年来</w>
归 </w>
过 渡
内 瑞
委 内瑞
国际 贸易</w>
产 业</w>
复 员</w>
广 告</w>
活 性</w>
扩 展</w>
动 态</w>
涨 </w>
斯 里兰
设 在</w>
迹 </w>
裁 定</w>
四 条</w>
处 境</w>
汇 率</w>
另 一方面</w>
签 名</w>
的 确</w>
加 工</w>
e m
精 神
表 格</w>
等 待</w>
缺 陷</w>
极 为</w>
分 庭</w>
后 者</w>
新 加
歌 </w>
连 续</w>
关 闭</w>
星期 一</w>
资源 管理</w>
协 同</w>
夜 </w>
杯 </w>
投 诉</w>
饿 </w>
何 种</w>
本 人</w>
星期 五</w>
支 援</w>
负责 人</w>
成 效</w>
核 定</w>
斯里兰 卡</w>
先 前</w>
突 然</w>
内 陆</w>
亚 太
积极 参与</w>
科学 家</w>
尼泊 尔</w>
国 外</w>
提 升</w>
接 近</w>
间 接</w>
绿 色</w>
灵 活</w>
分 之一</w>
尚 </w>
塞尔 维亚</w>
参 数</w>
现 状</w>
余 额</w>
e c
立 法
游 戏</w>
i d
疫 </w>
表 面</w>
国 务
极 大</w>
公 路</w>
空 气</w>
距 离</w>
承 包
贸易 法</w>
产 妇</w>
辞 </w>
贺 </w>
特别 是</w>
谈 会</w>
海洋 法</w>
毫 无
街 </w>
性 暴力</w>
效 应</w>
不 人道</w>
润 </w>
丝 </w>
协商 一致</w>
个 人
强奸 </w>
依 靠</w>
皮 </w>
符 </w>
反 腐败</w>
共 享</w>
7 00</w>
胀 </w>
穷 人</w>
首 席</w>
职 人员</w>
i a</w>
舍 </w>
纲 要</w>
1 6
木 </w>
受 伤</w>
厄瓜多 尔</w>
诚 </w>
配 合</w>
委内瑞 拉</w>
有 罪</w>
地 带</w>
移 动</w>
老 师</w>
地 理</w>
凡 </w>
上 空</w>
探 索</w>
兼 </w>
基 督
退休 </w>
排 雷</w>
企 图</w>
怎 么
首 长</w>
S R</w>
退 化</w>
绕 </w>
宗 </w>
动 机</w>
灵 </w>
卡 塔
区 别</w>
拖 延</w>
删 除</w>
内 部
其 他人</w>
单 方面</w>
重 大
恨 </w>
币 </w>
决 权</w>
如 今</w>
右 </w>
召 集</w>
董 事会</w>
面 积</w>
募 </w>
坚 决</w>
武 力</w>
管理 人员</w>
幅 度</w>
缓 解</w>
汇 报</w>
学 会</w>
极 端</w>
看 起来</w>
各 位</w>
鼠 </w>
绪 </w>
一 国</w>
法 定</w>
跟 踪</w>
南 南
房 屋</w>
狗 </w>
定 居
可 用</w>
南南 合作</w>
转 型</w>
负 债</w>
有 机</w>
周 围</w>
信 号</w>
有 益</w>
遣 返</w>
守 则</w>
a s</w>
氧 </w>
推 出</w>
严 重
个 别</w>
地 震</w>
当 中</w>
单 一</w>
罗 马
回 来</w>
农 业
偿 还</w>
做 到</w>
实 验
循 环</w>
援助 团</w>
持 有</w>
当事 人</w>
四 年</w>
汇 </w>
转 递</w>
土 著
合 适</w>
文 明</w>
持 久
合 物</w>
行政 当局</w>
诸 </w>
审 评</w>
那 种</w>
以 为</w>
法 语</w>
国 别</w>
袋 </w>
国际 法院</w>
5 0
繁 荣</w>
此 项</w>
膜 </w>
知识 产权</w>
容 性</w>
开 幕</w>
大 大</w>
绩 效</w>
不 良</w>
说 法</w>
必 要性</w>
海 外</w>
忽 视</w>
刊 </w>
骚 扰</w>
固 定</w>
C or
中 国
充 满</w>
中 非
克 共和国</w>
哈 萨
旱 </w>
加 尔</w>
摊 款</w>
金 额</w>
薪 </w>
坐 </w>
保 持
总 值</w>
新加 坡</w>
级 别</w>
西班 牙
篇 </w>
发言 人</w>
衣 </w>
沙 特
事 态</w>
M ar
祝 贺</w>
越 南</w>
不 想</w>
残 忍</w>
累 </w>
过 来</w>
遗 产</w>
高 于</w>
荷 </w>
封 </w>
领 空</w>
专 业
愿 望</w>
季 度</w>
秘 密</w>
之 内</w>
黑 </w>
增 长
A b
法 行为</w>
签 订</w>
简 化</w>
罪 犯</w>
亚美 尼亚</w>
丧 失</w>
照 片</w>
处 置</w>
分 列</w>
被 迫</w>
洗 钱</w>
诊 断</w>
社会 保障</w>
1 20</w>
迄 今</w>
2 12</w>
这 场</w>
处 决</w>
妨 </w>
强 大</w>
订 立</w>
重 新
边 境</w>
例 外</w>
南 亚</w>
自 从</w>
法 典</w>
航 空
幸 福</w>
葡萄 牙</w>
应 有</w>
a v
x </w>
制 造
结 果
世 贸
第一 届</w>
大 不
上 面</w>
沟 通</w>
忧 </w>
实 质</w>
怀 孕</w>
京 都</w>
某 个</w>
轻 武器</w>
竞争 力</w>
能 否</w>
来 到</w>
前 提</w>
失 业
披 露</w>
普 通
假 设</w>
西 方</w>
殖民 化</w>
慎 </w>
空 中</w>
标 志</w>
元 首</w>
机 械
批 评</w>
作 品</w>
龙 </w>
网 上</w>
不 妨</w>
筹 备
娜 </w>
结 构
附 </w>
时 限</w>
塞 内
财 富</w>
很 难</w>
哪 </w>
终 了</w>
坦 桑
怪 </w>
外交 部长</w>
反 对
袖 </w>
各 项
顶 </w>
塞内 加尔</w>
忆 </w>
t i
出 去</w>
虫 </w>
巴勒斯坦 人</w>
6 年</w>
视 察</w>
红 十
手 术</w>
池 </w>
现 场</w>
巧 </w>
入 侵
拉 斯</w>
枚 </w>
维 修</w>
着 重</w>
所 属</w>
斯 达
任 职</w>
质 疑</w>
4 0
变 动</w>
流 程</w>
工 厂</w>
北 爱尔兰</w>
偶 </w>
颠 </w>
赫 </w>
所 在</w>
烧 </w>
问 责</w>
e d
人 群</w>
加 纳</w>
刺 激</w>
分 散</w>
坪 </w>
熟 </w>
照 料</w>
预算 外</w>
开 会</w>
多 地</w>
探 </w>
算 法</w>
199 5年</w>
夫 人</w>
仇 外</w>
文 化
恶 </w>
列 颠</w>
其 余</w>
指 挥
巡 逻
识 别</w>
众 多</w>
中非 共和国</w>
暂 时</w>
多样 化</w>
旅 费</w>
坐 在</w>
阅 读</w>
查 阅</w>
统计 数据</w>
地 域</w>
协调 一致</w>
警 告</w>
强 调
各 个
十 五届</w>
镜 </w>
其 实</w>
监察 员</w>
朗 </w>
星期 四</w>
污 染
强调 指出</w>
世贸 组织</w>
过 度</w>
贩 卖</w>
联合国 开发计划署</w>
女 儿</w>
到 达</w>
索赔 人</w>
用 水</w>
时 刻</w>
大 会
继 承</w>
防 </w>
常 会</w>
军 备</w>
生 命
档 案</w>
犯 下</w>
地 址</w>
说 话</w>
哥 斯达
应 用
计 划
乌 拉圭</w>
哥斯达 黎
营 养
哥斯达黎 加</w>
疾 </w>
脚 </w>
物 资</w>
规 章</w>
东 部</w>
非 殖民化</w>
杀 害</w>
罗马 尼亚</w>
萨 尔
入侵 </w>
倾 向</w>
现代 化</w>
o v
解 放
沙特 阿拉伯</w>
明 天</w>
解决 方案</w>
法律 援助</w>
相 当
特派 </w>
响 应</w>
游 </w>
消耗 </w>
$ </w>
升 级</w>
展 示</w>
乍 得</w>
城 市
印 </w>
有 辱</w>
外交 部</w>
期 内</w>
领 取</w>
阐 明</w>
民 事</w>
留 下</w>
促 成</w>
每 次</w>
选 出</w>
还 应</w>
1 50</w>
简 报</w>
库 存</w>
一 张</w>
洗 </w>
星期 二</w>
尝 试</w>
田 </w>
引 发</w>
领 袖</w>
匈 牙
u m
有效 性</w>
壤 </w>
男女 平等</w>
包 容性</w>
联 刚</w>
不 幸</w>
谈 到</w>
9 00</w>
D P</w>
就业 机会</w>
根 源</w>
中 间</w>
灾 难</w>
第二 届</w>
解 除
会 谈</w>
信 通</w>
轨 道</w>
区 分</w>
宝 贵</w>
职 权
韦 </w>
行 事</w>
姐 </w>
职权 范围</w>
A l</w>
干 旱</w>
作 物</w>
广 播</w>
胜 </w>
参 照</w>
定 罪</w>
经验 教训</w>
竟 </w>
这 儿</w>
敢 </w>
盾 </w>
净 额</w>
含 有</w>
彩 </w>
粮食 安全</w>
总 干事</w>
纪 律</w>
民主 主义
惊 </w>
指 导
特 网</w>
铁 </w>
朝鲜 民主主义
温 室</w>
星期 三</w>
饥 饿</w>
> </w>
迄 今
商 务</w>
穆 斯
朝鲜 </w>
作 者</w>
综 合
安全 部队</w>
常 规
破 产</w>
约翰 </w>
C R
上 海</w>
灯 </w>
国际 标准</w>
物 体</w>
不 结
a d</w>
an d
有限 公司</w>
大 幅</w>
就 要</w>
记 得</w>
查 询</w>
博 士</w>
摩 </w>
兄 弟</w>
标 准
c l
马 尔
清 除</w>
帐 户</w>
彼 此</w>
生 态</w>
战斗 </w>
进 度</w>
制 品</w>
标 题</w>
储 </w>
南 方</w>
萨尔 瓦
专 题
铭 记</w>
合 格</w>
疑 问</w>
10 5</w>
税 收</w>
10 9</w>
氧 化
朝 </w>
侵 略</w>
咖 啡
追 求</w>
解除 武装</w>
区域 合作</w>
现 已</w>
饰 </w>
亚太 经
列 为</w>
本 地</w>
思 考</w>
至 今</w>
杀 伤</w>
等 等</w>
宫 </w>
因 特网</w>
好 像</w>
没 收</w>
担 忧</w>
转 交</w>
长 期
阵 </w>
交 给</w>
首 要</w>
该 法</w>
份 额</w>
歧 </w>
萨尔瓦 多</w>
利 率</w>
尼 加拉
有 点</w>
对 付</w>
奥 巴
排 放
差 别</w>
对 策</w>
斯洛 伐
尼加拉 瓜</w>
在 线</w>
@ </w>
草 坪</w>
细 节</w>
从 未</w>
E P</w>
县 </w>
真 实</w>
I S
必 需</w>
智 </w>
农 村
穆斯 林</w>
利 润</w>
采 </w>
海 上</w>
常规 武器</w>
发展 权</w>
备 金</w>
别 的</w>
辩 </w>
内部 监督</w>
由 此</w>
永 久</w>
这 件</w>
详 细
乌 兹
玻利 维亚</w>
几内 亚
习 俗</w>
最 为</w>
所 说</w>
实验 室</w>
继 续
马 拉
种 种</w>
庆 祝</w>
乌兹 别
朝鲜民主主义 人民共和国</w>
定 为</w>
传 染
哈萨 克斯坦</w>
匈牙 利</w>
大不 列颠</w>
纠 正</w>
生 活
签 </w>
里 面</w>
加 大</w>
实 例</w>
中 华
一致 性</w>
第 八
左 右</w>
一 段</w>
回 收</w>
暴 </w>
编 辑</w>
多 哈</w>
不 起</w>
默 </w>
阿尔 巴
之 二</w>
上 去</w>
o h
中 学</w>
同 事</w>
199 6年</w>
日 子</w>
所 有权</w>
天 气</w>
喀 麦
核 可</w>
烦 </w>
选 民</w>
卢 </w>
疟 疾</w>
分 歧</w>
政 权</w>
家 里</w>
流 行</w>
图 像</w>
打 开</w>
12 月</w>
创 造
制 约</w>
紧急 情况</w>
公 报</w>
丁 </w>
解 除</w>
an d</w>
奥巴 马</w>
究 </w>
用 以</w>
儿 童
盗 </w>
s t
检 验</w>
in g</w>
交 易
盲 </w>
活 力</w>
封 锁</w>
提高 认识</w>
情 绪</w>
心 理
辅 助</w>
全 权</w>
○ </w>
相当 于</w>
发 生
革 命</w>
客 观</w>
国 会</w>
企 业
爆 发</w>
支 柱</w>
代表 性</w>
乡 </w>
真 是</w>
编 列</w>
也 门</w>
C P</w>
j </w>
档 </w>
脆 弱
赢 得</w>
不 安</w>
监 察</w>
是 从</w>
圆 桌
汉 </w>
新 型</w>
占 领
违 背</w>
S t
离 职</w>
生产 总值</w>
咨询 服务</w>
招 募</w>
论 性</w>
癌 </w>
刷 </w>
强 有力</w>
198 9</w>
A n
第二 条</w>
超 出</w>
独立 性</w>
喀麦 隆</w>
or </w>
接 收</w>
叶 </w>
时 至</w>
苗 </w>
水 资源</w>
团 队</w>
判 例</w>
公 认</w>
覆 盖</w>
荡 </w>
第六 十
明 确
脏 </w>
隔 离</w>
排放 量</w>
吓 </w>
脆弱 性</w>
提 起</w>
㈢ </w>
排 斥</w>
当事 方</w>
é </w>
K </w>
均 衡</w>
发 给</w>
捐助 国</w>
炎 </w>
对 外</w>
倡 导</w>
观 测</w>
+ </w>
捷 克共和国</w>
种 植</w>
as s
学 科</w>
o c
关 押</w>
形 象</w>
负 有</w>
侧 重于</w>
约 束</w>
席 位</w>
基 因</w>
地 面</w>
牙 买
登记 册</w>
埃 </w>
判 断</w>
雇 佣
代 价</w>
9 63</w>
蒂 </w>
毛里 求
温 度</w>
英 </w>
d e</w>
优 化</w>
条 文</w>
必要 措施</w>
零 </w>
港 口</w>
鼓 舞</w>
宏 观
顺 利</w>
十 三届</w>
高 效</w>
认 证</w>
a t</w>
D A
用 作</w>
亚太经 社会</w>
结 论性</w>
每 日</w>
每 周</w>
跃 </w>
强 制</w>
is t
庄 </w>
价值 观</w>
临 床</w>
见 到</w>
所 得</w>
伟 大</w>
百 </w>
普 </w>
化学 武器</w>
设 定</w>
恰 当</w>
原 来</w>
宗 教
咨 商</w>
发 行</w>
聚 </w>
美 丽</w>
营 地</w>
禁 运</w>
钻 石</w>
和 谐
麻 </w>
普 查</w>
自 决</w>
华 盛
晤 </w>
体 育
尽 量</w>
毛里求 斯</w>
撤 销</w>
家 属</w>
裁 谈会</w>
溴 </w>
一 贯</w>
培训 班</w>
同 等</w>
惧 </w>
迹 象</w>
1 日</w>
回 家</w>
糖 </w>
恐怖 分子</w>
地 图</w>
管理 系统</w>
会 晤</w>
平 均
国内 法</w>
飞 </w>
绑 架</w>
保 安</w>
上 涨</w>
段 时间</w>
入 境</w>
会 费</w>
比 绍</w>
欠 </w>
年 初</w>
再 生
X X
奥 运
决策 者</w>
债 权
放 射
长 时间</w>
软 </w>
网 页</w>
金融 危机</w>
选 定</w>
答 案</w>
摆 脱</w>
成 长</w>
吸 收</w>
卡塔 尔</w>
塔 吉
日 常</w>
论 文</w>
扎 </w>
改 造</w>
恋 </w>
污染 物</w>
先 进</w>
一 词</w>
尽 早</w>
糕 </w>
o f</w>
薪 酬</w>
配 偶</w>
九 届</w>
患 </w>
圣 </w>
接 着</w>
0 1</w>
视 性</w>
为 何</w>
那 时</w>
直 至</w>
想 到</w>
吉 尔
理 事</w>
灵 活性</w>
迫 切
牙买 加</w>
相 关
发 了</w>
包 容</w>
受 益
单 元</w>
避 </w>
分 离</w>
198 8</w>
e v
做 好</w>
一 所</w>
雇 </w>
船 舶
迄今 为止</w>
歧 视性</w>
被 占
被占 领土</w>
努 力
强 制性</w>
意 图</w>
友 好</w>
高等 教育</w>
韩 国</w>
毛 </w>
i g
申请 人</w>
爸 </w>
沿 海</w>
百 万</w>
削 弱</w>
劳工 组织</w>
灭 绝</w>
填 补</w>
保 加
暗 </w>
意 外</w>
全球 性</w>
太阳 </w>
参与 者</w>
辐 射</w>
不 错</w>
陷 入</w>
版 本</w>
言 论
种 类</w>
老 人</w>
诈 </w>
言论 自由</w>
船舶 </w>
增长 率</w>
学 术</w>
敬 </w>
复 原</w>
谢 谢</w>
未 成年人</w>
a f
电 台</w>
指 称</w>
论 述</w>
艺 术
终 于</w>
玩 </w>
198 0</w>
E n
貌 </w>
肤 </w>
西 岸</w>
阿尔巴 尼亚</w>
增 多</w>
医 </w>
极 其</w>
开 办</w>
Cor r</w>
真 相</w>
初 次</w>
得 不到</w>
着 重
生 计</w>
那 儿</w>
该 部</w>
下 次</w>
杂 志</w>
脱 离</w>
从 来</w>
怒 </w>
十 届</w>
谋 </w>
较 大</w>
逊 </w>
旅游 业</w>
布 尔</w>
矛 盾</w>
洞 </w>
医 学</w>
几内亚 比绍</w>
通 货
.. .</w>
授 予</w>
a p
产 量</w>
宏观 经济</w>
联合国 大会</w>
分 为</w>
恤 </w>
万 人</w>
含 量</w>
折 </w>
冲 </w>
更 改</w>
试 点</w>
作出 贡献</w>
电子 邮件</w>
跌 </w>
近 期</w>
中 国政府</w>
人 物</w>
赞 比亚</w>
娘 </w>
想 象</w>
香 港
证 券</w>
公 园</w>
给 出</w>
十 二届</w>
= </w>
斯洛伐 克</w>
小 企业</w>
不 必</w>
报 纸</w>
得 成功</w>
再生 能源</w>
人权 宣言</w>
另 有</w>
输 入</w>
计 量</w>
工作 文件</w>
依 </w>
缴 </w>
司 长</w>
清 理</w>
不 当</w>
模 拟</w>
奥运 会</w>
H RC</w>
西 部</w>
哪 里</w>
颜 色</w>
o t
全 国
脸 </w>
am </w>
巴 塞尔</w>
流 行
风 险
要 是</w>
暂 行</w>
后 面</w>
感 到
I D
U </w>
蒙 古</w>
粉 </w>
民 兵</w>
‘ </w>
审 查
平 等
核 实</w>
中 部</w>
色 情</w>
缓 慢</w>
多 米
捐 </w>
增 编</w>
首 都</w>
短 缺</w>
大 小</w>
2 年</w>
土 壤</w>
纳 米
斯洛 文
睡 </w>
犯罪 行为</w>
和平 利用</w>
散 发</w>
难民 营</w>
人权 法</w>
预 定</w>
1 10</w>
农村 妇女</w>
顾 客</w>
免 遭</w>
验 证</w>
人 为</w>
详 情</w>
ht t
非 国家</w>
妙 </w>
消 失</w>
保加 利亚</w>
环境 保护</w>
机 遇</w>
消 灭</w>
根 本
` </w>
合 组织</w>
CC C</w>
合法 性</w>
常 见</w>
本 来</w>
克 斯</w>
责 任
富 有</w>
上 次</w>
技术 转让</w>
国家 元首</w>
茨 </w>
定居 点</w>
童 工</w>
寿 命</w>
复 苏</w>
结果 表明</w>
援 引</w>
利 尔</w>
弄 </w>
应 由</w>
F CCC</w>
多 边
莫 桑
不 罚</w>
多米 尼
储 备</w>
债权 人</w>
莫桑 比
弱 势
其 次</w>
基本 上</w>
对 方</w>
前 面</w>
2 50</w>
面 向</w>
仔 细</w>
鸟 </w>
弱势 群体</w>
草 稿</w>
司法 部</w>
法 索</w>
昨 天</w>
马 上</w>
不 了</w>
基 会</w>
吉尔 吉
拜 </w>
u t
是 不是</w>
奶 </w>
i s</w>
撒 </w>
安全 部门</w>
优 惠</w>
千 </w>
队 伍</w>
替 代
实 物</w>
o b
无论 是</w>
牛 </w>
船 只</w>
第六 条</w>
管理 层</w>
指挥 官</w>
联邦 政府</w>
调查 结果</w>
大 西
通货 膨
议 院</w>
和谐 </w>
g l
届 会</w>
月 底</w>
氟 </w>
家庭 成员</w>
无 害</w>
莱 </w>
青 年人</w>
资 金
o p
激 励</w>
国 王</w>
办 理</w>
免 受</w>
局 面</w>
帐 </w>
堆 </w>
妹 </w>
补 助
养 护</w>
所 示</w>
保 密</w>
蒙特 利尔</w>
添 加</w>
歉 </w>
莫桑比 克</w>
孔 </w>
签 证</w>
联合国 总部</w>
言 论</w>
电 信</w>
健 全</w>
层 次</w>
华盛 顿</w>
不 仅仅</w>
刚 刚</w>
e t</w>
围 绕</w>
常 规</w>
机 器</w>
所 在
此 次</w>
节 省</w>
自由 化</w>
多 么</w>
计划 生育</w>
传 真</w>
经济 委员会</w>
任 用</w>
俱 乐
htt p</w>
对 性</w>
次 数</w>
人 生</w>
暖 </w>
下 述</w>
普 及</w>
亚 太</w>
除 外</w>
驾 驶
尔 多
否 认</w>
骨 </w>
圆桌 会议</w>
麽 </w>
迫 使</w>
苏 丹
隔 </w>
被 捕</w>
审查 会议</w>
o s</w>
成 熟</w>
可 行
剩 余</w>
下 放</w>
免 疫</w>
政府 首脑</w>
俱乐 部</w>
知 情</w>
基金 组织</w>
津 巴布
第三 届</w>
买 卖</w>
6 0
出 口
编 号</w>
会 见</w>
事 宜</w>
有 待</w>
失 望</w>
住 宅
受 害</w>
氛 </w>
滑 </w>
一 支</w>
玻 璃
伴 </w>
署 长</w>
齐 </w>
分 段</w>
报 酬</w>
熟 悉</w>
碎 </w>
气 氛</w>
公 </w>
辩 护</w>
布 基
抗 议</w>
缩 小</w>
迫切 需要</w>
瘤 </w>
维 护
老 板</w>
无 效</w>
生产 力</w>
圣 诞
纳 法索</w>
布 鲁
布基 纳法索</w>
世界 卫生组织</w>
建筑 物</w>
纷 </w>
腿 </w>
邦 </w>
批 款</w>
以色 列
此 事</w>
著 名</w>
文 字</w>
S T</w>
权 能</w>
巡逻 </w>
小 组
起 到</w>
设 有</w>
垃 圾
漂 亮</w>
对 抗</w>
发 动</w>
依 法</w>
什 么
银 行
桥 </w>
津巴布 韦</w>
德 里</w>
劣 </w>
世界 人权宣言</w>
关 税</w>
国务 院</w>
据 说</w>
核 试验</w>
博 </w>
特 权</w>
不结 盟
第十 四条</w>
抱 </w>
承 受</w>
应用 程序</w>
形 态</w>
六 条</w>
补助 金</w>
每 一</w>
恐 惧</w>
失业 率</w>
土著 人</w>
留 在</w>
简 </w>
开 设</w>
交 流
权 益</w>
阿 卜
贝 </w>
冻 结</w>
申 明</w>
疫 苗</w>
脉 </w>
不 少</w>
标准 化</w>
施 加</w>
指 挥</w>
跨 界</w>
无 线
指导 方针</w>
照 会</w>
经 合组织</w>
鉴 </w>
人 才</w>
股 票</w>
同 次</w>
旅 </w>
叠 </w>
圈 </w>
权 限</w>
证 件</w>
联 黎</w>
10 1</w>
台 湾</w>
冲 击</w>
en t
委 托</w>
爆炸 物</w>
CE DA
主管 部门</w>
过 于</w>
斯洛文 尼亚</w>
第三 方</w>
馈 </w>
所 用</w>
特 使</w>
开 列</w>
姓 名</w>
广 大</w>
CEDA W</w>
新 兴</w>
喝 </w>
吉尔吉 斯
邮 </w>
I II</w>
害 怕</w>
侧 </w>
年 前</w>
J </w>
找 出</w>
井 </w>
半 年</w>
振 兴</w>
覆 盖
赠 款</w>
非 正规</w>
家 园</w>
火 箭
准 入</w>
干 涉</w>
执 法
中 非</w>
修 复</w>
& </w>
职 类</w>
波 动</w>
其 后</w>
能 量</w>
直 升
盟 约</w>
巴 拿
最 低
潮 </w>
履 行
信 用
预防 性</w>
几 </w>
10 .
宝 </w>
共同 努力</w>
协 </w>
无 疑</w>
缴 款</w>
九 条</w>
如 同</w>
十 二
序 言</w>
要 点</w>
科技 咨询</w>
总 共</w>
机械 </w>
10 2</w>
UN EP</w>
宽 </w>
刑事 法庭</w>
我 谨</w>
阶 层</w>
毛 额</w>
村 庄</w>
谨 慎</w>
支 配</w>
当 代</w>
技 巧</w>
联合国 环境
联合国环境 规划署</w>
风险 管理</w>
纪 念
忘 记</w>
整 合</w>
糊 </w>
o v</w>
栏 </w>
成 分</w>
家 长</w>
相 似</w>
不 用</w>
今 日</w>
修 建</w>
跨 </w>
残疾 儿童</w>
土 地
联 塞</w>
罗 姆
黑 山</w>
祉 </w>
截 止</w>
能 源
低 收入</w>
必 不可
驳 回</w>
福 祉</w>
奴 隶
不结盟 运动</w>
分 担</w>
竞 赛</w>
欧洲 委员会</w>
运 送</w>
远 远</w>
生 长</w>
分 开</w>
乌兹别 克斯坦</w>
仇 恨</w>
双 </w>
判 处</w>
多 项</w>
一 块</w>
发 挥
谱 </w>
一 架</w>
招 聘</w>
宿 </w>
难 以
殖民 地</w>
本 书</w>
此 后</w>
礼 物</w>
o d
瓦 尔</w>
秀 </w>
六 个</w>
CR P</w>
国际 劳工组织</w>
代 码</w>
引 入</w>
力 求</w>
梦 想</w>
不 受</w>
美 好</w>
页 次</w>
毕 业</w>
高 质量</w>
莉 </w>
耶 稣
着重 指出</w>
仪 式</w>
转 向</w>
行政 部门</w>
199 2年</w>
烷 </w>
弱 势</w>
发挥 作用</w>
划 分</w>
欺 诈</w>
煽 动</w>
收 费</w>
学 率</w>
采 纳</w>
诉 诸</w>
跳 </w>
一 边</w>
统 治</w>
民 警</w>
一 人</w>
发 表
紧 迫</w>
文 职人员</w>
切 实
停 火</w>
应 为</w>
中 等</w>
蛋 </w>
置 于</w>
er n
C A
性 虐待</w>
ati on
跨 国
爱 情</w>
浓 度</w>
适 用
术 语</w>
命 运</w>
带 有</w>
贝 宁</w>
包 装</w>
红 </w>
1 30</w>
正 当</w>
CO NF</w>
必不可 少</w>
看 着</w>
为 重要</w>
il l
认 捐</w>
总 务</w>
呼 吸
本 着</w>
不 愿</w>
爸 爸</w>
账 </w>
物 种</w>
参 加
a w
10 3</w>
a z
支 持
工作 量</w>
开 采</w>
显 得</w>
分 割</w>
晨 </w>
影响 力</w>
响 </w>
购 置</w>
防 范</w>
T h
程 序
较 为</w>
典 型</w>
0 5</w>
元 素</w>
1 11</w>
发 送</w>
陶 宛
雅 </w>
联合国 秘书处</w>
逻 辑</w>
立 陶宛
一 周</w>
提 前</w>
网 络
第十 届</w>
赞 </w>
局 长</w>
胜 利</w>
年 间</w>
卫生 部</w>
野 </w>
海 事</w>
东 耶路撒冷</w>
送 交</w>
梦 </w>
就 是
塞 族</w>
工业 化</w>
计算 机
格 兰</w>
第七 条</w>
地 产</w>
哦 </w>
仪 </w>
经 社
颗 </w>
10 4</w>
胶 </w>
吉 </w>
经济 危机</w>
困 境</w>
互 相</w>
马 耳
前 进</w>
债 券</w>
大 众</w>
治 安</w>
人 均</w>
几 天</w>
继 </w>
核 能</w>
10 6</w>
一 部</w>
职 权</w>
创 </w>
一 句</w>
猫 </w>
案 情</w>
郎 </w>
大西 洋</w>
颁 发</w>
原 理</w>
深 刻</w>
奖 励</w>
通 用</w>
回 返</w>
契 约</w>
人 事</w>
边缘 </w>
阿 布
各 种
裂 变</w>
l e
办公 </w>
a i
一 座</w>
架 构</w>
指 令</w>
寸 </w>
记 忆</w>
I NF</w>
筹备 工作</w>
毫 无</w>
身 份
铁 路</w>
持久 性</w>
化 合物</w>
花 费</w>
联 检</w>
洛 </w>
挂 </w>
三 条</w>
撤 回</w>
仲 裁
马耳 他</w>
学 者</w>
大 幅度</w>
麻醉 药品</w>
延 迟</w>
198 6</w>
目 的
投 </w>
干 扰</w>
奠 定</w>
反 馈</w>
章 程</w>
市 民</w>
副 本</w>
离 婚</w>
西 撒哈拉</w>
本 条</w>
翼 </w>
迷 </w>
蓄 </w>
一 个
网 址</w>
塔吉 克斯坦</w>
畴 </w>
手 机</w>
力 度</w>
罚 款</w>
大 力</w>
基本 权利</w>
主 持
地 理
斗 </w>
筹 </w>
贸易 组织</w>
有 趣</w>
咖啡 </w>
马 其
深 信</w>
完 全
联合 共和国</w>
弃 权</w>
空 间
敌 人</w>
多 名</w>
中 亚</w>
符 合
10 8</w>
警察 部队</w>
阵 线</w>
唱 </w>
赠 </w>
粒 </w>
打 电话</w>
麻 烦</w>
谋 求</w>
呆 </w>
自 主</w>
皮 肤</w>
勘 探</w>
存 款</w>
之 际</w>
走 向</w>
经社 理事会</w>
到 底</w>
内 政
住宅 </w>
范 畴</w>
斯 特</w>
部 委</w>
u b
针 对性</w>
某 一</w>
坦桑 尼亚
七 条</w>
必 然</w>
行 为
危 险
艘 </w>
德 班</w>
坦桑尼亚 联合共和国</w>
部 件</w>
叙 述</w>
付 出</w>
劲 </w>
驱 动</w>
电 力</w>
衰 退</w>
成 人</w>
摩 尔多
商 店</w>
会议 议程</w>
社会 主义</w>
中 小企业</w>
呀 </w>
重 组</w>
手 续</w>
儿童 基金会</w>
增 至</w>
联合国 儿童基金会</w>
骗 </w>
贸 </w>
巴 林</w>
最 多</w>
源 于</w>
补 编</w>
林 业</w>
会 员</w>
杆 </w>
姓 </w>
爱 沙
对 手</w>
平 方
生 成</w>
自 治
忘 </w>
弥 补</w>
_ </w>
广 播
代 替</w>
撤 出</w>
中 美洲</w>
法律 文书</w>
天 然
小 姐</w>
雪 </w>
部 落</w>
结 余</w>
酒 店</w>
菲 </w>
准 备金</w>
缴 纳</w>
怎么 样</w>
地 说</w>
假 如</w>
不 足以</w>
书 面
1 12</w>
出 发</w>
en t</w>
CO P</w>
路 线</w>
追 踪</w>
慧 </w>
炉 </w>
贯 彻
动 性</w>
W G</w>
线 图</w>
10 7</w>
含 义</w>
世界 贸易组织</w>
转 换</w>
之 处</w>
父 </w>
考 察</w>
准 许</w>
代 理
运 营</w>
超 越</w>
严 格
学 位</w>
抵 达</w>
第五 次</w>
禁 毒</w>
外 联</w>
伐 </w>
提 倡
学 术
地 中
兴 奋
退 出</w>
印 刷</w>
借 </w>
自 动
１ </w>
团 伙</w>
迁 </w>
积 累</w>
团 长</w>
行动 者</w>
各个 方面</w>
盐 </w>
系统 地</w>
碑 </w>
推 荐
活 跃</w>
K h
教 学
刀 </w>
小 额</w>
不 好</w>
纳米 比亚</w>
炼 </w>
中华 人民共和国</w>
红十 字
谈 话</w>
is h</w>
土 库
联 利</w>
佛 </w>
既 定</w>
体 面</w>
可 怕</w>
文 学</w>
懂 </w>
欧 安
成 年</w>
渴 望</w>
跨国 公司</w>
偏 见</w>
戴 </w>
口 译</w>
感 受</w>
六 个月</w>
即 便</w>
第二 章</w>
第四 届</w>
营养 不良</w>
注 意
救 助</w>
屠 杀</w>
联 科</w>
将 要</w>
国家 联盟</w>
原 则
爱沙 尼亚</w>
两 者</w>
事务 处</w>
物 理</w>
ri g
厉 </w>
闭 会</w>
事 物</w>
一 段时间</w>
海 岸</w>
达 成
取 得成功</w>
权 威</w>
东 盟</w>
并 于</w>
休 息</w>
配 备</w>
拉 加</w>
妇 发</w>
组 建</w>
在 此
运 动员</w>
使 命</w>
19 67</w>
转 化</w>
提倡 </w>
领 土
抓 住</w>
心 里</w>
出 色</w>
征 求</w>
作出 努力</w>
承包 商</w>
峰 </w>
一 事</w>
─ </w>
诉讼 法</w>
甲 </w>
愉 快</w>
全 民
比 额</w>
我 能</w>
顾 及</w>
怨 </w>
项 目
有所 增加</w>
2. 1</w>
刚 才</w>
路 线图</w>
普遍 性</w>
并 不
妻 </w>
某 人</w>
旁 </w>
签 发</w>
一 百
概 </w>
拉 脱
i k
供 水</w>
二 条</w>
蚀 </w>
目的 地</w>
主 导</w>
环 保</w>
演 讲</w>
人 员
斯 德
租 赁
哥 尔
养 恤</w>
可 否</w>
警 官</w>
访 问
巴拿 马</w>
0 7</w>
S u
致 使</w>
御 </w>
第四 条</w>
负 面
斯德 哥尔
耶稣 </w>
原子 能
迁 移</w>
号 码</w>
这 笔</w>
进 行
总 体
上 学</w>
减 缓</w>
该 司</w>
一 类</w>
采 矿</w>
1 15</w>
厚 </w>
两 级</w>
三 次</w>
演 变</w>
洪 都
理 念</w>
接 纳</w>
鱼 类</w>
手 中</w>
碎 片</w>
之 上</w>
拉脱 维亚</w>
测 定</w>
无 需</w>
一 片</w>
三 分之一</w>
巴 拉圭</w>
1 14</w>
中 文</w>
实 在</w>
经 共体</w>
尾 </w>
会 期</w>
欣 见</w>
0 9</w>
更 多地</w>
肯 </w>
闭 门</w>
确 切</w>
清 晰
纹 </w>
城 镇</w>
犯 有</w>
引 导</w>
第三 条</w>
操 守</w>
打 破</w>
闻 </w>
D e
租 </w>
职 员</w>
次 序</w>
遭 遇</w>
表 演</w>
智 慧</w>
ID B</w>
当 作</w>
洪都 拉斯</w>
紧 密</w>
这 家</w>
0 6</w>
追 究</w>
签 字</w>
消 极</w>
1 13</w>
斯德哥尔 摩</w>
两 国</w>
摧 毁</w>
尊 重
捞 </w>
已 于</w>
看 出</w>
强 度</w>
未 决</w>
13 73</w>
第五 条</w>
记 住</w>
有 意</w>
撞 </w>
臭 氧</w>
扣 </w>
魂 </w>
奏 </w>
双 重</w>
文 职</w>
发 电
1 60</w>
全 力</w>
作 家</w>
堕 胎</w>
完 美</w>
服务 器</w>
边缘 化</w>
赔 偿
双 边
1 40</w>
原 籍</w>
透 过</w>
住 所</w>
利 息</w>
达成 协议</w>
使用 者</w>
徒 刑</w>
业 务
搜 索</w>
几 次</w>
翻 </w>
梯 </w>
激 烈</w>
合作 社</w>
赞 助</w>
头 发</w>
直升 机</w>
尽 管
0 8</w>
土库 曼
订 约</w>
第一 章</w>
土库曼 斯坦</w>
吉 布
国际 原子能
国际原子能 机构</w>
艰 难</w>
品 牌</w>
席 会议</w>
红 色</w>
学 金</w>
挤 </w>
视 频</w>
1. 1</w>
糟 糕</w>
尽 力</w>
负面 影响</w>
牺 牲
军 火</w>
所 指</w>
硬 </w>
地中 海</w>
掘 </w>
一 辆</w>
氯 </w>
美 洲
早 上</w>
理 性</w>
塞 人</w>
尊重 人权</w>
战斗 人员</w>
更 正</w>
罗姆 人</w>
眠 </w>
领土 完整</w>
羊 </w>
壳 </w>
价 格
钩 </w>
1 16</w>
苯 </w>
解 释
品 质</w>
镑 </w>
明 年</w>
中 止</w>
遏 制</w>
到 来</w>
尽管 如此</w>
犹 太
科学 技术</w>
酋 长
侣 </w>
情 报
阁 </w>
中 所载</w>
印 象</w>
G C</w>
酋长 国</w>
更 换</w>
施 工</w>
乡 村</w>
比 亚
立陶宛 </w>
A r
检查 组</w>
斐 济</w>
性 别
斯 加</w>
热 情</w>
关键 作用</w>
大 大
苏丹 政府</w>
便 于</w>
力 支持</w>
十 四届</w>
进 来</w>
统 筹</w>
补 助</w>
竞 选</w>
小 心</w>
名 册</w>
看 上去</w>
推荐 </w>
1 18</w>
基本 建设</w>
频 率</w>
梁 </w>
会 儿</w>
可行 性</w>
税 务</w>
e z</w>
流 入</w>
向 前</w>
构 想</w>
i b
木 材</w>
7 月</w>
该 条</w>
磨 </w>
不 变</w>
鞋 </w>
中 断</w>
绝 大多数</w>
E S</w>
G en
极 端
1 22</w>
0 3</w>
凭 </w>
伤 亡</w>
对 应</w>
租赁 </w>
外 债</w>
教 堂</w>
教 会</w>
一 再</w>
乐 观</w>
性 恋</w>
严 峻
赤 字</w>
教育 部</w>
博 物
太 太</w>
发 明</w>
路 上</w>
瓶 </w>
198 7</w>
冰 岛</w>
第三 个</w>
五 条</w>
东 欧</w>
in d
动 议</w>
th e</w>
０ </w>
收 取</w>
表示 感谢</w>
维护 者</w>
反对 派</w>
精 确</w>
构 建</w>
值 得
i m</w>
两 位</w>
火箭 </w>
先 决
i v
却 是</w>
天然 气</w>
尺 </w>
聘 用</w>
宣 称</w>
2 7
重 叠</w>
合 成</w>
从 中</w>
租 金</w>
海 底</w>
一 生</w>
M r</w>
惩 处</w>
处 理
看 作</w>
对 比</w>
所 需</w>
流 量</w>
报 复</w>
年 期</w>
感 情</w>
司法 制度</w>
法 外</w>
先决 条件</w>
措 辞</w>
使 馆</w>
老 年</w>
志 愿</w>
军事 行动</w>
护 照</w>
分 裂</w>
a u
吉尔吉斯 斯坦</w>
198 5</w>
浪 费</w>
全 文</w>
金 钱</w>
湖 </w>
c h</w>
老 龄</w>
泥 </w>
人 体</w>
优 质</w>
】 </w>
本 法</w>
捍 卫</w>
1 17</w>
预 警</w>
个 案</w>
审 讯</w>
啦 </w>
自 行
炸 弹</w>
孕 妇</w>
惑 </w>
减 免</w>
纽 约
系 数</w>
还 会</w>
尔 斯</w>
动 作</w>
经济 社会</w>
参 观</w>
1 19</w>
下 跌</w>
非 索</w>
说 道</w>
不 予</w>
稳 定性</w>
日 前</w>
顺 序</w>
阿拉伯 联合
呈 </w>
阿拉伯联合 酋长国</w>
解 放</w>
等 级</w>
势 头</w>
和平 解决</w>
些 时候</w>
q u
惜 </w>
公 务</w>
撤 离</w>
博物 馆</w>
刺 </w>
牵 头</w>
指 明</w>
多 哥</w>
有 没有</w>
美 国政府</w>
劫 </w>
三 名</w>
毫无 疑问</w>
运 输
赦 </w>
家 具</w>
调 节</w>
自 决权</w>
塔 利
异 议</w>
协调 会</w>
饮 食</w>
企业 家</w>
聪 明</w>
伸 </w>
集 会</w>
充分 利用</w>
选 择
电 邮</w>
塔利 班</w>
汤 姆</w>
刑 法典</w>
电 话
媒 介</w>
饮 用水</w>
海 盗</w>
挑 选</w>
拒 </w>
各 样</w>
风 格</w>
棒 </w>
纤 维</w>
全面 禁止</w>
相关 性</w>
延 误</w>
下 载</w>
有 时候</w>
外 空</w>
混 乱</w>
普通 照会</w>
损 坏</w>
惩 治</w>
申 报</w>
样 子</w>
要 么</w>
耶 </w>
展 览</w>
公共 行政</w>
儿 基会</w>
18 0</w>
臣 </w>
议 定</w>
危 及</w>
估 算</w>
漏 </w>
国防 军</w>
198 2</w>
国民 议会</w>
一 组</w>
文 献</w>
戈 </w>
追 加</w>
嫌 </w>
一 代</w>
刑事 诉讼</w>
i y
西班牙 语</w>
萨 摩
通货膨 胀</w>
争 论</w>
严峻 </w>
自 行</w>
老 挝
o o
不 满</w>
院 长</w>
实 务</w>
工程 师</w>
据 此</w>
精 力</w>
抑 制</w>
注意 力</w>
器 官</w>
斯 科</w>
司 机</w>
妮 </w>
职业 培训</w>
一 个月</w>
指 责</w>
电子 商务</w>
6 月</w>
艇 </w>
社会 福利</w>
当 今</w>
资 讯</w>
遗 留</w>
羁 押</w>
地 上</w>
A m
P R
传 递</w>
S A
法 文</w>
之 所以</w>
旅 馆</w>
感到 遗憾</w>
恶 劣</w>
初 期</w>
2. 2</w>
提 出
垒 </w>
以 南</w>
朵 </w>
引 力</w>
酷 </w>
公共 卫生</w>
鸡 </w>
本 案</w>
敌 对
第五十 九</w>
禁 令</w>
振 </w>
确 信</w>
诊 </w>
穷 国</w>
钢 </w>
三 十
高 度
标 签</w>
像 是</w>
蒙 </w>
云 </w>
等 教育</w>
拯 救</w>
将 军</w>
鬼 </w>
小 说</w>
处 在</w>
作 战</w>
概 况</w>
s h
毫 米</w>
克 劳</w>
假 定</w>
袭 </w>
震 惊</w>
过 分</w>
法律 事务</w>
10 月</w>
立 刻</w>
依 存</w>
项 下</w>
游 客</w>
十 分
壁 </w>
监 控</w>
卢 森
吉布 提</w>
精 简</w>
参加 者</w>
C RC</w>
看 待</w>
公共 政策</w>
缺 点</w>
确 定性</w>
隔 离
I N
克 里
信 函</w>
传染 病</w>
贩 卖
优 先
定 位</w>
核 证</w>
核 算</w>
无 国籍</w>
农 场</w>
第九 届</w>
脂 </w>
第九 条</w>
慨 </w>
采取 有效</w>
漠 </w>
诗 </w>
W P</w>
检察 长</w>
更 具</w>
高级 官员</w>
南 部
大 多</w>
概 要</w>
警察 局</w>
创 业</w>
国防 </w>
岗 位</w>
不 多</w>
分 区</w>
冒 </w>
曼 谷</w>
谈 论</w>
尼日 尔</w>
莫 </w>
此 前</w>
用 尽</w>
萨摩 亚</w>
救 援</w>
狂 </w>
垃圾 </w>
受 到
内政 部</w>
过渡 时期</w>
收 回</w>
1 25</w>
提 取</w>
列 举</w>
携 带</w>
少 女</w>
选 举
具体 措施</w>
谋 杀</w>
街 头</w>
1. 2</w>
场 合</w>
南部 非洲</w>
执法 人员</w>
尊 敬</w>
今 晚</w>
之 日起</w>
分 至</w>
第五十 八</w>
适 足</w>
综合 性</w>
放射 性</w>
临 时
谊 </w>
概 览</w>
人 身
施 行</w>
故 意</w>
寻 </w>
得 出
论 点</w>
多 斯</w>
香 </w>
伊拉 克
主 体</w>
行 径</w>
火 车</w>
无 人</w>
买 方</w>
二 氧化
癌 症</w>
就是 说</w>
马拉 维</w>
种族 灭绝</w>
接 到</w>
精 </w>
证 词</w>
法 人</w>
货币 基金组织</w>
斯 堡</w>
复 制</w>
内 阁</w>
气 象</w>
得出 结论</w>
m an</w>
优 秀</w>
转 型
怀 </w>
载 列</w>
放 松</w>
透 </w>
ic h
神 经
转型 期</w>
卢森 堡</w>
马 达
公共 服务</w>
等 于</w>
统计 数字</w>
标 记</w>
纲 </w>
S B
11 月</w>
救 灾</w>
1 23</w>
筹 集</w>
女 生</w>
喜 </w>
马达 加
清晰 </w>
生 境</w>
2. 5</w>
财务 报告</w>
9 月</w>
ati on</w>
格 林
穿 着</w>
李 </w>
航 天
异 常</w>
不 断
周 末</w>
储 蓄</w>
加 共和国</w>
专 用</w>
黑 暗</w>
债 务
欧洲 人</w>
将 近</w>
浪 </w>
巴 巴
er al</w>
附 录</w>
目 前
捐 赠</w>
in g
只 会</w>
递 交</w>
遍 </w>
进 出口</w>
毕 业
e b
缩 短</w>
廊 </w>
瓦 纳</w>
史 </w>
早 日</w>
当 事</w>
茶 </w>
称 赞</w>
流行 病</w>
这 时</w>
军 人</w>
之 以
两 人</w>
展 望</w>
保 罗</w>
设 计
见 下文</w>
繁 </w>
慰 </w>
听 说</w>
权 力
分 之二</w>
亲 爱</w>
专题 讨论</w>
进 口
根 除</w>
大 脑</w>
刑事 诉讼法</w>
一 笔</w>
残 </w>
见 解</w>
解 雇</w>
划 界</w>
I V</w>
属 性</w>
贝 尔
一 大</w>
in al</w>
通 道</w>
欲 </w>
采 访</w>
日内 瓦
污 </w>
提供 者</w>
真 诚</w>
两 份</w>
统 一
1 21</w>
< </w>
既 然</w>
具体 情况</w>
预 先</w>
不 懈
不 同
大 批</w>
布 什</w>
函 数</w>
a j
主 教</w>
那 位</w>
斯 特
马达加 斯加</w>
多米尼 加共和国</w>
北 方</w>
蒙特 雷</w>
粹 </w>
托 克劳</w>
信 念</w>
内 在</w>
伯 </w>
复 兴</w>
am m
指 派</w>
警 务</w>
练 习</w>
军 官</w>
引 用</w>
嘴 </w>
0 2</w>
所 提</w>
牺牲 </w>
t o</w>
编 纂
主 人</w>
桶 </w>
l e</w>
联 海</w>
坚 信</w>
动 荡</w>
醇 </w>
原则 上</w>
抱 怨</w>
世 卫</w>
完 整
大会 决议</w>
模 块</w>
加勒 比
奖 学金</w>
解释 性</w>
攻 </w>
遗 传</w>
三 项</w>
收 购</w>
宇 宙
书 记</w>
爆 </w>
叉 </w>
抵 抗</w>
捕 捞</w>
占 有</w>
为 主</w>
思 维</w>
前 任</w>
身 边</w>
马其 顿
呼 </w>
严 厉</w>
贩卖 人口</w>
更 多</w>
目前 为止</w>
忆 及</w>
岩 </w>
外 面</w>
二十 一</w>
汇 款</w>
博 茨
醚 </w>
姑 娘</w>
入 学率</w>
蔓 延</w>
媒 </w>
生 意</w>
女 子</w>
后 代</w>
玻璃 </w>
第五十 七届</w>
服务 中心</w>
示 威</w>
娱 乐</w>
三 分之二</w>
附 上</w>
入 学</w>
巴巴 多斯</w>
题 目</w>
卫生 保健</w>
个 体</w>
编纂 </w>
纪 录</w>
敦 士
列 支
框 </w>
列支 敦士
民 事
苦 难</w>
本 质</w>
阔 </w>
恢 复
日 益
马其顿 共和国</w>
续 会</w>
马尔 代
诊 所</w>
无线 电</w>
灭 绝
铀 </w>
粮 </w>
明确 规定</w>
产 品
改 组</w>
即 可</w>
克 尔</w>
i o</w>
阻 </w>
戒 </w>
蓬 </w>
借 口</w>
奇 怪</w>
收 养</w>
无 关</w>
山 区</w>
送 到</w>
特 区</w>
【 </w>
承 担
中 将</w>
情 感</w>
大 赦</w>
肥 </w>
一 揽
S P</w>
规 律</w>
数 学</w>
an c
数 值</w>
恐 吓</w>
／ </w>
商 品
可 靠
米 尔</w>
读 者</w>
神 经</w>
炮 </w>
施 政</w>
操 作
市场 准入</w>
内 地</w>
评 注</w>
助 长</w>
一 本</w>
灭绝 种族</w>
胺 </w>
博茨 瓦纳</w>
获 益</w>
服 装</w>
聚 集</w>
养 老
变 更</w>
演 员</w>
房 地产</w>
原 始</w>
音 乐
实 效</w>
一揽 子</w>
延 期</w>
奉 </w>
邮 政</w>
2 3
剩 下</w>
配 额</w>
球 队</w>
日内瓦 办事处</w>
回 报</w>
不 见</w>
应 予</w>
司法 部门</w>
基督 教</w>
未 有</w>
第七 届</w>
㈣ </w>
1 24</w>
2 6
列支敦士 登</w>
原 先</w>
妥 善</w>
府 </w>
复杂 性</w>
销 售
何 时</w>
频 繁</w>
原 料</w>
o w
抵 消</w>
燃 烧</w>
研 制</w>
大 气</w>
织 </w>
症 状</w>
0 4</w>
地 下
纠 纷</w>
归 还</w>
嫌 疑
区域 性</w>
马尔代 夫</w>
可 见</w>
小 孩</w>
流 通</w>
几 十年</w>
希 </w>
存 储</w>
Ab d
迫 切</w>
训 研</w>
哪 个</w>
O rig
微 笑</w>
场 地</w>
解决 问题</w>
审计 员</w>
卫生 设施</w>
种 子</w>
政府 部门</w>
支持 者</w>
危 </w>
an g
工 商
gl ish</w>
13 2</w>
奥 斯
三 种</w>
其 是</w>
零 零
紧 张
幼 儿</w>
Orig inal</w>
析 </w>
无 辜
联合国 日内瓦办事处</w>
派 出</w>
大 国</w>
慢 慢</w>
导 航</w>
业 已</w>
预 见</w>
详 尽</w>
新 生
借 鉴</w>
连 续性</w>
第 一步</w>
文 中</w>
农 </w>
现 实
区 内</w>
197 8</w>
英 里</w>
电 池</w>
石 油
圭 亚
病 例</w>
涉 嫌</w>
日 本
制造 商</w>
一 会儿</w>
鲜 </w>
西 欧</w>
空 运</w>
峰 会</w>
灵 魂</w>
不 但</w>
洽 </w>
无 条件</w>
e g
深 切</w>
臂 </w>
优 点</w>
毛里 塔
收 款</w>
13 8</w>
e p
七 个</w>
年 级</w>
费 率</w>
令人 满意</w>
男 </w>
沟 </w>
匹 配</w>
段 落</w>
集 中
纯 </w>
玛 </w>
Gen eral</w>
欧安 组织</w>
扭 转</w>
3. 1</w>
秘 </w>
布 罗
选 项</w>
阳 光</w>
1 28</w>
邮 票</w>
i d</w>
体 罚</w>
代理 人</w>
经 常
可靠 性</w>
赤 贫</w>
密 度</w>
13 4</w>
勃 </w>
鉴 定</w>
职 工</w>
亲 属</w>
第六 届</w>
清 洗</w>
白 色</w>
预算 编制</w>
信 中</w>
特 色</w>
相互 依存</w>
第六 次</w>
节 约</w>
而 已</w>
据 报</w>
封 信</w>
虎 </w>
扫 盲</w>
海洋 环境</w>
19 70</w>
务 人员</w>
俩 </w>
忽 略</w>
内 外</w>
观 众</w>
航 行</w>
驾驶 </w>
勇 气</w>
医疗 保健</w>
淘 汰
微 型</w>
疡 </w>
感 染
酶 </w>
自动 化</w>
各 部</w>
收 容</w>
完整 性</w>
回 合</w>
第十 一届</w>
2 5
海 牙</w>
庭 长</w>
集 束</w>
接 下来</w>
认 同</w>
八 条</w>
第五 届</w>
毛里塔 尼亚</w>
齿 </w>
那 天</w>
承 付</w>
al l
绳 之以
绳之以 法</w>
技术 支持</w>
3 月</w>
损 伤</w>
198 1</w>
款 额</w>
o m</w>
扫 描
年 龄
经济 学家</w>
玻利 瓦尔</w>
运 动
接 待</w>
15 3</w>
北 约</w>
僵 局</w>
无论 如何</w>
盘 旋</w>
加 深</w>
界 限</w>
刑事 责任</w>
第二 阶段</w>
1 26</w>
枪 支</w>
缘 </w>
5 月</w>
境 况</w>
两 天</w>
15 5</w>
沿 </w>
模 糊</w>
一 群</w>
布鲁 塞尔</w>
英 镑</w>
替代 品</w>
结构 性</w>
日 历</w>
限 期</w>
言 之</w>
体 重</w>
P ar
回 复</w>
东 南亚</w>
欧洲 共同体</w>
圭亚 那</w>
统计 局</w>
现 任</w>
所在 地</w>
定 居</w>
适 宜</w>
淘汰 </w>
作 法</w>
得 知</w>
可 信</w>
司法 机关</w>
夫 妇</w>
回 归</w>
i c</w>
C D</w>
卷 入</w>
甄 选</w>
究 竟</w>
一 体</w>
开发 银行</w>
遵 照</w>
实 用</w>
什么 样</w>
同 学</w>
力 学</w>
慷 慨</w>
天 空</w>
章 节</w>
益 处</w>
假 期</w>
D ist
1 年</w>
人民 币</w>
敌对 行动</w>
进 去</w>
轨 </w>
掌 </w>
夏 天</w>
国内 外</w>
in a</w>
处 以</w>
En glish</w>
滩 </w>
湿 </w>
性 骚扰</w>
孕 产妇</w>
不 明</w>
名 为</w>
伊斯兰 会议
伊斯兰会议 组织</w>
十 六届</w>
荣 幸</w>
地 下</w>
裕 </w>
东 南
豪 </w>
自 杀</w>
友 谊</w>
中 午</w>
有 个</w>
i z
1 27</w>
难 道</w>
20 20</w>
益 于</w>
抱 歉</w>
吸 引力</w>
非 统
公 私</w>
一 面</w>
无 视</w>
尔 德</w>
国际 货币基金组织</w>
强 制
补 救
环 节</w>
专 利</w>
诸 多</w>
平 静</w>
进行 谈判</w>
非统 组织</w>
矿 物</w>
经济 学</w>
番 </w>
P C</w>
译 文</w>
多 元
马 斯</w>
布 雷
刑 罚</w>
专 长</w>
游 泳
i r</w>
毒 性</w>
伴 侣</w>
陆 地</w>
核 不
他 会</w>
不 丹</w>
核不 扩散</w>
呼吸 </w>
图 片</w>
或 缺</w>
as s</w>
甲 基</w>
固 有</w>
农 产品</w>
权力 下放</w>
央 行</w>
i t</w>
细 菌</w>
青 </w>
惠 益</w>
尤 其是</w>
受 欢迎</w>
家 伙</w>
球 员</w>
有 者</w>
14 .
调 集</w>
创 作</w>
身份 证</w>
a y</w>
管 道</w>
二氧化 碳</w>
不可 或缺</w>
正 当
第 八届</w>
尸 体</w>
迫 害</w>
伊斯兰 教</w>
第二 天</w>
哭 </w>
十 周年</w>
累 积</w>
通 告</w>
Dist r</w>
股 东</w>
营 销</w>
吸 烟</w>
用 语</w>
缝 </w>
氏 </w>
监 视</w>
出 境</w>
小组 讨论</w>
国防 部</w>
哪 儿</w>
占 据</w>
裁 减</w>
病 率</w>
输 出</w>
出 台</w>
警 卫</w>
大 卫</w>
农 药</w>
研 发</w>
一 批</w>
拍 </w>
大 概</w>
ou r
训 练
维 尔</w>
豆 </w>
经 营
琴 </w>
1 29</w>
质 量
交 换
民 间
增 设</w>
4 月</w>
引 进</w>
中 小型</w>
M oh
哈 根</w>
厌 </w>
马 德里</w>
若 干
听 见</w>
分 娩
苏 联</w>
加 紧
主持 人</w>
长 官</w>
违 法行为</w>
难 题</w>
邻 </w>
对 不起</w>
感 激</w>
幸 运</w>
兼 顾</w>
加紧 努力</w>
与 会</w>
所 知</w>
预防 措施</w>
此 机会</w>
贩 毒</w>
第三 国</w>
补救 措施</w>
奥 林
波 多
家 中</w>
2. 3</w>
均 等</w>
窃 </w>
溃 </w>
运 转</w>
以 供</w>
学术 界</w>
素 质</w>
常 用</w>
容 器</w>
同 行</w>
雇佣 军</w>
胆 </w>
棉 </w>
13 5</w>
朝 着</w>
创 伤</w>
乘 </w>
杰 克</w>
乘 客</w>
S T
追 回</w>
ar d</w>
所 致</w>
吻 </w>
时 机</w>
殖 </w>
197 3</w>
简 介</w>
201 6</w>
［ </w>
耀 </w>
捷 </w>
致 命</w>
阿拉伯 国家联盟</w>
中 所</w>
无辜 </w>
迈 出</w>
切 割</w>
关键 问题</w>
这 部</w>
聚 会</w>
爵 </w>
妥 协</w>
财务 状况</w>
破 坏
分娩 </w>
连 同</w>
焦 点</w>
财政 部</w>
格林 纳
暂 定</w>
躺 </w>
In t
故 障</w>
慈 善</w>
蛋 白</w>
介 入</w>
s on</w>
玛 丽</w>
u s</w>
侧 重</w>
格 达</w>
脂 肪
英 译
想 起</w>
13 3</w>
监 护
产 假</w>
受益 人</w>
透 露</w>
波多 黎
时 说</w>
E C</w>
约翰 内
民 法</w>
i e</w>
缴 付</w>
境 外</w>
哥 本
事务 司</w>
约翰内 斯堡</w>
哈 马</w>
占领 国</w>
相 结合</w>
为 本</w>
航空 公司</w>
第十 二届</w>
旁 边</w>
卖 方</w>
远 程</w>
进 而</w>
瓦 共和国</w>
摩尔多 瓦共和国</w>
波多黎 各</w>
愤 怒</w>
劳动 者</w>
重大 进展</w>
多 巴
房 舍</w>
客 人</w>
不 必要</w>
198 4</w>
联合国 人口
注 射</w>
六 年</w>
旗 </w>
多 人</w>
i l</w>
联合国人口 基金</w>
不 适</w>
东 京</w>
足 球</w>
再 度</w>
行政 区</w>
群 众</w>
人 身</w>
穿 过</w>
调查 团</w>
各种 各样</w>
O P
遥 感</w>
机 器
独立 宣言</w>
投 票
存 者</w>
自行 车</w>
公 告</w>
二 零零
改 动</w>
15 40</w>
代表 大会</w>
］ </w>
债务 人</w>
官 长</w>
制造 业</w>
民 用</w>
总 量</w>
毫 不</w>
誓 </w>
稳 </w>
抢 劫</w>
生产 能力</w>
充 当</w>
课 题</w>
背 后</w>
投 标</w>
悲 剧</w>
叛 </w>
共 产
庞 大</w>
利 害
经 社</w>
全民 投票</w>
扩 张</w>
雄 </w>
线 性</w>
18 2</w>
法律 顾问</w>
奥林 匹
卡 尔</w>
道 理</w>
哥本 哈根</w>
赖 </w>
持久 和平</w>
宇宙 </w>
信 件</w>
整 理</w>
前 所
借 此机会</w>
同 情</w>
相 符</w>
无 障碍</w>
联 苏</w>
啸 </w>
u d
撑 </w>
保 障
管理 机构</w>
仪 器</w>
城市 化</w>
护 士</w>
13 .
加 蓬</w>
1. 5</w>
政 策
血 管</w>
吸 毒</w>
和 政</w>
话 题</w>
伴 随</w>
多 种
斤 </w>
缔 约</w>
睡 觉</w>
炸 </w>
托 管</w>
盛 </w>
沿 着</w>
昂 贵</w>
14 1</w>
公 寓
虽 </w>
琳 </w>
受 过</w>
el l
到 期</w>
附 注</w>
15 .
保护 区</w>
201 7</w>
规 划
麻醉 品</w>
英译 汉</w>
第五十 四届</w>
信 用</w>
13 6</w>
I C
卡 车</w>
17 0</w>
苹 果</w>
三 大</w>
日 常
号 法</w>
划 拨</w>
地 名</w>
相 一致</w>
加 重</w>
超 </w>
合 理
宪 法
第十 九条</w>
崩 溃</w>
战略 性</w>
挂 钩</w>
点 儿</w>
合 约</w>
无 法
伯 特</w>
1 31</w>
参 考
某 种
靠 近</w>
拆 除</w>
年 份</w>
陀 </w>
非洲 人</w>
样 本</w>
畜 </w>
居 住
C on
川 </w>
e k
擦 </w>
幸 存者</w>
孤 立</w>
走 私</w>
不 让</w>
关 岛</w>
搞 </w>
不 足
主 意</w>
链 接</w>
仿 </w>
而 易
阵 地</w>
泽 </w>
极端 主义</w>
莫 斯科</w>
T D</w>
拘 押</w>
象 征</w>
教育 权</w>
带 到</w>
学 员</w>
发 育</w>
２ </w>
严 肃
宪法 法院</w>
犯 人</w>
早 晨</w>
抵 押</w>
隔离 墙</w>
简 直</w>
迎 接</w>
宽 容</w>
尽 量
奴 役</w>
窗 </w>
第一 条</w>
不可 分割</w>
各 州</w>
大 学生</w>
斯坦 共和国</w>
调 解
不 确定性</w>
沉 重</w>
大 纲</w>
偷 运</w>
0 年</w>
天 然</w>
可 疑</w>
脸 上</w>
英 语
构 成
实 力</w>
亚 贝
轻 松</w>
氯 化</w>
首 相</w>
限 额</w>
红十 字</w>
泡 </w>
良 心</w>
水 准</w>
戈 兰</w>
影 片</w>
资金 来源</w>
扶 持</w>
周 知</w>
扣 押</w>
中央 银行</w>
殴 打</w>
不 法行为</w>
大 臣</w>
斯 亚贝
修 理</w>
8 月</w>
连 贯</w>
轴 </w>
明 智</w>
违 约</w>
窗 口</w>
意 识
招 标</w>
里 程
浆 </w>
汁 </w>
旅 客</w>
撤 </w>
扮 演</w>
仓 库</w>
巴 格达</w>
固 定
决 定性</w>
第一 阶段</w>
意 志</w>
常 任
2 4
斯亚贝 巴</w>
C ar
好 好</w>
解放 军</w>
圆 </w>
黄 金</w>
生命 权</w>
半 岛</w>
运 人</w>
插 入</w>
感 器</w>
诚 实</w>
哥伦 比亚
an i</w>
报 导</w>
延 伸</w>
同 性恋</w>
肿 瘤</w>
接 种</w>
亚 的
闭 幕</w>
多巴 哥</w>
匙 </w>
马 克</w>
确 性</w>
借 助</w>
信 誉</w>
体 验</w>
寄 </w>
判 定</w>
过 时</w>
此 案</w>
抵 制</w>
太阳 能</w>
动 用</w>
送 给</w>
教 徒</w>
便 利
几 种</w>
14 2</w>
特 立
到 处</w>
开 放
开 幕
an a</w>
穆 </w>
品 种</w>
串 </w>
拖 欠</w>
遵 约</w>
不 知</w>
惊 讶
o g
八 个</w>
保护 措施</w>
阶 级</w>
通 知
违 法</w>
亚的 斯亚贝巴</w>
义 务
西 藏</w>
举 报</w>
热 带</w>
A R
19 49</w>
妇女 组织</w>
征 得</w>
辅 导</w>
养老 金</w>
述 及</w>
蓄 意</w>
书 记
逆 转</w>
花 园</w>
经济 合作
衫 </w>
沉 默</w>
吹 </w>
公 然</w>
不 如</w>
非洲 大陆</w>
这 使</w>
远 离</w>
胁 迫</w>
4. 1</w>
纵 </w>
理 学</w>
各项 规定</w>
一 日</w>
深 感</w>
3. 2</w>
仿 真</w>
流 感</w>
惊讶 </w>
婴 </w>
全国 性</w>
党 派</w>
拉 特</w>
生产 性</w>
传 统
桌 子</w>
欧 国家</w>
in e</w>
判 刑</w>
基 层</w>
吸 取</w>
调查 表</w>
古 老</w>
这 座</w>
私 有
查 看</w>
总 的
1 69</w>
阿卜 杜
辩 护
减 灾</w>
从 前</w>
t r
说 服</w>
落 后</w>
水 果</w>
猪 </w>
量 化</w>
深 入
革 新</w>
发 病率</w>
全 额</w>
烟 草</w>
免 除</w>
蔬 菜</w>
中 立</w>
这 两项</w>
哲 学</w>
辞 职</w>
理 事
斡 旋</w>
交 往</w>
平 面</w>
壁 垒</w>
保 留
前所 未有</w>
走 进</w>
最 小</w>
赢 </w>
克 拉</w>
福 利
外 来</w>
替 换</w>
自 信</w>
侦 查</w>
心 中</w>
可 怜
公寓 </w>
高 效率</w>
贫 民
武 </w>
197 9</w>
特立 尼
特别 法庭</w>
黑 人</w>
海 啸</w>
分 组</w>
á </w>
对 本</w>
阿 曼</w>
服务 业</w>
腔 </w>
正 面</w>
整 套</w>
南斯拉 夫
资 本
按 时</w>
市 长</w>
词 汇</w>
措 词</w>
拘 禁</w>
主管 机构</w>
易 于</w>
廉 </w>
原 文</w>
传 输</w>
回 国</w>
智 能</w>
第三 章</w>
13 9</w>
电视 台</w>
枝 </w>
愈 </w>
撰 写</w>
CO </w>
索 托</w>
困 </w>
健康 状况</w>
经常 性</w>
编 入</w>
空 气
发言 稿</w>
薄 弱</w>
立法 会</w>
相 称</w>
之 类</w>
cl ass</w>
疗 法</w>
形 状</w>
众 所
延 续</w>
及 农业
及农业 组织</w>
cl ass
饼 </w>
联合国 粮食
联合国粮食 及农业组织</w>
害 人</w>
海 军</w>
填 写</w>
文 件
浏 览</w>
民族 和解</w>
杀 死</w>
淡 </w>
1 62</w>
传 感器</w>
梅 </w>
这 会</w>
直 布罗
第十 三届</w>
法 郎</w>
建 制</w>
增 效</w>
杰 出</w>
P ro
持 续
姆 斯</w>
不可 避免</w>
i f
自 主权</w>
大 陆
生产 率</w>
坦桑 尼亚</w>
对 联</w>
众所 周知</w>
孤 儿</w>
国际 贸易
新 增</w>
主 导
应 是</w>
修 订
不 限</w>
度 过</w>
下 令</w>
生 气</w>
雇佣 </w>
冰 </w>
启 </w>
伯 利
记 录
偷 </w>
交 叉</w>
r es
拔 </w>
引 擎
13 7</w>
多 重</w>
公 斤</w>
交 存</w>
体 内</w>
大 选</w>
很 小</w>
互 助</w>
长 度</w>
有 毒</w>
一 篇</w>
文化 遗产</w>
充分 考虑</w>
紧张 局势</w>
拿 出</w>
十 二</w>
便 宜</w>
差 旅</w>
区域 间</w>
里 约
瑟 </w>
创 立</w>
雾 </w>
a ch
便 是</w>
硬 件</w>
欣 赏</w>
不 良
物 流</w>
高等 法院</w>
C M
蓝 色</w>
极 为重要</w>
出 生
生产 者</w>
炭 </w>
宣 传
附 表</w>
� </w>
只 不过</w>
该 次</w>
理事 国</w>
敌 对</w>
M u
伊拉克 政府</w>
金融 市场</w>
谈 谈</w>
处 长</w>
液 体</w>
乔 治</w>
14 5</w>
血 液</w>
开 罗</w>
制 备</w>
预 审</w>
ou </w>
色 彩</w>
闲 </w>
1 月</w>
餐 厅</w>
毕业 生</w>
供应 链</w>
黑 色</w>
舞 台</w>
无 力</w>
艺术 家</w>
商 人</w>
引擎 </w>
资 讯
糟 </w>
年 内</w>
百分 之
绝 不</w>
贵 国</w>
急 剧</w>
联 委会</w>
应 收款</w>
结 核</w>
肇 事
14 3</w>
空 白</w>
股 市</w>
相 辅
指 引</w>
股 份</w>
俄 </w>
生 育
大 程度</w>
最 终
丧 </w>
身 心</w>
源 自</w>
机器 人</w>
尺 寸</w>
写 作</w>
流 动性</w>
动 产</w>
一 九
新 几内亚</w>
锻 炼</w>
特立尼 达
三 方</w>
犹太 人</w>
令人 遗憾</w>
小 规模</w>
都 是</w>
甚 </w>
民主 党</w>
暴 露</w>
敌 </w>
录 音</w>
字 母</w>
火 器</w>
气 象
暴 行</w>
征 收</w>
Q </w>
石 头</w>
2. 4</w>
样 品</w>
第七 </w>
现 况</w>
答 辩</w>
在 场</w>
性别 歧视</w>
特立尼达 和
特立尼达和 多巴哥</w>
技术 性</w>
伊 斯坦
贯彻 </w>
几 项</w>
独立 国家</w>
使 人</w>
相 成</w>
律 师
反 复</w>
冈 比亚</w>
弗 </w>
通知 书</w>
街 道</w>
有 效率</w>
派 驻</w>
鹿 特
ation al</w>
回 去</w>
反 应
冷 战</w>
鹿特 丹</w>
陈 </w>
面 试</w>
问 卷</w>
势 力</w>
书 籍</w>
着 眼
相辅 相成</w>
公 司
人 工</w>
亲 自</w>
A s
烃 </w>
当 天</w>
含 水
人民 政府</w>
太 多</w>
# </w>
燃 </w>
努力 实现</w>
册 子</w>
抚 养</w>
讨 厌</w>
时 应</w>
译 成</w>
虚 拟</w>
14 4</w>
巴 哈马</w>
泵 </w>
历史 性</w>
艰 苦</w>
伊斯坦 布尔</w>
休 </w>
奴隶 </w>
保持 一致</w>
被 控</w>
198 3</w>
中 东
患 有</w>
多 方</w>
人民 法院</w>
自 卫</w>
采取 任何</w>
14 6</w>
住 宿</w>
阿布 哈
董 事</w>
七 年</w>
巴布 亚
地 向</w>
第一 款</w>
混 凝
出 席会议</w>
皇 家</w>
上 周</w>
一致 意见</w>
覆 </w>
医疗 保险</w>
兑 现</w>
阶 </w>
睹 </w>
as h
巴布亚 新几内亚</w>
后 裔</w>
保 养</w>
加 紧</w>
分 配
限 制性</w>
增 加
高 层</w>
里程 碑</w>
认 知</w>
民 政</w>
莱 索托</w>
东 亚</w>
宣 读</w>
威 士
种 群</w>
在 职</w>
伏 </w>
无 数</w>
书记 官</w>
百 万美元</w>
逃 离</w>
可 爱</w>
忧 虑</w>
大 战</w>
再 也</w>
沫 </w>
r a</w>
执 照</w>
点 击</w>
表 达
选择 性</w>
肇事 者</w>
飞 离</w>
订 单</w>
恐 怕</w>
似 的</w>
困 扰</w>
睡 眠</w>
第十 条</w>
直布罗 陀</w>
消耗 性</w>
战略 方针</w>
S al
布雷 顿</w>
得 起</w>
帕 </w>
居 留</w>
介 绍
播 放</w>
句 子</w>
弱 点</w>
莎 </w>
春 </w>
心 脏</w>
心 情</w>
弹 性</w>
L e
日常 生活</w>
对 面</w>
第六十 六</w>
拥 挤</w>
征 税</w>
详细 资料</w>
交 谈</w>
高 中</w>
社 团</w>
改 革
列 表</w>
1 66</w>
负 面</w>
15 7</w>
恒 </w>
公 式</w>
C H
恼 </w>
一 向</w>
支 撑</w>
嘛 </w>
彼 得</w>
和平 部队</w>
2 20</w>
阿布哈 兹</w>
深 度</w>
土著 居民</w>
多边 贸易</w>
承包 者</w>
夫 妻</w>
便利 化</w>
被 害人</w>
大 使馆</w>
呈 现</w>
2 35</w>
飞 越</w>
开 车</w>
14 7</w>
罢 工</w>
利 用
接 受
小 册子</w>
Y </w>
合 同
挠 </w>
观 看</w>
推 翻</w>
航 班</w>
各 省</w>
剩 </w>
省 份</w>
客 户
百 姓</w>
可怜 </w>
行 李</w>
变 量</w>
剂 量</w>
面 包</w>
所 起</w>
作出 反应</w>
荣 誉</w>
紧 缩</w>
宇 </w>
声 援</w>
财政 年度</w>
摩 纳
心 灵</w>
P V</w>
二 苯
汲 取</w>
舰 </w>
搜 查</w>
此 时</w>
大 麻</w>
侵 权
民 航</w>
刑事 犯罪</w>
基 线</w>
西 亚
支 票</w>
第二十 届</w>
同 步</w>
余 留</w>
受益 者</w>
长期 以来</w>
扫描 </w>
索 取</w>
筹备 会议</w>
兴奋 </w>
应 力</w>
严肃 </w>
英 尺</w>
巨 </w>
裁 撤</w>
水 域</w>
传 达</w>
一 把</w>
数 以
尤 为</w>
窟 </w>
习惯 法</w>
综 述</w>
第二十 三届</w>
秒 </w>
吃 饭</w>
密切 相关</w>
避 孕
摄 </w>
早 就</w>
产 值</w>
s p
舒 适</w>
合 办</w>
墨西 哥
泉 </w>
复 审</w>
从 不</w>
军 备
管理 部</w>
桥 梁</w>
世界 粮食
15 6</w>
泪 </w>
探 测</w>
愿 景</w>
生 素</w>
军备 竞赛</w>
世界粮食 计划署</w>
院 校</w>
货币 基金</w>
分 项</w>
变 为</w>
战略 规划</w>
新闻 稿</w>
G r
暂 </w>
晶 </w>
前 后</w>
数 字
地 方
传 媒</w>
二苯 醚</w>
多元 化</w>
上 班</w>
部长 会议</w>
作 证</w>
重 计</w>
犯罪 者</w>
冠 军</w>
联合 行动</w>
电 路</w>
一 轮</w>
潜 能</w>
江 </w>
人 选</w>
发 动机</w>
惨 </w>
2 2
珊 瑚
审 核</w>
忍 受</w>
抵 </w>
勇 敢</w>
环境 卫生</w>
进 攻</w>
教 材</w>
薄 </w>
拉 克</w>
一 无
取 向</w>
否 定</w>
严格 遵守</w>
7 年</w>
注 销</w>
囊 </w>
噢 </w>
牛 奶</w>
季 节</w>
学 年</w>
议 案</w>
胖 </w>
深 化</w>
致 力</w>
非 法
市场 经济</w>
氢 </w>
揭 示</w>
所 定</w>
4. 2</w>
筒 </w>
民主 化</w>
U n
多 样</w>
ć </w>
资讯 科技</w>
捕 鱼</w>
15 1</w>
不 出</w>
禁 产</w>
添 </w>
执行 机构</w>
烂 </w>
比 尔</w>
协商 会议</w>
赋 权</w>
软 件
N A</w>
发 电</w>
高度 重视</w>
本 周</w>
侦 察
立法 机构</w>
科学 研究</w>
视 角</w>
防 御</w>
以 免</w>
饮 料</w>
地 质</w>
保 卫</w>
学 习
战 胜</w>
t s</w>
om m
铲 除</w>
毒 素</w>
爬 </w>
获 准</w>
绘 </w>
混凝 土</w>
校 长</w>
在 家</w>
组 件</w>
传染 性</w>
必要 条件</w>
药 物
新闻 界</w>
承担 责任</w>
原 件</w>
曲 线</w>
开 心</w>
弊 </w>
晋 升</w>
暗 示</w>
在 外</w>
避 孕</w>
唤 </w>
一 大
厄 </w>
18 .
烯 </w>
日 刊</w>
疗 效</w>
多 方面</w>
解 散</w>
存 放</w>
穆 罕
我 方</w>
丧 生</w>
摸 </w>
成 千
B C</w>
犯罪 活动</w>
老挝 人民
承 办</w>
般 </w>
波 恩</w>
约 会</w>
平等 权利</w>
银 </w>
往 来</w>
厦 </w>
利 益
制 度
15 4</w>
惊 人</w>
广 场</w>
一 月</w>
构 造</w>
私有 化</w>
同 一个</w>
女 工</w>
o l</w>
肠 </w>
柜 </w>
蛋 白
克 斯坦共和国</w>
不 能
老挝人民 民主共和国</w>
上 万</w>
着眼 于</w>
礁 </w>
大会 堂</w>
简 短</w>
扶 贫</w>
参 议院</w>
省 级</w>
洪 水</w>
传 送</w>
拉 巴
人 会</w>
塑 料</w>
喜 爱</w>
加 迪
人口 普查</w>
彻 底
没 什么</w>
差 不多</w>
毫 不
强制 执行</w>
对 照</w>
19 60</w>
门 口</w>
毁 坏</w>
盈 余</w>
族 群</w>
14 8</w>
防 护</w>
联 盟
贾 </w>
去 世</w>
不 利于</w>
附 带</w>
咱 们</w>
15 2</w>
监 </w>
两 国
统计 资料</w>
布 莱
1. 3</w>
跨 部门</w>
有 形</w>
强 劲</w>
不 停</w>
财 力</w>
奥 运</w>
讲 座</w>
第六 十</w>
祸 </w>
实 况</w>
草 拟</w>
涯 </w>
见 面</w>
免 于</w>
15 8</w>
默 德</w>
劳动 法</w>
总 计</w>
í </w>
早 已</w>
节 日</w>
F r
答 应</w>
傲 </w>
B ar
冒 险</w>
活 动
不 论
战略 目标</w>
邀 </w>
合理 化</w>
初 始</w>
西班牙 文</w>
竞争 性</w>
注 明</w>
h m
十 三</w>
V I</w>
糖 尿
游泳 </w>
所 罗
关 系
14 9</w>
市 镇</w>
一 次
含水 层</w>
今 天
安全 性</w>
强 行</w>
不 清</w>
暴力 事件</w>
旬 </w>
小 计</w>
兵 役</w>
3 50</w>
近 来</w>
展 现</w>
2 10</w>
家 族</w>
十 七届</w>
第二 期</w>
月 初</w>
伯 利</w>
社会 保险</w>
督 </w>
尽量 减少</w>
装 饰</w>
环境 影响</w>
推 定</w>
军 方</w>
公 职人员</w>
定 稿</w>
en c
厨 房</w>
一 间</w>
多 尼亚</w>
危险 废物</w>
考 验</w>
发 布
佛 得
以色列 政府</w>
er s
驳 </w>
编 码</w>
旋 转</w>
漫 </w>
铜 </w>
匀 </w>
第四 章</w>
2 51</w>
成千 上万</w>
重 量</w>
二 级</w>
性 健康</w>
早 些时候</w>
供 给</w>
一 颗</w>
市 政</w>
结 核
产 物</w>
燥 </w>
婚 礼</w>
摩 加迪
演 出</w>
实 时</w>
从 业
相互 作用</w>
桩 </w>
日 程</w>
教 练</w>
发电 机</w>
幼 儿
衷 </w>
最低 工资</w>
发表 意见</w>
依赖 于</w>
步 伐</w>
挖 掘</w>
一 并</w>
沙 特</w>
喀 里
总 裁</w>
西 撒</w>
应 收</w>
利 斯</w>
裁 判</w>
走 上</w>
舱 </w>
生物 武器</w>
3. 3</w>
约 定</w>
高 达</w>
饮 水</w>
这 点</w>
199 1年</w>
金 伯利</w>
资 料
局 部</w>
急 性</w>
M an
土地 利用</w>
S C</w>
国 有</w>
t e
喀里 多尼亚</w>
联合国 安全理事会</w>
後 </w>
很 长</w>
大 厦</w>
第八 条</w>
1 6.
敏 感
联 阿</w>
纯 粹</w>
总 局</w>
河 流</w>
妥 </w>
E l
拍 摄</w>
注 入</w>
仁 </w>
塞浦路 斯
安 盟</w>
北 美</w>
外 界</w>
1 61</w>
里 克</w>
文 盲</w>
飞 行
资源 分配</w>
营 业</w>
审 视</w>
联盟 共和国</w>
司法 程序</w>
南斯拉夫 联盟共和国</w>
健康 权</w>
s k
总 之</w>
国家 计划</w>
第 3
玩 具</w>
无 须</w>
经 由</w>
侵权 行为</w>
突 破</w>
反 而</w>
函 件</w>
隐 藏</w>
第七 章</w>
中 欧</w>
罩 </w>
窝 </w>
富 裕</w>
日 后</w>
密 斯</w>
乳 </w>
永 久
雷 斯</w>
资 发</w>
规 格</w>
破坏 性</w>
药物 滥用</w>
出 入</w>
负 担
人 质</w>
威 尔
南 北</w>
受 援
误 解</w>
第二 项</w>
炮 弹</w>
泡 沫</w>
特 许</w>
附 有</w>
疯 狂</w>
第二 节</w>
2 70</w>
而 定</w>
摩加迪 沙</w>
19 0</w>
大 致</w>
自 豪</w>
全 民</w>
激 发</w>
殖民 主义</w>
不懈 </w>
也 就是说</w>
寺 </w>
干 净</w>
令人 鼓舞</w>
穆罕 默德</w>
的 是</w>
窄 </w>
扭 曲</w>
大 于</w>
表 决权</w>
领 事</w>
嗯 </w>
叫 做</w>
阿拉伯 语</w>
寻 常</w>
197 5</w>
郁 </w>
原 子</w>
表 述</w>
膀 </w>
I P
瑞 士
飓 风</w>
系统 性</w>
沮 丧</w>
u g
策 划</w>
基督 </w>
us t
悦 </w>
估 值</w>
线 路</w>
实 用
出 身</w>
创造 性</w>
仅 限于</w>
老 鼠</w>
纳 尔</w>
过 多</w>
列 报</w>
受援 国</w>
汽 油</w>
下 属</w>
保 人</w>
新生 儿</w>
出 庭</w>
被 告
电 脑
王 子</w>
卡 拉</w>
前 途</w>
糖尿 病</w>
造 林</w>
欧 元
基 石</w>
铺 </w>
旅 行
2 月</w>
航 天</w>
懂 得</w>
大陆 架</w>
漫 长</w>
该 处</w>
视 觉</w>
蠢 </w>
指 望</w>
发 票</w>
医 务</w>
切 尔
证 券
发展 部</w>
联 体</w>
滞 </w>
拉 姆</w>
煤 </w>
i p
摩纳 哥</w>
维 尔
信用 证</w>
两 周</w>
喊 </w>
杀 人</w>
管理 工作</w>
集 装
艰 巨</w>
o k
e x</w>
预 报</w>
竞争 法</w>
把 握</w>
载 入</w>
密 码</w>
内 心</w>
第十 二条</w>
一 同</w>
至 迟</w>
应 计</w>
切实 有效</w>
上 限</w>
陪 同</w>
定居 者</w>
联络 小组</w>
顷 </w>
2 26</w>
电 力
新 喀里多尼亚</w>
仲裁 庭</w>
不 太
窗 户</w>
阿 鲁
废 </w>
趋 </w>
申请 书</w>
自治 区</w>
参与 性</w>
欧元 区</w>
显 而易
这 条</w>
科 摩
已 知</w>
祷 </w>
创 收</w>
b er
私 人
独 联体</w>
走 廊</w>
17 .
跨 越</w>
侦察 机</w>
继续 加强</w>
显而易 见</w>
三 天</w>
严重 性</w>
节 余</w>
这 句</w>
一 台</w>
桌 </w>
除 此
检查 站</w>
婆 </w>
本 项</w>
脂肪 </w>
结核 病</w>
尽 全力</w>
收 获</w>
谅 </w>
密 集</w>
基 伍</w>
路 径</w>
生 涯</w>
机 会
ou n
请 愿</w>
操 纵</w>
 </w>
PR ST</w>
届 满</w>
贫民 窟</w>
牧 师</w>
控制 系统</w>
座 位</w>
加 以
休 假</w>
I M
无 可
废 料</w>
公 顷</w>
下 届</w>
饭 店</w>
嫌疑 人</w>
创 意</w>
苏 里
慢 性</w>
佛得 角</w>
交易 所</w>
远 地区</w>
雷 达</w>
一 声</w>
讲 述</w>
和 发展
科摩 罗</w>
长 远</w>
尘 </w>
培训 中心</w>
原 有</w>
务 部</w>
u k
英 格兰</w>
９ </w>
车 站</w>
拍 卖</w>
高 速</w>
管理 员</w>
文 档</w>
o f
联合国 贸易
灌 溉
19 61</w>
随 函</w>
基础 教育</w>
急 需</w>
2 40</w>
联合国贸易 和发展
联合国贸易和发展 会议</w>
不 符</w>
G DP</w>
相 处</w>
天 内</w>
20 8</w>
197 4</w>
精 度</w>
沉 </w>
布 拉
证 明
激 光</w>
15 9</w>
核 心
智 力</w>
受到 限制</w>
多 元</w>
创 新
不 敢</w>
红十字 会</w>
购 物</w>
估 价</w>
几 位</w>
内 战</w>
一 度</w>
列 明</w>
. .</w>
履 约</w>
研 训</w>
特别 行政区</w>
开 展
盒 </w>
莱 德</w>
耳 </w>
史 密斯</w>
之 为</w>
继 承
总 收入</w>
外 汇</w>
耐 心</w>
树 立</w>
某种 程度</w>
增 大</w>
夹 </w>
英 雄</w>
非 盟</w>
杰 </w>
保险 公司</w>
土 族</w>
减 至</w>
神 圣</w>
污 水</w>
19 2</w>
禁 试</w>
现 金
口 粮</w>
审计 报告</w>
M a
进 出</w>
规 范
移 植</w>
人 称</w>
特 有</w>
邻 居</w>
是 非</w>
垄 断</w>
合 金</w>
停 留</w>
财 </w>
采 集</w>
臭 氧
上 网</w>
撤 消</w>
金融 服务</w>
苏 格兰</w>
平 行</w>
20 1</w>
定 价</w>
生 日</w>
同 期</w>
交流 信息</w>
树 木</w>
不 住</w>
阀 </w>
致 函</w>
手 里</w>
终 身</w>
交 互
社 交</w>
审 判
太 空</w>
监督 机构</w>
范 例</w>
催 化
一 番</w>
医 药</w>
译 员</w>
美 联
日 志</w>
重 债</w>
主义 者</w>
无 意</w>
喻 </w>
使 团</w>
一 节</w>
镇 压</w>
组 成员</w>
湖 区</w>
拿 到</w>
蛇 </w>
疼 痛</w>
3 1日</w>
第二 款</w>
逃 </w>
转 达</w>
贸易 协定</w>
黄 </w>
监护 人</w>
197 1</w>
1 65</w>
贯 穿</w>
e w
腺 </w>
T r
19 .
下 滑</w>
整 天</w>
大 声</w>
控 告</w>
敌 方</w>
在此 期间</w>
之 友</w>
真 理</w>
加 利</w>
性 行为</w>
英 国
赶 </w>
回 忆</w>
一 根</w>
挡 </w>
肌 肉</w>
臭氧 层</w>
交通 运输</w>
197 7</w>
半 数</w>
B r
u c
该 股</w>
斯 蒂
通 胀</w>
逾 期</w>
电 影
运 载
移 动
差 额</w>
c on
被 判</w>
殿 </w>
各项 措施</w>
关键 因素</w>
钥 匙</w>
越 境</w>
生育 率</w>
六 种</w>
一 对</w>
波 黑</w>
头 上</w>
而 来</w>
∶ </w>
总 会</w>
前 体</w>
消费 量</w>
槽 </w>
舒 服</w>
1 2.
普遍 存在</w>
常 务
参 阅</w>
海 运</w>
毁 灭</w>
控制 措施</w>
总 督</w>
大 气
一 倍</w>
5. 1</w>
欺 骗</w>
前 者</w>
不同 于</w>
上 市</w>
餐 馆</w>
审 前</w>
大 胆</w>
传 染</w>
乔 </w>
降 至</w>
仆 人</w>
走 出</w>
不 太</w>
第 4
眼 前</w>
报 价</w>
抓 </w>
兽 </w>
隐 私</w>
联 大</w>
长 大</w>
公 营</w>
技术 咨询</w>
E R
该 案</w>
水 道</w>
简 易</w>
新 鲜</w>
志愿 者</w>
边 界
星期 六</w>
布 朗</w>
就 此
教 室</w>
t a</w>
er s</w>
例 句</w>
食 品
数 百
悔 </w>
车 队</w>
制 成</w>
八 年</w>
汇 集</w>
国际 委员会</w>
红十字 国际委员会</w>
赤 道
维 斯</w>
常任 理事</w>
桑 </w>
安 德
en d
服 从</w>
P r
审 慎</w>
夏 季</w>
多 久</w>
玫 瑰
伯利 兹</w>
祖 国</w>
漆 </w>
头 脑</w>
沙 漠</w>
标 识</w>
事 例</w>
追 溯
1 67</w>
法 制</w>
风 暴</w>
复 合</w>
人 事
古 代</w>
一 切
屏 幕</w>
味 道</w>
参 见</w>
情 况
侵 入</w>
导 向</w>
反 叛</w>
单 个</w>
发 援</w>
演 习</w>
活 着</w>
提 示</w>
时 光</w>
打 死</w>
程序 性</w>
业 主</w>
专 注</w>
不论 是</w>
选 票</w>
货 运</w>
行 星</w>
日 向</w>
建 立
圣诞 节</w>
万 名</w>
出 租
2 13</w>
推 </w>
条 中</w>
引 人
集装 箱</w>
分 工</w>
核 对</w>
姐 妹</w>
出 资</w>
岩 石</w>
快 速
以 使</w>
第 一项</w>
P R</w>
Int ern
2 30</w>
集 体
流 域</w>
19 9</w>
键 </w>
柏 林</w>
据 估计</w>
L A
无 家
18 9</w>
更 高</w>
深 表</w>
少 量</w>
乌 </w>
目 睹</w>
知 名
概 括</w>
上 来</w>
可 信
特别 报告员</w>
意识 形态</w>
18 3</w>
无家 可
or g
扔 </w>
葬 </w>
提高 效率</w>
仿 佛</w>
㈤ </w>
第二十 四届</w>
氯 化
冻 </w>
二 次</w>
冬 天</w>
等 到</w>
政治 家</w>
情 景</w>
分 成</w>
监 测
平等 待遇</w>
变 形</w>
全 新</w>
椅 </w>
希 族</w>
总 统
横 向</w>
敏 </w>
贝 尔</w>
淡 水</w>
露 出</w>
热 线</w>
扣 除</w>
地下 水</w>
切实 可行</w>
集 合</w>
筛 选</w>
效 能</w>
2 42</w>
闹 </w>
全 力支持</w>
培 </w>
挺 </w>
宗教 信仰</w>
1. 4</w>
界 面</w>
接 口</w>
帮 忙</w>
耗 </w>
余 地</w>
2 60</w>
珠 </w>
过 滤
团 结
5. 2</w>
议 会
时 尚</w>
巾 </w>
中央 政府</w>
惩 戒</w>
召 </w>
翁 </w>
温 暖</w>
性 格</w>
四 十
大 门</w>
缺 口</w>
明 星</w>
一次 性</w>
流 产</w>
17 5</w>
提 问</w>
为 例</w>
不 行</w>
维 奇</w>
总 产值</w>
逃 避</w>
美洲 国家
多 万</w>
三 角</w>
项目 管理</w>
美洲国家 组织</w>
履行 职责</w>
情 节</w>
差 旅费</w>
否 决</w>
鹿 </w>
罪 名</w>
1 64</w>
毕 竟</w>
巴 斯</w>
机 密</w>
搬 迁</w>
颇 </w>
野 生</w>
外交 政策</w>
兵 力</w>
方 程</w>
阻 挠</w>
竭 </w>
永久 性</w>
游 行</w>
消 极
酯 </w>
缉 获</w>
结 成</w>
更 是</w>
录 像</w>
巴 尔
起 飞</w>
印度 洋</w>
滴 </w>
实 习</w>
2 11</w>
舆 论</w>
振 动</w>
辟 </w>
获 释</w>
坦 </w>
on g</w>
1 63</w>
此 处</w>
E S
矿 业</w>
浅 </w>
椅 子</w>
勤 人员</w>
利害 关系</w>
不 上</w>
介绍 性</w>
索 偿</w>
名 词</w>
着 重于</w>
申请 者</w>
小 岛</w>
ti on</w>
妹 妹</w>
国 情</w>
哥 哥</w>
a i</w>
X V</w>
排 列</w>
九 个</w>
春 天</w>
扫 </w>
贝 鲁
沃 尔
蛋白 质</w>
绝 望</w>
定 型</w>
名 誉</w>
坝 </w>
发 射
泛 </w>
协 力</w>
阿卜 耶
阿拉伯 人</w>
扫 雷</w>
贿 赂
第七 次</w>
公 主</w>
诚 意</w>
室 内</w>
驻 科</w>
当 年</w>
q </w>
残 酷</w>
检察 院</w>
197 6</w>
内 政</w>
2 27</w>
检 索</w>
怎么 办</w>
第 一份</w>
罗 斯</w>
一 新</w>
众 议院</w>
第 八</w>
国 有
种族 隔离</w>
an g</w>
萨 赫
牲 畜</w>
不 动产</w>
被告 人</w>
封 闭</w>
既 有</w>
17 3</w>
颈 </w>
斜 </w>
世界 大战</w>
隙 </w>
I X</w>
手 指</w>
离 子</w>
阿拉伯 文</w>
这 名</w>
制度 化</w>
五 名</w>
直 接
泊 </w>
严重 威胁</w>
中 方</w>
第六十 九</w>
携 手</w>
容 许</w>
堪 </w>
V II</w>
伪 造</w>
审 批</w>
17 2</w>
适 应
it y</w>
青 年
财 产
摇 </w>
启 用</w>
值得 注意</w>
e h</w>
聊 </w>
优先 权</w>
一 杯</w>
某 项</w>
营 造</w>
监 护</w>
里 斯</w>
巴 厘
两 倍</w>
职 者</w>
四 次</w>
以 求</w>
197 2</w>
缔 </w>
极 其
适用 范围</w>
三 年期</w>
工作 日</w>
锋 </w>
一 阵</w>
i on</w>
原 本</w>
机 理</w>
德 拉</w>
义务 教育</w>
A P
过渡 政府</w>
结构 调整</w>
时 所</w>
深 远</w>
最 长</w>
先 例</w>
地 板</w>
名 叫</w>
每 届</w>
特别 强调</w>
赤道 几内亚</w>
床 上</w>
充 满
掩 盖</w>
悲 惨</w>
奴隶 制</w>
兰 政府</w>
黄 色</w>
埋 </w>
纺 织
此 基础</w>
研究 生</w>
平方 米</w>
芬 </w>
模 板</w>
联 系
魅 力</w>
牧 </w>
日本 政府</w>
士 学位</w>
汇 总</w>
氧 化</w>
短 暂</w>
苏里 南</w>
事务 局</w>
联络 点</w>
执 </w>
工 具
来 讲</w>
胀 率</w>
租 用</w>
下 落</w>
预 警
表示 满意</w>
届 时</w>
专业 知识</w>
骂 </w>
希 尔</w>
威士 兰</w>
瑞 </w>
各 届</w>
克 力</w>
一 处</w>
e x
表示 遗憾</w>
第四十 九届</w>
火 灾</w>
斯 威士兰</w>
高 速
1 68</w>
信用 卡</w>
可 取</w>
最 早</w>
刊 登</w>
凯 恩</w>
登记 处</w>
杜 </w>
法 学</w>
叛 乱</w>
帽 子</w>
保护 环境</w>
温 和</w>
拘 留
拒 绝
积 压</w>
限 定</w>
折 磨</w>
宪 政</w>
贿赂 </w>
称 之为</w>
射 击</w>
铅 </w>
速 效</w>
继续 执行</w>
贝鲁 特</w>
通 讯
不 准</w>
摆 </w>
增 值</w>
储 备金</w>
崇 高</w>
评 级</w>
正 好</w>
命 名</w>
3. 5</w>
国际 金融</w>
通 往</w>
四 名</w>
不 时</w>
警 惕
立 学校</w>
K ar
4. 5</w>
般 的</w>
务 实</w>
赴 </w>
猜 </w>
附 加
无 罪</w>
四 周</w>
热 烈</w>
奉 行</w>
低 成本</w>
宪 </w>
保 管</w>
公 正
中 为</w>
e y</w>
检 讨</w>
武装 力量</w>
印 第
倦 </w>
队 员</w>
里 奥</w>
拓 展</w>
付 诸
2 48</w>
团 聚</w>
供 其</w>
咨询 机构</w>
ó </w>
昨 晚</w>
悲 伤</w>
一 层</w>
一 遍</w>
谎 </w>
零 售
汤 </w>
分 阶段</w>
辩护 律师</w>
词 语</w>
公 平
酮 </w>
负担 得起</w>
该 科</w>
转 运</w>
所 能</w>
17 1</w>
殖 民</w>
校 园</w>
页 面</w>
龄 化</w>
数 百万</w>
心 脏
应 于</w>
壮 </w>
停 火
退休 金</w>
全 氟</w>
t er</w>
总的 来说</w>
跟 着</w>
划 定</w>
人 家</w>
ar d
保 守</w>
A g
吃 惊</w>
千 克</w>
l a</w>
I CC
营 利</w>
总 表</w>
m a</w>
骄 傲</w>
老 龄化</w>
数 码</w>
祈 祷</w>
宏 观</w>
峡 </w>
塞浦路斯 共和国</w>
P OP
马 丁</w>
所罗 门
单 身</w>
人 工
巧 克力</w>
国际 电
个 性</w>
陪 伴</w>
受 损</w>
已 婚</w>
符 号</w>
迈 克尔</w>
承 运人</w>
图 表</w>
回 事</w>
伦 理</w>
轰 炸</w>
天 主教</w>
或 非</w>
四 分之一</w>
F A
裹 </w>
天 使</w>
r ic
瓦 努
逝 </w>
第三 节</w>
4. 3</w>
经 典</w>
自然 人</w>
十 一</w>
税 率</w>
愚 蠢</w>
廉 价</w>
少 于</w>
调查 员</w>
激 动</w>
熊 </w>
道 歉</w>
反 过来</w>
瘾 </w>
家 务</w>
萨赫 勒</w>
大 家庭</w>
主管 机关</w>
紧急 状态</w>
条 所</w>
卢 西亚</w>
肤 色</w>
神 秘</w>
浓 缩</w>
海 域</w>
无 权</w>
下 表</w>
原 告</w>
宣 告</w>
付 给</w>
根 据
开 枪</w>
通 报
调解 人</w>
没 有
信仰 自由</w>
17 4</w>
生殖 器</w>
本 函</w>
庇 护
联络 处</w>
De c</w>
极其 重要</w>
18 5</w>
独 自</w>
电 流</w>
a w</w>
船 上</w>
林 顿</w>
以色列 国防军</w>
第 48</w>
原 谅</w>
痕 </w>
国家 主权</w>
分 辨
高 校</w>
凡 是</w>
阿卜耶 伊</w>
榜 样</w>
农业 部门</w>
偶 尔</w>
亚 洲
酒 吧</w>
说 来</w>
累 计</w>
放 缓</w>
轻 易</w>
耳 朵</w>
不 定</w>
联 发援</w>
晓 </w>
击 者</w>
目 光</w>
以 致</w>
油 价</w>
收 支</w>
20 3</w>
我 来</w>
土耳 其
每 人</w>
剑 </w>
做 些</w>
乃 至</w>
缺 席</w>
10 00</w>
示 威
庄 严</w>
请 问</w>
结 社
升 高</w>
20 .
签 署
零 件</w>
记 载</w>
尖 </w>
结 算</w>
阳 </w>
大 学
外 汇
r e</w>
管理 者</w>
合 计</w>
代 办</w>
到 位</w>
缆 </w>
构成 威胁</w>
结社 自由</w>
制 定
准 确性</w>
瓦努 阿
转 入</w>
第 九</w>
取 缔</w>
e v</w>
灰 </w>
住 户</w>
移 民
起 点</w>
极 度</w>
诽 谤
访 者</w>
礼 貌</w>
挑 衅
行政 长官</w>
大 力支持</w>
非洲 统一
动 脉</w>
巴勒斯坦 国</w>
A hm
非洲统一 组织</w>
缓 和</w>
京 群岛</w>
交 货</w>
2 14</w>
男 童</w>
血 压</w>
法律 依据</w>
证 据
访 谈</w>
卸 </w>
职 司</w>
行 列</w>
放 到</w>
塑 </w>
预 备</w>
碰 到</w>
爵 士</w>
保 育</w>
墓 </w>
发表 声明</w>
开 来</w>
法 医</w>
O S</w>
外 勤人员</w>
初 等教育</w>
犹 太</w>
增 列</w>
哈 利</w>
薪 水</w>
坦 克</w>
及 早</w>
出 示</w>
公共 汽车</w>
警惕 </w>
并 入</w>
鸿 沟</w>
渐 渐</w>
再 生</w>
蛮 </w>
生 理</w>
不 合理</w>
定 量</w>
努 </w>
维尔 京群岛</w>
地 为</w>
澳 门</w>
签署 国</w>
那 边</w>
澳大 利亚
凉 </w>
之 害</w>
等 国</w>
第五 章</w>
货币 政策</w>
18 1</w>
生 病</w>
北 京
侮 辱</w>
国 集团</w>
控 诉</w>
战 士</w>
索 引</w>
上 半年</w>
都 市</w>
说 出</w>
近 几
超 级</w>
机会 均等</w>
圣 卢西亚</w>
压 缩</w>
借 贷</w>
会 面</w>
双 手</w>
一 步
顺 </w>
发生 变化</w>
占 用</w>
就此 结束</w>
高 昂</w>
战 术</w>
北 非</w>
误 差</w>
抛 弃</w>
运 费</w>
所罗门 群岛</w>
P A</w>
３ </w>
侵 蚀</w>
娃 </w>
力 图</w>
一 案</w>
骑 </w>
购 买
街 上</w>
尼 尔</w>
第二十 六条</w>
虚 假</w>
折 扣</w>
我 愿</w>
十 个</w>
农 发</w>
灾 后</w>
印 机</w>
中 等教育</w>
重 要
追 查</w>
管理 处</w>
完全 符合</w>
负 有
卫 队</w>
防 卫</w>
访问 团</w>
舞 蹈
现 出</w>
随 意</w>
罐 </w>
中 间
参 议员</w>
安 静</w>
发布 会</w>
发 性</w>
18 6</w>
遥 远</w>
调 用</w>
玩 笑</w>
并 不</w>
无 限</w>
灌溉 </w>
建 成</w>
R D</w>
多 达</w>
地理 信息系统</w>
19 1</w>
单 词</w>
教 廷</w>
压 迫</w>
磁 </w>
瓦努阿 图</w>
有 何</w>
放 置</w>
干 燥</w>
在 实践
法 定
小 国</w>
兑 换</w>
亚 共和国</w>
一 枚</w>
18 4</w>
玉 米</w>
中 介</w>
17 7</w>
噪 音</w>
东 非</w>
I CE
路 易
第十 九届</w>
A S
帝 国</w>
如 上</w>
喂 养</w>
序 列</w>
东 欧国家</w>
来 临</w>
容 量</w>
例 外
来 文
巨 大
扩 充</w>
试 验
消 防
部 位</w>
月 球</w>
微 生物</w>
实 施
共产 党</w>
姐 姐</w>
感染 者</w>
财务 管理</w>
锡 </w>
局 限于</w>
负有 责任</w>
视 听</w>
管理 制度</w>
调 度</w>
结果 显示</w>
兄 </w>
低 下</w>
an n
精 算</w>
B A</w>
共 处</w>
Su b</w>
通 行</w>
第十 七条</w>
水 泥</w>
简 称</w>
19 69</w>
评 审</w>
思 路</w>
偿 付</w>
i on
其 管辖</w>
身 体
瓦 卢</w>
腐 </w>
外 国
孙 </w>
前 来</w>
生物 学</w>
制 剂</w>
好 象</w>
增 添</w>
加 利
广 阔</w>
民 用
生产 商</w>
is s
马 克
第 纳尔</w>
武 器
挑 战
下 达</w>
食 用</w>
商 标</w>
动 词</w>
付 诸</w>
议会 选举</w>
柔 </w>
失 效</w>
例外 情况</w>
最 具</w>
图 瓦卢</w>
军 用
裤 </w>
公 职</w>
搬 </w>
R ES</w>
关键 性</w>
括 号</w>
白 宫</w>
假 日</w>
执 政</w>
贬 值</w>
忠 诚</w>
两 类</w>
喀 布尔</w>
业 界</w>
2 33</w>
2 18</w>
加 共体</w>
处 死刑</w>
利益 冲突</w>
武 库</w>
un d
双 语</w>
17 8</w>
19 51</w>
北 极</w>
an t
肢 </w>
干 什么</w>
坚 实</w>
四 方</w>
勃 勃</w>
太平 洋
忌 </w>
核 设施</w>
造 福</w>
偏 离</w>
五 十</w>
电 站</w>
当 地
缩 减</w>
天 基</w>
联合 体</w>
兑 </w>
一 章</w>
es t
18 7</w>
随 之</w>
自 我
育 儿</w>
除此 之外</w>
布 林
杂 项</w>
西 非国家</w>
杂 </w>
美联 储</w>
第一 批</w>
啤 酒</w>
毯 </w>
基本 法</w>
开 关</w>
en n
注 视</w>
栋 </w>
腾 </w>
A N
与 非</w>
不 容</w>
D i
政 体</w>
公共 秩序</w>
CM P</w>
A t
猎 </w>
户 主</w>
2. 6</w>
覆盖 面</w>
最 少</w>
逐 字</w>
共和 党</w>
3. 4</w>
熟 练</w>
伊 尔</w>
相关 者</w>
手 工</w>
评 委</w>
占领 军</w>
丢 </w>
会议 厅</w>
6. 2</w>
遗 传
彻底 消除</w>
两 家</w>
所 称</w>
2 25</w>
几 点</w>
p or
人员 编制</w>
那 次</w>
称 作</w>
改 良</w>
30 日</w>
17 6</w>
选 手</w>
当 今
岛 上</w>
欧 共体</w>
读 书</w>
盈 利</w>
大 屠杀</w>
九 龙</w>
薪 资</w>
派 别</w>
第 8
周 一</w>
联 保</w>
罗 姆</w>
查 验</w>
坐 下</w>
这 张</w>
精神 病</w>
规划 系统</w>
联 伊</w>
第十 五届</w>
疹 </w>
格 局</w>
内 向</w>
法律 义务</w>
V III</w>
邻 近</w>
e m</w>
蜜 </w>
树 林</w>
断 定</w>
吵 </w>
20 2</w>
塞 舌
汽 车
对 称</w>
a b</w>
20 6</w>
酒 精</w>
经营 者</w>
研究 者</w>
犹 豫
重大 贡献</w>
过 后</w>
幻 想</w>
九 年</w>
报 名</w>
海 水</w>
19 8</w>
敏感 性</w>
兆 </w>
不 顾</w>
监察 组</w>
外 聘</w>
年 纪</w>
坑 </w>
政 局</w>
案 子</w>
博 客</w>
涵 </w>
拨 出</w>
稳 步</w>
安 南</w>
分 支</w>
略 有</w>
在实践 中</w>
6. 1</w>
4 50</w>
电 器</w>
在 一起</w>
想 想</w>
学 费</w>
你 好</w>
每 当</w>
排 名</w>
圆 满
陪 审
信息 管理</w>
颗 粒</w>
一般 来说</w>
市 区</w>
少 年
安 提
出 缺</w>
y a</w>
第十 六届</w>
律师 协会</w>
个人 资料</w>
会计 师</w>
相 机</w>
夜 晚</w>
增 订</w>
发生 率</w>
转 录</w>
S ch
弹 道
判 处死刑</w>
率 为</w>
哈 马斯</w>
丑 </w>
改 叙
尚 待</w>
先 后</w>
之 三</w>
晚 餐</w>
商业 银行</w>
u m</w>
因 子</w>
钮 </w>
节 能</w>
优 </w>
普遍 认为</w>
- -
加勒比 地区</w>
I C</w>
创造 条件</w>
即 决</w>
乘 坐</w>
– </w>
迪 西</w>
时 常</w>
就 算</w>
涂 </w>
20 7</w>
牙 齿</w>
码 头</w>
上 校</w>
起 码</w>
精神 药物</w>
混 合物</w>
性 取向</w>
捷 克</w>
年 会</w>
各个 领域</w>
红 新
等 候</w>
国际 性</w>
公 开
J oh
祝 福</w>
2 43</w>
废 水</w>
19 4</w>
长 久</w>
综 管</w>
商品 价格</w>
ar y</w>
高 等</w>
罗 伯特</w>
口 语</w>
５ </w>
斯 克</w>
隧 道</w>
安 慰</w>
有效 期</w>
全 都</w>
破 裂</w>
对 外
各 不
技术 人员</w>
建立 联系</w>
陪 </w>
爷 </w>
得 益于</w>
克 林顿</w>
一 览
多 于</w>
Z </w>
搜 寻</w>
审 案</w>
丢 失</w>
注 册
千 美元</w>
节 点</w>
祝 愿</w>
交换 意见</w>
话 说</w>
规范 性</w>
人身 安全</w>
低 估</w>
最 有</w>
克 制</w>
犬 </w>
合作 项目</w>
度 假</w>
聘 请</w>
布 什
0 万</w>
零 售</w>
灾 难
贝尔 格
― </w>
1 1.
轻 微</w>
让 人</w>
焦 </w>
in t</w>
安全 措施</w>
决 不</w>
皇 </w>
教育 领域</w>
2 22</w>
拖 </w>
跳 舞</w>
数 年</w>
迁 徙</w>
贝 利</w>
18 8</w>
庆 </w>
其 所</w>
外 籍</w>
森 特</w>
应 立即</w>
阿鲁 沙</w>
卫 者</w>
万 元</w>
石 棉</w>
开 辟</w>
商 会</w>
新 政府</w>
装 运</w>
水 中</w>
各不 相同</w>
全 人类</w>
海 事
塞舌 尔</w>
贝尔格 莱德</w>
几 周</w>
C l
岗 </w>
三 国</w>
卫生 部门</w>
空 军</w>
19 3</w>
从 来
只 好</w>
第十 七届</w>
性 化</w>
随 机</w>
约 法</w>
研究 员</w>
法律 法规</w>
母 婴</w>
f f
深 深</w>
毫 </w>
动 物
20 9</w>
荒 </w>
案 文
E N
英 联邦</w>
宗教 自由</w>
得 多</w>
开 启</w>
十 五</w>
空气 污染</w>
有所 不同</w>
奖 金</w>
四 项</w>
之 地</w>
效 用</w>
商业 性</w>
上 所述</w>
特 尔</w>
正 常
反应 堆</w>
_ _
20 5</w>
死 去</w>
小组 会议</w>
埃 尔</w>
入 口</w>
ar a</w>
表 现
未 成年</w>
大 鼠</w>
9 年</w>
消极 影响</w>
年龄 组</w>
公 安
赋 </w>
牌 照</w>
焦 虑</w>
布林 迪西</w>
保留 意见</w>
美 属</w>
弹道 导弹</w>
Al i</w>
下 半年</w>
海 地区</w>
子 弹</w>
政策 措施</w>
英 国人</w>
冬 季</w>
蔽 </w>
电 压</w>
津 </w>
金融 体系</w>
挫 折</w>
详细 情况</w>
一 艘</w>
强 加</w>
议 事</w>
心脏 病</w>
有 机
卡 因</w>
两 大</w>
踏 </w>
灾难 性</w>
审 定</w>
13 25</w>
在 乎</w>
功 率</w>
所 得
戏 剧</w>
评 定</w>
委 任</w>
垫 </w>
5. 3</w>
17 9</w>
海洋 生物</w>
匮 乏</w>
歌 曲</w>
天 堂</w>
19 6</w>
有所 改善</w>
广 告
间 隔</w>
炸 药</w>
这 样
拘留 所</w>
意 见
幼 </w>
生 于</w>
威 慑
维 持
萨 米</w>
考 绩</w>
一 点
普 林
建 议
乐 意</w>
在 此</w>
诞 生</w>
意大 利
受 伤害</w>
服务 提供者</w>
em b
移动 电话</w>
男 生</w>
它 会</w>
从业 人员</w>
u r</w>
一 封</w>
舍 尔</w>
五 次</w>
存 货</w>
比 较
完 毕</w>
东 方</w>
SB I</w>
争 辩</w>
古 巴
华 尔
中 应</w>
证 会</w>
萨 卡</w>
瞧 </w>
休 会</w>
预 料</w>
接 管</w>
第四十 八届</w>
面 谈</w>
此 人</w>
现 阶段</w>
均 匀</w>
卓 越</w>
果 断</w>
德 斯</w>
兴奋 剂</w>
任 务
汉 语</w>
阿 里</w>
孤 独</w>
检 察</w>
机 票</w>
发 现
南 极</w>
体育 运动</w>
喀 土
截 </w>
墙 上</w>
军 用</w>
教科 书</w>
翻 修</w>
碱 </w>
见 表</w>
流 失</w>
夜 间</w>
警 务人员</w>
见 证</w>
竟 然</w>
听 证会</w>
六 月</w>
法律 效力</w>
德 尔</w>
城 乡</w>
仔 </w>
199 0年</w>
一览 表</w>
m ent</w>
er v
调 拨</w>
蜡 </w>
抵 触</w>
余 下</w>
本 港</w>
平方 公里</w>
寡 妇</w>
竭 尽全力</w>
斯 科
赛 季</w>
领 先</w>
结 婚
预警 系统</w>
所 处</w>
声 誉</w>
了 。</w>
地 球
公正 性</w>
错 过</w>
总 署</w>
安 道
检 疫</w>
应 从</w>
多 余</w>
冠 </w>
二 十年</w>
船 长</w>
漏 洞</w>
尼 科
第十 八届</w>
锐 </w>
部 族</w>
培 育</w>
事务 所</w>
第一 年</w>
教 员</w>
期 徒刑</w>
维 生素</w>
知 名</w>
湿 地</w>
未 曾</w>
喀土 穆</w>
2 21</w>
欢 乐</w>
搜 集</w>
就 职</w>
狼 </w>
总 协定</w>
借 款</w>
选举 法</w>
百 慕
无 限期</w>
零 部件</w>
听 众</w>
何 处</w>
一 头</w>
2 41</w>
防 扩散</w>
起 因</w>
始 于</w>
典 礼</w>
订 购</w>
敌 军</w>
r y</w>
C T
4. 4</w>
分析 师</w>
历 来</w>
i an</w>
有 望</w>
版 权</w>
偶 然</w>
2 28</w>
极 了</w>
小 麦</w>
进 化</w>
充 实</w>
以 至于</w>
高 风险</w>
富 有
电视 节目</w>
母 语</w>
即 时</w>
午 餐</w>
转 为</w>
H ar
迈 进</w>
条 约法</w>
与 发展
橡 胶</w>
时 性</w>
M IS
成 本
筋 </w>
逮 捕
经济合作 与发展
S am
An d
加拿 大
0. 7</w>
官 僚
课 堂</w>
经济合作与发展 组织</w>
邪 恶</w>
芝 加
投 标
妊 娠
衔 </w>
伤 残</w>
亨 利</w>
阿拉 木
e y
处 分</w>
人 心</w>
簿 </w>
短 语</w>
有 必要</w>
诽谤 </w>
负 荷</w>
奋 斗</w>
20 4</w>
2 37</w>
后 期</w>
P D
吸 入</w>
千 万</w>
迟 到</w>
ICE F</w>
蓝 </w>
矩 </w>
村 民</w>
帽 </w>
互 利</w>
服 兵役</w>
该 段</w>
分 解</w>
令人 担忧</w>
重新 考虑</w>
新 生</w>
减 排</w>
倾 听</w>
m l</w>
I T
识 字</w>
善 意</w>
可 预
加 倍
酚 </w>
极 少</w>
牢 固</w>
学 到</w>
注 目</w>
文 森特</w>
f or</w>
匠 </w>
催化 剂</w>
压 制</w>
容 纳</w>
奋 </w>
咐 </w>
绘 制</w>
房 地</w>
圣 马
I s
日 趋</w>
斯 基</w>
新 建</w>
从来 不</w>
氛 围</w>
墨 </w>
之 急</w>
es s
19 5</w>
昨 日</w>
件 事</w>
一 期</w>
数 十
贵 方</w>
贯 性</w>
控制 权</w>
2 80</w>
百分 点</w>
来 信</w>
加倍 努力</w>
亿 元</w>
施 加
管 局</w>
生活 水准</w>
屋 顶</w>
移民 局</w>
免 疫
鼓 掌</w>
幼儿 园</w>
外交 官</w>
非 线性</w>
与 否</w>
渔 船</w>
消 息
恕 </w>
强 烈
轮 胎</w>
乐 队</w>
不 佳</w>
慌 </w>
否 决权</w>
澳 门
驱 </w>
天 文
N P
跨 境</w>
见 本</w>
磷 </w>
CA T</w>
株 </w>
h a</w>
亟 需</w>
相 等</w>
弟 弟</w>
虐 </w>
者 之间</w>
布 拉</w>
奇 迹</w>
庇护 所</w>
篷 </w>
相 连</w>
符合 国际</w>
关 节</w>
2 16</w>
空 调</w>
时 效</w>
因 于</w>
海 峡</w>
换 句
捍 卫者</w>
仑 </w>
营 业
百慕 大</w>
大气 层</w>
挑衅 </w>
无 人
产 科</w>
阴 影</w>
一 小
2 15</w>
走 过</w>
c om</w>
ar i</w>
m an
鼻 子</w>
维 纳
留 给</w>
葡萄 酒</w>
事 后</w>
除 名</w>
社 区
盯 </w>
a k</w>
通 过
景 观</w>
市 政府</w>
夏 </w>
in t
稍 </w>
期 限
喂 </w>
道 德
械 </w>
2 66</w>
微 软</w>
乐 趣</w>
学 业</w>
单 纯</w>
提出 申请</w>
尺 度</w>
棵 </w>
越 过</w>
赔偿 金</w>
国 主义</w>
但 须</w>
S P
我 们
佩 </w>
不 该</w>
谷 歌</w>
p l
金 沙
P et
钉 </w>
MIS C</w>
全 年</w>
不 然</w>
不 知
赫 尔
已 获</w>
大 厅</w>
货 物
高 峰</w>
次 世界大战</w>
出 国</w>
记 入</w>
角 度
航 运</w>
克 莱
19 63</w>
耻 </w>
挑战 性</w>
停 车
查 访</w>
＊ </w>
并 发
巴布 达</w>
圣 多
周 五</w>
使 该</w>
频 道</w>
肿 </w>
第十 四届</w>
半 球</w>
丁 斯</w>
中 说</w>
第 9
法律 咨询</w>
姿 态</w>
P h
过 高</w>
同 盟</w>
大 城市</w>
周 转
劫 持</w>
恰 恰
野 蛮</w>
界 线</w>
f or
新 年</w>
代 人</w>
今 年
行政 助理</w>
第 7
继续 下去</w>
矩 阵</w>
此 举</w>
一 款</w>
血 统</w>
拓 </w>
安提 瓜
坚 持
ic e</w>
最 不</w>
经济 衰退</w>
电 讯</w>
s e
暗 杀</w>
覆盖 率</w>
款 人</w>
激 素</w>
流 向</w>
媒 体
贪 污</w>
19 7</w>
并发 症</w>
安提瓜 和
安提瓜和 巴布达</w>
动 力学</w>
马 绍
起 着</w>
赔偿 额</w>
巴 西
2 69</w>
还 给</w>
可 卡因</w>
克 兰
诗 人</w>
营 运</w>
尝 </w>
e b</w>
辈 </w>
医 务人员</w>
疯 </w>
一 门</w>
缓 冲
广 义</w>
获 得
换句 话说</w>
保护 法</w>
舞蹈 </w>
烤 </w>
备 件</w>
15 日</w>
赚 </w>
行为 人</w>
太平洋 地区</w>
光 明</w>
那 条</w>
各 次</w>
批 准
玫瑰 </w>
S S</w>
持 有人</w>
必 将</w>
此 刻</w>
产 业
扶 养</w>
当今 世界</w>
替代 性</w>
民用 航空</w>
定 向</w>
当 务
滥 用
亿 人</w>
总 人口</w>
碰 撞</w>
化 管</w>
第十 一条</w>
微 妙</w>
备 用</w>
特 许
焰 </w>
o y
无 所
敬 意</w>
金沙 萨</w>
表 情</w>
基 因
互 补</w>
2 53</w>
非 法行为</w>
期限 内</w>
无 线</w>
角度 看</w>
绳 </w>
变 性</w>
海 滩</w>
小 小
6. 5</w>
柄 </w>
当务 之急</w>
真 实
子 里</w>
技 </w>
五 岁</w>
m ar
安 娜</w>
阿 克拉</w>
唇 </w>
出 差</w>
不结 盟</w>
灰 色</w>
俄 文</w>
阿拉木 图</w>
股 权</w>
根 深
中 向</w>
居 民
原 油</w>
ICC D</w>
问 道</w>
浪 漫</w>
塑 造</w>
5. 5</w>
2 58</w>
原 定</w>
不 去</w>
s c</w>
股 票
皆 </w>
决 书</w>
不 止</w>
学 历</w>
司法 部长</w>
卜 </w>
D NA</w>
高 出</w>
摆 在</w>
南 美洲</w>
铝 </w>
人 中</w>
简 历</w>
禁 毒
文 物</w>
另 一方</w>
迫 击
一 整套</w>
纺织 品</w>
根据 上述</w>
渐 进</w>
办公 厅</w>
洁 净</w>
厕 所</w>
I S</w>
蒂 固</w>
碗 </w>
圣 经</w>
动 乱</w>
担 负</w>
五 月</w>
报 销</w>
对 话
联合 声明</w>
疲 劳</w>
设计 师</w>
粒 子</w>
并 行</w>
根深 蒂固</w>
向 上</w>
不 下</w>
安道 尔</w>
蛋 糕</w>
联 东</w>
尔 群岛</w>
多边 条约</w>
G u
产 地</w>
硫 </w>
比 重</w>
格林纳 达</w>
氮 </w>
俄 国</w>
膏 </w>
联 苯</w>
渗 透</w>
固 体</w>
加 热</w>
回 避</w>
反 思</w>
要 说</w>
大 自然</w>
口 袋</w>
信息 中心</w>
按 钮</w>
g a</w>
a q
水 源</w>
推 销</w>
2. 7</w>
而 成</w>
蜂 </w>
牢 </w>
纳 税
早 婚</w>
管理 制</w>
泰 </w>
有 序</w>
交 战</w>
英 文
账 目</w>
期 刊</w>
侵 权</w>
万 国
国民 经济</w>
光 盘</w>
充分 发挥</w>
三 级</w>
磅 </w>
挽 救</w>
年度 预算</w>
一 刻</w>
绿 </w>
过 早</w>
科 研</w>
真 寺</w>
摄 影</w>
公 海</w>
清 真寺</w>
检查 和</w>
早 餐</w>
奥林匹 克</w>
异 性</w>
电 缆</w>
测 试
噪 声</w>
树 脂</w>
摩尔多 瓦</w>
帕 劳</w>
化 物</w>
现 时</w>
反 驳</w>
海 洛
览 会</w>
交 由</w>
桌 上</w>
善 政</w>
专业 化</w>
变 暖</w>
商 用</w>
写 信</w>
负责 管理</w>
列 于</w>
哈 迈
共同 市场</w>
领导 层</w>
巴厘 </w>
众 人</w>
家 乡</w>
刑事 案件</w>
形 容</w>
促 进
礼 拜</w>
分 支
优 惠
国 界</w>
热 爱</w>
有 利
交流 经验</w>
十 字
休 闲</w>
摩 托
原 材料</w>
公共 安全</w>
el l</w>
汤 加</w>
弯 </w>
组织 法</w>
第十 五条</w>
反对 党</w>
凯 </w>
银 行业</w>
通货膨 胀率</w>
棉 花</w>
本 土</w>
小小 的</w>
反 洗钱</w>
双 重
住 房
运动 会</w>
芒 </w>
点 钟</w>
左 </w>
烦 恼</w>
这 段</w>
棘 手</w>
禁毒 署</w>
解 读</w>
社会 工作者</w>
研究 成果</w>
天 体</w>
区 政府</w>
欠 款</w>
k a</w>
持续 增长</w>
招 待
布什 总统</w>
驰 </w>
变 换</w>
两 架</w>
遗 弃</w>
海 湾</w>
I T</w>
马绍 尔群岛</w>
狮 子</w>
标 明</w>
普 及
四 月</w>
纷 纷</w>
G S</w>
根本 原因</w>
打 印</w>
通 信
表 中</w>
毫 克</w>
法 委员会</w>
排 定</w>
仲裁 员</w>
5 9
密 封</w>
预 订</w>
带 给</w>
肥 胖</w>
无家可 归</w>
三 维</w>
被 动</w>
联合国 国际贸易
联合国国际贸易 法委员会</w>
穿 越</w>
最 快</w>
2 64</w>
常 任</w>
克 隆</w>
S ec
访问 期间</w>
语 法</w>
热 点</w>
ht ml</w>
接 洽</w>
中 型</w>
逐 </w>
印第 安
调 和</w>
晚 些时候</w>
停 战</w>
优 良</w>
ht m</w>
专 利
葡萄 牙
on e</w>
散 步</w>
合法 化</w>
制 服</w>
如 说</w>
am b
amm ad</w>
魔 </w>
CE RD</w>
诺 斯
接 收
第十 八条</w>
查 找</w>
为 限</w>
工 艺
多 数
圣 文森特</w>
电话 号码</w>
浮 </w>
伤 性</w>
3 60</w>
激 情</w>
易 受</w>
UN A
承 包</w>
同 酬</w>
揭 露</w>
第一 节</w>
宁 愿</w>
er g
7. 5</w>
第 6
数 学
一 时</w>
i i</w>
S p
场 景</w>
起 源</w>
备 灾</w>
分支 机构</w>
临时 代办</w>
at e</w>
伟 </w>
举 动</w>
中 毒</w>
上 将</w>
途 中</w>
空 前</w>
操 </w>
制 图</w>
以 防</w>
乍 </w>
收 缴</w>
尊 </w>
生 动物</w>
所 有者</w>
2 17</w>
这 部分</w>
剥 夺
中 旬</w>
查 尔斯</w>
减 弱</w>
言 语</w>
法 例</w>
悬 而
谨 向</w>
悬而 未决</w>
2 55</w>
高速 公路</w>
避 难</w>
东南 亚
E l</w>
谋 生</w>
Intern ational</w>
艾 哈迈
真 空</w>
焊 接</w>
一 眼</w>
腺 癌</w>
数据 处理</w>
深 海</w>
发展 局</w>
静 止</w>
此 一</w>
B an
警 报</w>
减 小</w>
忠 实</w>
广 为</w>
2 52</w>
滨 </w>
意 向</w>
d a</w>
身 心
所在 国</w>
准 予</w>
女 王</w>
塘 </w>
包 裹</w>
M A
2 36</w>
阿 比
剥夺 权利</w>
亲 密</w>
2 54</w>
i j
6. 3</w>
南 太平洋</w>
犯罪 人</w>
波 利
著 作</w>
吗 ？</w>
友 好
M ich
高 地</w>
格林纳 丁斯</w>
第一 期</w>
长 达</w>
化 石</w>
上 课</w>
M on
账 款</w>
2 76</w>
金 属
服 用</w>
绘 画</w>
渥 太
口 气</w>
融 </w>
缅甸 政府</w>
al l</w>
胜 任</w>
模 仿</w>
德 黑
纪 要</w>
住 院</w>
O r
负 债
终 结</w>
情 事</w>
升 值</w>
集 群</w>
防 空</w>
进 一步
起 初</w>
稍 后</w>
垂 直</w>
e h
热 量</w>
汽 </w>
橄 榄
疼 </w>
妊娠 </w>
周 边</w>
加 州</w>
~ </w>
2 23</w>
渥太 华</w>
多 层面</w>
东南 欧</w>
相 比
一 分钟</w>
砖 </w>
贸易 谈判</w>
海洛 因</w>
沿 岸</w>
联 格</w>
最 大
小 男孩</w>
马尔 维纳
注 定</w>
加利 福
爱 好</w>
务 必</w>
一九 九
诫 </w>
科 菲</w>
冷 静</w>
磺 酸</w>
惊 奇</w>
差 价</w>
退 还</w>
大 地</w>
醉 </w>
is h
语 音</w>
创新 性</w>
分 泌
第 47</w>
妇 人</w>
订 阅</w>
德黑 兰</w>
寒 冷</w>
定 期
辩 称</w>
一 幅</w>
集 成</w>
竞争 对手</w>
受 雇</w>
2 65</w>
联 席会议</w>
长期 存在</w>
滚 </w>
威 廉</w>
全 盘</w>
穴 </w>
周 转</w>
各项 政策</w>
帕 拉</w>
三 月</w>
改 划</w>
主 权
7. 1</w>
佛 罗
上 下</w>
e k</w>
狭 窄</w>
腐 蚀</w>
失 衡</w>
归 因于</w>
斯 托
偏 远</w>
马 舍尔</w>
参 看</w>
第四 节</w>
质量 保证</w>
结 社</w>
明确 指出</w>
责 成</w>
罕 见</w>
选 用</w>
失 踪
归 咎
客 观
麦 克</w>
价值 链</w>
纳税 人</w>
人 能</w>
一 封信</w>
水 质</w>
几 分钟</w>
数 次</w>
交 道</w>
6. 4</w>
逾 </w>
芝加 哥</w>
增 补</w>
产 阶级</w>
改革 方案</w>
诚 信</w>
另 见</w>
ST A</w>
鸡 蛋</w>
立法 机关</w>
所得 税</w>
润 滑
不 容
核 爆炸</w>
允 </w>
使用 权</w>
书面 形式</w>
2 38</w>
如 上所述</w>
工 商</w>
去 除</w>
删 去</w>
an e</w>
R E
票 据</w>
描 绘</w>
星期 天</w>
香港 特别行政区</w>
恐怖 活动</w>
陆 军</w>
身心 健康</w>
纵 向</w>
政 变</w>
插 </w>
2 31</w>
物 项</w>
全 境</w>
上 个月</w>
运载 工具</w>
复 合
圣诞 </w>
阿比 让</w>
白 人</w>
咬 </w>
办 事</w>
心理 学</w>
服 刑</w>
不 堪</w>
球 场</w>
扇 </w>
语 言
植 物
理 论
刑 警</w>
H am
财 产权</w>
调查 报告</w>
代 谢</w>
高 频</w>
浴 </w>
c o</w>
P C
2 32</w>
演 奏</w>
尔 顿</w>
威慑 </w>
夕 </w>
降 到</w>
现 存</w>
混 淆
遇 见</w>
跟 进</w>
图 案</w>
百 万
干 部</w>
雨 水</w>
大 道</w>
三 角
发展 趋势</w>
盆 地</w>
日 报</w>
口 译员</w>
叔 </w>
倾 销</w>
密切 联系</w>
切尔 诺
丝 毫</w>
i k</w>
有 过</w>
论 证</w>
服务 质量</w>
掷 </w>
拉 美</w>
开 头</w>
随 便</w>
伸 出</w>
驶 </w>
牢 房</w>
圣马 力
发生 冲突</w>
建 模</w>
借 调</w>
让 步</w>
巨 额</w>
各 政党</w>
为 准</w>
死 者</w>
〕 </w>
运 载</w>
生 人</w>
精 英</w>
永 恒</w>
抵 御</w>
废 止</w>
过 剩</w>
特许 权</w>
总体 而言</w>
外 表</w>
带 领</w>
不可 逆转</w>
① </w>
5. 4</w>
2 90</w>
拾 </w>
阿根 廷
多 大</w>
t h</w>
执行 官</w>
卡 拉巴
这 套</w>
科 目</w>
电 源</w>
用 户
欧洲 理事会</w>
巡逻 队</w>
宿 舍</w>
哺 乳
2 44</w>
唯 </w>
高 尔
辛 烷</w>
莎 白</w>
刊 物</w>
克罗 尼
白 天</w>
从 此</w>
每 一项</w>
高 温</w>
哨 </w>
康 </w>
车 间</w>
动 植物</w>
争 夺</w>
密 克罗尼
两 条</w>
塞尔 维
连 贯性</w>
进一步 提高</w>
眼 镜</w>
摩 西</w>
实 现
音 机</w>
开幕 式</w>
平均 数</w>
199 7年</w>
十 年代</w>
2 24</w>
非 暴力</w>
体 检</w>
仍 旧</w>
退 回</w>
詹 姆斯</w>
肌 </w>
发现 自己</w>
军用 飞机</w>
星 球</w>
卢 萨卡</w>
再 见</w>
详 述</w>
经 纪
禽 </w>
槛 </w>
鸦 片</w>
换 言之</w>
战略 伙伴</w>
SB STA</w>
辍 学</w>
应 享</w>
出口 国</w>
时 才</w>
CC W</w>
虚 </w>
中 请</w>
满 意
氯 烃</w>
公 用
意 在</w>
上 级</w>
涌 </w>
欲 望</w>
保 全</w>
不 易</w>
批准 书</w>
0. 5</w>
思 想
2 46</w>
制定 者</w>
明 显
款 中</w>
引人 注目</w>
捕 获</w>
六 次</w>
珊瑚 礁</w>
大 街</w>
劳工 法</w>
u l</w>
移 送</w>
刑 期</w>
内 务部</w>
R A
阴 </w>
抖 </w>
鹰 </w>
尔 特</w>
广播 电台</w>
印 制</w>
前 瞻
计 入</w>
眼 光</w>
娱 乐
吻 合</w>
2 47</w>
19 48</w>
行 人</w>
安全 网</w>
税 款</w>
总 经理</w>
全 环</w>
缩 编</w>
煤 炭</w>
接 替</w>
出口 商</w>
收 缩</w>
可 观</w>
中 是</w>
第一 季度</w>
玛 丽
乃 是</w>
联 布</w>
坚 强</w>
辛 </w>
分 在</w>
髓 </w>
难 度</w>
战略 部署</w>
无 知</w>
里约 热
小 型
底 部</w>
伞 </w>
七 月</w>
里约热 内
缺 失</w>
游 说</w>
G h
7 50</w>
里约热内 卢</w>
空间 科学</w>
免 税</w>
商 讨</w>
〔 </w>
讯 息</w>
潘 基
逗 留</w>
该 款</w>
成 品</w>
心理 健康</w>
本 章</w>
限 性</w>
民间 组织</w>
瓷 </w>
潘基 文</w>
野 生动物</w>
大 马
不 肯</w>
上 述
Q u
30 5</w>
重 型</w>
纱 </w>
悬 挂</w>
保险 费</w>
恶 性
开 火</w>
非 核心</w>
摘 </w>
t e</w>
2 34</w>
爱 德
陷 于</w>
通报 情况</w>
辉 </w>
审计 工作</w>
2 61</w>
ic a</w>
稳 固</w>
有 益于</w>
最终 目标</w>
军事 化</w>
这 块</w>
定 制</w>
地 铁</w>
郊 区</w>
联 署</w>
撰 文</w>
侵 略
凭 借</w>
亚 哥</w>
图 形</w>
十 九</w>
萨 拉
琼 斯</w>
珍 贵</w>
总体 目标</w>
伊 丽
政治 化</w>
境 地</w>
分 部</w>
其 为</w>
安全 区</w>
中 心
第四十 六届</w>
门 户</w>
海 关
残 割</w>
屋 子</w>
皮 特</w>
打 交道</w>
好 几个</w>
门 槛</w>
虫 剂</w>
瑙 鲁</w>
外 资</w>
卡拉巴 赫</w>
核 武库</w>
泄 漏</w>
不 像</w>
V D</w>
线 索</w>
戮 </w>
偏 远地区</w>
e an</w>
肝 </w>
光 学</w>
专 项</w>
8 年</w>
节 奏</w>
经济 区</w>
演 说</w>
2 19</w>
未 满</w>
人民 代表大会</w>
连 任</w>
踢 </w>
衬 衫</w>
战 场</w>
输 送</w>
肩 </w>
稳 定
2 75</w>
紧 迫
相比 之下</w>
鲁 萨
是 否
卫 星
火 山</w>
周 二</w>
出 具</w>
难 者</w>
罪 恶</w>
总 监</w>
图 书</w>
z a</w>
国家 机关</w>
监督 机制</w>
抵 销</w>
剧 院</w>
代表 权</w>
at h
A p
说 。</w>
互 联
二十 </w>
欧 盟
价格 上涨</w>
遵 行</w>
经 受</w>
关 怀</w>
候 补</w>
下 雨</w>
腰 </w>
吩 咐</w>
介 质</w>
达 格</w>
触 发</w>
莱 达
洛 杉
未 缴</w>
出租 车</w>
配 件</w>
3 20</w>
医疗 卫生</w>
关 爱</w>
局 限性</w>
局 限</w>
内 涵</w>
仅 为</w>
有 无</w>
宪 兵</w>
嘿 </w>
2 57</w>
行 之
顺 利
请 洽</w>
步 行</w>
各 界</w>
不 动</w>
正常 化</w>
追溯 </w>
恐怖 袭击</w>
哀 </w>
脚 注</w>
年 鉴</w>
资本 主义</w>
获 胜</w>
年 里</w>
送 往</w>
莱达 鲁萨
文 莱达鲁萨
M ah
连 接
短 期内</w>
爱 国</w>
性 传播</w>
机 能</w>
圣 地
船 员</w>
幽 默</w>
娅 </w>
一般 而言</w>
资 深</w>
求 助</w>
送 回</w>
这 事</w>
箱 子</w>
斯 顿</w>
传 说</w>
战 时</w>
清 醒</w>
E d
赦 免</w>
萧 条</w>
瓣 </w>
全 职</w>
系 指</w>
示威 者</w>
沉 积
受 灾
2. 8</w>
第六 章</w>
挚 </w>
女 孩子</w>
坚 定
降 解</w>
多 媒体</w>
进 修</w>
应 以</w>
A L
致 辞</w>
构 架</w>
胎 儿</w>
并 用</w>
大 海</w>
中 所列</w>
喀 尔</w>
减 损</w>
以 内</w>
议 长</w>
外 出</w>
M or
2 45</w>
终 端</w>
参与 方</w>
举 例</w>
停 滞</w>
计 长</w>
军事 法庭</w>
生命 周期</w>
吐 </w>
丛 </w>
霍 </w>
经济 援助</w>
早 先</w>
政 客</w>
国 旗</w>
需 求
视 作</w>
放 下</w>
7. 2</w>
第四 个</w>
畏 </w>
主 计长</w>
世 上</w>
ation s</w>
慈 善
感到 高兴</w>
补 充
深 处</w>
晚 饭</w>
九 月</w>
藉 </w>
一 是</w>
ad i</w>
火 焰</w>
伤 心</w>
雄 心
谘 询</w>
看 过</w>
扰 乱</w>
威 尔</w>
反 射</w>
饮 </w>
达 喀尔</w>
股 价</w>
老挝 </w>
善 治</w>
谢 您</w>
布 宜
马 车</w>
门 户
欧盟 委员会</w>
好 事</w>
讲 习</w>
民族 团结</w>
日 渐</w>
部 份</w>
感 冒</w>
养 育</w>
行之 有效</w>
盗 窃</w>
视 力</w>
R ob
星期 日</w>
收 藏</w>
兰 国</w>
隐 </w>
诱 惑</w>
第三 款</w>
泣 </w>
杀 戮</w>
邮 箱</w>
共同 利益</w>
东 北</w>
第八 次</w>
电 机</w>
本 应</w>
所 获</w>
乙 烯</w>
计算 方法</w>
举 例
E x
陌 生人</w>
起 诉
第二十 二届</w>
来 源
惠 及</w>
令人 不安</w>
奥 尔
伊丽 莎白</w>
诺斯 艾
率 领</w>
同 伴</w>
利 息
足 额</w>
照 射</w>
指 认</w>
大 为</w>
布宜 诺斯艾
两 者之间</w>
冷 却</w>
共 存</w>
饥 荒</w>
音乐 会</w>
改 正</w>
兄 弟
酪 </w>
过滤 </w>
笔 译</w>
付 费</w>
新 近</w>
例 行</w>
住 区</w>
ir a</w>
表示 同意</w>
28 3</w>
幢 </w>
尚 无</w>
偿 金</w>
iy ah</w>
S E
霜 </w>
管 制
文 凭</w>
看 不到</w>
没 错</w>
里 亚
杀 虫剂</w>
散 布</w>
一 看</w>
12 67</w>
情况 通报</w>
一 律</w>
逆 转录</w>
安 第
亲 戚
未 获</w>
停 下来</w>
二 者</w>
本 月</w>
不 及</w>
蒙 受</w>
尼 奥</w>
致 意</w>
一 行</w>
行 走</w>
翻 新</w>
努力 提高</w>
驻 扎</w>
减 去</w>
每 位</w>
更 生</w>
文莱达鲁萨 兰国</w>
宽 带</w>
保护 主义</w>
辰 </w>
耍 </w>
信 徒</w>
r o</w>
货物 运输</w>
洛杉 矶
常 委会</w>
奥斯 陆</w>
听 力</w>
阴 谋</w>
出 租</w>
远 距离</w>
私 权</w>
肺 </w>
圣马力 诺</w>
CC PR</w>
斯 塔
印 刷
抹 </w>
驱逐 出境</w>
招 </w>
利用 率</w>
酱 </w>
最低 标准</w>
生 存
1. 6</w>
t on</w>
om p
航天 局</w>
弗 兰
大马 士
19 66</w>
紧急 行动</w>
逃 跑</w>
第四十 七届</w>
海 平面</w>
普 京</w>
日益 增长</w>
公 立</w>
过渡 期</w>
当 初</w>
东南亚 国家联盟</w>
福 克兰
淋 </w>
28 9</w>
就 读</w>
加以 解决</w>
电 气</w>
拜 访</w>
叹 </w>
依 旧</w>
伤 口</w>
ind ex</w>
配 套</w>
董 事
腐 败
识 字
画 面</w>
大马士 革</w>
^ </w>
钠 </w>
吸 毒
医 师</w>
3. 6</w>
气 味</w>
城 里</w>
本 署</w>
锌 </w>
谎 言</w>
荣 耀</w>
韩 </w>
头 部</w>
供 电</w>
骨 折</w>
看 不见</w>
掠 夺</w>
圣地 亚哥</w>
伯 爵</w>
3 65</w>
过 失</w>
埃 厄</w>
童 年</w>
提 法</w>
应 予以</w>
４ </w>
牢 记</w>
推 移</w>
手 臂</w>
公 吨</w>
Par t</w>
激 进</w>
教 养</w>
印 尼</w>
A L</w>
调 控</w>
耕 地</w>
克 什
讽 刺</w>
脾 气</w>
混淆 </w>
格 尔</w>
里约 集团</w>
紧急 状况</w>
带 走</w>
萨 尔</w>
深 受</w>
手 法</w>
合 伙</w>
似 宜</w>
轮 流</w>
联 索</w>
方 位</w>
难 过</w>
教育 部门</w>
实现 目标</w>
亦 可</w>
收 容
搁 置</w>
再 说</w>
外 长</w>
停车 场</w>
测 验</w>
主持 会议</w>
细 目</w>
纽 </w>
威尔 士</w>
乙 </w>
瘫 痪
包 围</w>
税 务
可 不</w>
慕 </w>
风 雨</w>
长 者</w>
速 率</w>
切尔诺 贝利</w>
A c
聚 力</w>
开展 业务</w>
B l
积极 支持</w>
资 企业</w>
体 积</w>
笑 话</w>
赞 成
西 比</w>
粟 </w>
拥 抱</w>
洒 </w>
收容 所</w>
开 端</w>
宠 物</w>
善 良</w>
分 化</w>
根本 上</w>
在 案</w>
全 身</w>
22 日</w>
福克兰 群岛</w>
不良 影响</w>
渣 </w>
法 则</w>
尼亚 共和国</w>
信 服</w>
八 国集团</w>
沉 积</w>
新 娘</w>
事实 证明</w>
A T
贼 </w>
朝鲜 半岛</w>
斑 </w>
数据 中心</w>
全 会</w>
隐 私权</w>
浦 </w>
㈥ </w>
赚 取</w>
详 </w>
缚 </w>
站 点</w>
根本 性</w>
张 贴</w>
吉 姆</w>
来源 国</w>
击 中</w>
于 此</w>
新 任</w>
法 院
借 此</w>
产 后</w>
欣 </w>
来 源于</w>
四 分
一 股</w>
陛 下</w>
测 性</w>
气 温</w>
国家 统计局</w>
案 中</w>
市 政
p d
19 50</w>
祭 </w>
昆 虫</w>
p res
试 着</w>
至 多</w>
恐怖 组织</w>
化 妆
重 振</w>
诗 歌</w>
第 5
带 头</w>
19 68</w>
领 地</w>
负 责任</w>
瘫痪 </w>
潮 流</w>
用 地</w>
大 有</w>
er a</w>
e ch
纪念 活动</w>
就业 率</w>
目 标
柴 </w>
和 睦
同 类</w>
俄 语</w>
S a
D av
紧 紧</w>
第十 六条</w>
泰 勒</w>
反 抗</w>
局 局长</w>
C T</w>
归咎 于</w>
另 一名</w>
切 断</w>
选 区</w>
亚 历
心 态</w>
3 3
草 地</w>
温 柔</w>
方 可</w>
第二 类</w>
步 枪</w>
月 亮</w>
史 蒂
23 日</w>
2 59</w>
第二 次世界大战</w>
o t</w>
楼 宇</w>
极 限</w>
伪 </w>
成 像</w>
人 性</w>
均 收入</w>
决 赛</w>
n e</w>
经纪 人</w>
镜 子</w>
畅 </w>
O E
送 达</w>
科威 特
k o</w>
眼 泪</w>
深 圳
光 线</w>
第四十 届</w>
高 水平</w>
门户 网站</w>
本 合同</w>
塌 </w>
金融 部门</w>
常务 委员会</w>
格 里
宣 扬</w>
破 产
Moh am
适用 性</w>
影 像</w>
k h
在此 之前</w>
革 命
菜 单</w>
获 得成功</w>
摄 影
功 能
非常 重视</w>
测 器</w>
尤 </w>
创造 力</w>
创 办</w>
所 者</w>
好 转</w>
坐 标</w>
人 发</w>
闷 </w>
物 业</w>
装 修</w>
再 次
迈 向</w>
3 38</w>
抽 样</w>
口 径</w>
平 稳</w>
表现 形式</w>
可 予</w>
科技 委</w>
托 人</w>
芽 </w>
工作 岗位</w>
密 集
默 认</w>
行 驶</w>
意 志
数 月</w>
发 光</w>
水 面</w>
圆 满</w>
农 田</w>
脉 冲</w>
控制 器</w>
远 景</w>
身 为</w>
不 用
宰 </w>
大 力
分 数</w>
科 长</w>
开 创</w>
鉴 别</w>
逢 </w>
归 类</w>
代表 作</w>
2 49</w>
高 压</w>
共 用</w>
主 观</w>
P l
赐 </w>
扮 </w>
安 圭
O N
识字 率</w>
而 言之</w>
29 6</w>
装 有</w>
纤 </w>
歇 尔</w>
天 赋</w>
不 管
不 移</w>
第十 次</w>
导 则</w>
恶 意</w>
忽 </w>
口 头
协 理</w>
倒 退</w>
俘 </w>
许 多
书 写</w>
赞成 票</w>
党 人</w>
８ </w>
陪审 团</w>
瞒 </w>
人 均收入</w>
R I</w>
绑 </w>
胃 </w>
筑 </w>
成 功
视 野</w>
督 察</w>
归 属</w>
奉 献</w>
商 界</w>
受 限制</w>
照 明</w>
3 30</w>
试 行</w>
第一 位</w>
安全 局</w>
NP T</w>
2 39</w>
非常 高兴</w>
放 心</w>
降 落</w>
篮 球</w>
扎 伊尔</w>
领导 者</w>
兼 职</w>
28 8</w>
竭 力</w>
盒 子</w>
车 子</w>
裙 </w>
茎 </w>
崛 起</w>
动 摇</w>
享 用</w>
海 里</w>
次 要</w>
发言 权</w>
中东 地区</w>
销 商</w>
海 港</w>
O C</w>
芯 片</w>
打 印机</w>
年 满</w>
埃 尔
侦 察</w>
元 件</w>
一 语</w>
缸 </w>
繁 殖</w>
旅 程</w>
教 导</w>
清 算</w>
弹 头</w>
2 29</w>
运 气</w>
迈 克</w>
匹 </w>
地 毯</w>
可 望</w>
供 参考</w>
排 序</w>
国 贸</w>
禽 流感</w>
微 观</w>
国家 级</w>
卡塔 赫
击 败</w>
经济 效益</w>
第九 次</w>
相互 尊重</w>
赶 上</w>
期 满</w>
贫困 人口</w>
妇女 儿童</w>
奈 </w>
专 职</w>
泻 </w>
核 技术</w>
周 日</w>
人 来</w>
精 彩</w>
公共 事务</w>
服 役</w>
奢 侈
油 田</w>
国际 海事
逆 </w>
聊 天</w>
核 销</w>
是否 是</w>
放 宽</w>
州 长</w>
安圭 拉</w>
厌 恶</w>
麦 克
破 碎</w>
解 体</w>
约 瑟
沿 线</w>
安 东
决策 机构</w>
膨 胀</w>
搁 </w>
达 尔</w>
明 亮</w>
待 命</w>
互 补
践 踏</w>
善 于</w>
凝 聚力</w>
克什 米尔</w>
倾 斜</w>
第一 类</w>
探 访</w>
建议 书</w>
天 才</w>
专业 人士</w>
营 商</w>
燃 油</w>
Ab u</w>
16 日</w>
猛 </w>
犹豫 </w>
特殊 教育</w>
宝 宝</w>
适 于</w>
说 明
丸 </w>
购买 力</w>
日 程
甜 </w>
卡塔赫 纳</w>
体 上</w>
纸 张</w>
剪 </w>
生产 国</w>
情 势</w>
宝 贝</w>
好 多</w>
法 学院</w>
本 信</w>
族 人</w>
关 税
花 钱</w>
换 成</w>
就 任</w>
停 车</w>
缓冲 区</w>
望 远
生活 费</w>
外国 投资</w>
净 化</w>
龟 </w>
研究 院</w>
上 届</w>
2 72</w>
鞋 子</w>
逍 遥
而 应</w>
第一 轮</w>
涌 入</w>
拉 里</w>
嫁 给</w>
真 主
获 取
机 动</w>
6 50</w>
装 甲
流 动
施加 压力</w>
合 伙
er r
眼 中</w>
最终 用户</w>
天 上</w>
劝 </w>
质 素</w>
望远 镜</w>
感 动</w>
多种 多样</w>
罂 粟</w>
件 人</w>
真主 党</w>
搭 配</w>
人力 资本</w>
第十 三条</w>
洛 斯</w>
参 </w>
危险 性</w>
as t
” “
西 斯</w>
摩 擦</w>
冰 箱</w>
S G
20 日</w>
巴 士</w>
唐 </w>
旱 灾</w>
放 大</w>
娶 </w>
喝 酒</w>
偏 低</w>
祭 司</w>
每 隔</w>
间 谍
搭 </w>
am a</w>
迷 人</w>
结 案</w>
柴 油</w>
自 力
月 会</w>
新闻 记者</w>
布隆 迪
从 根本上</w>
b a</w>
管理 信息系统</w>
额 度</w>
工 资
取 得
前瞻 性</w>
激 增</w>
密 性</w>
不 带</w>
红新 月会</w>
写 道</w>
微 波</w>
地 形</w>
第二 轮</w>
戈 尔
奥林匹 克
城市 规划</w>
互补 性</w>
地理 位置</w>
列 名</w>
体 会</w>
亏 损</w>
D VD</w>
最 新
启 发</w>
后 悔</w>
占领 区</w>
争 吵</w>
相 对
洛杉矶 </w>
增 幅</w>
3 10</w>
紧 要</w>
杂 项
拨 给</w>
射 线</w>
天 气
周 三</w>
民间 团体</w>
吸毒 者</w>
另 一个</w>
免 权</w>
亏 </w>
老 化</w>
归 纳</w>
废 弃</w>
同 仁</w>
阿 布</w>
荷 兰
种 植
寒 </w>
喜 悦</w>
不懈 努力</w>
ac e</w>
圆 形</w>
以 下
海 报</w>
宝 石</w>
南 共体</w>
纳 克</w>
临时 性</w>
i es</w>
PD F</w>
14 日</w>
沿 海地区</w>
大 宗</w>
工 商业</w>
电 网</w>
物 料</w>
抗 击</w>
酸 盐</w>
新 界</w>
光 谱</w>
一 副</w>
格 林</w>
2 62</w>
锅 </w>
适 度</w>
自力 更生</w>
矿 石</w>
留 下来</w>
创 业
M E
判 决书</w>
s e</w>
西 北</w>
时 会</w>
受 灾</w>
L u
马 尔</w>
边 境
看 守</w>
临 近</w>
间 断</w>
卿 </w>
证明 书</w>
焚 烧</w>
受 众</w>
整 整</w>
微 小</w>
两 只</w>
ai l</w>
宴 </w>
非常 任</w>
较 少</w>
瞬 间</w>
n a</w>
F l
5 50</w>
认 真
摩托 车</w>
布 局</w>
上述 情况</w>
演 示</w>
权 威
普林 西比</w>
对 立</w>
受 访者</w>
华尔 街</w>
离 去</w>
仇 </w>
第 2
解放 运动</w>
英 寸</w>
政治 犯</w>
部 际</w>
痕 迹</w>
意味 </w>
看 电视</w>
厉 害</w>
ul l
来 访</w>
杀 伤性</w>
我 家</w>
束 缚</w>
愧 </w>
弗 朗
天 线</w>
立 方
社 群</w>
征 服</w>
POP S</w>
消息 来源</w>
改 建</w>
掌 控</w>
战斗 机</w>
宽 松</w>
可 可</w>
世界 杯</w>
遴 选</w>
开 玩笑</w>
第一 天</w>
方 对</w>
坞 </w>
周 边
酗 酒</w>
示 例</w>
分泌 </w>
e e</w>
B o
2 56</w>
纳 税</w>
布宜诺斯艾 利斯</w>
哪 怕</w>
更 长</w>
酌 </w>
格 陵
不足 之处</w>
猜 测</w>
森 林
有 鉴
提出 异议</w>
几 名</w>
上 市
钙 </w>
监 核</w>
煌 </w>
周 四</w>
千 名</w>
主权 国家</w>
唱 歌</w>
超 声</w>
谷 物</w>
履行 义务</w>
居住 地</w>
十 四</w>
决 不能</w>
不 开</w>
美 和
硕 士</w>
测 量
困 惑</w>
＿ </w>
2 63</w>
理 智</w>
塑 料
该 厅</w>
积极 主动</w>
植 被</w>
有鉴 于此</w>
d i</w>
致 电</w>
19 58</w>
文 信</w>
性 关系</w>
不太 可能</w>
有 钱</w>
字 符</w>
二 年</w>
小 女孩</w>
印第安 人</w>
倘 若</w>
身 分</w>
脑 袋</w>
国际海事 组织</w>
典 范</w>
28 5</w>
秋 天</w>
矿 产</w>
睡 着</w>
国防 部长</w>
受 让人</w>
赚 钱</w>
日 于</w>
悠 久</w>
刑 警
彻 </w>
耐 </w>
欣 慰</w>
挖 </w>
打 断</w>
引 述</w>
宴 会</w>
存 量</w>
可行 性
叔 叔</w>
介 意</w>
E m
灯 光</w>
推 理</w>
伤 害
一致 同意</w>
n al</w>
Mu h
环境 退化</w>
大 事</w>
先 知</w>
不断 扩大</w>
S A</w>
用 法</w>
所 犯</w>
征 募</w>
29 2</w>
舞 弊</w>
美和 普林西比</w>
溶 液</w>
布 雷</w>
圣多 美和普林西比</w>
un g</w>
杜 绝</w>
型 号</w>
铁 路
景 象</w>
做 成</w>
3 16</w>
教 派</w>
可行性 研究</w>
准 军事</w>
之 用</w>
礼 品</w>
申请 表</w>
热 烈
人 类
中 级</w>
弯 曲</w>
并 非
递 送</w>
民族 主义</w>
楼 梯</w>
准 时</w>
球 迷</w>
同 文信</w>
g u
翻 译成</w>
珊 </w>
不 致</w>
O L</w>
麻 痹
规 例</w>
祷 告</w>
利息 收入</w>
路易 斯</w>
罕 </w>
流离失 所者</w>
新闻 媒体</w>
b r
A y
技术 培训</w>
托 马斯</w>
悟 </w>
自 足</w>
服务 台</w>
同 工
扣 留</w>
尼科 西亚</w>
没 事</w>
岁 月</w>
上 游</w>
6. 6</w>
术 后</w>
日 为</w>
余 力</w>
一 员</w>
适 用于</w>
特 里</w>
用 处</w>
挣 扎</w>
旱 地</w>
告 诫</w>
口头 报告</w>
会议 记录</w>
任何 一方</w>
遂 </w>
筹 集
屋 里</w>
创 始
阿布 贾</w>
自由 贸易</w>
捉 </w>
抽 烟</w>
水 分</w>
歌 手</w>
既 往</w>
4. 6</w>
滥 杀</w>
可 供</w>
能 为</w>
高 加
苯 丙
生殖 器官</w>
影 子</w>
付诸 实施</w>
东 北部</w>
辈 子</w>
3 80</w>
胳 膊
发 病</w>
春 季</w>
国际 刑警
国际刑警 组织</w>
列 车</w>
阿卜杜 拉</w>
组织 者</w>
每 种</w>
C ol
悲 </w>
保 守
指 向</w>
司法 人员</w>
兴 起</w>
17 01</w>
运 往</w>
法 学家</w>
做 事</w>
五 项</w>
不 前</w>
M L</w>
态 势</w>
号 召</w>
W or
存 活</w>
卧 室</w>
力 争</w>
一 来</w>
求 解</w>
劳 力</w>
养 费</w>
鸣 </w>
雷 区</w>
远 处</w>
忽 然</w>
帜 </w>
坚定 不移</w>
各 阶层</w>
首 领</w>
第 10
加勒比 海</w>
６ </w>
财政 状况</w>
祸 害</w>
传 单</w>
能 效</w>
用 性</w>
新闻 自由</w>
评 论
专 委</w>
D C</w>
国 在</w>
虾 </w>
筹集 资金</w>
出 血</w>
五 日</w>
置 疑</w>
篇 幅</w>
病 学</w>
新 德里</w>
控 件</w>
通 行
蓝 线</w>
涕 </w>
始 终
不用 说</w>
维 多
在 世界
倾 倒</w>
拒绝 接受</w>
帐 篷</w>
而 不是</w>
皇 帝</w>
合 实际</w>
a el</w>
惟 一</w>
国际贸易 中心</w>
主 旨</w>
o w</w>
半 个</w>
马 里
保 证
赞 美</w>
检 控</w>
建设 项目</w>
县 级</w>
互 相
时 有</w>
把 手</w>
十二 月</w>
为 时
石 蜡</w>
尉 </w>
功 效</w>
遵 从</w>
理 查
德 国
an o</w>
视 察
外 线</w>
域 外</w>
三 位</w>
Moham ed</w>
病 假</w>
初 中</w>
数字 化</w>
己 烷</w>
当 日</w>
在世界 上</w>
视 委</w>
7. 3</w>
空 局</w>
人 才
亲戚 </w>
泄 </w>
非 传统</w>
艾 </w>
演 讲
检查 员</w>
时 数</w>
G l
第三十 八届</w>
平 时</w>
可预 测性</w>
三 人</w>
as h</w>
r u
赫 勒
有 意思</w>
情 愿</w>
2 1日</w>
几 百
兴 建</w>
G ar
阿卜杜 勒</w>
轿 车</w>
失 误</w>
30 4</w>
鹅 </w>
边 防</w>
警 员</w>
第二十 六届</w>
拦 截</w>
转 而</w>
尔 德
如 果
减 肥</w>
写 入</w>
雅 典</w>
避孕 药</w>
令人 震惊</w>
亚太 地区</w>
艾哈迈 德</w>
富 人</w>
爽 </w>
作 好</w>
第四十 三届</w>
知名 人士</w>
抬 头</w>
佐 证</w>
A C
非洲 开发银行</w>
电 梯</w>
生 化</w>
环 保
弥 合</w>
编 程</w>
缔 造</w>
推 测</w>
U N</w>
稍 微</w>
其 间</w>
负债 表</w>
豁 免权</w>
系统 对</w>
精 心</w>
管理 司</w>
抽 象</w>
倚 </w>
丹 尼尔</w>
祖 先</w>
和平 谈判</w>
公民 投票</w>
辍 学率</w>
看 成</w>
科 医生</w>
正当 理由</w>
钢 琴</w>
翔 </w>
格 兰
一 双</w>
盼 </w>
晚 会</w>
失业 者</w>
天 生</w>
话 语</w>
打 击
波 罗
分辨 率</w>
萨 拉</w>
同 胞</w>
可 为</w>
纽约 市</w>
月 间</w>
信 托
传 授</w>
主导 作用</w>
万 个</w>
3 67</w>
按 计划</w>
巢 </w>
委 派</w>
蒙特 塞</w>
我 爱
比 性</w>
宣 誓</w>
武装 集团</w>
杂项 收入</w>
环境 法</w>
未 必</w>
醒 来</w>
逃 犯</w>
来 往</w>
并不 一定</w>
７ </w>
翅 膀</w>
破产 法</w>
煮 </w>
坦 率</w>
视 频
莓 </w>
周 期
a in</w>
平 常</w>
格 斯</w>
四 处</w>
合伙 人</w>
镜 头</w>
理 应</w>
不 遗
e ar
重 重</w>
参考 资料</w>
值得 一
2. 9</w>
选举 权</w>
第二 份</w>
第三十 九届</w>
犯罪 集团</w>
有 名</w>
不遗 余力</w>
约瑟 夫</w>
每 名</w>
受 惠</w>
信 赖</w>
不 成</w>
N e
民事 诉讼</w>
i al</w>
敲 定</w>
夺 取</w>
一点 点</w>
一 下
论 及</w>
第二十 七届</w>
空 袭</w>
混 </w>
会 同</w>
丘 </w>
请 参阅</w>
来文 方</w>
归 于</w>
Th e</w>
4. 7</w>
操作 系统</w>
推 断</w>
预 付款</w>
陈 旧</w>
肺 结核</w>
结 局</w>
底 下</w>
人 人
非法 活动</w>
雄心 勃勃</w>
一 顿</w>
同 日</w>
出 发
养 殖</w>
可 比</w>
交通 工具</w>
一 带</w>
接受 国</w>
仓 </w>
跟 随</w>
显 示
已 久</w>
不 大
东 北
汀 </w>
变 化
超 支</w>
私 立</w>
硫 丹</w>
无 误</w>
斯 群岛</w>
开 口</w>
不 大</w>
28 .
损 害
悄 悄
南 南</w>
S O
1. 8</w>
注 释</w>
嘉 莉</w>
公 立学校</w>
确 凿
助 手</w>
不 成
马 尼
珍 惜</w>
布 置</w>
4 20</w>
转 到</w>
第二 号</w>
立 足
曼 群岛</w>
定 位
郡 </w>
吸 </w>
上市 公司</w>
our nal</w>
诉 求</w>
被 盗</w>
蓝 图</w>
第二十 五届</w>
海 湾
2 67</w>
经 委</w>
碰 </w>
工作 效率</w>
责任 感</w>
脖 子</w>
所 设</w>
致 死</w>
履行 任务</w>
约翰 逊</w>
位 数</w>
环 己烷</w>
oc s</w>
D E
C o
开 曼群岛</w>
一 经</w>
it h</w>
预算 内</w>
配 方</w>
统 治
优 雅</w>
5 30</w>
趟 </w>
尴 尬
呼 声</w>
违 规</w>
冬 </w>
15 14</w>
周转 基金</w>
台 湾
财政 部长</w>
绝 不能</w>
澳大利亚 政府</w>
十 八</w>
剧 烈</w>
利 马</w>
轻 型</w>
胡 </w>
直 线</w>
奶 奶</w>
传统 习俗</w>
科学 界</w>
市 中心</w>
几 何</w>
老 婆</w>
岭 </w>
分 类
举 止</w>
名 人</w>
单 证</w>
c t
第四十 二届</w>
时 报</w>
中 起</w>
财产 损失</w>
点 燃</w>
更 能</w>
农业 部</w>
多边 合作</w>
冲 动</w>
缘 故</w>
着 力</w>
弗 里
和平 共处</w>
可信 度</w>
诺 贝尔
登 上</w>
投 机</w>
应 邀</w>
广泛 应用</w>
pd f</w>
风 景</w>
边 际</w>
领 养</w>
走 路</w>
贸 发
平 安</w>
世 人</w>
ol d
六 氯</w>
人 以</w>
6 87</w>
职业 生涯</w>
正 确
公 路
查 出</w>
学 前
基督 徒</w>
19 6
地 表</w>
发 酵
S c
苯丙 胺</w>
私 法</w>
正 直</w>
通 盘</w>
火 星</w>
大 都</w>
发 誓</w>
通 向</w>
溶 剂</w>
手 上</w>
比 如说</w>
多 国</w>
it ed</w>
28 6</w>
at t
CO M</w>
C omm
自 营</w>
敌 意</w>
当事 国</w>
嘉 宾</w>
毛 利
尴尬 </w>
以 为
谋 杀
概 率</w>
核 扩散</w>
斯 卡</w>
放 入</w>
援 用</w>
勇 </w>
罚 金</w>
国 土</w>
土 壤
飞行 员</w>
萨拉 热
登 录</w>
狂 热</w>
日益 严重</w>
恐 慌</w>
好 消息</w>
群 组</w>
综合 症</w>
治 愈</w>
女 朋友</w>
外 观</w>
二十 世纪</w>
饲 料</w>
象 征
延 至</w>
外 科</w>
鸟 类</w>
集 会
金 牌</w>
辛 基</w>
篮 </w>
年 届会</w>
学 期</w>
各 部委</w>
服务 员</w>
任务 区</w>
网 球</w>
居 然</w>
之 以</w>
r i</w>
无 聊</w>
官 方
不 合
换 取</w>
公共 利益</w>
保持 联系</w>
逍遥 法外</w>
细 胞
工商 企业</w>
克 萨
沉积 物</w>
主导 地位</w>
As s
静 态</w>
辆 车</w>
格陵 兰</w>
助 益</w>
个 案
B e
文 学
单 据</w>
盛 行</w>
水 处理</w>
Joh n</w>
避 开</w>
贫困 线</w>
19 64</w>
秋 </w>
过 期</w>
民 选</w>
大 体上</w>
ov a</w>
文 盲
不 具</w>
e f
积极 性</w>
深入 研究</w>
各 段</w>
文盲 率</w>
厚 度</w>
P S</w>
载 体</w>
谈 判
不 久
触 犯</w>
想 着</w>
北 美洲</w>
1. 7</w>
自 愿
终 生</w>
自由 权</w>
美 妙</w>
分 销</w>
这 本</w>
然 不同</w>
带 上</w>
可 比性</w>
at a</w>
一 会</w>
L E
28 7</w>
2 68</w>
日 止</w>
28 1</w>
星 星</w>
密克罗尼 西亚
填 </w>
动物 园</w>
神 奇</w>
波罗 的
另 行</w>
公 益</w>
盟 友</w>
电视 机</w>
物 质
蒙 古
交互 </w>
oo k</w>
适应 性</w>
疏 忽</w>
密克罗尼西亚 联邦</w>
八 月</w>
笔 记
牧 业</w>
没 能</w>
阿尔及 尔</w>
机 动
开 拓</w>
出发 点</w>
人 有</w>
金 枪
清 偿</w>
国际 化</w>
emb er</w>
ou r</w>
非 凡</w>
地 质
中 小学</w>
00 1</w>
哭 泣</w>
不 相
纳 米</w>
体 制
3 40</w>
金枪 鱼</w>
普 里
商 务
重新 部署</w>
杖 </w>
战 机</w>
导 游</w>
法 兰
居 留
实 证</w>
商业 活动</w>
顽 固</w>
很 强</w>
尼亚 州</w>
核心 作用</w>
寿 </w>
3. 7</w>
烛 </w>
消 化</w>
海 盗
经济合作 组织</w>
纳 粹</w>
不足 道</w>
一 夫
蒸 汽</w>
同工 同酬</w>
a u</w>
航天 器</w>
新 设</w>
政 务</w>
工作 进展</w>
为 人
较 长</w>
获取 信息</w>
往 年</w>
开 除</w>
奔 </w>
十 月</w>
逃 脱</w>
玩 家</w>
马其 顿</w>
日 制</w>
庙 </w>
旗 帜</w>
断 裂</w>
字 符
你 方</w>
D C
青 春</w>
结 清</w>
数 十年</w>
个案 研究</w>
篇 文章</w>
算 是</w>
谈 及</w>
碌 </w>
敲 </w>
分析 方法</w>
i h
嘱 </w>
非常 感谢</w>
躲 </w>
纤 维
福 音</w>
碟 </w>
盆 </w>
印度 政府</w>
切 合实际</w>
al e</w>
内 为</w>
便 携
互 惠</w>
蒂 纳</w>
事 关</w>
FA O</w>
率 先</w>
前 线</w>
内 存</w>
休 息
母 乳
母乳 喂养</w>
一 点儿</w>
足 球
解 析</w>
滥 伤</w>
扑 </w>
辉 煌</w>
粗 </w>
毗 邻</w>
房 产</w>
嫌疑 犯</w>
厘 米</w>
试 试</w>
涂 料</w>
第 50</w>
密集 型</w>
不 通</w>
董事 长</w>
凯 科</w>
投票 权</w>
十 七</w>
初 审</w>
27 日</w>
直接 参与</w>
的 。</w>
恪 守</w>
25 日</w>
隐 瞒</w>
就 让</w>
即 应</w>
筹 款</w>
水 量</w>
形 资产</w>
康 复
其 他
G e
零 零</w>
羞 辱</w>
损害 赔偿</w>
光 纤</w>
临 床
钢 铁</w>
运 河</w>
盖 茨</w>
胳膊 </w>
缠 </w>
战 后</w>
不 善</w>
青 春
编 拟</w>
核 燃料</w>
追 究
贩 </w>
有 史
多 国
兼 容</w>
贸发 会议</w>
落 入</w>
米 兰</w>
未 清</w>
道 义</w>
第二 年</w>
微 不足道</w>
一 口</w>
有史 以来</w>
仗 </w>
p ro
轴 承</w>
崇 拜</w>
出 自</w>
陶 瓷</w>
男女 之间</w>
有 素</w>
高 血压</w>
提供 商</w>
场 址</w>
d o</w>
经 管</w>
安第 斯</w>
加 班</w>
方 括号</w>
小 于</w>
躁 </w>
乐 于</w>
长 老</w>
重新 分配</w>
本 发明</w>
未 知</w>
救 护
a in
价值 观念</w>
面 上</w>
角 落</w>
涛 </w>
双边 协定</w>
衷 心</w>
瑞 典
布隆迪 政府</w>
山 脉</w>
密切 协作</w>
合法 权利</w>
模 糊
我爱 你</w>
电 报</w>
收 入
周 六</w>
停火 协定</w>
消 防</w>
桃 </w>
他 于</w>
二 月</w>
2 77</w>
网 播</w>
物 理学</w>
永 不</w>
偿 债</w>
人口 比例</w>
5. 6</w>
肩 膀</w>
接 入</w>
性 病</w>
坊 </w>
S y
情报 局</w>
年龄 段</w>
工具 包</w>
宁 静</w>
佣 金</w>
贵 族</w>
纽约 联合国总部</w>
红 外</w>
废 弃
宗教 团体</w>
一 共</w>
颠 覆</w>
监督 管理</w>
脆 </w>
带 动</w>
任 职者</w>
诚 地</w>
本 期</w>
或 者
小 鼠</w>
O R
更 快</w>
中东 问题</w>
自 助</w>
罗 斯
每 项</w>
档 案
柬 </w>
十 六</w>
制 药</w>
秋 季</w>
神 话</w>
现实 意义</w>
收 益
参 谋</w>
逼 </w>
触 及</w>
升 温</w>
七 次</w>
Kh al
鲜 明</w>
蚁 </w>
5 7
分 布
关 于
三 倍</w>
o c</w>
硬 币</w>
大 众
勿 </w>
公用 事业</w>
乳 腺癌</w>
不 公</w>
滥 </w>
巴 拉克</w>
信 奉</w>
价 钱</w>
财 物</w>
撞 击</w>
银行 家</w>
子 公司</w>
记 忆
无 情</w>
F PA</w>
薄 膜</w>
国务 卿</w>
不 曾</w>
远 见</w>
责任 制</w>
散 会</w>
农 作物</w>
债 权</w>
覆盖 范围</w>
满意 度</w>
油 漆</w>
斟 酌</w>
收 据</w>
广播 公司</w>
宽 恕</w>
城 堡</w>
北 欧</w>
苹 果
私 有</w>
含 糊</w>
祂 </w>
汉 堡</w>
栓 </w>
架 次</w>
榜 </w>
幻 </w>
导 体</w>
嘲 笑</w>
人 文</w>
财政 政策</w>
收 音机</w>
克 里</w>
侨 </w>
一无 二</w>
轮 调</w>
蛙 </w>
水 管</w>
患 病</w>
对 冲</w>
向 下</w>
吉 尔</w>
物 理
挪 威
it te
置 信</w>
欧 空局</w>
恢复 正常</w>
上 方</w>
L C</w>
歇 </w>
尤 为重要</w>
独 一无二</w>
反对 票</w>
轻 重</w>
眼 下</w>
极 力</w>
数以 千
农 户</w>
行 程</w>
票 数</w>
数 个</w>
讯 问</w>
科学 院</w>
摄 像
废弃 物</w>
发 出
通 风</w>
等 同
商 事</w>
7. 4</w>
邮 寄</w>
司 令
诚 挚</w>
萨拉热 窝</w>
完 工</w>
艾 伦</w>
一 侧</w>
训练 有素</w>
短 时间</w>
格 拉</w>
嗣 后</w>
喘 </w>
使 本</w>
欧安 会</w>
2 79</w>
辩 解</w>
第二十 条</w>
安全 部</w>
器 材</w>
依 法
骸 </w>
裁 研</w>
沦 为</w>
总统 令</w>
le y</w>
耦 合</w>
本 协定</w>
叛 乱
超 市</w>
考 生</w>
彼 此
二 是</w>
29 5</w>
行为 准则</w>
手 枪</w>
佛罗 里
A D</w>
评 述</w>
濒 危</w>
报 刊</w>
传 播
麻 疹</w>
存 档</w>
〉 </w>
第二十 一条</w>
旗 国</w>
合 规</w>
两 届</w>
氯化 石蜡</w>
后 备</w>
牛 肉</w>
引 爆</w>
印度尼 西亚
佛 教</w>
一小 部分</w>
虚 拟
必 定</w>
心理 学家</w>
匆 匆
a ir
见 图</w>
外 贸</w>
四分 之三</w>
三 十</w>
一 千
耕 作</w>
祖 </w>
检 方</w>
随 即</w>
出版 社</w>
进口 国</w>
有所 提高</w>
受 权</w>
卵 </w>
下 周</w>
IM F</w>
I N</w>
第五 委员会</w>
备 份</w>
国际电 联</w>
船 旗国</w>
导 演</w>
B er
织 物</w>
头 痛</w>
没 法</w>
核 动力</w>
听 证</w>
参 谋
小 镇</w>
十分 重视</w>
体制 改革</w>
防 备</w>
名 声</w>
假 装</w>
去 过</w>
on g
边境 地区</w>
广 州</w>
小 孩子</w>
第三十 七届</w>
对 非</w>
3 8
草 原</w>
陷 入
断 言</w>
打 扰</w>
不 可能</w>
第二十 四条</w>
居 所</w>
互 动
魔 法</w>
稻 </w>
及 时性</w>
避 难
超 级
得 分</w>
阿塞拜疆 共和国</w>
自 给
旺 </w>
文 第</w>
前 期</w>
蔑 视</w>
犹 如</w>
尸 </w>
天 天</w>
国家 有关</w>
青年 党</w>
铃 </w>
彰 </w>
I D</w>
预 言</w>
起 床</w>
屏 </w>
停 顿</w>
借 用</w>
静 脉</w>
当 成</w>
砍 伐</w>
山 上</w>
专题 组</w>
非 营利</w>
欠 缺</w>
推 动力</w>
国有 企业</w>
成 见</w>
恰恰 </w>
快 点</w>
坯 </w>
圣 保罗</w>
乌兹别 克斯坦共和国</w>
不 许</w>
舞 会</w>
维 修
派 对</w>
口 号</w>
反 倾销</w>
R am
逸 </w>
笑 容</w>
带 薪</w>
合 资</w>
2 74</w>
责任 人</w>
棍 </w>
不 着</w>
塞尔维 亚共和国</w>
午 饭</w>
有 损</w>
库 克
大大 增加</w>
不 在乎</w>
集 结</w>
氯 苯</w>
骨 头</w>
提 条件</w>
18 日</w>
纺 织</w>
榴 弹</w>
厂 商</w>
个 州</w>
c omm
W G
预 约</w>
和 善</w>
该 局</w>
藐 视</w>
残 留</w>
居 高
圣 基
g ov</w>
邮 局</w>
妓 女</w>
规 章
杰 夫</w>
应 得</w>
全球 战略</w>
电 信
生 动</w>
猛 烈</w>
特 等</w>
句 话</w>
ic k
enc e</w>
B en
迈 </w>
留 意</w>
库克 群岛</w>
勉 强</w>
预 备
转 载</w>
获 利</w>
打 造</w>
天 性</w>
严 密</w>
这 话</w>
无 偿</w>
2 73</w>
第二十 五条</w>
晕 </w>
集会 自由</w>
耻 辱</w>
归 功
座 谈会</w>
因 数</w>
前 提条件</w>
骚 乱</w>
预 示</w>
诺 言</w>
宇 航
人 向</w>
瓶 颈</w>
波罗的 海</w>
显 现</w>
我 用</w>
往 返</w>
彩 色</w>
20 30</w>
救护 车</w>
擅 长</w>
豪 华</w>
激 活</w>
急 救</w>
张 正义</w>
一 时期</w>
飞 往</w>
非 歧视</w>
逮捕 令</w>
舟 </w>
皮 书</w>
外 包</w>
同 居</w>
两 国政府</w>
不 已</w>
i ri
M c
这 片</w>
归功 于</w>
地 缘</w>
裙 子</w>
海盗 行为</w>
整 体
宽 泛</w>
传 来</w>
一 至</w>
等同 于</w>
悼 </w>
ad a</w>
鼓 </w>
评 判</w>
无 比</w>
双重 标准</w>
催 化</w>
路 口</w>
惩 教</w>
尼 维斯</w>
倡 导
al a</w>
绳 子</w>
法 域</w>
具体 步骤</w>
模 具</w>
复 议</w>
不 合</w>
偏 </w>
严重 后果</w>
时 要</w>
地 步</w>
规章 制度</w>
之 角</w>
装 配</w>
数以千 计</w>
应 变</w>
医 学
Mar t
饱 受</w>
个 省</w>
业务 流程</w>
疫 情</w>
方 法学</w>
国 立</w>
ar e</w>
全面 实施</w>
us s
遗 </w>
载 明</w>
起诉 书</w>
贫困 者</w>
留 住</w>
什 蒂纳</w>
流 体</w>
天文 台</w>
前 沿</w>
产 权
In d
4 30</w>
责 备</w>
前 夕</w>
P er
载 荷</w>
写 信
恋 爱</w>
公 信
想 像</w>
悯 </w>
结婚 年龄</w>
私营 企业</w>
省 长</w>
解 答</w>
军 营</w>
今天 上午</w>
快速 反应</w>
弟 兄</w>
安 大
不 便</w>
调 研</w>
护 送</w>
外 流</w>
四 种</w>
加 权</w>
队 长</w>
从 没</w>
C A</w>
近 几年</w>
电 厂</w>
基 薪</w>
之 路</w>
购 物
矫 正</w>
方 框</w>
放 射</w>
妒 </w>
丑 闻</w>
衍 生</w>
架 飞机</w>
恩 德
哈 瓦
减 低</w>
上 司</w>
赖 于</w>
处理 器</w>
坟 墓</w>
配 有</w>
赫勒 拿</w>
夜 里</w>
A f
收 拾</w>
哈 里</w>
R es
明 文
妥 当</w>
器 具</w>
〈 </w>
8. 1</w>
内 有</w>
馀 </w>
特 克斯</w>
波利 萨</w>
昆 </w>
启 示</w>
19 62</w>
恩德 培</w>
第三十 六届</w>
性 侵犯</w>
S an
优 于</w>
亲 人</w>
轮 换</w>
普里 什蒂纳</w>
惯 常</w>
公 法</w>
不 远</w>
爱 人</w>
数 千</w>
轻 轻</w>
耗 费</w>
出 卖</w>
减 量</w>
不 高</w>
里 斯
血 清</w>
房 价</w>
蝶 </w>
激 起</w>
山 谷</w>
圣 地</w>
周 岁</w>
真 诚地</w>
协 助
〇 </w>
6 日</w>
廓 </w>
自由 选择</w>
第八 章</w>
爱 好
al i</w>
S im
魔 鬼</w>
进 驻</w>
返 还</w>
赔 </w>
莱 坞</w>
团结 一致</w>
扼 要</w>
c e</w>
er t</w>
大 师</w>
以 人
转 动</w>
协调 会议</w>
误 导</w>
水 文</w>
失踪 者</w>
避难 所</w>
走 访</w>
年 限</w>
图 里</w>
兔 子</w>
中 以</w>
隘 </w>
尼泊 尔
酋 长</w>
辖 区</w>
箭 </w>
某 事</w>
圣基 茨</w>
en s
绝 大部分</w>
可 惜</w>
今天 下午</w>
g r
9 日</w>
德 里
合 乎</w>
莱 斯</w>
浪 费
格 外</w>
尾 巴</w>
大 幅
各 区</w>
取 出</w>
中 所作</w>
er o</w>
ar t
认 出</w>
处 处长</w>
零售 商</w>
跟 上</w>
公信 力</w>
伙 计</w>
下 称</w>
28 2</w>
被 忽视</w>
平 原</w>
裤 子</w>
教育 法</w>
切 除</w>
3. 8</w>
移 民法</w>
一 职</w>
非洲 之角</w>
院 子</w>
视 图</w>
油 气</w>
可 不是</w>
私 下</w>
公 署</w>
30 3</w>
做 过</w>
隔 绝</w>
画 家</w>
湖 泊</w>
水 下</w>
诱 导</w>
更 为重要</w>
万国 宫</w>
磨 损</w>
有 赖于</w>
审 问</w>
30 2</w>
赞 助
第二十 三条</w>
本 节</w>
基 加利</w>
4. 8</w>
3 70</w>
长 得</w>
树 枝</w>
大 片</w>
颖 </w>
预 付</w>
加 密</w>
五 天</w>
爷 爷</w>
意 外
人 际
E A</w>
市 值</w>
人人 平等</w>
了 不起</w>
5 20</w>
见 度</w>
欧洲 央行</w>
当地 人</w>
J I
飞 船</w>
任何 理由</w>
泼 </w>
万 亿美元</w>
UNA 0
S ar
19 65</w>
艺术 品</w>
巴 拉</w>
古 怪</w>
优 美</w>
M s</w>
活 产</w>
末 尾</w>
忠 </w>
克 逊</w>
⑴ </w>
12 日</w>
转 给</w>
烹 饪
以人 为本</w>
F ar
蜡 烛</w>
i e
30 1</w>
美 好
坚 固</w>
为 数</w>
l as</w>
第三 阶段</w>
姿 势</w>
调 配</w>
汇 票</w>
冲突 地区</w>
目标 群体</w>
特殊 性</w>
好 了</w>
夷 </w>
三 份</w>
il l</w>
白 俄罗斯
渔 民</w>
SG B</w>
趋 于</w>
经 纪</w>
灵 感</w>
抢 </w>
快 捷</w>
好 奇</w>
不 复
社会 群体</w>
白俄罗斯 共和国</w>
珠 宝</w>
受 审</w>
东 南</w>
拌 </w>
家 禽</w>
2 78</w>
地 被</w>
五 分钟</w>
水 电</w>
存 入</w>
伸 张正义</w>
简 述</w>
增长 速度</w>
首 位</w>
饲 养</w>
紧迫 性</w>
克 鲁
从 那
ic h</w>
28 日</w>
老 虎</w>
缴 费</w>
es a</w>
基 里
发酵 </w>
疆 </w>
公 允</w>
物 价</w>
杜 古</w>
批 评
屑 </w>
和睦 </w>
受灾 国</w>
尚 有</w>
信息 安全</w>
战 俘</w>
同 志</w>
入 伍</w>
优 越</w>
12 44</w>
连 串</w>
残 暴</w>
圆桌 </w>
哺乳 动物</w>
两 岸</w>
一 年
粗 暴</w>
发 作</w>
嫌 犯</w>
在 意</w>
变 异</w>
买 家</w>
筹 划</w>
硅 </w>
倡导 者</w>
修订 本</w>
住 处</w>
阱 </w>
广泛 传播</w>
2 71</w>
需求 量</w>
胸 </w>
理 所
叶 子</w>
求 职</w>
更 强</w>
作 文</w>
8 50</w>
本 款</w>
A M
许 诺</w>
更 替</w>
存 储
P BC</w>
社会 工作</w>
阻 力</w>
直 辖
合 理性</w>
扩 建</w>
情 人</w>
an s
强 硬</w>
库 拉</w>
尼 克</w>
小 伙
外交 使团</w>
高 科技</w>
现 正</w>
份 子</w>
鸟 儿</w>
香 烟</w>
洪 </w>
受 控</w>
适用 法律</w>
词 典</w>
列 示</w>
人 造</w>
不 负责任</w>
S e
论 据</w>
狭 隘</w>
新 一代</w>
亚历 山
不 力</w>
遗 址</w>
车 上</w>
泄 露</w>
安 曼</w>
全 时</w>
0. 1</w>
阳 性</w>
悲 痛</w>
事 态
为 数
M in
细 致</w>
繁 忙</w>
离 境</w>
法院 院长</w>
布 斯</w>
可 乐</w>
他 们
烹饪 </w>
29 日</w>
第三十 四届</w>
盘 子</w>
跑 步</w>
笼 统</w>
帅 </w>
传 给</w>
主 机</w>
潮 湿</w>
外 语</w>
听 从</w>
合法 权益</w>
秒 钟</w>
泛 滥</w>
杠 杆</w>
M al
网 格</w>
润滑 油</w>
世界 性</w>
遗 忘</w>
胚 胎</w>
武装 人员</w>
难 得</w>
规 避</w>
液 压</w>
实 地
一 视
3 6
19 46</w>
祖 母</w>
疲 软</w>
戈 马</w>
性 犯罪</w>
一视 同仁</w>
问 候</w>
改 善
开 庭</w>
装 载</w>
祖 父</w>
公共 场所</w>
五 分之一</w>
ent s</w>
M at
00 0
耗 氧</w>
因 果
嗨 </w>
加拿大 政府</w>
克 减</w>
联 赛</w>
暴 风雨</w>
上 任</w>
F or
B ro
闻 名</w>
递 给</w>
加 工
一个 多</w>
照 看</w>
哈瓦 那</w>
佩 斯</w>
产品 质量</w>
es s</w>
拨 付</w>
戳 </w>
国 籍
双 性恋</w>
蒙 罗
放射 性
坎 帕拉</w>
日 增</w>
庭 审</w>
多米尼 克</w>
副 作用</w>
内 陆
之 时</w>
ay a</w>
试 用</w>
所 受</w>
好 莱坞</w>
坚持 不懈</w>
19 45</w>
民主 政体</w>
无 形</w>
强 加
国 营</w>
中国 人民
需 品</w>
不 算</w>
O l
货 车</w>
现 行
加 达</w>
会 为</w>
资 历</w>
特 种</w>
下 班</w>
郁 症</w>
贡 </w>
珊瑚 </w>
犹 大</w>
柯 </w>
调查 局</w>
拐 </w>
定期 存款</w>
安 援</w>
子 孙</w>
间谍 </w>
谬 </w>
直 径</w>
总 能</w>
快 要</w>
如果 说</w>
亚 非</w>
G E
自给 自足</w>
牧 场</w>
吉 普
充满 活力</w>
p h
盔 </w>
关键 词</w>
葡萄 </w>
开 门</w>
开 出</w>
两 用</w>
非 裔</w>
适 时</w>
理查 德</w>
通行 证</w>
维 埃</w>
第一 句</w>
R os
树 上</w>
顺 便</w>
程 式</w>
歌 唱</w>
成 员
基本 要素</w>
鲸 </w>
行 使
便 会</w>
一 如
盲 人</w>
疑 虑</w>
定 额</w>
哀 悼</w>
凭 证</w>
几 十
全 日制</w>
一 审</w>
ur e</w>
闪 烁
找 个</w>
大 笔</w>
香 蕉
时 起</w>
巴 塞
K r
8. 2</w>
迪 拜</w>
感染 率</w>
各 有</w>
医疗 机构</w>
全 权
主 要
怀 着</w>
原 型</w>
佣 </w>
ou p</w>
CA P</w>
加 斯</w>
何 塞</w>
不大 可能</w>
照 管</w>
墙 壁</w>
友 善</w>
Ch r
A B
自 发</w>
侨 民</w>
一 整天</w>
没 想到</w>
残 余</w>
方 在</w>
出 门</w>
胡 子</w>
扯 </w>
尼 古
J ab
结 盟</w>
纪念 碑</w>
28 4</w>
愁 </w>
航空 器</w>
聆 听</w>
太 好了</w>
人民 共和
3 4
赌 </w>
肉 体</w>
有利 条件</w>
尔 森</w>
夏 威
19 54</w>
酌 处</w>
重 力</w>
肘 </w>
一如 既往</w>
17 日</w>
00 万</w>
陋 </w>
身 材</w>
耽 搁</w>
毁 林</w>
最大 化</w>
匿 名</w>
佣 工</w>
o j
24 日</w>
里 昂</w>
节 性</w>
小 学生</w>
L a
瘦 </w>
家 政</w>
单 击</w>
小伙 子</w>
N o</w>
西 南</w>
掩 饰</w>
壶 </w>
19 日</w>
雷 曼</w>
镍 </w>
蒙罗 维亚</w>
格 拉
太 大</w>
v e</w>
简 便</w>
横 </w>
播 出</w>
或者 说</w>
吸 附</w>
写信 给</w>
传 唤</w>
3 11</w>
要 件</w>
微 额</w>
哈 利
加 元</w>
仆 </w>
为 首</w>
不 宜</w>
热 带
毛 病</w>
景 色</w>
居高 不下</w>
多数 票</w>
纳 德</w>
本 能</w>
才 干</w>
少年 犯</w>
取 样</w>
发 掘</w>
C F
检察 机关</w>
撰 </w>
事态 发展</w>
齿 轮</w>
比 起</w>
无法 控制</w>
黑 海</w>
身 后</w>
证明 文件</w>
简 洁</w>
瞄 准</w>
果 实</w>
卡 片</w>
分 派</w>
例 证</w>
不可 思
10 日</w>
藻 </w>
砂 </w>
疏 散</w>
德 意志
戈尔 诺</w>
卫生 系统</w>
亚洲 开发银行</w>
平均 水平</w>
宾 馆</w>
y n
结 尾</w>
小 心
字 典</w>
CH W</w>
猴 子</w>
浸 </w>
歪 曲</w>
29 1</w>
第二十 八届</w>
第二十 七条</w>
手 套</w>
令人 信服</w>
澳 洲</w>
该 届</w>
总 支出</w>
完 备</w>
好 看</w>
嘴 唇</w>
身体 健康</w>
招待 会</w>
隶 属</w>
抑 郁</w>
顶 部</w>
演 化</w>
外交 关系</w>
看 似</w>
生态 环境</w>
周期 性</w>
补 给</w>
一夫 多
奴 </w>
化 验</w>
观 者</w>
萎 缩</w>
学前 教育</w>
繁 重</w>
校 正</w>
想 不到</w>
五 十
账 单</w>
营 企业</w>
美国 国会</w>
拉 尔</w>
呈 现出</w>
反 弹</w>
交 际</w>
J os
6. 7</w>
难以 置信</w>
过 量</w>
辨 认</w>
甲 烷</w>
固 体
学 龄
冰 淇
不可思 议</w>
一 流</w>
这 批</w>
范 本</w>
国籍 法</w>
浏 览
有 期徒刑</w>
探 测器</w>
哨 所</w>
A R</w>
所 长</w>
双边 合作</w>
十二 个</w>
化 解</w>
分析 表明</w>
彼 得
卡 扎
鼓 吹</w>
知 晓</w>
玛丽 亚</w>
牧 民</w>
客观 性</w>
信息 网</w>
别 无
赤 道</w>
属 维尔京群岛</w>
升 至</w>
分 会</w>
目 击者</w>
打 败</w>
手 提
交通 事故</w>
军 警</w>
不 锈
4 40</w>
欧 亚</w>
棕 色</w>
一 路</w>
ol l
弦 </w>
继承 权</w>
磁 场</w>
相互 合作</w>
消费 品</w>
并 没有</w>
低 温</w>
下 游</w>
空间 站</w>
犯罪 分子</w>
并 购</w>
创始 人</w>
粗 糙
第三十 五届</w>
巴塞 罗
同 意
促 销</w>
福利 部</w>
核 计划</w>
快速 增长</w>
就 象</w>
anc e</w>
8. 5</w>
转 变成</w>
灾 区</w>
构成 犯罪</w>
全面 解决</w>
in o</w>
en a</w>
经 合</w>
组 办</w>
环境 部</w>
放 进</w>
差 别
在 我
这 些
键 盘</w>
Ahm ed</w>
部 将</w>
巴 里</w>
不久 前</w>
党 员</w>
一 堂</w>
or d
 </w>
编 制
稀 少</w>
苏 珊</w>
损 于</w>
卡 特尔</w>
g e</w>
198 9年</w>
就 座</w>
美 味</w>
国际 事务</w>
区 别
精 密</w>
瑞士 法郎</w>
廉 正</w>
今 世</w>
米 歇尔</w>
短 信</w>
流 血</w>
卡 罗
分 离
个人 身份</w>
抗 体</w>
卜 拉
I P</w>
社会 活动</w>
旅行 社</w>
园 里</w>
7 0
4 25</w>
说 是</w>
十 一月</w>
一 连串</w>
成 人
对外 贸易</w>
呼 叫</w>
危 急</w>
近 日</w>
海 面</w>
晶 体</w>
普通 法</w>
是 如此</w>
开幕 词</w>
在 政治
卡 特</w>
D A</w>
第三十 三届</w>
多米尼 加</w>
包 装
JI U</w>
澡 </w>
摄 入</w>
小 儿
在政治 上</w>
慰 问</w>
各 派</w>
陆 上</w>
赶 到</w>
缮 </w>
称 呼</w>
戒 指</w>
加 拉</w>
健 身</w>
二 人</w>
地 处</w>
劳 务</w>
轨 迹</w>
所 持</w>
字 样</w>
原 产地</w>
U R
3 9
躲 避</w>
肢 体</w>
肚 子</w>
福 特</w>
想 象
堤 </w>
地 狱</w>
几 率</w>
40 1</w>
赌 博</w>
行 长</w>
瓦 加
工业 部门</w>
金 山</w>
现 今</w>
欧洲 议会</w>
化学 物质</w>
邮 政局</w>
相 关联</w>
爆炸 性</w>
最 迟</w>
ou l
身 子</w>
美 元
朝 向</w>
搜 索
多 长时间</w>
初 稿</w>
4 60</w>
责 令</w>
积 金</w>
底 层</w>
下 一代</w>
表示 祝贺</w>
瓦加 杜古</w>
凯 瑟
联 接</w>
朱 巴</w>
巴 尔</w>
火 山
氟 氯烃</w>
书 店</w>
冰淇 淋</w>
v en
W eb</w>
29 4</w>
退 役</w>
运 营商</w>
求 职者</w>
广泛 支持</w>
诱 </w>
维 拉</w>
所 有
弗 雷
企 </w>
争 执</w>
两 点</w>
qu e</w>
门 外</w>
纪念 日</w>
砸 </w>
投标 书</w>
归 入</w>
兼 并</w>
阻 挡</w>
违 法
瓦 斯</w>
成 份</w>
很 棒</w>
棚 </w>
官僚 </w>
分 包</w>
笼 </w>
G O</w>
9 17</w>
采 购
滞 后</w>
嫉 妒</w>
真实 性</w>
民主 联盟</w>
收益 率</w>
及 格</w>
关 联
中 亚
29 9</w>
订 于</w>
奖 项</w>
以 补</w>
严重 破坏</w>
8 日</w>
组 装</w>
滴 滴
已 故</w>
雅 加达</w>
视察 员</w>
英 属维尔京群岛</w>
婪 </w>
外 围</w>
人 间</w>
苏 维埃</w>
意 料</w>
帐 目</w>
201 8</w>
负 起</w>
股 长</w>
肉 类</w>
科 研
第七 十三</w>
汇 总表</w>
宽 度</w>
下 调</w>
一 首</w>
iv ers
4 80</w>
现金 流量</w>
强 壮</w>
巴尔 干</w>
理所 当然</w>
展 出</w>
因果 关系</w>
ub l
首 歌</w>
议 者</w>
钱 包</w>
时 向</w>
工业 界</w>
如 能</w>
卡扎 菲</w>
1. 9</w>
溢 </w>
大 火</w>
公 会</w>
C L
阿 姆
贝 克</w>
蔑 </w>
细 分</w>
饮 酒</w>
裂 缝</w>
帘 </w>
水 灾</w>
尿 </w>
面 孔</w>
记 名</w>
螺 旋</w>
弗兰 克</w>
霍 乱</w>
过 得</w>
贪 婪</w>
经济 损失</w>
29 7</w>
映 射</w>
成 形</w>
受 训</w>
9. 1</w>
集体 行动</w>
病 情</w>
日 元</w>
医 治</w>
前 方</w>
er e</w>
飞行 器</w>
路 面</w>
社会 学</w>
外 套</w>
儿 女</w>
』 </w>
认 罪</w>
煤 矿</w>
感 知</w>
塔 尔</w>
鲜 花</w>
菲 利
A k
掌 管</w>
X X</w>
近几 年来</w>
仔 细
聚 合物</w>
陷 阱</w>
所 为</w>
填 充</w>
友好 关系</w>
域 网</w>
J ul
行为 能力</w>
渎 </w>
乐 器</w>
薯 </w>
沙 发</w>
事 业
中 性</w>
附加 值</w>
编 排</w>
税 收
柜 台</w>
抗 力</w>
5 000</w>
详 见</w>
四 大</w>
勒 斯</w>
香蕉 </w>
负 载</w>
见 过</w>
氯 联苯</w>
多 氯联苯</w>
a o</w>
茄 </w>
着 陆</w>
心 协力</w>
平均 值</w>
j ournal</w>
担 当</w>
商业 化</w>
J ac
自然 环境</w>
晃 </w>
咒 </w>
全民 教育</w>
这 起</w>
样 式</w>
太 子
六 名</w>
椒 </w>
接 获</w>
ev el
第二 句</w>
智 能
打 发</w>
这 为</w>
监 委</w>
崭 新</w>
三 十年</w>
金 色</w>
联络 官</w>
不 分
降 临</w>
近几 个月</w>
瓶 子</w>
显 出</w>
富 国</w>
大 豆</w>
锁 定</w>
盼 望</w>
消 毒</w>
拆 毁</w>
C C</w>
食品 安全</w>
青春 期</w>
第二 种</w>
尔 多</w>
鲨 鱼</w>
美 军</w>
监 管
恶性 循环</w>
固定 翼</w>
半 小时</w>
劳 资
遣 散</w>
第三十 二届</w>
极 好</w>
展 览会</w>
坦 诚</w>
唱 片</w>
二 战</w>
为 生</w>
两 起</w>
u e</w>
肆 </w>
山 顶</w>
使用 寿命</w>
人 节</w>
费 尔
大 笑</w>
备 有</w>
公 升</w>
脚 步</w>
恢复 性</w>
对 受</w>
处 方</w>
单 边</w>
中 学生</w>
20 50</w>
字符 串</w>
便携 式</w>
驱 动
荒 谬</w>
杀 人
同 一天</w>
协助 执行</w>
非 正常</w>
短 链</w>
环 卫</w>
牙 科</w>
每 一个</w>
工商 界</w>
事务 部长</w>
K am
说 服
蜜 蜂</w>
羞 </w>
留 存</w>
柔 软</w>
候 选</w>
教 皇</w>
历 程</w>
表 扬</w>
相 似
勒 索</w>
长 短</w>
铺 平
看 护</w>
及 第</w>
加 固</w>
亚 马
解 剖
未 付</w>
3 12</w>
文件 系统</w>
想象 力</w>
必 需品</w>
大 米</w>
区别 对待</w>
铺平 道路</w>
辛 格</w>
第五 节</w>
款 下</w>
惹 </w>
不 向</w>
凯瑟 琳</w>
不 在</w>
退休 年龄</w>
手 表</w>
干 活</w>
全 是</w>
a il
腹 泻</w>
叛乱 分子</w>
3 15</w>
销 量</w>
滴滴 涕</w>
托 运人</w>
基里 巴斯</w>
遗 失</w>
遗 嘱</w>
边 远地区</w>
行政 拘留</w>
有 助</w>
4 日</w>
肯 尼
美 德</w>
王 后</w>
物 件</w>
打 扮</w>
截 然不同</w>
充分 就业</w>
玩 耍</w>
方 面
8. 3</w>
肝 脏</w>
无 遗</w>
叛 军</w>
之 道</w>
e i</w>
29 3</w>
13 日</w>
饱 和</w>
第 1</w>
立 大学</w>
未 作</w>
分 隔</w>
W al
A P</w>
较 差</w>
走 开</w>
立足 于</w>
离 岸</w>
矿 产
十 八
利 政府</w>
一下 子</w>
辅 </w>
琐 </w>
加 强
一 辈子</w>
an k
浪 潮</w>
盘 存</w>
段 次</w>
借 以</w>
B u
谘 </w>
理 工
昨 天
4 10</w>
高加 索</w>
经 销商</w>
约 组织</w>
眼 里</w>
清 晨</w>
加 倍</w>
书面 通知</w>
裁 员</w>
狸 </w>
怎 样
器 件</w>
告 别</w>
越来 越
缀 </w>
红 利</w>
第三十 届</w>
显 微
技术 开发</w>
布莱 尔</w>
定位 系统</w>
侯 赛
E L
除 去</w>
而 出</w>
投 保</w>
慈 </w>
从 句</w>
贮 存</w>
记录 在案</w>
直辖 市</w>
流行 病学</w>
姓 氏</w>
上 下文</w>
法 国人</w>
权 衡</w>
冈 </w>
伯 格</w>
递 延</w>
贸易 区</w>
弗 拉
开展 调查</w>
好 运</w>
再 也
保护 性</w>
on s</w>
当 量</w>
大 意</w>
四 川</w>
哈萨 克斯坦共和国</w>
加 大
s t</w>
i er</w>
5. 7</w>
挫 </w>
成 因</w>
中 长期</w>
J am
贫 民</w>
变 迁</w>
厢 </w>
勤 奋</w>
re d
R EP</w>
投 掷</w>
高 潮</w>
正当 程序</w>
改叙 为</w>
国际电 信
国际电信 联盟</w>
利 物
鸭 </w>
组 长</w>
男 朋友</w>
在 经济
8 0
11 日</w>
通 用
贸易 中心</w>
自 尊</w>
罢 了</w>
指挥 部</w>
ul t
L OS</w>
赶 走</w>
模 拟
一 读</w>
高 管</w>
钻 </w>
复杂 化</w>
偶 像</w>
D E</w>
说服 力</w>
比 照</w>
服务 费</w>
东 省</w>
悲 哀</w>
转 身</w>
干 细胞</w>
冗 长</w>
出 任</w>
这 辆</w>
航空 安全</w>
电 极</w>
推 导</w>
口 味</w>
贿 </w>
正 规
互联 网
⑵ </w>
请 求
侯赛 因</w>
聚 焦</w>
第十 一次</w>
新 颖</w>
信 封</w>
不 间断</w>
管 控</w>
氟 碳</w>
极 具</w>
循 环
一 谈</w>
流 亡</w>
共同 点</w>
P a
豹 </w>
流 浪</w>
名 录</w>
公 爵</w>
巧 妙</w>
富有 成效</w>
加大 力度</w>
G E</w>
问 问</w>
深圳 </w>
养 成</w>
面 部</w>
跨 文化</w>
火 车站</w>
授 课</w>
谨 此</w>
观察 站</w>
主 办
3 13</w>
转 送</w>
瞩 目</w>
在经济 上</w>
事 儿</w>
29 8</w>
大 体</w>
墟 </w>
淹 没</w>
到 困难</w>
5 日</w>
学 说</w>
ñ </w>
科 尔</w>
条 目</w>
主 角</w>
ur a</w>
课 本</w>
著 作
耶 夫</w>
巨 人</w>
备 受</w>
兔 </w>
中 产阶级</w>
0. 2</w>
尔 科</w>
H er
3 90</w>
胜 过</w>
国 债</w>
剧 性</w>
分 手</w>
修 缮</w>
震 动</w>
问 及</w>
爱德 华</w>
杰 克逊</w>
匆匆 </w>
3 日</w>
道 而
身 处</w>
详细 信息</w>
譬 如</w>
聚 合</w>
民 盟</w>
复合 材料</w>
厌 倦</w>
关 上</w>
与 众
M e
自 私</w>
福利 金</w>
寄 宿</w>
而 后</w>
发展 前景</w>
葡萄牙 语</w>
最 优</w>
安全 感</w>
但 愿</w>
蝇 </w>
病 变</w>
杆 菌</w>
不 好
R od
行 者</w>
统治 者</w>
热烈 欢迎</w>
普 森</w>
无 核
安 宁</w>
契 </w>
内政 部长</w>
门 徒</w>
温 度
旷 日
投资 人</w>
嘴 里</w>
An t
A I
这 边</w>
运 到</w>
渔 业
学 生
交通 管制</w>
证据 规则</w>
海洋 资源</w>
录 取</w>
动 画</w>
5 60</w>
驻 留</w>
近 地</w>
摒 弃</w>
商 场</w>
会 后</w>
不锈 钢</w>
30 7</w>
高尔 夫
左 边</w>
E T
魁 北
高 尚</w>
阀 门</w>
足 轻重</w>
空 中
新 能源</w>
太子 港</w>
兰 德</w>
交 出</w>
● </w>
骑 士</w>
赛 事</w>
行政 法院</w>
男 士</w>
旷日 持久</w>
地 区
助 产
证 责任</w>
而 作</w>
直升 飞机</w>
尼 诺</w>
发 觉</w>
刑 院</w>
会议 员</w>
举 证责任</w>
悲 观</w>
大 人</w>
声 波</w>
火 炬
销售 额</w>
富 翁</w>
家 用</w>
司 令</w>
偏 向</w>
s s
面 对面</w>
重 伤</w>
选 取</w>
踩 </w>
文 人</w>
慎 重</w>
全国 人
雅 各</w>
轮 廓</w>
身份 证件</w>
苯 酚</w>
矿产 资源</w>
深 深
成 套</w>
小儿 麻痹
实 习
安 非
英 国政府</w>
立法 者</w>
外 侨</w>
地 面
劫 持
助产 士</w>
滥用 权力</w>
法律 责任</w>
循 证</w>
受害 国</w>
全 家</w>
傲 慢</w>
X L
积 分</w>
撤 退</w>
性 感</w>
庸 </w>
东 道</w>
与众 不同</w>
u el</w>
该 市</w>
六 方
公民 权</w>
V ol</w>
30 6</w>
项目 表</w>
投 入
大大 减少</w>
关税 壁垒</w>
七 日</w>
U S
26 日</w>
集中 精力</w>
违 规
紧急 措施</w>
现实 情况</w>
杯 子</w>
政治 处</w>
p er
追究 责任</w>
渗 透
整 编</w>
傻 </w>
达 州</w>
约 旦
独 裁
叶 片</w>
准 备
信息 化</w>
l es</w>
避孕 套</w>
激 进
海洋 学</w>
墨西哥 政府</w>
肥 皂
离 子
攻 击
在 短期内</w>
土地 改革</w>
各种 因素</w>
o o</w>
H IV</w>
颊 </w>
肌 肤</w>
抗 生素</w>
因 应</w>
六方 会谈</w>
膝 盖</w>
牙 医</w>
哺 乳</w>
公共 财政</w>
偷 窃</w>
w or
5 3
霉 </w>
菲 尔德</w>
第三 世界</w>
求 助于</w>
核 电站</w>
安非 他
切 尔</w>
停 滞
s c
Y ou
m d
S il
开放 式</w>
客 厅</w>
凯 特</w>
紧 密
波 特</w>
成人 教育</w>
历史 上</w>
面 貌</w>
递 解</w>
私 立学校</w>
报告 期</w>
夏威 夷</w>
公共 信息</w>
贫困 家庭</w>
格 丽
柠 檬
并非 如此</w>
图 象</w>
门 诊</w>
由 该</w>
匆 忙</w>
严格 执行</w>
Mich ael</w>
赫尔 辛基</w>
电子 邮箱</w>
少数 几个</w>
一 堆</w>
考 核</w>
成 型</w>
失 调</w>
偏 差</w>
表达 式</w>
衣 物</w>
斯 塔</w>
回 报
ah im</w>
迟 于</w>
差别 待遇</w>
绘 图</w>
媒体 报道</w>
五 十周年</w>
I B
起 义</w>
臭 </w>
灿 烂</w>
布 里</w>
公 国</w>
亵 渎</w>
产 前</w>
一 小</w>
艳 </w>
离 散</w>
气 管</w>
市政 当局</w>
停滞 不前</w>
特 拉
拟 设</w>
ES CAP</w>
蚊 帐</w>
电影 院</w>
数据 交换</w>
工 地</w>
古巴 政府</w>
30 9</w>
高 涨</w>
错 误
软 弱</w>
自 称</w>
数学 模型</w>
教育 工作者</w>
巨 头</w>
备 案</w>
第十 </w>
疲 惫
机 组</w>
加 班
修 饰</w>
M il
麻醉 </w>
行 进</w>
狮 </w>
念 头</w>
直 觉</w>
招 待</w>
恶 心</w>
天 数</w>
辅 助
查 理</w>
日 内</w>
源 泉</w>
木 头</w>
埃塞俄 比亚
可 用性</w>
利物 浦</w>
P at
E 4</w>
就 绪</w>
交 织</w>
一 分</w>
一 一</w>
IC C</w>
留 出</w>
实用 性</w>
夸 大</w>
议 席</w>
警 卫队</w>
并 列</w>
高 原</w>
香港 特区</w>
州 政府</w>
国 会议员</w>
人工 流产</w>
首 要
水 流</w>
放 映</w>
干 嘛</w>
大大 提高</w>
坚 称</w>
回 头</w>
“ 我
v a</w>
连 带</w>
说 谎</w>
茫 </w>
浪费 时间</w>
权威 性</w>
探 视</w>
建筑 师</w>
宣 判</w>
增 拨</w>
口 岸</w>
之 情</w>
与会 代表</w>
讲 解</w>
更 糟</w>
G on
C D
矿 床</w>
年 头</w>
使 者</w>
企业 界</w>
三 类</w>
l y</w>
9. 2</w>
泛 美</w>
枢 纽</w>
有 幸</w>
有 害
实 话</w>
太 高</w>
拉 德</w>
造 型</w>
期 货</w>
最 易</w>
揭 </w>
抑 </w>
致 敬</w>
膳 食</w>
确凿 </w>
机 枪</w>
新闻 处</w>
多种 形式</w>
乃 </w>
维持 费</w>
更 是如此</w>
依赖 性</w>
亲 切</w>
节 省
继承 人</w>
第 1
炮 击</w>
海 岸
攀 升</w>
右 边</w>
前 一天</w>
五 年期</w>
不 禁</w>
r a
第三 期</w>
立 足</w>
修订 案</w>
祥 </w>
游 击
安 定</w>
和 服</w>
使用 率</w>
人 手</w>
P ol
联邦 共和国</w>
烟 雾</w>
总 和</w>
小 偷</w>
各 司</w>
值得一 提
促进 作用</w>
这 台</w>
安非他 明</w>
季 节性</w>
值得一提 的是</w>
-- --
路 边</w>
突 发</w>
病 理</w>
技术 员</w>
承包 人</w>
哇 </w>
凌 </w>
讲 台</w>
献 给</w>
假 释</w>
上 作</w>
3 14</w>
陌 生</w>
终 点</w>
社会 科学</w>
情报 机构</w>
凶 手</w>
上 一年</w>
3 26</w>
褐 色</w>
萨 拉姆</w>
厄 尔
书 中</w>
融 化</w>
珍 妮</w>
率 高</w>
开 销</w>
哲 学家</w>
高 危</w>
遇 到困难</w>
立方 米</w>
滞 留</w>
浴 室</w>
放 慢</w>
建筑 业</w>
回报 率</w>
『 </w>
itte e</w>
i z</w>
5. 8</w>
金融 资产</w>
调 试</w>
紫 色</w>
改叙 </w>
29 .
起 步</w>
资料 库</w>
毫无 意义</w>
持续 时间</w>
拿 走</w>
amm ed</w>
V al
编 撰</w>
签 订
户 外</w>
信托 基金</w>
R O
部 厅</w>
转 发</w>
语 气</w>
第 2</w>
爱 国
村 子</w>
斯 敦</w>
戈 尔</w>
巴基 斯坦
农 夫</w>
重 心</w>
熊 猫</w>
可 以
评 分</w>
外 阴</w>
在 校</w>
发电 厂</w>
反 击</w>
克里 斯</w>
起 始</w>
双 向</w>
万 吨</w>
3 18</w>
虚 弱</w>
生 日
录 像
审 美</w>
城 区</w>
全 方位</w>
诺 夫</w>
oc i
愤 </w>
内 所</w>
苍 白</w>
构 件</w>
惊 喜</w>
ov i</w>
马克 思
跑 道</w>
更 进一步</w>
偏 好</w>
颂 </w>
诵 </w>
获 知</w>
战斗 员</w>
总 面积</w>
并 会</w>
堵 </w>
内 斯</w>
Ban k</w>
良 好
腹 </w>
临 界</w>
30 8</w>
节 约
绝 不会</w>
旧 金山</w>
只 得</w>
芯 </w>
水 稻</w>
毫无 根据</w>
执法 机关</w>
所 欠</w>
房 租</w>
库 尔德</w>
层 级</w>
国民 大会</w>
会 长</w>
葬 礼</w>
盲 目</w>
班 级</w>
印 件</w>
再 循环</w>
O z
第五 号</w>
所 含</w>
壮 大</w>
其 下</w>
丰 </w>
一 丝</w>
s ch
el a</w>
课 程
民 法典</w>
毛利 人</w>
上 岗</w>
昧 </w>
文件 夹</w>
分 从</w>
军事 装备</w>
u p
3 25</w>
追 </w>
说 ，
平 息</w>
存 有</w>
ou d</w>
C o</w>
At las</w>
辣 </w>
质量 标准</w>
海 员</w>
巴 马
D D</w>
爱 心</w>
之 初</w>
I t</w>
18 74</w>
第七 十
小型 企业</w>
首 选</w>
里 夫</w>
万 一</w>
阿富 汗
衷 心
硫 化物</w>
厨 师</w>
公 诉</w>
保 有</w>
豚 </w>
民 防</w>
体 力</w>
花 园里</w>
博 拉</w>
C I
钓 鱼</w>
西 尔</w>
老 是</w>
编 辑
新 来</w>
康复 中心</w>
趋 向</w>
玛 格丽
医 学院</w>
驾驶 员</w>
居民 区</w>
卑 </w>
分 权</w>
出 路</w>
A S</w>
谨 请</w>
队 部</w>
欢 呼</w>
拘 捕</w>
抽 </w>
道 路
社区 服务</w>
用 力</w>
来 回</w>
多国 部队</w>
复 活</w>
囚 </w>
克 族</w>
迟 迟</w>
司令 部</w>
出生 率</w>
保持 稳定</w>
乏 味</w>
签 约</w>
诠 释</w>
水 手</w>
发 明
信 守</w>
领 水</w>
诉 状</w>
神经 网络</w>
报 警</w>
希 亚</w>
山 羊</w>
再次 发生</w>
维多 利亚</w>
梅 尔</w>
损 耗</w>
按 摩</w>
A z
蜘 蛛
系统 化</w>
空间 数据</w>
浓 </w>
待 定</w>
3 33</w>
非洲 地区</w>
私人 资本</w>
德 语</w>
受 人</w>
低 廉</w>
领 事
该 署</w>
昏 </w>
所 订</w>
希 拉里</w>
奸 </w>
防 守</w>
洛 尔科</w>
案文 见</w>
h e
轮 值</w>
水 库</w>
巴 萨</w>
厂 家</w>
卓 有
十 九
充分 认识</w>
糖 果</w>
林 肯</w>
公共 交通</w>
un g
较 强</w>
舌 </w>
激 光
有 损于</w>
受 阻</w>
借 给</w>
矮 </w>
淋 巴
据 点</w>
同 性</w>
迫击 炮</w>
打 扫</w>
应 聘</w>
希 德</w>
尖 锐</w>
印度尼西亚 政府</w>
7 日</w>
行政 法</w>
肯尼 迪</w>
批 判</w>
怎 </w>
囚 禁</w>
呼吸 道</w>
烧 毁</w>
恫 吓</w>
压 倒
l i</w>
6. 8</w>
升 起</w>
克 朗</w>
不能 不</w>
evel op
支 架</w>
字 体</w>
圆满 成功</w>
4 70</w>
子 宫</w>
别 处</w>
出 价</w>
佑 </w>
以 利</w>
雀 </w>
知名 度</w>
潜 艇</w>
斯 州</w>
很 久
I G
需 要
裨 益</w>
第三 项</w>
租 约</w>
库 尔德
固 然</w>
咳 嗽
os s
服务 处</w>
投 了</w>
咽 </w>
凸 显</w>
充 作</w>
驾 车</w>
确 保
日 记</w>
排 队</w>
导 师</w>
售 价</w>
贯彻 落实</w>
航 线</w>
科学 知识</w>
气 息</w>
克 林</w>
以 至</w>
上 以</w>
希 伯
野 心</w>
贯彻 执行</w>
大 夫</w>
滚 动</w>
这 么
幸 福
北 朝鲜</w>
9 9.
E M
附 文</w>
以 北</w>
能源 安全</w>
全 局</w>
用 具</w>
拆 </w>
抑 郁症</w>
微 弱</w>
充 斥</w>
杨 </w>
帖 </w>
岛 国</w>
候选 国</w>
会 员
辛 苦</w>
转 账</w>
标 的</w>
大 象</w>
副 主席</w>
共产 主义</w>
造 就</w>
水 生</w>
商 学院</w>
参谋 长</w>
规 程</w>
知 悉</w>
力 气</w>
刚果 共和国</w>
ö </w>
7. 6</w>
面 向
门 前</w>
金 斯</w>
第二十 二条</w>
新生 力量</w>
蝴 蝶</w>
舌 头</w>
班 吉</w>
时 段</w>
折 旧</w>
华 丽</w>
麦 凯恩</w>
子 孙
两 侧</w>
新 一轮</w>
亚历山 大</w>
世 俗</w>
青 蛙</w>
着重 强调</w>
未 经
旋 风</w>
文化 部</w>
强 力</w>
参与 率</w>
丝 绸
C P
正 教</w>
染 色
未 遂</w>
各 处</w>
Muh ammad</w>
5 40</w>
皮 革</w>
熟 练
沙 滩</w>
捕 捉</w>
身 旁</w>
资金 不足</w>
经验 丰富</w>
巴塞罗 那</w>
压 器</w>
厄尔 尼诺</w>
2 3.
载 述</w>
笔 者</w>
新闻 报道</w>
布 琼
头 衔</w>
场 上</w>
保障 制度</w>
6 7
面 粉</w>
选 拔</w>
进口 商</w>
贺 卡</w>
规 管</w>
自愿 性</w>
绝 对
特 勒</w>
撒 谎</w>
第二十 九届</w>
澳门 特别行政区</w>
法 国
体 外</w>
驯 鹿</w>
暴 雨</w>
搜索 引擎</w>
墓 地</w>
表 彰</w>
自 备</w>
抗 拒</w>
马 路</w>
腹 部</w>
注 射
价格 指数</w>
一 到</w>
Ch ar
凑 </w>
渴 </w>
未 交</w>
忙 碌</w>
他 国</w>
人 次</w>
第一 百</w>
防 灾</w>
比 喻</w>
桌 面</w>
投 降</w>
天 下</w>
堵 塞</w>
在 上文</w>
这 篇</w>
篮 子</w>
清 洁
海 边</w>
垂 </w>
上 海
an t</w>
花 朵</w>
很 差</w>
墨西哥 城</w>
这 支</w>
民 意
效 仿</w>
放 牧</w>
天 主
处 所</w>
货 品</w>
肝 炎</w>
环境 治理</w>
正 视</w>
国 对</w>
5 8
胸 部</w>
淀 粉</w>
政治 部</w>
拥 有者</w>
不 服</w>
更 广</w>
拳 </w>
面 具</w>
随 身
试验 性</w>
讲 授</w>
水 产</w>
年 末</w>
中 文
街 区</w>
小 农</w>
部 在</w>
流 出</w>
想 念</w>
东 南部</w>
驳 斥</w>
知识 产权
死 于</w>
恋 者</w>
布琼 布拉</w>
家庭 收入</w>
兵 库</w>
5 %</w>
辐 射
肮 脏</w>
普 里</w>
抛 </w>
专 案</w>
迟 交</w>
卓有 成效</w>
不管 怎样</w>
T R
4. 9</w>
里斯 本</w>
纽 带</w>
哪 些
参 政</w>
自 觉</w>
澳 </w>
朴 </w>
有限 元</w>
奶 酪</w>
内陆 国</w>
8. 4</w>
辊 </w>
猛 虎</w>
饱 </w>
飙 升</w>
赶 快</w>
氧 气</w>
合同 规定</w>
可 笑</w>
保 健
in i</w>
特 罗</w>
添 加
复 会</w>
增 值
历 届</w>
专 属
下 车</w>
一 页</w>
B ur
贸易 壁垒</w>
脚 本</w>
羊 毛</w>
专 属</w>
派 系</w>
政治 局势</w>
尽 头</w>
嚼 </w>
世界 气象
颇 为</w>
芋 </w>
波 里</w>
未 婚</w>
国 产</w>
oo d</w>
闪 电</w>
重 罪</w>
遍 布</w>
绒 </w>
明 示</w>
工艺 品</w>
全面 性</w>
es t</w>
虫 害</w>
灌 输</w>
派 往</w>
妻 制</w>
专 辑</w>
下 级</w>
面 包
该 省</w>
招 收</w>
切尔 西</w>
兽 医</w>
保 释</w>
or e</w>
Un ited</w>
首 批</w>
挑 </w>
怎么 回事</w>
已 登记</w>
加 薪</w>
验 收</w>
英文 版</w>
敦 请</w>
招 呼</w>
固 醇</w>
世界气象 组织</w>
胞 胎</w>
泥 土</w>
商 务部</w>
a a</w>
羽 毛</w>
敞 开</w>
拓 宽</w>
抗 议者</w>
家 务
先 驱</w>
上 调</w>
转 折
埋 葬</w>
同 性
3 7
转 基因</w>
不复 存在</w>
第二 季度</w>
慈善 机构</w>
完 成
J ean</w>
重新 安排</w>
讲 师</w>
确 有</w>
本 年度</w>
九 次</w>
离 任</w>
磁 盘</w>
涂 层</w>
月 度</w>
明文 规定</w>
征 用</w>
割 礼</w>
减 税</w>
人际 关系</w>
l er</w>
积极 行动</w>
环境 污染</w>
暴力 犯罪</w>
排 出</w>
安 妮</w>
夸 张</w>
.. ..</w>
顺 应</w>
访 客</w>
深 层</w>
巡 回</w>
加班 费</w>
冷 漠</w>
主 宰</w>
不 尽
Dav id</w>
鼠 标</w>
管辖 区</w>
硬 化</w>
女 友</w>
侪 </w>
专属 经济区</w>
as t</w>
a c</w>
骨 骼
婚姻 状况</w>
在 座</w>
电 动</w>
浮 动</w>
好 人</w>
Un ivers
邦 特</w>
发 援
五 氯</w>
领 海</w>
新 技术</w>
创 始</w>
几 家</w>
入 账</w>
航空 航天</w>
联 运</w>
混 合
妥 善
听 听</w>
约 瑟</w>
紫 外线</w>
救 济
ü </w>
o z
3 87</w>
管理 科</w>
大 洋</w>
各 大</w>
公安 机关</w>
停 下</w>
修 补</w>
防 务</w>
等 同</w>
甲 状
小儿麻痹 症</w>
全体 成员</w>
入 狱</w>
主席 国</w>
香 味</w>
萘 </w>
维护 和平</w>
竞争 者</w>
任 一</w>
消 化
鼻 </w>
衔 接</w>
君 </w>
M ad
该 区</w>
诋 毁</w>
援助 方</w>
小 船</w>
寞 </w>
劫持 人质</w>
制 冷</w>
Moh ammed</w>
还 原</w>
偏 不
下 设</w>
C omp
Ahm ad</w>
露 天</w>
综合 征</w>
有 偿</w>
打击 犯罪</w>
吸 取
钴 </w>
该 死</w>
瓦 解</w>
晒 </w>
咳嗽 </w>
若 有</w>
节 制</w>
法 特</w>
南 极
储 藏</w>
丽 丝</w>
ag e</w>
第 一种</w>
款 次</w>
个 世纪</w>
两 地</w>
㈦ </w>
u t</w>
越 南
移 居</w>
狐 狸</w>
孕 产</w>
国际 协会</w>
C ent
4 8
集 团
这 一
谢 赫</w>
肾 </w>
浓 缩
四 日</w>
三 日</w>
一 棵</w>
特 区政府</w>
卫生 署</w>
前 走</w>
偏不 倚</w>
I F
D I</w>
简 单
礼 服</w>
电子 地图</w>
旅 途</w>
感 谢您</w>
M er
背 叛</w>
探 究</w>
在 世界</w>
合 资企业</w>
优 异</w>
不 偏不倚</w>
Fr anc
男 孩子</w>
惯 </w>
布 兰
唯 有</w>
凶 </w>
二 百
饮 用</w>
满 足
围 栏</w>
3 19</w>
猖 獗
火炬 </w>
所 附</w>
同 位
高 得</w>
灰 尘</w>
游 览</w>
活 性
it a</w>
钥 </w>
相 邻</w>
技术 上</w>
废 墟</w>
傻 瓜</w>
转 让
沥 青</w>
搬 运</w>
之 久</w>
世界 旅游
齐 兹</w>
阿富汗 人</w>
基 数</w>
吸 纳</w>
加 入
世界旅游 组织</w>
l os</w>
马尼 拉</w>
近 似</w>
海 伦</w>
奥 塞
同性 恋者</w>
八 次</w>
克 莱</w>
上 层</w>
ak h
转 用</w>
水 事</w>
敏 捷</w>
拉 夫</w>
位 移</w>
之 手</w>
美洲 开发银行</w>
低 迷</w>
H e
雨 量</w>
石油 价格</w>
政治 性</w>
储 备
马尔维纳 斯群岛</w>
深深 地</w>
氧化 物</w>
树 叶</w>
条 对</w>
无 记名</w>
年 青
芳 </w>
绅 士</w>
系统 管理</w>
必 然
概 念
枯 竭</w>
， 我
大 雨</w>
伽 </w>
肥 料</w>
投资 银行</w>
房 委会</w>
征 求
在我 看来</w>
分 机</w>
做 生意</w>
有 悖
建筑 材料</w>
子孙 后代</w>
卢 比</w>
项 中</w>
金 矿</w>
西 北部</w>
沛 </w>
决 不会</w>
w a</w>
阐 释</w>
股 本</w>
米 亚</w>
擅 自</w>
开 通</w>
娃 娃</w>
外汇 储备</w>
那 座</w>
猖獗 </w>
小 事</w>
萨 德</w>
脊 </w>
提 具</w>
亚 伯
首 席
蒸 发</w>
畜 牧业</w>
棋 </w>
工 序</w>
供应 国</w>
仿 效</w>
0. 3</w>
说明 书</w>
愈 来
征求 意见</w>
土 豆</w>
入 手</w>
u k</w>
por t</w>
显微 镜</w>
拉 政府</w>
同 侪</w>
加 油</w>
伊拉克 人</w>
耕 种</w>
应 适当</w>
en g
锅 炉</w>
跨 学科</w>
格 雷</w>
土地 权</w>
A sh
音 频</w>
萨 达
捐 赠
暖 和</w>
年青 人</w>
同 年</w>
之 日</w>
雕 刻</w>
调 停</w>
积极 合作</w>
宇航 员</w>
吸 收
不 言
道而 驰</w>
违规 行为</w>
运输 系统</w>
背 道而驰</w>
倒 闭</w>
流 传</w>
挣 </w>
卫生 条件</w>
分 居</w>
代表 大会
G er
50 7</w>
3 23</w>
领事 馆</w>
迪 亚
监督 制度</w>
中 药</w>
积极 开展</w>
清 偿
半 导体</w>
上 星期</w>
CO 2</w>
近 代</w>
清偿 债务</w>
莱 特</w>
脚 下</w>
往 常</w>
尽 职</w>
储 蓄
保证 金</w>
第四 季度</w>
摩 根
恒 星</w>
保险 人</w>
6 60</w>
过 重</w>
浏览 器</w>
枪 击</w>
好 吃</w>
视频 会议</w>
滑 雪</w>
比 索</w>
无 理</w>
描 写</w>
帝 力</w>
双 方
a z</w>
N or
迫击 炮弹</w>
苏丹 共和国</w>
戒 烟</w>
可信 性</w>
全面 落实</w>
W ind
金融 体制</w>
德 罗</w>
交互 式</w>
OE WG</w>
9 50</w>
狠 </w>
爱 滋
洄 游</w>
执 业</w>
克 劳
9. 3</w>
萨 姆</w>
肺 癌</w>
机 油</w>
分 裂
其 能</w>
as p</w>
W ill
M us
近 乎</w>
排 水</w>
德 国政府</w>
口 服</w>
加利福 尼亚</w>
乔 治
19 59</w>
阈 值</w>
时 分</w>
对话 者</w>
士 气</w>
同意 书</w>
亭 </w>
I R
H ass
A N</w>
2 1.
时 地</w>
提 要</w>
人民 代表大会
ay s
长 的</w>
拼 命</w>
年 终</w>
M SP</w>
错 综
预 支</w>
畸 形</w>
患 上</w>
口 腔</w>
两 组</w>
3 35</w>
禁 用</w>
协 同
加 载</w>
保持 沉默</w>
美 的</w>
用 到</w>
牵 涉
渊 源</w>
棒 球</w>
心 血管</w>
在 下文</w>
劳动 部</w>
农 民
任 满</w>
仇 视</w>
世 纪
这 才</w>
源 头</w>
没 人</w>
美 学</w>
求 偿</w>
极 高</w>
多 家</w>
代 行</w>
M C</w>
H RI</w>
隶 属于</w>
钱 财</w>
那 场</w>
迎 来</w>
监护 权</w>
改革 开放</w>
微 克</w>
首 尔</w>
银行 业务</w>
筛 查</w>
服务 部</w>
客户 端</w>
器 械</w>
发 音</w>
P ap
C N
起 身</w>
环 绕</w>
溪 </w>
客户 服务</w>
增值 税</w>
3 75</w>
普 尔</w>
惩 罚
17 18</w>
逐 年</w>
精 算
确 度</w>
登 陆</w>
宏 伟</w>
不 均</w>
身 穿</w>
测 绘</w>
惧 怕</w>
就 学</w>
储 量</w>
不 详</w>
7 80</w>
5 10</w>
联 想</w>
州 市</w>
a f</w>
有 条
挪 用</w>
巴 德</w>
复 核</w>
雷 尔</w>
忠 告</w>
四 十</w>
哥伦比亚 政府</w>
十 天</w>
光 辉</w>
饼 干</w>
股票 市场</w>
玛格丽 特</w>
海 军
标 示</w>
拉 罕</w>
两 边</w>
七 名</w>
n d
诀 </w>
生产 线</w>
斯洛伐 克共和国</w>
压 缩
午 夜</w>
19 55</w>
方面 面</w>
方 方面面</w>
好 坏</w>
风 力</w>
自 立</w>
潘 </w>
民主 主义</w>
武器 弹药</w>
手 下</w>
切 实际</w>
顶 级</w>
雷 特</w>
重新 启动</w>
考 虑
罢 </w>
热 心</w>
施 用</w>
征 询</w>
城市 论坛</w>
3 17</w>
谢 意</w>
烫 </w>
归 根
司法 官员</w>
警 觉</w>
礼 宾</w>
挫 败</w>
拥 护</w>
抗 辩</w>
建筑 工程</w>
外 壳</w>
南 美</w>
减 速</w>
一 端</w>
违 </w>
极 有</w>
无 私</w>
抚 恤金</w>
怎样 才能</w>
虹 </w>
稳 健</w>
玉 </w>
洗 衣
强 国</w>
坎 昆</w>
固体 废物</w>
重 复
此 项
政 令</w>
膝 </w>
睦 邻
无 期徒刑</w>
抨 击</w>
19 57</w>
特 质</w>
提 早</w>
右 手</w>
历 年</w>
降 雨</w>
运载 火箭</w>
车 道</w>
狩 猎</w>
搅 拌</w>
坎 </w>
冷 冻</w>
侵略 者</w>
em ent</w>
精 灵</w>
牵涉 到</w>
固定 资产</w>
公 交
会 话</w>
转折 点</w>
技术 创新</w>
市场 份额</w>
予 以
完全 同意</w>
召 唤</w>
南 方
d on</w>
物 力</w>
寄 给</w>
奥塞 梯</w>
大 常委会</w>
协商 会</w>
J o
郊 </w>
法 国政府</w>
喉 </w>
L t
线 程</w>
ev a</w>
an s</w>
轻 轻
能 以</w>
维 权</w>
猩 </w>
活 泼</w>
服 饰</w>
料 到</w>
航 海</w>
精算 师</w>
简 明</w>
电子 政务</w>
掠 </w>
巴 士
域 名</w>
亚伯 拉罕</w>
3 000</w>
长 途
过 错</w>
耗 尽</w>
第 3</w>
电 气
现 在
新 疆</w>
钚 </w>
观 测
埃 及
ad e</w>
学 童</w>
国务 秘书</w>
化 为</w>
光 芒</w>
但 应</w>
之 多</w>
个 性化</w>
i p</w>
近 海</w>
迁 往</w>
赐 给</w>
发出 通知</w>
网络 安全</w>
杀 手</w>
新 华
引 诱</w>
分配 资源</w>
职 守</w>
当地 政府</w>
古 典</w>
双边 关系</w>
关联 性</w>
公 用</w>
G re
戴 维</w>
并 进</w>
场 面</w>
K P</w>
6 40</w>
3 27</w>
讲习 会</w>
最 高级别</w>
向 导</w>
什 叶
ro s
电 离
同 情
什叶 派</w>
此项 工作</w>
未 予</w>
布 达
寂 寞</w>
国 境</w>
卖 掉</w>
世界 知识产权
T O</w>
战略 武器</w>
并 发</w>
哈 佛
障 碍
谜 </w>
炸 死</w>
恶 性</w>
归 化</w>
土耳其 共和国</w>
加 特</w>
世界知识产权 组织</w>
n er</w>
研 讨</w>
电 文</w>
折 衷</w>
崖 </w>
峡 谷</w>
南 非洲</w>
保 安
人身 自由</w>
两国 之间</w>
透 彻</w>
车 祸</w>
自 杀
猎 人</w>
做 饭</w>
st it
首 个</w>
闯 入</w>
莲 </w>
恶 魔</w>
奏 效</w>
各 人</w>
十 六
写 下</w>
驱 回</w>
化 工</w>
铸 </w>
对 准</w>
实 在
Sh ar
麦 当
荧 光</w>
联系 人</w>
统计 学</w>
忙 于</w>
微 粒</w>
发援 会</w>
19 56</w>
总 而言之</w>
工 会
制 成品</w>
别 于</w>
阿 斯
湾 仔</w>
发 了
u d</w>
遗 体</w>
资料 袋</w>
管 教</w>
模 特</w>
抚 </w>
业 余</w>
° </w>
高 中
期 末</w>
总 有</w>
奥 委会</w>
各 异</w>
双 眼</w>
化 肥</w>
Sec t</w>
语 句</w>
怜 悯</w>
应 使</w>
巴西 政府</w>
人身 保护</w>
亩 </w>
苏 尔</w>
礼 仪</w>
期 盼</w>
急 于</w>
叙 </w>
十 多年</w>
写 出</w>
二十 周年</w>
j a</w>
M ed
阿 拉</w>
错综 复杂</w>
进 攻
语 义</w>
最 先</w>
按 规定</w>
并不 认为</w>
蒂 斯</w>
童 婚</w>
暴 乱</w>
情 人节</w>
台 阶</w>
人 要</w>
一 夜</w>
I br
环境 监测</w>
照 亮</w>
光 滑</w>
之 旅</w>
追溯 到</w>
爱好 者</w>
源 代码</w>
流 利</w>
梭 </w>
来 得</w>
无 助于</w>
拆 卸</w>
信 号
不 法</w>
迟 延</w>
粉 碎</w>
电 线</w>
更 深</w>
晚 期</w>
恩 斯</w>
冒 犯</w>
不 切实际</w>
6 6
3 28</w>
高 额</w>
非 人</w>
背 离</w>
猩 猩</w>
开 业</w>
59 35</w>
赛 人</w>
训练 班</w>
达 到
石 块</w>
特 朗
毛 派</w>
持 有者</w>
台 风</w>
4 7
象征 性</w>
沉 淀
指 纹</w>
阿 里
短 期
特 拉特</w>
3 21</w>
突 显</w>
惩罚 性</w>
高级 法院</w>
阿根廷 共和国</w>
进行 性</w>
诈 骗</w>
哈 桑</w>
十 足</w>
东 正教</w>
自由 贸易区</w>
缓 冲</w>
硕 士学位</w>
普及 教育</w>
邮 政
连 结</w>
窒 息</w>
电 磁</w>
改 性</w>
握 手</w>
惰 </w>
以 东</w>
oc um
髦 </w>
突 变</w>
瓦 利</w>
帐 单</w>
副 产品</w>
缩 写</w>
拉 尼</w>
圣 城</w>
发射 器</w>
依 次</w>
会 场</w>
os t
赶 紧</w>
肺 炎</w>
罗 伯
笑 声</w>
摄像 机</w>
绵 </w>
窗 外</w>
研究 进展</w>
的 黎
在 发言
在发言 中</w>
不 列颠</w>
N g
马 格里
迄今 已</w>
行政 事务</w>
度 量</w>
大 院</w>
去 掉</w>
主管 人员</w>
A I</w>
问 题
过渡 性</w>
管理 工具</w>
甜 蜜</w>
汇 聚</w>
最 起码</w>
扫 除</w>
使用 暴力</w>
4 90</w>
2 日</w>
蟹 </w>
笔 记</w>
的黎 波里</w>
每 季度</w>
N aq
5 5
陆 运</w>
象 是</w>
按 揭</w>
工 人
尼日 利亚
i f</w>
视 线</w>
河 水</w>
伤害 力</w>
上 演</w>
au l</w>
甘 </w>
有 别于</w>
显示 器</w>
不 至于</w>
下 个月</w>
Gr oup</w>
3 24</w>
高 技术</w>
马尔维纳 斯</w>
添加 剂</w>
所 要</w>
屋 子里</w>
制 宪</w>
内 载</w>
š </w>
Pet er</w>
3 22</w>
马克思 主义</w>
工程 项目</w>
学 士</w>
十 分钟</w>
二十 五</w>
I r
良 知</w>
巴马 科</w>
减 半</w>
气 球</w>
技术 厅</w>
感 应</w>
卡 拉
减 刑</w>
该 组</w>
睐 </w>
海岸 线</w>
M P
第三 季度</w>
广播 节目</w>
M ac
B us
金 字
答 道</w>
充 沛</w>
主 人
R ich
黑 夜</w>
正 要</w>
三角 洲</w>
直 播</w>
独 裁</w>
入 境
美 食</w>
漫 画</w>
时 髦</w>
国 名</w>
劳工 部</w>
作 风</w>
不 敢
一 则</w>
税务 局</w>
本 科</w>
普 选</w>
商 谈</w>
亚 当</w>
金融 交易</w>
近 年</w>
期 中</w>
奇 妙</w>
右 翼</w>
刚 好</w>
佩 克</w>
亚美 尼亚共和国</w>
3 46</w>
高 盛</w>
爆炸 事件</w>
德 国人</w>
嘉 </w>
金融 公司</w>
规 模
寄 养</w>
焊 </w>
曝 光</w>
发了 言</w>
个 子</w>
人 生
之 而来</w>
中 未</w>
y ah</w>
3 37</w>
钞 票</w>
沙 龙</w>
景 点</w>
地方 性</w>
腕 </w>
撤 军</w>
多 半</w>
人民 解放军</w>
中间 人</w>
专业 培训</w>
钝 </w>
死 因</w>
接 壤</w>
拷 贝</w>
合作 委员会</w>
参加 国</w>
几 份</w>
B a
预 留</w>
过 敏</w>
挽 回</w>
哈 里
6 8
6 20</w>
马 诺
疲 倦</w>
双方 同意</w>
原 体</w>
一 时间</w>
17 37</w>
铐 </w>
萨 利
整 顿</w>
鸦 </w>
比 拉</w>
本 专题</w>
困 苦</w>
发 售</w>
共 振</w>
9. 5</w>
缺 乏
操作 性</w>
投标 人</w>
开发 新</w>
M A</w>
De p
百 计</w>
没 关系</w>
文化 背景</w>
家 宝</w>
实习 生</w>
南极 洲</w>
供 词</w>
POP RC</w>
通过 培训</w>
珀 </w>
驼 </w>
银 河</w>
精 通</w>
种 姓</w>
礼 堂</w>
皇 后</w>
洛 克</w>
Wind ow
D S</w>
解放 阵线</w>
第十 二</w>
皮 埃尔</w>
用 量</w>
日程 表</w>
喀 什</w>
运 算</w>
吞 </w>
反 腐</w>
分辨 </w>
专 心</w>
一无 所知</w>
W h
起 源于</w>
调查 小组</w>
活动 家</w>
前 言</w>
mar t</w>
N as
长期 投资</w>
钾 </w>
起 伏</w>
背 上</w>
相互 了解</w>
无 常</w>
摩 根</w>
各 点</w>
分 散
入 量</w>
N ew
顾 问
贪 污
解放 组织</w>
抽 签</w>
大 面积</w>
努力 争取</w>
克罗地 亚共和国</w>
il a</w>
逐 出</w>
汇 辑</w>
教 士</w>
抗 灾</w>
惠 国</w>
天 花
人 因</w>
l aw</w>
IS O</w>
田 野</w>
猜 想</w>
深入 分析</w>
河 谷</w>
律 法</w>
式 化</w>
增加 额</w>
︰ </w>
骨骼 </w>
第三十 一条</w>
水 晶</w>
新 鲜
学 士学位</w>
～ </w>
雕 像</w>
致 残</w>
照 相机</w>
海湾 合作委员会</w>
亲 眼
不 理</w>
b y</w>
N O
高 空</w>
道路 交通</w>
极端 分子</w>
搏 </w>
我 刚</w>
听 询</w>
华盛 顿
化妆 品</w>
中 小</w>
莎 士
而 论</w>
私 隐</w>
港 币</w>
明 斯克</w>
捐 献</w>
帆 </w>
对 口</w>
士 们</w>
俱 增</w>
隔离 区</w>
选 中</w>
恳 求</w>
区域 开发</w>
凌 晨</w>
逐 一</w>
莎士 比亚</w>
簧 </w>
加 尼</w>
佩 林</w>
以下 内容</w>
7. 7</w>
3 29</w>
警 戒</w>
板 块</w>
妆 </w>
团结 起来</w>
分 子
万 英镑</w>
E r
3 45</w>
驱 使</w>
边界 地区</w>
朱 </w>
拟 于</w>
乙 醇</w>
一 等</w>
K af
阿 巴斯</w>
这 有</w>
本 分</w>
建 国</w>
夫 斯基</w>
国 应</w>
齐 全</w>
源 码</w>
代 之</w>
人民代表大会 常务委员会</w>
专 制</w>
火箭 弹</w>
楼 上</w>
更 为
安 卡拉</w>
唤 醒</w>
劣 势</w>
充分 反映</w>
逛 </w>
调 入</w>
太 过</w>
中 作</w>
T P</w>
转让 技术</w>
磁 带</w>
泪 水</w>
付 清</w>
m on
这 时候</w>
滋 生</w>
捷 克
上 年</w>
7 20</w>
﹐ </w>
难 忘</w>
特 工</w>
亚 人</w>
政策 性</w>
提 琴</w>
引 信</w>
sk i</w>
非 关税壁垒</w>
长 寿</w>
迷 惑</w>
赫 斯</w>
给 定</w>
比 利亚</w>
不成 比例</w>
领 带</w>
青 睐</w>
染色 体</w>
常务 副</w>
国际 收支</w>
举 起</w>
物 价
比 勒
卡 斯</w>
住房 问题</w>
长 长的</w>
裂 纹</w>
生产 量</w>
独 有</w>
平 价</w>
屁 股</w>
一 如</w>
B ou
闪烁 </w>
铸 造</w>
该 党</w>
相互 理解</w>
执 政党</w>
年 均</w>
举例 来说</w>
上 期</w>
S m
粘 </w>
挑 起</w>
打 伤</w>
困 难
和 美</w>
别 国</w>
冻 结
第一 百
爱滋 病</w>
e a</w>
装 甲</w>
补 偿金</w>
煤 气</w>
位 居</w>
要 花</w>
行 业
竞 选
此 地</w>
剧 本</w>
关键 所在</w>
伤 亡
迪 克</w>
次 于</w>
当 场</w>
弄 清</w>
年 长</w>
喜 剧</w>
化 成</w>
M as
相 遇</w>
定 律</w>
一 例</w>
续 费</w>
柔 和</w>
曼 联</w>
屉 </w>
在 建</w>
同位 素</w>
5. 9</w>
3 36</w>
陀 利亚</w>
通 力
自由 主义</w>
比勒 陀利亚</w>
SP LOS</w>
E ur
施 以</w>
彼此 之间</w>
实际 行动</w>
实施 者</w>
安东 尼奥</w>
台 上</w>
十 大</w>
G A</w>
收 率</w>
周边 地区</w>
仁 慈</w>
中 等
N ational</w>
称 职</w>
归 档</w>
不 起
下 向</w>
p r
嫌 疑</w>
分 量</w>
侧 重点</w>
伐 木</w>
不 齐</w>
0. 4</w>
麻 管局</w>
复 印件</w>
别 忘
出 名</w>
凝 聚</w>
葱 </w>
痒 </w>
巴拿 马
分配 情况</w>
丢 弃</w>
id a</w>
间 隙</w>
牵 涉</w>
正 确性</w>
尼亚 人</w>
利 性</w>
世 代</w>
一 口气</w>
B as
8 52</w>
绝 育</w>
知识 分子</w>
波 器</w>
楼 房</w>
宣传 材料</w>
各个 部门</w>
无 能
布 里
卡塔 尔
卖 出</w>
分 公司</w>
出生 日期</w>
w h
B el
A B</w>
闪 </w>
这样 的话</w>
羡 慕</w>
编制 工作</w>
母 乳</w>
有效 途径</w>
掩 护</w>
住 民</w>
致 以</w>
脸 色</w>
老 朋友</w>
整 洁</w>
太 久</w>
兄弟 姐妹</w>
3 54</w>
相 适应</w>
最新 进展</w>
施 暴</w>
放射 源</w>
大西 洋
地 基</w>
不 是
f r
R o
P e
19 52</w>
足 迹</w>
诚 然</w>
电 磁
森林 资源</w>
整 修</w>
奥斯 卡</w>
地 层</w>
从 小</w>
临 到</w>
驴 </w>
轻轻 地</w>
围 墙</w>
变 通</w>
迟 缓</w>
进 球</w>
能 见度</w>
继 任</w>
弃 权
嚷 </w>
具体 地说</w>
金字 塔</w>
无 异议</w>
小 鸟</w>
奶 油</w>
入 睡</w>
为人 知</w>
and a</w>
M o
面 板</w>
违 犯</w>
过 长</w>
精 美</w>
放射性 物质</w>
抽 屉</w>
愈 合</w>
密切 关系</w>
呢 ？</w>
3 48</w>
2 4.
高 大</w>
若 能</w>
海 豚</w>
年 青</w>
修 女</w>
使用 费</w>
互动 式</w>
M ur
路 障</w>
粹 主义</w>
矿 工</w>
次 日</w>
托 尼</w>
形 容
卡 尔
丛 林</w>
C S</w>
衰 老</w>
胶 囊</w>
纳 斯</w>
教学 大纲</w>
官方 语言</w>
取 而
克 利</w>
静 下来</w>
滥用 职权</w>
射 入</w>
多 彩</w>
中国 共产党</w>
长 城</w>
部 级</w>
弃权 票</w>
家庭 环境</w>
出 所</w>
法 老</w>
大 衣</w>
回 升</w>
取而 代之</w>
借 款人</w>
个人 电脑</w>
转 播</w>
补充 性</w>
意识 到</w>
宣传 教育</w>
叫 声</w>
难 受</w>
点 头</w>
小 狗</w>
全国人 大常委会</w>
产 能</w>
交 替</w>
万 物</w>
饮 食
盈 </w>
疲 力
手 续费</w>
战 役</w>
广 东</w>
察 觉</w>
基 尔</w>
呵 </w>
可 悲</w>
G o
40 6</w>
1 10.
追 逐</w>
联 机</w>
粗糙 </w>
新加 坡
浓缩 铀</w>
感 恩
别无 选择</w>
om b
珍 视</w>
时 速</w>
兰 人</w>
M O
H um
E R</w>
采 样</w>
精 致</w>
百万 计</w>
湿 度</w>
奇 异</w>
动 手</w>
遍 及</w>
联 会</w>
结 转</w>
数据 分析</w>
古 迹</w>
协 会
北 极
举 出</w>
业 经</w>
Pr o</w>
3 31</w>
递 增</w>
米 勒</w>
步 入</w>
吸 烟
受 体</w>
别忘 了</w>
ri m
群 落</w>
指 着</w>
失 控</w>
公平 竞争</w>
主 页</w>
K O
贫困 地区</w>
栅 栏</w>
打 下</w>
卡 洛斯</w>
丙 </w>
与 日
滑 稽
年 老</w>
小 时候</w>
园 艺</w>
冰 川</w>
关 掉</w>
un d</w>
19 47</w>
步 兵</w>
最 受</w>
在 押</w>
决 议案</w>
倒 塌</w>
人 种</w>
中 均</w>
r ah</w>
7. 8</w>
因 果</w>
洞 穴</w>
无 阻</w>
方 言</w>
审计 长</w>
历 次</w>
中 来</w>
c a</w>
逃 走</w>
袍 </w>
毛 坯</w>
无 益</w>
常 识</w>
p e</w>
10 0
蓬 勃
牛 仔
洗 涤
明 治</w>
庄 稼
山 地</w>
屏 障</w>
一 律
登 载</w>
投入 使用</w>
成功 经验</w>
封 面</w>
大 区</w>
围 困</w>
后 方</w>
加 尔
h i</w>
电 阻</w>
清 新</w>
官 兵</w>
与日 俱增</w>
evelop ment</w>
J an
领导 力</w>
蚂 蚁</w>
眼 神</w>
盟 国</w>
椎 </w>
无 关
家庭 事务</w>
哈 拉
决 定
隐 含</w>
阻 塞</w>
睫 </w>
留 言</w>
热 门</w>
无 尽</w>
戈 兰
委 托人</w>
加入 书</w>
体育 馆</w>
t y</w>
3. 9</w>
铺 设</w>
缺 损</w>
纬 </w>
婴 幼儿</w>
吉尔吉斯 共和国</w>
佐 </w>
不 休</w>
R S</w>
7. 9</w>
见 于</w>
柬埔寨 政府</w>
岛 民</w>
不 胜
读 取</w>
并 作</w>
半 天</w>
离 不开</w>
多 功能</w>
马克 思</w>
随 之而来</w>
西班牙 政府</w>
第十 二次</w>
氨 酸</w>
摩洛 哥
弧 </w>
初 级
介 于</w>
上 衣</w>
温 家宝</w>
林 业
未经 许可</w>
境 界</w>
判 罪</w>
0. 6</w>
退 款</w>
贷 项</w>
威 廉
侵 占</w>
人民 检察院</w>
E M</w>
社会 各界</w>
嵌 </w>
居留 证</w>
可 谓</w>
互 信</w>
Am er
颤 抖</w>
身 高</w>
论 者</w>
联 席</w>
管理 费用</w>
甚 么</w>
现 成</w>
渠 </w>
有 不同</w>
接 待
懒 惰</w>
头 来</w>
为 力</w>
• </w>
I E</w>
连 续
身 于</w>
服务 提供商</w>
改 编</w>
拿 来</w>
压 抑</w>
雨 季</w>
继 而</w>
经验 交流</w>
纯 洁</w>
有 理</w>
紊 乱</w>
第 1993</w>
白 皮书</w>
敏 锐</w>
亲 吻</w>
M S</w>
观 光</w>
洪 灾</w>
gl e</w>
还 好</w>
相 继</w>
款 式</w>
最 坏</w>
60 3</w>
辩 方</w>
触 摸</w>
开 立</w>
全权 代表</w>
作 贡献</w>
上 报</w>
长 处</w>
钻 井</w>
违 禁</w>
辨 别</w>
竞 标</w>
带 回</w>
品 尝</w>
全国 人民代表大会</w>
一律 平等</w>
am p
计算机 设备</w>
帝 国主义</w>
复 查</w>
向 本</w>
人口 老龄化</w>
t i</w>
X VII</w>
第 46</w>
林 地</w>
常任 理事国</w>
哈 尔</w>
向 来</w>
即 审</w>
关键 时刻</w>
主 语</w>
“ 你
逐 步
自然 界</w>
梯 度</w>
不 难</w>
i er
3 66</w>
3 49</w>
阿根廷 政府</w>
氟 化</w>
屋 宇</w>
声 望</w>
口 中</w>
om e</w>
订 定</w>
腻 </w>
景 气</w>
成 瘾</w>
性 生活</w>
地下 室</w>
动 向</w>
鄙 </w>
并 存</w>
参 赛</w>
修订 版</w>
侦 测</w>
会议 纪要</w>
五 十年</w>
Moh ammad</w>
量 刑</w>
退 学</w>
相互 信任</w>
根 基</w>
如 欲</w>
多 份</w>
呈 交</w>
世界 市场</w>
F ac
5 6
3 51</w>
老 实</w>
租 户</w>
无能 为力</w>
摇 摇
意大利 政府</w>
关键 技术</w>
全球 定位系统</w>
僻 </w>
住 脚</w>
一 瓶</w>
5 70</w>
垮 </w>
和 准</w>
各 款</w>
分 级</w>
人 则</w>
乐 园</w>
9 0
6. 9</w>
5 80</w>
顺 着</w>
肥 沃</w>
殿 下</w>
抬 起</w>
小 屋</w>
千 百万</w>
劳工 市场</w>
书 目</w>
I m
袋 子</w>
自 制</w>
怪 物</w>
装 卸</w>
经济 制裁</w>
构 思</w>
来 函</w>
初 等</w>
列 有</w>
克 拉
该 地</w>
符合 条件</w>
流 逝</w>
形容 词</w>
平 民
布达 佩斯</w>
实 实在
奥林匹克 运动会</w>
基 亚</w>
In c</w>
而 上</w>
组 在</w>
确保 安全</w>
热 器</w>
当 前
专题 报告</w>
SA T</w>
瑞士 政府</w>
X ML</w>
连 通</w>
过滤 器</w>
悉 尼</w>
亚 尔</w>
9. 4</w>
一 代人</w>
③ </w>
菲 尔</w>
矿 区</w>
眉 睫</w>
相 差</w>
有 否</w>
谣 言</w>
荷 兰政府</w>
条 至</w>
普通 人</w>
康 乐</w>
实实在 在</w>
变 压器</w>
一 百</w>
阵 列</w>
迭 代</w>
请求 书</w>
第十 三</w>
窗 子</w>
朽 </w>
推 进
奇 特</w>
太 小</w>
哥伦比亚 特区</w>
加 德
关 头</w>
蜂 蜜</w>
第 14
染 料</w>
拍 照</w>
审计 师</w>
天 地</w>
乙 方</w>
之 声</w>
Oz L</w>
装 满</w>
特朗 普</w>
控制 中心</w>
ol a</w>
T C</w>
J av
自 定义</w>
甲 型</w>
特 兰
推 向</w>
心 思</w>
人员 伤亡</w>
iy a</w>
N y
8. 6</w>
6 30</w>
手 语</w>
总 括</w>
六 项</w>
免 得</w>
中华 人民共和
u a</w>
萝 卜</w>
相互 之间</w>
核心 内容</w>
当 下</w>
尼泊尔 政府</w>
寂 </w>
关键 在于</w>
佩 戴</w>
余 时间</w>
人 应</w>
盟 军</w>
旅行 者</w>
库 克</w>
并不 需要</w>
女 议员</w>
马 丁
霍 尔</w>
逝 世</w>
许 多年</w>
就 行
原 状</w>
北 欧国家</w>
健 身
丰 厚</w>
课 税</w>
职业 道德</w>
数 码
少 将</w>
坏 事</w>
在 眉睫</w>
同 等
分 遣队</w>
d el</w>
7 30</w>
胰 岛
参与 权</w>
一 号</w>
S erv
3 34</w>
莎 拉</w>
更为 严重</w>
春 节</w>
型 飞机</w>
原 住民</w>
傍 晚</w>
仍 在</w>
人 格
4 26</w>
3 47</w>
16 12</w>
预 制</w>
非 军事化</w>
防 御
贬 低</w>
螺 旋
药 性</w>
泳 </w>
学 徒</w>
天花 板</w>
北 大西洋
风 俗</w>
秘 鲁
波 士
星 系</w>
技 经</w>
屈 </w>
J os</w>
甲 方</w>
本 性</w>
所 作
崇 </w>
头 顶</w>
伊 科</w>
从 未
T ar
调查 组</w>
歌 声</w>
性别 差异</w>
客 车</w>
四 天</w>
匪 </w>
迫 在眉睫</w>
用 意</w>
珍 珠</w>
摩洛哥 王国</w>
性 工作者</w>
双 胞胎</w>
钢 铁
通 话</w>
感恩 节</w>
客 气</w>
专 有</w>
解 脱</w>
第三 类</w>
稳 妥</w>
第五 个</w>
水 系统</w>
校 准</w>
怀 有</w>
巴 克</w>
博 览会</w>
加 仑</w>
三 周</w>
Ibr ahim</w>
3 32</w>
198 8年</w>
非 军事
晓 得</w>
放 大
l and</w>
L a</w>
13 53</w>
谚 语</w>
波 及</w>
就行 了</w>
一 线</w>
重 启</w>
酿 </w>
挤 压</w>
大 叫</w>
予以 考虑</w>
M org
繁 琐</w>
核 军备</w>
扼 杀</w>
征 兵</w>
东 方
不 分</w>
不 介意</w>
非军事 区</w>
进攻 性</w>
衰 </w>
菲利 普</w>
管理 程序</w>
切 换</w>
光 荣</w>
防 火</w>
走 到</w>
考 古</w>
民主 选举</w>
全 港</w>
不 觉</w>
un e</w>
E T</w>
阿拉 法特</w>
蓬勃 发展</w>
第十 一</w>
普 斯卡</w>
时 钟</w>
re z</w>
行 道</w>
科 尔多
新华 社</w>
意见 分歧</w>
三 明治</w>
重大 意义</w>
批 发
托 儿
得 来</w>
地 去</w>
霉 素</w>
而 异</w>
精 明</w>
炎 热</w>
暇 </w>
抽 出</w>
北大西洋 公
先 行</w>
举例 说明</w>
通 缉
这 门</w>
讲 坛</w>
承 租
托儿 所</w>
巴 博</w>
基 层
呃 </w>
北大西洋公 约组织</w>
便 捷</w>
ad o</w>
4 32</w>
预 先
可 得</w>
偏 高</w>
ri s</w>
通力 合作</w>
自 有</w>
皱 </w>
王 室</w>
燃 料
灶 </w>
抵 押
怀 特</w>
强加 于</w>
实际 意义</w>
发 送给</w>
全 力
6 80</w>
阿姆 斯特
甲 板</w>
女 士们</w>
不 需</w>
不 吃</w>
B al
5 90</w>
难 点</w>
武 断</w>
植 入</w>
婚姻 关系</w>
基因 组</w>
传 奇</w>
以 赴</w>
正 文</w>
教 义</w>
想 过</w>
前 列</w>
入 籍</w>
住 院
伦 斯</w>
不 全</w>
H us
0. 8</w>
马诺 河</w>
静 静
阿 勒
里亚 尔</w>
证据 不足</w>
爱 上</w>
探 矿</w>
发 型</w>
南 奥塞梯</w>
中 介
下 个</w>
w e</w>
d er</w>
这样 一来</w>
过 大</w>
罗 德里
粮食 价格</w>
水 井</w>
曼 德拉</w>
帕 特
勋 章</w>
I L
暑 假</w>
手 头</w>
国际 商会</w>
评 为</w>
粉 末</w>
知识 库</w>
格 雷
惩 </w>
好 友</w>
复 发</w>
发 件人</w>
全力 以赴</w>
R A</w>
O m
B S</w>
记录 员</w>
萨 科
能源 供应</w>
筹 办</w>
最 惠国</w>
无 可</w>
合 力</w>
军事 力量</w>
p p
金融 业</w>
耕 </w>
编 织</w>
游 戏
港 元</w>
政府 军</w>
司法 独立</w>
别 墅
交易 成本</w>
6 31</w>
19 4
越 发</w>
所作 所为</w>
发 交</w>
动 者</w>
保护 局</w>
3 74</w>
订 货</w>
损 失
如 前
士 丹
千 人</w>
十字 架</w>
it e</w>
G L
水 泵</w>
大 洲</w>
id e</w>
高尔夫 球</w>
雅 虎</w>
而 生</w>
海 滨</w>
栅 </w>
投 放</w>
意 性</w>
劳资 关系</w>
交 叉
D r
这 所</w>
表 二</w>
暨 </w>
文 法</w>
扣 减</w>
成 败</w>
婚 内</w>
复 制
出 手</w>
养 人</w>
两 张</w>
k e</w>
那 件事</w>
调解 员</w>
获 奖</w>
犯罪 率</w>
新 人</w>
复 习</w>
受 制
中 风</w>
IS BA</w>
3 55</w>
追 赶</w>
溶 解</w>
果 汁</w>
提供 数据</w>
年 幼</w>
匿 </w>
Lt d</w>
第十 四次</w>
竣 工</w>
棵 树</w>
梅 托</w>
圣诞 老人</w>
赖 斯</w>
技术 标准</w>
托 运</w>
奢侈 品</w>
夺 走</w>
大 桥</w>
喔 </w>
反对 者</w>
E v
高 贵</w>
自 相
摩根 士丹
医 务
一 十</w>
遗 漏</w>
腥 </w>
溶 </w>
民事 责任</w>
无 故</w>
文 摘</w>
数以 百万计</w>
教学 方法</w>
孙 子</w>
堕 落</w>
含 糊
S ol
野 外</w>
轮 椅</w>
哈 德</w>
Mah m
J u
E C
CE R</w>
龙 头</w>
片 段</w>
流 落</w>
庄稼 </w>
平 凡</w>
卫星 通信</w>
人 于</w>
中 世纪</w>
一夫多 妻制</w>
ur i</w>
3 94</w>
辅 导
说 得
落 到</w>
英 勇</w>
若干 次</w>
结 晶</w>
标 志
日 托</w>
散 播</w>
如前 所述</w>
吕 斯</w>
与 其
埔 </w>
咨 委</w>
推 选</w>
损 毁</w>
手 动</w>
哈佛 大学</w>
前 例</w>
一切 都是</w>
us t</w>
陆 路</w>
特别 行政
曾 多次</w>
普 惠
无 损</w>
卡塔尔 国</w>
全 心
不 仅
一 阵
And re
美 阿</w>
电 费</w>
热 水</w>
幽 灵</w>
分 层</w>
亲 近</w>
il e</w>
阿 森
胰岛 素</w>
渥 </w>
减 除</w>
代理 商</w>
im ana</w>
3 89</w>
＋ </w>
辩 论
腐败 问题</w>
聪 明
疲惫 </w>
灾 祸</w>
方 形</w>
应用 软件</w>
安德 烈</w>
哈 尔
保险 业</w>
俊 </w>
丹 麦
敬 畏</w>
报 案</w>
弗 吉
保护 人</w>
仅 次于</w>
下 旬</w>
远 程
规 矩</w>
神 情</w>
用 药</w>
琼 </w>
水 坝</w>
契 机</w>
团 体
人 命</w>
买 下</w>
严 谨</w>
贫 血</w>
宣 布
劝 告</w>
几 届</w>
二十 四</w>
ic k</w>
遏 止</w>
言 辞</w>
缓 刑</w>
纪 律
索 要</w>
未 用</w>
抉 择</w>
忧 郁</w>
店 里</w>
五 大</w>
3 64</w>
马 吕斯</w>
费尔 南
狱 中</w>
海 牙
敌 视</w>
振 奋</w>
手 无
宏 </w>
安全 法</w>
以 向</w>
” 他
A F
核 生化</w>
居住 区</w>
受制 于</w>
修 道
不 怕</w>
自 在</w>
纪 录
粗 鲁</w>
无人 驾驶</w>
下 定
零 星</w>
沙 漠化</w>
应 邀
阵 营</w>
走 近</w>
藤 </w>
联系 国</w>
生 长
灾 民</w>
人 文
为时 过早</w>
T or
T P
驱 散</w>
金 子</w>
疵 </w>
核 弹头</w>
拿 破
批 量</w>
实施 方案</w>
D j
集 邮</w>
转 换成</w>
货币 联盟</w>
职业 病</w>
系 列
程序 法</w>
灌 </w>
可 变</w>
兵 营</w>
m ail</w>
车 厢</w>
水 体</w>
拟 将</w>
归 者</w>
外 展</w>
地 以</w>
各项 任务</w>
发 扬</w>
冲 洗</w>
体育 部</w>
钦 佩</w>
这 届</w>
特 里
派 出所</w>
打 字
互 不</w>
自 主
第二 卷</w>
秘 诀</w>
特 征
每 份</w>
妨 害</w>
N ations</w>
3 53</w>
载 人</w>
罗斯 福</w>
标 界</w>
鲍 勃</w>
骗 子</w>
示 范
日 间</w>
改 写</w>
建 构</w>
人民 军</w>
不 决</w>
下定 决心</w>
N ov
遣 送</w>
色 素</w>
小 额
副 秘书长</w>
X VI</w>
D el
马拉 喀什</w>
铅 笔</w>
道 。</w>
繁 多</w>
痛 惜</w>
收 敛
挪威 政府</w>
小额 贷款</w>
基 桑
召 集
保 佑</w>
仓 储</w>
被 称作</w>
结 实</w>
组 分</w>
活动 分子</w>
法 中</w>
张 力</w>
尼 克
奥 马尔</w>
d i
F in
表达 意见</w>
籽 </w>
旗 下</w>
多 位</w>
ber g</w>
50 9</w>
重 演</w>
踏 上</w>
熟 知</w>
战 线</w>
屈 服</w>
学习 者</w>
外 商
国民 军</w>
向 往</w>
努 美阿</w>
畏 惧</w>
无 助</w>
帮 派</w>
养 活</w>
M ay
雨 林</w>
界 人士</w>
片 刻</w>
清 点</w>
极 易</w>
机 床</w>
政 见</w>
提供 方便</w>
塑 性</w>
偷 走</w>
一 身</w>
4 14</w>
4 12</w>
3 56</w>
隐 蔽</w>
财政 危机</w>
缓 急</w>
笼 罩</w>
生 子</w>
服 装
外交 人员</w>
圣 灵</w>
可 达</w>
参 选</w>
前 款</w>
3 41</w>
税 法</w>
尽 可能
上 尉</w>
黎 明</w>
高 高
消 逝</w>
别墅 </w>
主 妇</w>
醋 </w>
贫困 率</w>
知 觉</w>
由 此
犯罪 现场</w>
有 空</w>
有 意识</w>
并 视</w>
填 补
体育 场</w>
B P</w>
难 于</w>
肽 </w>
美 分</w>
维 和
笛 </w>
收 支
克 拉克</w>
两 族</w>
阿 什</w>
销售 量</w>
招 致</w>
军事 基地</w>
org e</w>
量 子</w>
采 掘
路 程</w>
立陶宛 共和国</w>
神 父</w>
溢 出</w>
无 用</w>
培 养
全 套</w>
伊 比利亚</w>
乒 乓
es e</w>
3 43</w>
顺 差</w>
赎 </w>
维和 部队</w>
第五十 届</w>
竹 </w>
滑 坡</w>
来 时</w>
本 会</w>
打 着</w>
失 灵</w>
一百 零
sk y</w>
该 名</w>
管理 体系</w>
批 发</w>
总 预算</w>
基桑 加尼</w>
侵 袭</w>
从 纳</w>
一大 堆</w>
ic t
XX I</w>
降 低成本</w>
轻 重
西 区</w>
环 球</w>
瀑 布</w>
每 星期</w>
施 压</w>
受 损害</w>
卡 纳克</w>
协调 局</w>
初 始
h t</w>
雄 性</w>
采掘 业</w>
船 队</w>
病 房</w>
拼 写</w>
总的 说来</w>
循 序
安大 略
地 段</w>
土耳其 政府</w>
侦 探</w>
中 途</w>
4 97</w>
重 重
各 方对</w>
Abd ul
随 者</w>
绿 色
百 年</w>
生命 力</w>
塔 拉</w>
许 许多
用 心</w>
沙 田</w>
服务 供应商</w>
所 负</w>
总 结
司 在</w>
先 是</w>
ar t</w>
雕 塑</w>
连 锁</w>
脑 子里</w>
循序 渐进</w>
年 纪念</w>
小 队</w>
寄 生
估 量</w>
不 相称</w>
w it
as e</w>
P al
联合国 大学</w>
绿 化</w>
比 利</w>
正 值</w>
开发 商</w>
平 线</w>
啥 </w>
功 夫</w>
o p</w>
b i</w>
al es</w>
移 除</w>
提 款
平 衡
峙 </w>
国家 标准</w>
吃 掉</w>
出 访</w>
习惯 于</w>
资 质</w>
讲 究</w>
腾 出</w>
机械 化</w>
强烈 建议</w>
寄 送</w>
宫 殿</w>
卸 任</w>
买 主</w>
3 44</w>
招 生</w>
手 持</w>
图 标</w>
侧 面</w>
v an</w>
ac h</w>
梅 纳</w>
校 舍</w>
收入 水平</w>
嫁 </w>
召集 人</w>
二 个</w>
中 度</w>
St at
食 物
通信 卫星</w>
还 价</w>
边 上</w>
肴 </w>
暴力 行动</w>
幼 稚
塔吉 克</w>
厌 烦</w>
化 武</w>
创 下</w>
先 生
e z
请 愿
虚 伪</w>
罗 夫</w>
看 一看</w>
相 近</w>
引 领</w>
基本 原理</w>
4 75</w>
2 2.
萨达 姆</w>
缺 水</w>
电子 产品</w>
电 动
光 灯</w>
中 西部</w>
不 要
R P
E B</w>
黄 油</w>
题 材</w>
诱 发</w>
详细 分析</w>
许许多 多</w>
激 怒</w>
师 资</w>
尼 斯
太 晚</w>
兑 换
水 位</w>
好 玩</w>
传 动</w>
互联网 安全</w>
经 理
稿 件</w>
略 微</w>
标 书</w>
嵌 入</w>
多 伦
外 币</w>
埃塞俄比亚 政府</w>
留 用</w>
沿 用</w>
拿破 仑</w>
峰 值</w>
富有 成果</w>
天 文学</w>
后 退</w>
合 用</w>
北 韩</w>
M I</w>
虔 诚</w>
网 膜</w>
科 托
拢 </w>
回 顾
P aul</w>
进 食</w>
轻 而易
胜 地</w>
矿 山</w>
甚 微</w>
an i
考 试
纵 容</w>
符合 国家</w>
杜 夫</w>
夸 </w>
多 式</w>
坦 白</w>
3 52</w>
这 人</w>
绕 过</w>
牛 津</w>
沙 拉</w>
捧 </w>
平民 百姓</w>
勘 查</w>
中 载列</w>
迈 阿
轻而易 举</w>
解剖 </w>
直 属</w>
推 销
捐赠 者</w>
恰 好</w>
性 命</w>
反 之</w>
共和 党人</w>
伤 风</w>
不 快</w>
馨 </w>
联合国 安理会</w>
游泳 池</w>
恐 龙</w>
思 索</w>
得 意</w>
尖 叫</w>
了 结</w>
中 立
E X</w>
马格里 布</w>
顾 虑</w>
酸 性</w>
迦 </w>
血 腥</w>
苦 恼</w>
美 术
沙 巴</w>
参 差
其 余
℃ </w>
6 10</w>
3 57</w>
高 山</w>
驱动 器</w>
文 本
改 成</w>
心 目</w>
弹 簧</w>
和 表</w>
司法 权</w>
分析 员</w>
传 真
Abd el
越 界</w>
谟 </w>
知 情
猪 肉</w>
挨 饿</w>
悄悄 </w>
孟 买</w>
失业 问题</w>
优惠 待遇</w>
H al
7 51</w>
肩 上</w>
新 世纪</w>
店 铺</w>
功 课</w>
从 头
C ap
3 85</w>
无家可 归者</w>
园 区</w>
吉 隆
厂 房</w>
几 句</w>
再 有</w>
充 电</w>
保障 部</w>
主 审</w>
誓 言</w>
衰 落</w>
社会 关系</w>
海 中</w>
小 子</w>
地方 法院</w>
喉 咙
合 成
邮 戳</w>
改 装</w>
摄影 师</w>
历史 学家</w>
博 士学位</w>
ill a</w>
4 15</w>
衰 竭</w>
祈 求</w>
展 开
创 纪录</w>
体 操</w>
N GO</w>
钦 </w>
贝 卡</w>
蕾 </w>
拍 卖
应 考</w>
宫 颈
十字 路口</w>
六 十</w>
不 稳定</w>
3 71</w>
酬 金</w>
海 拔</w>
比 勒</w>
棕 榈
无关 紧要</w>
很 漂亮</w>
岂 </w>
X IX</w>
S D
3 81</w>
片 剂</w>
父 母亲</w>
水 池</w>
威 力</w>
四 氯化
司 将</w>
凌 辱</w>
乡 下</w>
专 责</w>
稀 缺</w>
漫 步</w>
流 浪
求 得</w>
l i
in c
轻重 缓急</w>
诅 咒</w>
秽 </w>
情报 部门</w>
地 盘</w>
商 量</w>
吉 米</w>
刑事 警察</w>
保持 警惕</w>
高 棉</w>
通 性</w>
请 拨</w>
精 细</w>
牵 连</w>
权 责</w>
伊拉 克共和国</w>
迁 离</w>
轮 机</w>
解 开</w>
联 手</w>
怯 </w>
尽 情</w>
奢侈 </w>
双边 条约</w>
出 处</w>
兼 任</w>
16 24</w>
身 着</w>
致 词</w>
肥皂 </w>
爱 因
海牙 公约</w>
早 上
哈 龙</w>
4 17</w>
鼓 动</w>
露 面</w>
调 制</w>
装 饰
第七 十届</w>
科托 努</w>
生物 量</w>
本 世纪</w>
室 外</w>
t re
md ash</w>
肾 脏</w>
美国 公司</w>
管理 条例</w>
窗 帘</w>
爱因 斯坦</w>
栽 培</w>
极 化</w>
本 金</w>
数百 名</w>
延 缓</w>
大 有
信息 管理系统</w>
于 本</w>
an y</w>
4 22</w>
外 衣</w>
四氯化 碳</w>
劝 说</w>
纯 属</w>
政 和</w>
吉隆 坡</w>
内部 事务</w>
轮 船</w>
赛 尔</w>
期 为</w>
无 一
摊 派</w>
开 始
如 表</w>
停 止
伸 展</w>
默 许</w>
银行 贷款</w>
爆 破</w>
期 权</w>
可 言</w>
f o</w>
6 61</w>
默 默
干 脆</w>
其余 部分</w>
伪 装</w>
严 酷</w>
东北 亚</w>
l d</w>
6 9
4 9
舰 队</w>
潜 水</w>
污 水处理</w>
才 华</w>
如 需</w>
仇 敌</w>
为数 不多</w>
O P</w>
首 府</w>
热 切</w>
外 形</w>
复 印</w>
不 道德</w>
at i</w>
4 23</w>
顶 端</w>
遇 害</w>
组 别</w>
希 望
就是 指</w>
后 于</w>
加 油
全心 全
下 方</w>
一 大批</w>
7 7
6 90</w>
3 86</w>
问 答</w>
蜘蛛 </w>
缓 存</w>
授 权
台 式</w>
亚 特兰
二 烯</w>
两 套</w>
不 感兴趣</w>
D ec
3 39</w>
看 得
普 罗
归根 结
对 峙</w>
下 落
逆 向</w>
胆 固醇</w>
暗 淡</w>
旅游 者</w>
分 队</w>
下 一
装甲 车</w>
烧 伤</w>
深 为</w>
大 坝</w>
告 终</w>
写 给</w>
中 枢
p a</w>
躏 </w>
腐败 现象</w>
留 学</w>
热 衷
有 点儿</w>
威尔 逊</w>
参差 不齐</w>
交 涉</w>
e ed</w>
先 锋</w>
乳 房</w>
st r
蒙 特</w>
茜 </w>
第六 节</w>
相 片</w>
标 定</w>
无线 电台</w>
开发 人员</w>
历 时</w>
千 万
人 意</w>
d es</w>
P D</w>
O b
问 卷
蹂 躏</w>
货 人</w>
评论 家</w>
血 糖</w>
范 式</w>
研究 组</w>
猴 </w>
数 最多</w>
急 诊</w>
公共 关系</w>
三 点</w>
H el
F C</w>
D ar
迈阿 密</w>
直 观</w>
安 理
大 类</w>
境 遇</w>
周 年纪念</w>
发 起
区 法院</w>
全心全 意</w>
为 的是</w>
说 完</w>
萨 马</w>
强 盗</w>
oc k</w>
逮捕 证</w>
纪录 片</w>
机 体</w>
显 著
整 齐</w>
大 洋
助 学金</w>
出 入境</w>
信息 网络</w>
供应 品</w>
遗 骸</w>
自 来
治 疗
应 负</w>
处理 程序</w>
前 后
伤 员</w>
不 小</w>
a j</w>
闭 幕
看 望</w>
看 不出</w>
忧 伤</w>
差 点</w>
军 控</w>
4 88</w>
问卷 调查</w>
道 义
致 于</w>
珍 </w>
国 度</w>
国 务</w>
嘴 巴</w>
卷 宗</w>
o k</w>
铺 平</w>
计算机 系统</w>
第四十 条</w>
监测 员</w>
坏 消息</w>
史 无
可 图</w>
募 集</w>
Sh a</w>
4 16</w>
绣 </w>
纳 尔
票 价</w>
用 餐</w>
模 样</w>
托 斯</w>
媚 </w>
处理 厂</w>
变 数</w>
邮 品</w>
走 势</w>
肆 意</w>
抱 负</w>
广 东省</w>
唤 起</w>
en ch</w>
R u
社会 化</w>
狱 警</w>
断 层</w>
巴基斯坦 政府</w>
史蒂 夫</w>
句 型</w>
原 始
一 岁</w>
L aw</w>
40 2</w>
4 87</w>
送 入</w>
谢 谢
突 发
最低 水平</w>
德意志 联邦共和国</w>
分 期</w>
C an
3 73</w>
被 遗弃</w>
花 旗
联络 人</w>
瑞 克</w>
打 个</w>
哈 佛</w>
供应 量</w>
供 选择</w>
低 级</w>
G GE</w>
Ant on
星 座</w>
扰 动</w>
当 做</w>
弓 </w>
尼 派</w>
尖 端</w>
可 喜</w>
乘 数</w>
下落 不明</w>
这 幅</w>
说 起</w>
莫 斯</w>
离 心
局 域网</w>
入 点</w>
传 到</w>
ec os
Morg an</w>
相 吻合</w>
染 色</w>
更 少</w>
区域 环境</w>
骆 驼</w>
环境 因素</w>
牛仔 裤</w>
不得 已</w>
PC N
4 13</w>
雕 </w>
赛 特</w>
第二十 九条</w>
急 切</w>
巴 拉
埃 拉</w>
听 讯</w>
后 卫</w>
受 不了</w>
先 令</w>
3 72</w>
该 文</w>
签订 合同</w>
旷 野</w>
金融 工具</w>
那 辆</w>
近 距离</w>
表 演
神经 元</w>
更 佳</w>
徘 徊
年 计划</w>
布拉 格</w>
史无 前例</w>
仍 会</w>
不好 意思</w>
一年 一度</w>
阴 道</w>
胡 锦
波士 顿</w>
战 争
彩 虹</w>
地 使</w>
7 60</w>
3 59</w>
畅 销</w>
现实 生活</w>
承 保</w>
存 取</w>
ú </w>
站 不
破 灭</w>
相 爱</w>
民族 解放</w>
款 待</w>
以 利于</w>
不 计</w>
ig ht
Hass an</w>
高 低</w>
跳 跃</w>
荒 漠</w>
相互 间</w>
热衷 于</w>
正 向</w>
教 程</w>
安全 形势</w>
孽 </w>
伊 斯</w>
4 56</w>
驾 </w>
落 实
考虑 一下</w>
维 察</w>
据 信</w>
打 工</w>
宫颈 癌</w>
如 对</w>
好 几
争 斗</w>
pres id
k er</w>
XX IX</w>
50 3</w>
驱逐 令</w>
桨 </w>
客 运</w>
在 前</w>
哩 </w>
伊斯兰 堡</w>
九 名</w>
ac k</w>
迭 </w>
货 款</w>
考 量</w>
美 女</w>
有害 物质</w>
报 废</w>
山 坡</w>
姿 </w>
S mart</w>
锚 </w>
重 现</w>
古 柯</w>
南 省</w>
优 越
aw a</w>
8 60</w>
4 36</w>
15 00</w>
队 列</w>
美 金</w>
游击 队</w>
小 区</w>
在 册</w>
图 画</w>
和谐 社会</w>
前 去</w>
3 82</w>
鱼 种</w>
逊 尼派</w>
所 行</w>
华 沙</w>
二零零 六年</w>
不可 否认</w>
M aj
K B</w>
首要 任务</w>
笨 </w>
真 菌</w>
特别行政 区政府</w>
同情 心</w>
发 行
十 五日</w>
二 维</w>
is e</w>
水 土
差 错</w>
奥 斯</w>
可 危</w>
其 一</w>
顺 从</w>
运输 工具</w>
统计 调查</w>
第一 手</w>
提 前
悼 念</w>
伸 手</w>
二 世</w>
A A</w>
钟 头</w>
计算 结果</w>
老 年
翰 </w>
章 次</w>
没 用</w>
K al
诸 位</w>
砍 </w>
滑稽 </w>
涩 </w>
放 开</w>
攻 势</w>
图 像
创 设</w>
免疫 系统</w>
体 制性</w>
d h
H u
40 8</w>
野 兽</w>
著作 权</w>
胡锦 涛</w>
给 与</w>
炫 耀</w>
投 机
并 不是</w>
守 卫</w>
做 梦</w>
C r
餐 饮</w>
科 科长</w>
留 物</w>
增 速</w>
单 项</w>
低 价</w>
3 63</w>
能 干</w>
维 度</w>
经济 体制</w>
涅 </w>
应 征</w>
人 日</w>
事 由</w>
与此 相反</w>
瑞典 政府</w>
每 桶</w>
喊 道</w>
单 亲</w>
利 润
一 团</w>
en e</w>
PCN ICC</w>
4 39</w>
竞选 活动</w>
碘 </w>
率 地</w>
普及 率</w>
参 赞</w>
前 南</w>
养 老</w>
全 程</w>
为 重</w>
丰 富
一 家人</w>
3 68</w>
粪 便</w>
残 障</w>
正规 化</w>
徒 劳</w>
尽 责</w>
举 足轻重</w>
不 一</w>
Ch ina</w>
4 6
频 谱</w>
雷 场</w>
评 估
计算机 化</w>
禁 区</w>
特 纳</w>
承租 人</w>
富 含</w>
国 为</w>
再 三</w>
送 来</w>
第十 五次</w>
晚 间</w>
受 托人</w>
空 洞</w>
最 能</w>
工 党</w>
岌 岌
名 列</w>
R es</w>
G oo
魁北 克</w>
马 普
辖 下</w>
意 想不到</w>
区 议会</w>
一 想</w>
罗德里 格斯</w>
状 况
权 主义</w>
时 空</w>
拉 斯
已 使</w>
合作 部</w>
光 临</w>
为 患</w>
F S</w>
A T</w>
附 于</w>
阿 勒</w>
锰 </w>
谢 谢您</w>
证券 公司</w>
见 性</w>
若干 项</w>
气 旋</w>
有 关
带 入</w>
岌岌 可危</w>
城市 居民</w>
公 屋</w>
交 纳</w>
五 种</w>
S ab
M ak
4 28</w>
3 42</w>
纪念 品</w>
班 上</w>
抽 取</w>
手 势</w>
天 后</w>
大 赛</w>
多 变</w>
共 谋</w>
U S</w>
3 58</w>
音乐 家</w>
贝 拉</w>
订 有</w>
普通 教育</w>
斜 坡</w>
指 针</w>
拇 指</w>
小 费</w>
仪 表</w>
M y
8. 7</w>
骑 马</w>
还 须</w>
能源 价格</w>
着 想</w>
忍 耐</w>
年 薪</w>
代表 处</w>
中 共</w>
p ubl
en g</w>
A D
短 文</w>
宁 可</w>
劳 资</w>
分布 式</w>
两 部</w>
调 往</w>
溜 </w>
引 致</w>
告 诉
吊 </w>
发 烧</w>
亲 身</w>
Th om
8. 8</w>
雅 克</w>
满 为患</w>
深 刻
奖 赏</w>
再 现</w>
伤 者</w>
世 间</w>
一 分
l a
遥 控</w>
肠 道</w>
继 任
真 是
沉 降</w>
带 宽</w>
已 达</w>
各种 类型</w>
反 感</w>
加利福 尼亚州</w>
凝 </w>
颁 奖
车 臣</w>
苛 刻</w>
站 立</w>
投票 站</w>
怀 念</w>
很 久</w>
幸 存</w>
吊 销</w>
俟 </w>
40 5</w>
4 11</w>
都 会</w>
贩 子</w>
气 流</w>
服务 项目</w>
有所 改进</w>
放 电</w>
开 着</w>
在 下</w>
凝 胶</w>
会员 卡</w>
仙 </w>
他 用</w>
从 业</w>
XX VI</w>
W TO</w>
R um
醛 </w>
荒 唐</w>
现 值</w>
标 本</w>
折 算</w>
地 道</w>
人 用</w>
一 任</w>
Al ex
15 72</w>
酸 化</w>
那 家</w>
种植 园</w>
方 向
探 望</w>
南 海</w>
分析 法</w>
一 惊</w>
re t
il d
In stit
3 69</w>
非常 复杂</w>
追 随者</w>
细 微</w>
甄 别</w>
渡 过</w>
时 为</w>
性 交</w>
定 论</w>
外 籍
他 妈
语 种</w>
西 南亚</w>
精神 病
疚 </w>
特 拉</w>
年 时</w>
属 实</w>
对话 框</w>
大洋 洲</w>
在 技术上</w>
到 了</w>
元 前</w>
ou t</w>
ecos oc</w>
D T
3 62</w>
适应 能力</w>
衣 着</w>
脑 子</w>
相 位</w>
明 朗</w>
基 建</w>
只 用</w>
利害 攸关</w>
人 满为患</w>
19 29</w>
有悖 于</w>
新 政</w>
增加 一倍</w>
受 限</w>
反 正</w>
储 存
他妈 的</w>
草 莓</w>
宵 禁</w>
多伦 多</w>
外商 投资</w>
外 人</w>
勾 结</w>
东 区</w>
铬 </w>
金融 中心</w>
联 安</w>
组织 协调</w>
毁 掉</w>
橱 </w>
既 定
搭 建</w>
国际 私法</w>
镇 上</w>
空间 信息</w>
液 化</w>
收 件人</w>
徘徊 </w>
外 部
冷 却
人 造
ard o</w>
至 上</w>
皮 肤
早上 好</w>
得 当</w>
增 无
偿 还
亚马 逊</w>
五 百</w>
短 片</w>
甲 基
汉 姆</w>
接 触
截 获</w>
对 照
商业 界</w>
3 92</w>
3 77</w>
退 伍
车 轮</w>
第三十 三条</w>
无 礼</w>
克里 斯蒂
ab le</w>
M ag
F a
西 方
溶 性</w>
模 范</w>
普 拉
微 量</w>
南 半球</w>
互 换</w>
B ak
200 0年</w>
超 重</w>
责任 者</w>
精 心
研 所</w>
班 机</w>
格 勒
外 加</w>
售 货
公 元</w>
M ut
金 斯敦</w>
费 力</w>
裸 </w>
虏 </w>
残疾 者</w>
有 增无
D es
答 卷</w>
拉 丹</w>
很 多年</w>
圣 战</w>
公共 开支</w>
公 投</w>
信息 学</w>
et h</w>
身 亡</w>
虚 构</w>
特 此</w>
光 电</w>
额 外
真 心</w>
扎 根</w>
才 智</w>
大 理
一 概</w>
C S
顶 峰</w>
组 和</w>
增 派</w>
达 卡</w>
维 系</w>
经 贸
手 榴弹</w>
所 学</w>
展开 讨论</w>
切 合</w>
人事 管理</w>
an k</w>
2 6.
高等 院校</w>
迎 合</w>
肖 </w>
联 利
病 症</w>
摘 录</w>
复 活
会 以</w>
五 位</w>
闪 光</w>
逼 供</w>
西 南部</w>
袒 </w>
思 念</w>
学 问</w>
品 味</w>
中国人民 银行</w>
虽 说</w>
纠 缠</w>
穆 萨</w>
政 界</w>
改善 生活</w>
困难 重重</w>
回 忆
退伍 军人</w>
给 付</w>
立 案</w>
电子 版</w>
明 日</w>
好 评</w>
增 援</w>
哈 姆
一 俟</w>
L im
A ug
隔 壁</w>
陷入 困境</w>
较 高</w>
海 龟</w>
浑 身</w>
旋 转
开 具</w>
多 层</w>
写 字母</w>
不 怎么</w>
ing s</w>
d ocum
0 3
那 本书</w>
茶 叶</w>
联利 观察团</w>
犹太 教</w>
河 边</w>
找 寻</w>
录 用</w>
可 口
下 才</w>
4 43</w>
精 子</w>
佛罗里 达</w>
七 天</w>
5 12</w>
阿 尔</w>
防 火
重 构</w>
采 矿业</w>
翼 翼</w>
签 定</w>
禁 核
汇 报
巴士 拉</w>
巴 赫</w>
团 在</w>
单 亲
前 列
关键 字</w>
齐 下</w>
欧 佩克</w>
播 种</w>
接 再
换 算</w>
加 之</w>
再 接再
五 分</w>
一 栋</w>
肆 虐</w>
第十 六次</w>
所 做</w>
德 里克</w>
平均 年龄</w>
大幅 度
和 谈</w>
各 式
力 所
传 票</w>
从业 者</w>
事 事</w>
3 83</w>
鸽 子</w>
难以 获得</w>
记 账</w>
董 </w>
斯 勒</w>
扶 </w>
戒 毒</w>
弊 端</w>
常 务</w>
各式 各样</w>
十 几
避 免
赎 金</w>
管理 法</w>
年 收入</w>
平 板</w>
从那 时起</w>
不可 抗力</w>
l v
L L</w>
黄 金
重 塑</w>
渍 </w>
密切 注意</w>
家 居</w>
埃 米尔</w>
喷 </w>
名 片</w>
万 分</w>
aw i</w>
D ocs</w>
突 击</w>
离 家</w>
权 重</w>
大 肆</w>
国际 公法</w>
售 出</w>
南 京</w>
冰 冷</w>
Rich ard</w>
美利坚合众 国政府</w>
第十 四</w>
知 道
小心 翼翼</w>
国际 奥委会</w>
单亲 家庭</w>
Will i
集中 营</w>
镀 </w>
社会 保障部</w>
碰 巧</w>
疮 </w>
熬 </w>
幽 默
害 羞</w>
定 点</w>
口 音</w>
出 人
专题 会议</w>
P o
3 79</w>
终 端
立 体</w>
敢 于</w>
并不 知道</w>
巨 型</w>
婚 前</w>
采 掘</w>
第十 二
早 点</w>
大 得多</w>
合作 者</w>
冷 淡</w>
6 70</w>
经 过
滤 波器</w>
愉 悦</w>
南 朝鲜</w>
风 能</w>
蚊 子</w>
生物 体</w>
生态 旅游</w>
洗 澡</w>
机 密性</w>
最 合适</w>
巴 比
同 其</w>
原 产</w>
内 容
偏 爱</w>
事 前</w>
ç </w>
G N
顺利 完成</w>
这 要</w>
若干 年</w>
珂 </w>
枪 杀</w>
无 形资产</w>
工业 生产</w>
公务 人员</w>
补 偿
而 行</w>
科威特 政府</w>
犯罪 团伙</w>
洛 美</w>
明 文</w>
市 级</w>
四 十年</w>
分 明</w>
中 医</w>
专 科</w>
不 来</w>
一 宗</w>
ar m
ad d
重 金属</w>
过 夜</w>
能 及</w>
经济 繁荣</w>
生产 工艺</w>
光 彩</w>
伯利 恒</w>
a p</w>
要 不是</w>
落 下</w>
水 污染</w>
改 派</w>
修道 院</w>
乡 镇</w>
之 子</w>
af f
3 91</w>
跌 倒</w>
走 来</w>
衷心 感谢</w>
背 部</w>
耐 用</w>
病 毒
无 声</w>
支持 性</w>
挣 钱</w>
公交 车</w>
低 碳</w>
也 好</w>
O s
A K</w>
莫 过于</w>
联 阵</w>
笔记 本
服务 公司</w>
托 儿</w>
懒 </w>
巷 </w>
安德 鲁</w>
大 法官</w>
呈 件</w>
含 汞</w>
举 证</w>
窑 </w>
禁 忌</w>
深 表
比 前</w>
恰恰 相反</w>
很 感兴趣</w>
尘 埃</w>
堪 称</w>
势 必</w>
前 几次</w>
风 味</w>
随 机
辞 去</w>
破 伤风</w>
昂 山</w>
收 割</w>
指 示
喉咙 </w>
al d</w>
铁 矿石</w>
遗 迹</w>
薄 弱
第十 三次</w>
波 浪</w>
提 单</w>
年 增长率</w>
审判 权</w>
安 的
好 些</w>
受 托</w>
卫生 部长</w>
一 趟</w>
一 些
4 35</w>
3 61</w>
还 于</w>
绝 缘</w>
精 力
科 斯</w>
瘘 管</w>
无 休
新 郎</w>
实地 考察</w>
商 议</w>
古 希腊</w>
偏 袒</w>
” 她
预算 赤字</w>
队 友</w>
长 久
金 币</w>
请 假</w>
制 冷
农 用</w>
临时 政府</w>
顺利 进行</w>
邀 请
耗 资</w>
氏 度</w>
感 官</w>
总 公司</w>
天 津</w>
回 信</w>
决 算</w>
丰 田</w>
飞 去</w>
辐 照</w>
观 赏</w>
第九 十
电子 设备</w>
死 后</w>
无 国界</w>
或 经</w>
强 势</w>
干 旱
巴 库</w>
宅 </w>
增 量</w>
写 成</w>
保留 地</w>
过 往</w>
财政 赤字</w>
心 想</w>
常 备</w>
失 明</w>
吉 他</w>
可 耻</w>
化 疗</w>
辅 之以</w>
如 本</w>
听 觉</w>
刮 </w>
信 任
从 属</w>
4 85</w>
第 12
油 脂</w>
收 藏
ur ah</w>
转 过</w>
稻 米</w>
版 权
本 地
拙 </w>
德 利</w>
塔吉 克斯坦共和国</w>
分 立</w>
M un
8 20</w>
镇 静</w>
镁 </w>
等 值</w>
演 进</w>
更 有
息 息
女 神</w>
地 利</w>
停 泊</w>
信 道</w>
伽 利
伊朗 伊斯兰</w>
一 站
V i
老 太太</w>
美国 国务院</w>
波 斯</w>
时 装</w>
性别 角色</w>
安的 列
协 约</w>
中 低收入</w>
那 人</w>
精 华</w>
第十 七次</w>
数 千名</w>
干 练</w>
小 小</w>
寂 静</w>
口 处</w>
取 自</w>
卡 路
不 解</w>
enc y</w>
高 标准</w>
糊 涂</w>
用 电</w>
欢 喜</w>
日程 安排</w>
客 房</w>
人 行道</w>
eb ook</w>
长期 有效</w>
贾 梅纳</w>
说 些</w>
筝 </w>
第五十 </w>
工业 部</w>
又 称</w>
之 苦</w>
15 59</w>
新 兴
接 轨</w>
所有 制</w>
安全 带</w>
如 实</w>
刊 载</w>
S U
A M</w>
钢 筋</w>
膜 炎</w>
肩 负</w>
突 出
爱 丽丝</w>
毛 泽
吞 并</w>
卡路 里</w>
加德 满
保 费</w>
人 解</w>
Mar ia</w>
谈 起</w>
袜 子</w>
简 言之</w>
窍 </w>
污 泥</w>
捷克 斯洛伐克</w>
戏 剧性</w>
恩 贾梅纳</w>
卫生 局</w>
入 住</w>
代 际</w>
付 钱</w>
comm ittee</w>
野 餐</w>
深 厚</w>
有 形资产</w>
日 及</w>
庆 典</w>
场 主</w>
兵 车</w>
供 养</w>
U m
L in
4 57</w>
＝ </w>
高级 顾问</w>
阿 让</w>
著 称</w>
自 己
美 化</w>
生活 费用</w>
民意 调查</w>
斯 马
收 紧</w>
弗里 敦</w>
圈 子</w>
公 诉人</w>
ic s</w>
g in
9. 6</w>
4 37</w>
锈 </w>
表 层</w>
水 务</w>
毙 </w>
敌 国</w>
太 空
壮 观</w>
灌 木</w>
有限 责任</w>
急 速</w>
微 风</w>
区 间</w>
加德满 都</w>
伽利 略</w>
Kh an</w>
C ST</w>
40 4</w>
阿 齐兹</w>
现 役</w>
横 跨</w>
本 杰
亨 </w>
丁 二烯</w>
e f</w>
震 荡</w>
谋杀 罪</w>
摩根士丹 利</w>
拖 拉
劳工 局</w>
何 况</w>
亲 王</w>
东道 主</w>
上 周五</w>
b e</w>
B ern
逻 辑
薇 </w>
y an</w>
记忆 力</w>
水 利</w>
慈 爱</w>
弄 清楚</w>
听 闻</w>
厄瓜多 尔
劳动 合同</w>
笔记本 电脑</w>
犹太 主义</w>
忠 于</w>
孤 儿
一个 个</w>
n et</w>
3 78</w>
门 票</w>
越 大</w>
衬 </w>
薄弱 环节</w>
耗 时</w>
男 友</w>
献 身</w>
炸 毁</w>
渊 </w>
涡 </w>
小 路</w>
同 级</w>
中国 香港</w>
X I</w>
40 3</w>
赡 养费</w>
牛 排</w>
明 智
时 代
孤 单</w>
大理 石</w>
地 貌</w>
国 与</w>
发 疯</w>
个人 卫生</w>
ir o</w>
Window s</w>
最 穷</w>
拖 车</w>
恿 </w>
心 意</w>
孟 加拉</w>
娱乐 活动</w>
奔 跑</w>
地理 信息</w>
副 总裁</w>
入 门</w>
使用 量</w>
ven tion</w>
返 国</w>
录 制</w>
地区 性</w>
出 行</w>
伊朗 政府</w>
五 年计划</w>
一 手</w>
韧 性</w>
迷 信</w>
说 实话</w>
蒙 德</w>
第三十 二条</w>
笔记 本</w>
爵 夫人</w>
极 少数</w>
暴 跌</w>
卡 比拉</w>
兑换 率</w>
X IV</w>
O ff
震 撼
辛 勤
第 49</w>
突 </w>
称 号</w>
滤 波</w>
推销 员</w>
开 普
会 前</w>
五 周年</w>
è </w>
o y</w>
Kaf r</w>
酋 </w>
联合国 教科文组织</w>
精神病 院</w>
突发 事件</w>
空气 质量</w>
油 井</w>
水 上</w>
早 饭</w>
墨 水</w>
利 特</w>
出 错</w>
冉 阿让</w>
er n</w>
远 远
营养 素</w>
淡 化</w>
毛 巾</w>
归根结 底</w>
平均 工资</w>
四 级</w>
君 主</w>
可 知</w>
动 荡
阿 联
盗 版</w>
沉 思</w>
氨 基
教 益</w>
尼 罗</w>
东 斯</w>
Al ma</w>
4 55</w>
肯 尼亚
看 书</w>
法定 人数</w>
收 成</w>
指 甲</w>
密 不可
一 块
V er
阿联 酋</w>
辙 </w>
维 网</w>
渗 入</w>
悬 崖</w>
很 广</w>
分 行</w>
仍 应</w>
个 星期</w>
专利 权</w>
不同 寻常</w>
UN CT
R E</w>
超 声波</w>
资 格
菇 </w>
气 质</w>
死亡 威胁</w>
样 板</w>
最 深</w>
最 差</w>
刚 刚
其他 费用</w>
保险 金</w>
s a</w>
en s</w>
4 38</w>
病 媒</w>
池 塘</w>
扫 射</w>
亨 特</w>
亦 然</w>
下 而上</w>
高 档</w>
重大 成就</w>
熟 虑</w>
抢 救</w>
师 范
工作 站</w>
尼 罗
密不可 分</w>
单 调</w>
两国 人民</w>
万 维网</w>
d is
X 光</w>
金 边</w>
趾 </w>
获得 者</w>
得 上</w>
合众 国</w>
反 向</w>
中 转</w>
不 景气</w>
不 如
ri l</w>
预 后</w>
良 机</w>
港 岛</w>
栗 </w>
夹 克</w>
呼 唤</w>
合同 法</w>
以色列 国</w>
中间 商</w>
M et
透 社</w>
花 瓶</w>
毛 利</w>
征 集</w>
好 战</w>
填补 空缺</w>
发 货</w>
做 个</w>
依法 追究</w>
ust af
H ab
40 9</w>
违 宪</w>
还 同</w>
辨 识</w>
请愿 书</w>
打 字</w>
俘 虏</w>
Univers ity</w>
4 44</w>
驻 外</w>
适 量</w>
谋杀 案</w>
稀 释</w>
病 因</w>
甲状 腺</w>
无 能</w>
总 长</w>
实 情</w>
奶 粉</w>
失 常</w>
伊 利
页 数</w>
近 些
涌 现</w>
无 动
无动 于
提 炼</w>
处 死</w>
再 者</w>
ou n</w>
50 1</w>
5 21</w>
走 动</w>
考 古
第二十 八条</w>
掌 权</w>
手 机
周 刊</w>
包 机</w>
低 水平</w>
u z
3 76</w>
食 堂</w>
追 捕</w>
谱 法</w>
表 征</w>
编 译</w>
深 思
力所 能及</w>
H SP</w>
B 型</w>
红新 月</w>
累 斯
电 车</w>
珥 </w>
应 付款</w>
巴 哈</w>
中 华</w>
不 懂</w>
e en</w>
4 5
自由 市场</w>
聋 </w>
独立 国</w>
歌 剧</w>
心 跳</w>
巴 巴</w>
复活 节</w>
土 机</w>
十二 条</w>
创 性</w>
人员 培训</w>
项 链</w>
越 是</w>
沌 </w>
教 师
工 时</w>
喜 好</w>
原子 弹</w>
南 非政府</w>
办事 员</w>
Jab al</w>
19 07</w>
阅 读
金 刚
连接 起来</w>
谢 尔
解 救</w>
居 室</w>
即 刻</w>
他 家</w>
之 家</w>
下 台</w>
Lu is</w>
记 者
认真 对待</w>
经 贸</w>
独 特性</w>
机 构
或 愿</w>
我 的
具体 任务</w>
s o</w>
韧 </w>
长期 性</w>
莫 罗</w>
班 加
法律 条文</w>
待 审</w>
决策 权</w>
ull ah</w>
迷 失</w>
该 是</w>
管 齐下</w>
机动 车</w>
扎 伊</w>
怂 恿</w>
剔 </w>
保 密性</w>
伦 敦
I A</w>
40 7</w>
蒸 气</w>
空 闲</w>
怨 恨</w>
布 尼亚</w>
坚 硬</w>
地 平线</w>
受 力</w>
动 人</w>
X III</w>
) 的
相 匹配</w>
无 穷
文 号</w>
幽默 感</w>
平 壤</w>
外 科
受 苦</w>
光 泽</w>
充 裕</w>
el le</w>
R ad
Pap er
4 45</w>
达 累斯
美 术</w>
紧密 联系</w>
水 里</w>
拮 据</w>
停止 使用</w>
D e</w>
5 25</w>
路 透社</w>
警 卫
瑜 伽</w>
深思 熟虑</w>
控 股</w>
拜 托</w>
抬 </w>
开放 性</w>
巴勒 莫</w>
商 标
到 访</w>
传 闻</w>
义 词</w>
j ec
I R</w>
西 北
行 车</w>
航 道</w>
布 满</w>
后 继</w>
只 应</w>
克萨 斯州</w>
三 家</w>
这 应</w>
赞助 者</w>
警 署</w>
第一 卷</w>
残 害</w>
忘 掉</w>
废 气</w>
如 期</w>
卧 </w>
公 元前</w>
称 道</w>
相互 支持</w>
杭 州</w>
接 头</w>
戈兰 高地</w>
心 智</w>
德 勒</w>
带 头
居 于</w>
外交 事务</w>
中 仅</w>
en ko</w>
谈 一谈</w>
脑 部</w>
扔 掉</w>
天气 预报</w>
4 29</w>
逐 案</w>
害 虫</w>
内 尔</w>
借 钱</w>
份 文件</w>
一 圈</w>
× </w>
4 78</w>
高等 学校</w>
进 制</w>
洛 伊</w>
架 子</w>
哥 大</w>
再接再 厉</w>
依 循</w>
传 承</w>
上 门</w>
D on</w>
B h
4 19</w>
馏 </w>
袭 击者</w>
自来 水</w>
机 密
拉 萨</w>
惊 恐</w>
句 意</w>
中 称</w>
Paper Smart</w>
Naq urah</w>
I O
风 气</w>
第三十 六条</w>
爱国 者</w>
农 产</w>
In sp
这 比</w>
诊 治</w>
社会 制度</w>
猎 物</w>
息息 相关</w>
屡 次</w>
完全 相同</w>
失 败
动 身</w>
丙 烯
不断 加强</w>
g h
那 年</w>
讲 演</w>
绵 羊</w>
林 丹</w>
市场 竞争</w>
如 图</w>
国际 会计</w>
世界 卫生</w>
Z h
疏 </w>
氨 </w>
有 线
平 坦</w>
取 用</w>
ak i</w>
金 正
辅助 性</w>
角 落
登 机</w>
必 备</w>
夺 去</w>
办公 楼</w>
丽 莎</w>
i b</w>
4 24</w>
靠 着</w>
石 化</w>
月 光</w>
基 辅</w>
垦 </w>
关 节
你 的
不 尽</w>
雅 温
除 术</w>
防 水</w>
邻 近
第四十 一条</w>
监 狱
法 塔
时 能</w>
文 斯</w>
散 射</w>
我 该</w>
和平 奖</w>
合 乎
刹 车</w>
不 知道</w>
下 于</w>
UNCT AD</w>
K or
Goo gle</w>
见 证人</w>
行 文</w>
学 前</w>
大不 相同</w>
吃 晚饭</w>
供 货</w>
乙 型</w>
is a</w>
ak a</w>
15 21</w>
雌 性</w>
遗 属</w>
车 库</w>
波 长</w>
毯 子</w>
增 高</w>
囱 </w>
单 是</w>
d ep
4 21</w>
该 行</w>
相互 依赖</w>
检察 署</w>
定 购</w>
关 门</w>
乌 萨马</w>
p p</w>
T y
4 33</w>
采 伐</w>
帐 款</w>
处 处</w>
唱 名</w>
各 族
s en</w>
e j
15 03</w>
陵 </w>
锦 标
逃 往</w>
摔 </w>
勇 士</w>
保 住</w>
不 平</w>
4 77</w>
驱 动力</w>
达 巴</w>
说 成</w>
详 情
管理 机制</w>
眉 </w>
畜 牧</w>
渔 获</w>
殊 </w>
昨天 晚上</w>
废 水处理</w>
常 见
市场 需求</w>
向 量</w>
创新 能力</w>
债务 国</w>
三 岁</w>
音 像</w>
锦标 赛</w>
案 卷</w>
大 地
周 到</w>
不 经</w>
3 84</w>
齐 心协力</w>
集 成
速 器</w>
视 网膜</w>
看 好</w>
理 想
独 家</w>
新 车</w>
微 薄</w>
室 内
地 里</w>
下 星期</w>
DC 2</w>
A v
本杰 明</w>
数 千
开发 者</w>
廉 署</w>
尘 土</w>
公 决</w>
何 人</w>
⑶ </w>
X VIII</w>
麦当 劳</w>
自相 矛盾</w>
绝 非</w>
磺 </w>
着 迷</w>
每 天
改 用</w>
开放 源码</w>
基督 教徒</w>
黎巴 嫩
河 里</w>
技 合</w>
开发 利用</w>
导 出</w>
可 受</w>
体 系
书面 材料</w>
D G
9 86</w>
邻近 地区</w>
通 则</w>
讽 </w>
警 力</w>
泰 国政府</w>
无动于 衷</w>
教育 者</w>
接收 国</w>
拉 迪
定 理</w>
固 执</w>
危地 马拉
分 校</w>
丝绸 </w>
k i</w>
H S</w>
迪 斯
自主 性</w>
能源 需求</w>
烟 囱</w>
炎 症</w>
激 动
极 小</w>
新 机制</w>
古 典
低 声</w>
E N</w>
A G
转 化成</w>
篇 章</w>
痴 </w>
火 炮</w>
抑 或</w>
急 忙</w>
强制 措施</w>
布 特
左 翼</w>
名 下</w>
前 锋</w>
不 利
H en
4 83</w>
高 新技术</w>
评估 所</w>
英语 口语</w>
自然 科学</w>
正 试图</w>
斯科 特</w>
悖 </w>
弗 雷</w>
安 放</w>
各族 人民</w>
二 苯</w>
→ </w>
ir e</w>
营 救</w>
绑 架
毅 力</w>
挑 剔</w>
异 构
夺 得</w>
受 援</w>
取 证</w>
前 行</w>
价 还价</w>
上 瘾</w>
阿拉伯 联盟</w>
赶 出</w>
讨 价还价</w>
肯尼亚 政府</w>
省 略</w>
手 腕</w>
国际 联盟</w>
严重 不足</w>
不言 而
那 件</w>
认 明</w>
绑 定</w>
站不 住脚</w>
知识 经济</w>
无 处
应 同</w>
前 身</w>
公 安</w>
交 火</w>
个 区</w>
u h
西 蒙</w>
床 位</w>
喇 叭
六 日</w>
以 备</w>
一 环</w>
K im</w>
CR IC</w>
邸 </w>
精神 疾病</w>
第 比利
电力 系统</w>
特 兰</w>
污 名</w>
揭 开</w>
握 住</w>
戴 着</w>
我 必</w>
任 意性</w>
W C</w>
S i
3 95</w>
荷 载</w>
能源 部</w>
着 眼</w>
溃 疡</w>
混 沌</w>
液 相</w>
法塔 赫</w>
法 尔</w>
明 知</w>
教 唆
慢 性病</w>
希 米</w>
在 历史上</w>
发 抖</w>
功能 性</w>
这些 年来</w>
车 票</w>
资金 短缺</w>
被 困</w>
福 德</w>
感 恩</w>
少 校</w>
如 此
卑 鄙</w>
IN C</w>
20 25</w>
越 狱</w>
网 路</w>
第二十 三</w>
看 管</w>
环 发</w>
游 艇</w>
沙 子</w>
情 侣</w>
总 有
孤儿 院</w>
同 伙</w>
华 人</w>
再 用</w>
下 水道</w>
上 风</w>
七 项</w>
t er
p s</w>
e p</w>
高 端</w>
逐 个</w>
过 半数</w>
边 远</w>
简 而言之</w>
第比利 斯</w>
爵 士
条 所载</w>
提款 权</w>
憎 恶</w>
富 于</w>
大 军</w>
商 家</w>
加油 站</w>
一 年级</w>
风 筝</w>
达累斯 萨拉姆</w>
赡 养</w>
贸易 条件</w>
贫民 区</w>
警察 局长</w>
行 不通</w>
知情 权</w>
生 机</w>
护 理
很久 以前</w>
国 立大学</w>
响 起</w>
吸烟 者</w>
加 里</w>
伦 西亚</w>
人 去</w>
is t</w>
St r
8 40</w>
10. 1</w>
营养 状况</w>
捡 </w>
恶 人</w>
录像 带</w>
四 人</w>
军 舰</w>
写 明</w>
p ol
J al
4 86</w>
黑 洞</w>
须 要</w>
非 农业</w>
逃 亡</w>
节 食</w>
班 子</w>
期 付款</w>
暴 动</w>
失 散</w>
大 写字母</w>
冻结 资产</w>
内 衣</w>
下 巴</w>
4 18</w>
高尔 夫</w>
语言 学</w>
药 剂</w>
理 财</w>
点 心</w>
暗 中</w>
摄 取</w>
恳 </w>
尼罗 河</w>
密 钥</w>
刚刚 开始</w>
ut e</w>
4 53</w>
鲜 艳</w>
香 料</w>
雅温 得</w>
赛 车</w>
购物 中心</w>
贝 基</w>
纳 特</w>
火 力</w>
松 散</w>
帆 船</w>
布 卡
对 系统</w>
哥伦比亚 大学</w>
五 国</w>
or a</w>
量 权</w>
裁 量权</w>
联 尼</w>
督 导</w>
格 里</w>
条 纹</w>
掀 起</w>
履 历</w>
卫生 领域</w>
利 雅
中 场</w>
阿森 纳</w>
色 谱</w>
王 上</w>
柿 </w>
德 尔
布 赖
中 要</w>
中 之
下一 阶段</w>
一百 一十</w>
一 朵</w>
远 方</w>
科尔多 凡</w>
涨 幅</w>
核 战争</w>
有 种</w>
抓 获</w>
友 情</w>
即 将
创业 精神</w>
克 罗</w>
借 助于</w>
价 款</w>
4 58</w>
3 97</w>
10. 2</w>
香 水</w>
阿 萨德</w>
防 止
赠 送</w>
水 器</w>
快 餐</w>
当 心</w>
威士 忌</w>
剖 析</w>
S ay
F re
预 见到</w>
管 人</w>
看 重</w>
皂 白</w>
尽可能 减少</w>
完全 一致</w>
几 小时</w>
乒乓 球</w>
中亚 国家</w>
C al
4 62</w>
香 气</w>
问 到</w>
表 面
洗 手</w>
核 电</w>
拉巴 特</w>
截 面</w>
外科 手术</w>
哑 </w>
向 外</w>
临 界
不言而 喻</w>
ell a</w>
阿姆斯特 丹</w>
锤 </w>
职业 者</w>
来 访者</w>
徽 </w>
工 件</w>
增 建</w>
主 题
不尽 相同</w>
上 台</w>
— —
ai r</w>
3 98</w>
遇 难</w>
设计 方案</w>
纽约 州</w>
紧 接着</w>
暴 者</w>
总有 一天</w>
威 尼斯</w>
南方 共同市场</w>
前 述</w>
P LC</w>
追 随</w>
这 个
角落 里</w>
股 份
职业 妇女</w>
点 火</w>
净 增</w>
兼 容性</w>
公平 性</w>
僵 硬</w>
le z</w>
g an
3 88</w>
订 婚</w>
联 营</w>
耶稣 基督</w>
线 条</w>
第一 组</w>
第一 段</w>
秘 密
矢 量</w>
混 蛋</w>
执 勤</w>
庸 置疑</w>
压 力
不敢 相信</w>
\ </w>
N ot
等 离子
病 原体</w>
成 语</w>
开 会
巴厘 岛</w>
安大略 省</w>
唉 </w>
咖啡 馆</w>
各 有不同</w>
Pat ric
L ar
转 子</w>
装 船</w>
英 才</w>
竞 技</w>
登记 簿</w>
热 闹</w>
推 动者</w>
情 节
店 员</w>
宏 大</w>
基本 概念</w>
商 贸</w>
不 信</w>
Rob ert</w>
R aj
4 92</w>
高 层次</w>
通报 会</w>
行政 处罚</w>
监管 者</w>
爪 </w>
想 方
怎 能</w>
展 望
如 其
天 文</w>
剪 切</w>
刀 具</w>
两 座</w>
上 载</w>
三十 日</w>
万 多</w>
man n</w>
5 32</w>
连 通性</w>
还 款</w>
西 西
获得 性</w>
等离子 体</w>
社会 阶层</w>
田 地</w>
演 唱</w>
消耗 量</w>
村 里</w>
有 违</w>
时 而</w>
文 具</w>
婚姻 法</w>
传 导</w>
中 指</w>
Man s
9 9
4 48</w>
3 93</w>
0. 9</w>
顽 强</w>
非 官方</w>
达 西</w>
灭 亡</w>
旋 律</w>
施 暴者</w>
在 生活
圆满 完成</w>
全面 实现</w>
之 心</w>
专 用
一 队</w>
霸 权</w>
经 商</w>
每 件</w>
新 泽
想方 设法</w>
安 达</w>
地 主</w>
4 34</w>
颈 部</w>
逼 近</w>
证券 交易</w>
芳 香</w>
特别 感谢</w>
波 哥大</w>
曾 于</w>
数 周</w>
推 论</w>
姚 明</w>
几 条</w>
八 名</w>
停火 协议</w>
之 力</w>
丢 掉</w>
ä </w>
_ _</w>
静 电</w>
订 明</w>
沙特 阿拉伯
染 上</w>
市场 营销</w>
客 气
妇 幼
回 籍</w>
合同 条款</w>
何 地</w>
防火 墙</w>
重 审</w>
虫 病</w>
深 夜</w>
政治 危机</w>
屯 门</w>
固 化</w>
喷 洒</w>
哮 喘</w>
务 局</w>
会 令</w>
以 西</w>
on y</w>
西 雅
栖 </w>
曲 面</w>
7 10</w>
美 容</w>
第四 项</w>
示威 游行</w>
引 出</w>
平 安
博 士
制 动</w>
农村 居民</w>
专 栏</w>
N d
5 45</w>
颤 </w>
领 先
确 诊</w>
林 斯</w>
向 着</w>
同 化</w>
书 本</w>
IB M</w>
5 65</w>
能 耗</w>
疤 </w>
求 婚</w>
方 案
人口 统计</w>
那 段</w>
远 比</w>
萃 取</w>
继任 者</w>
流 泪</w>
治 罪</w>
有 点
斯 ·
布莱 克</w>
加 盟</w>
公 益
令人 吃惊</w>
ang a</w>
Fac ebook</w>
部 门
生活 状况</w>
注册 处</w>
次 访问</w>
无 从</w>
出版 商</w>
候 审</w>
严格 控制</w>
预 想</w>
结 为</w>
沙特阿拉伯 王国</w>
斯特 拉
扩 大
成 交</w>
吉 利</w>
世 行</w>
č </w>
S H
4 65</w>
那 一刻</w>
透明 性</w>
贵 重</w>
表 水</w>
美洲 国家</w>
结 束
携 带
弗 里</w>
夜 班</w>
十 分之一</w>
切 入点</w>
冥 想</w>
n e
5 13</w>
陆 续</w>
蝙 蝠
胡 安</w>
甫 </w>
油 墨</w>
方 便
我 以</w>
情 绪
安哥 拉政府</w>
多 为</w>
另 一边</w>
俭 </w>
伊 德</w>
举 报
不 过
那 不
相似 之处</w>
民 解</w>
多 岁</w>
咳 </w>
协调 性</w>
Car los</w>
7 40</w>
4 42</w>
飞 翔</w>
非 成员国</w>
识 别
生命 危险</w>
灯 塔</w>
润 滑</w>
戴 上</w>
应 付
展望 未来</w>
学龄 儿童</w>
女 演员</w>
增 益</w>
国 与
咨询 组</w>
卡 利</w>
人员 配备</w>
不 规则</w>
上 床</w>
i el
4 66</w>
鲸 鱼</w>
颁 布
都 灵</w>
萨 格勒
自 评</w>
第四 款</w>
海 床</w>
捆 绑</w>
承 载</w>
总 费用</w>
巫 </w>
巧 合</w>
宾 语</w>
姊 妹</w>
地 表水</w>
医 护
额 为</w>
赛 跑</w>
背 诵</w>
积 聚</w>
电 能</w>
深 感
有 的是</w>
扁 </w>
大 湖</w>
印刷 品</w>
十分 复杂</w>
优 缺点</w>
于 本周</w>
鸡 肉</w>
驾驶 执照</w>
马 铃
这 天</w>
详情 请</w>
犯罪 案件</w>
片 面</w>
沉淀 </w>
探 险</w>
度 假
单 元
化 铀</w>
努 尔</w>
人民 党</w>
一 千</w>
s ec
j i</w>
F P</w>
该 类</w>
装 入</w>
小 节</w>
半 数
加拿大 人</w>
er y</w>
50 6</w>
金 银</w>
血 症</w>
监督 员</w>
案 人</w>
条 下</w>
易 卜拉
堡 垒</w>
参 赛
十分 必要</w>
P L</w>
连 锁
语 境</w>
电话 会议</w>
照 护</w>
文 艺
拉 伸</w>
抽 样
巨大 贡献</w>
太 快</w>
复 仇</w>
垢 </w>
回 收率</w>
保 姆</w>
作 主</w>
优 质
马 萨
计 画</w>
球 赛</w>
油 价格</w>
栽 </w>
收 录</w>
另 一半</w>
十九 世纪</w>
产 期</w>
不知 不觉</w>
1 2.5</w>
饭 菜</w>
藉 此</w>
温 馨</w>
布卡 武</w>
好 奇
地 参</w>
c c
S L
H as
海 上
并 重</w>
巴尔 干
工具 箱</w>
屁 </w>
医护 人员</w>
交换 所</w>
中 约</w>
默 示</w>
诱 人</w>
背 面</w>
第十 八次</w>
祖 父母</w>
教育 局</w>
序 号</w>
另 一人</w>
北 南</w>
共同 行动</w>
4 31</w>
答 覆</w>
新 法</w>
撒 上</w>
大 吃
人类 学</w>
行政 诉讼</w>
腐 烂</w>
廉 政</w>
以下 几点</w>
60 5</w>
赢 利</w>
膀 胱
第十 一部分</w>
栈 </w>
不 及格</w>
S M
00 2</w>
录 音
弛 </w>
大 腿</w>
国与 国</w>
劳 务
佛罗里 达州</w>
ab i</w>
S C
H ay
首 届</w>
都 柏林</w>
自 律</w>
罪 孽</w>
细 心</w>
打 赌</w>
我 敢</w>
4 46</w>
预 处理</w>
配 给</w>
逆 差</w>
脑 海</w>
灵 敏
毫不 犹豫</w>
孕 期</w>
办 学</w>
优先 次序</w>
丝 网</w>
0 50</w>
需 在</w>
自 下而上</w>
沼 泽</w>
毛 衣</w>
权 利
抚 养费</w>
导 入</w>
守 法</w>
塔 什
制 宪
凭 单</w>
会 外</w>
V ict
Sh e
S k
Chr ist
5 29</w>
4 51</w>
长 远
罪 责</w>
缝 纫
末 期</w>
提 振</w>
战 事</w>
出 面</w>
两 难</w>
一 匹</w>
㈧ </w>
50 5</w>
4 27</w>
第十二 章</w>
穆 巴拉克</w>
矿 井</w>
油 厂</w>
智 商</w>
布鲁 斯</w>
利雅 得</w>
出 对</w>
冷 水</w>
N 1</w>
那 份</w>
视 而
第十 九次</w>
电力 供应</w>
殖民 统治</w>
最 高级</w>
晚 宴</w>
得 益</w>
好奇 心</w>
上 加
万 至</w>
高 素质</w>
越来越 少</w>
趁 </w>
荃 湾</w>
祸 患</w>
洗 手
改 观</w>
揽 </w>
坐 落</w>
发 来</w>
再也 不能</w>
仍 为</w>
了 当</w>
不 经
2 5.
第三十 条</w>
浓 厚</w>
欺 凌</w>
控制 区</w>
批 出</w>
悬 浮</w>
尤 指</w>
历 经</w>
九 十年代</w>
T R</w>
9 73</w>
财务 处</w>
罗姆 族</w>
深 水</w>
枕 头</w>
平 权</w>
好 比</w>
塔什 干</w>
城 镇
史 上</w>
六 周</w>
业务 费</w>
G al
静静 地</w>
运 兵车</w>
美 观</w>
第一 夫人</w>
稳 步
波 罗</w>
曼 哈
更 难</w>
国家 银行</w>
四 位</w>
农 场主</w>
内 乱</w>
亚 伦</w>
不足 为
不 稳定性</w>
S B</w>
F ed
高 性能</w>
首席 法官</w>
斯蒂 芬</w>
控 方</w>
C as
3 96</w>
黄 昏</w>
阿 马</w>
财务 科</w>
索 马里
突 袭</w>
皱 纹</w>
波 利斯</w>
欠 发达</w>
某种 意义</w>
旁 观</w>
布 卢
呈 报</w>
公 司法</w>
倒 霉</w>
上 传</w>
am i</w>
西 蒙
自治 领</w>
数 组</w>
德 曼</w>
展 现出</w>
多 氯</w>
呈 文</w>
占 多数</w>
丑 陋</w>
4 54</w>
阿 方
长久 以来</w>
第五十 一届</w>
湿 润</w>
消 亡</w>
民主 党人</w>
户 口</w>
开 拓
小 提琴</w>
家务 劳动</w>
地面 站</w>
噬 </w>
卡 萨
一 两年</w>
一 两个</w>
m e
S er
隐 性</w>
铁 矿</w>
迟 钝</w>
经济 秩序</w>
愈来 愈</w>
建 和
底 线</w>
国际 舞台</w>
马铃 薯</w>
血 病</w>
机动 车辆</w>
排 挤</w>
基 调</w>
动 态
两 场</w>
不 由
6 46</w>
这 就是说</w>
萨格勒 布</w>
药 剂
羞 愧</w>
留 有</w>
填 妥</w>
利 弊</w>
初始 化</w>
ag h
隐 喻</w>
钛 </w>
钉 子</w>
轻 罪</w>
荷 尔
斯特 罗</w>
左 手</w>
导 管</w>
切 除术</w>
S ou
终 审</w>
男女 比例</w>
男 子
比 赛
接 生</w>
忍 不住</w>
帧 </w>
天 真</w>
咪 </w>
先 天性</w>
保障 人权</w>
伊 夫</w>
中 美</w>
黑 客</w>
钢 笔</w>
转 诊</w>
硬 盘</w>
狠 狠</w>
没 见</w>
每 晚</w>
枯 </w>
曲 折</w>
山 姆</w>
失 学</w>
埋 设</w>
嘘 </w>
侯 </w>
i ii</w>
霍 姆斯</w>
红 柿</w>
沙 姆
正 交</w>
插 件</w>
孕 育</w>
头 巾</w>
同 谋</w>
一 旁</w>
4 69</w>
陪审 员</w>
重大 事件</w>
视而 不见</w>
牛 仔</w>
易 事</w>
接受 者</w>
小 姑娘</w>
名 前</w>
候 任</w>
乐 团</w>
M os
Gl ob
B on
7 70</w>
车 里</w>
超级 大国</w>
词 组</w>
昔 日</w>
搭 乘</w>
把 门</w>
想 一想</w>
希 特勒</w>
巴勒斯坦 解放组织</w>
家庭 作业</w>
哪 种</w>
吉 卜
十 日</w>
北 大西洋</w>
凳 </w>
从 速</w>
两 院</w>
M ik
H T
B O
B DE</w>
5 57</w>
驱 赶</w>
通讯 员</w>
证券 市场</w>
管 治</w>
社 交
盛 大</w>
新 举措</w>
摩 尔</w>
小 行星</w>
外 活动</w>
发 器</w>
十 条</w>
划 一</w>
出 场</w>
作 弊</w>
中 曾</w>
不断 更新</w>
4 59</w>
议 论</w>
自 该</w>
相 干</w>
热 情
海 浪</w>
柏 </w>
整 治</w>
憎 恨</w>
惮 </w>
工 伤</w>
岸 边</w>
囊 括</w>
单 车</w>
剑 桥</w>
不 加</w>
T al
6 25</w>
镇 定</w>
选择 地</w>
落 成</w>
而 知</w>
纹 理</w>
签 字
特 大</w>
有利 可图</w>
摄 氏度</w>
弗 洛
尼 特</w>
小 儿</w>
天文 学家</w>
基层 组织</w>
圣 母</w>
伍 德</w>
以 致于</w>
他 来</w>
新西 兰政府</w>
攻 读</w>
收敛 </w>
喃 </w>
各 族</w>
另 据</w>
冶 金</w>
俄罗斯 联邦政府</w>
50 2</w>
4 47</w>
非 婚
证 言</w>
维 克
第九 章</w>
放 学</w>
拳 击</w>
废 旧</w>
工会 组织</w>
崇 高
分析 家</w>
全国 人民代表大会常务委员会</w>
一 笑</w>
im e</w>
ai d</w>
高 职</w>
阿拉 斯加</w>
违法 者</w>
赌 场</w>
西 红柿</w>
落实 工作</w>
科 伦
照 相</w>
氯 丁二烯</w>
平 稳
审判 程序</w>
奥 会</w>
塞 建</w>
党 内</w>
充分 行使</w>
顶 点</w>
该 所</w>
盘 点</w>
格 拉斯</w>
无 耻</w>
技 师</w>
巴比 伦</w>
可 视
9 20</w>
轻 视</w>
转 售</w>
超 额</w>
法 对</w>
汇 兑</w>
拥 </w>
市场 机制</w>
如 一</w>
多 德</w>
发 送
5 11</w>
辩论 会</w>
莫 里斯</w>
肺 部</w>
第三 者</w>
神经 系统</w>
碳 氢
用 不着</w>
晰 </w>
新 书</w>
收 听</w>
支 出
捆 </w>
得 主</w>
伴 有</w>
专 为</w>
不 见
D on
19 30</w>
马普 托</w>
马丁 内斯</w>
说 不出</w>
该 书</w>
致 开幕词</w>
翻 了
火 花</w>
正 以</w>
征 兆</w>
奎 </w>
印度 人</w>
两国 间</w>
int ern
8 80</w>
风 景
钢 板</w>
航空 运输</w>
涉 足</w>
泛 非</w>
治 安
此 信</w>
校 内</w>
大大 降低</w>
公 牛</w>
ang e</w>
T ech
S an</w>
8. 9</w>
4 84</w>
蚀 性</w>
盘 问</w>
注 资</w>
彰 显</w>
安全 套</w>
反 常</w>
争 议
m e</w>
and er</w>
R af
.. ...</w>
附加 条件</w>
碳氢 化合物</w>
皿 </w>
有增无 减</w>
改 名</w>
戈 登</w>
悬 殊</w>
多元 性</w>
共 和</w>
举 行
为 难</w>
in s</w>
b l
R om
震撼 </w>
集中 力量</w>
还 愿</w>
而 设</w>
塔 那
供 求</w>
今年 年底</w>
━ </w>
4 72</w>
联 塞建</w>
欠 佳</w>
忱 </w>
外 科医生</w>
备 抵</w>
受 难者</w>
入 口处</w>
伊 拉</w>
and o</w>
路 由</w>
消 遣</w>
民 营</w>
摇 晃</w>
单 单</w>
加 丹
偷 偷</w>
买 进</w>
中 学
金 星</w>
遗传 算法</w>
苍 蝇</w>
第十 九</w>
摄 入量</w>
当 家
平 日</w>
尽 其
博 弈
交易 商</w>
一般 说来</w>
一 顶</w>
隔 开</w>
达尔 文</w>
觉 醒</w>
蒜 </w>
着 装</w>
真是 太</w>
杂 货
审 理
制宪 会议</w>
ac t
防 护
艰 辛</w>
燃 烧
炼 油厂</w>
母 亲
店 主</w>
妇女 节</w>
协 联</w>
社会 变革</w>
滑 动</w>
核 威胁</w>
打 仗</w>
安全 事件</w>
基金 项目</w>
可 追溯</w>
任 地</w>
人 听闻</w>
不 朽</w>
七 十</w>
19 5
跳 动</w>
美 景</w>
折 叠</w>
底 薪</w>
工作 室</w>
大 通</w>
喇 嘛</w>
印第 安</w>
卫 士</w>
南 非
协同 效应</w>
十 岁</w>
刑事 法</w>
世纪 末</w>
XX VII</w>
M it
11 60</w>
韦 斯</w>
胜 者</w>
编 队</w>
火 鸡</w>
年 制</w>
妇 幼</w>
套 房</w>
国务 部长</w>
关系 密切</w>
非 同
膛 </w>
育 龄
第十 五</w>
狭 义</w>
波 兰
呕 吐</w>
7 18</w>
逃 税</w>
表达 方式</w>
英 亩</w>
瓦 德</w>
渗 漏</w>
扮 演
大 炮</w>
刑事 管辖</w>
三 者</w>
ion al</w>
e c</w>
阿鲁 巴</w>
西方 人</w>
第三十 五条</w>
科威特 国</w>
渔业 资源</w>
正 为</w>
图 纸</w>
台 北</w>
半 夜</w>
X II</w>
Wor ld</w>
4 95</w>
4 68</w>
饵 </w>
通缉 </w>
这 首</w>
较 弱</w>
西雅 图</w>
罹 患</w>
深 层次</w>
欧 文</w>
惨 重</w>
全 然</w>
保持 平衡</w>
ac k
a g</w>
CE O</w>
马 达</w>
餐 桌</w>
迅 猛</w>
衬 衣</w>
莽 </w>
稀 有</w>
玛 利亚</w>
大 使
召 回</w>
债 券
以 上
事 无
乱 伦</w>
之 物</w>
酝 酿</w>
粮食 供应</w>
粉 红色</w>
积极 分子</w>
着 急</w>
柔 性</w>
操作 员</w>
弱 小</w>
常 数</w>
察 看</w>
姬 </w>
养 殖
光 亮</w>
中华 民国</w>
中 继
一 角</w>
o ch
翻了 一番</w>
具体 来说</w>
苏 人解</w>
第二 段</w>
疏 远</w>
武器 化</w>
开 工</w>
奖 牌</w>
叙 事</w>
华 德</w>
决策 人员</w>
八 十</w>
全 美</w>
隐 患</w>
逼 迫</w>
迪 亚</w>
轻 度</w>
起 草
物 色</w>
潭 </w>
此 时
尔 夫</w>
审理 案件</w>
在生活 中</w>
5 26</w>
高 处</w>
财政 困难</w>
诱 拐</w>
衡 量
结 壳</w>
省 政府</w>
日 出</w>
救济 金</w>
或 作</w>
忌 惮</w>
建筑 群</w>
市 议会</w>
大大 的</w>
夏 日</w>
围 着</w>
分配 原则</w>
军 团</w>
两 件</w>
不 为
S af
闸 </w>
重要 途径</w>
重 庆</w>
考 察
粉 丝</w>
看 清</w>
生物 资源</w>
理工 学院</w>
王 朝</w>
或 多
成 绩
布 干
定 时</w>
头 疼</w>
入 息</w>
值得 称赞</w>
争 取
这 颗</w>
边界 线</w>
账 务</w>
节 中</w>
用 人
招 聘
急 剧
坦 率地</w>
国际 航空</w>
商 船</w>
分 将</w>
停 职</w>
倾 销
50 8</w>
鸥 </w>
苔 丝</w>
眼 球</w>
犯 错</w>
未 婚
方案 设计</w>
攻 击者</w>
异构 体</w>
好 极了</w>
头 盔</w>
卡 梅
低 落</w>
乌兹别 克</w>
4 79</w>
高 品质</w>
防止 出现</w>
长 足
邮 报</w>
荷尔 蒙</w>
笼 子</w>
穷 困</w>
的 ，
瓦 拉</w>
照 明
批评 者</w>
尊 贵</w>
及 时
原则 立场</w>
区域 化</w>
充分 说明</w>
不 驱</w>
K y
阿 姆</w>
贵 宾</w>
误 会</w>
苑 </w>
磁 性</w>
硬 度</w>
百 货
早 些</w>
害 性</w>
子 系统</w>
哈 特</w>
可预 见性</w>
关 乎</w>
公 义</w>
信 贷
一 心</w>
U R</w>
S G</w>
R ah
管理 费</w>
疑 惑</w>
歌 词</w>
客气 话</w>
吵 架</w>
到 场</w>
会 否</w>
St an
B en</w>
9. 7</w>
通 胀率</w>
游 牧</w>
有 兴趣</w>
所罗 门</w>
所 报</w>
实践 证明</w>
古巴 共和国</w>
内 分泌</w>
of f
D O
选 为</w>
违 反
规模 较</w>
疆 界</w>
气象 卫星</w>
奥 利
冕 </w>
N ik
5 22</w>
配 量</w>
轮 子</w>
热 能</w>
灯 泡</w>
抵 抗
打 碎</w>
各 条</w>
T A</w>
5 14</w>
高 位</w>
那不 勒斯</w>
那 会</w>
远程 教育</w>
计 值</w>
螺 </w>
的 士</w>
汉 字</w>
服务 局</w>
支 派</w>
年 数</w>
尼日利亚 政府</w>
六 十周年</w>
你 家</w>
K ab
残 留物</w>
最 小
平 面
小 朋友</w>
大 方</w>
国家 队</w>
去 向</w>
公 证</w>
俄 亥
两 所</w>
专业 技能</w>
G old
C AC</w>
炒 </w>
扎 实</w>
字 眼</w>
反 复
军 民</w>
信 使</w>
伤 痕</w>
专门 从事</w>
ol d</w>
N et
Ad ob
5 55</w>
3 99</w>
15 91</w>
阴 暗</w>
规范 化</w>
西 装</w>
约束 性</w>
移 至</w>
海 区</w>
数十 亿美元</w>
干 吗</w>
列 述</w>
公路 网</w>
体系 结构</w>
or y</w>
50 4</w>
4 61</w>
雄 心</w>
课 文</w>
灵敏 度</w>
模 块
散 居</w>
少年 儿童</w>
四 川
何 等</w>
中华 民族</w>
D CP</w>
金刚 石</w>
输 出
自 卫
短期 投资</w>
电脑 化</w>
用人 单位</w>
无休 止</w>
拟 出</w>
帕 克</w>
外 来
堆 积</w>
N ic
A ri
4 49</w>
防 范
衡 平</w>
沉 没</w>
模糊 不清</w>
意外 事故</w>
常 设
常 有</w>
一 中</w>
马 哈
说 家</w>
米 拉</w>
第一 委员会</w>
第 11
福 尔</w>
格 言</w>
售货 员</w>
副 手</w>
保持 良好</w>
付 出
交 响
一 幢</w>
状 语</w>
栏 目</w>
意见 书</w>
导 航
分 给</w>
再 造</w>
兰 经</w>
交 还</w>
颜 料</w>
过 身</w>
辖 </w>
贡 献
盏 </w>
杂 质</w>
提 取
掌 声</w>
打 动</w>
城市 贫民</w>
四 肢</w>
利益 集团</w>
具体 做法</w>
公 债</w>
传播 媒介</w>
互 联</w>
三角 形</w>
ol og
ic al</w>
g o</w>
ep h
秘鲁 政府</w>
科 比</w>
江 省</w>
数以 百计</w>
拓 扑</w>
两国 关系</w>
一 段
降 水</w>
那 双</w>
这 艘</w>
疯 子</w>
澳 元</w>
溅 </w>
婚 约</w>
复 印机</w>
二 元</w>
im a</w>
1. 0</w>
飞 快</w>
遗传 学</w>
道义 上</w>
辱 骂</w>
罪 案</w>
癖 </w>
烈 士</w>
有 近</w>
挤 出</w>
干 得</w>
坚 实
只 见</w>
决定 权</w>
ol e</w>
docum ents</w>
X 射线</w>
S ing
4 98</w>
铁路 运输</w>
满 怀</w>
流动 资金</w>
日 落</w>
文化 教育</w>
工 匠</w>
孩 儿</w>
孤 身</w>
含糊 不清</w>
双 亲</w>
副 司长</w>
一站 式</w>
鸭 子</w>
荷 属</w>
联邦 调查局</w>
玷 污</w>
洗 钱
法 人
母 国</w>
木 板</w>
攀 登</w>
开发 区</w>
家庭 主妇</w>
大 埔</w>
咀 </w>
分 局</w>
六 点</w>
专业 性</w>
T el
5 15</w>
调 阅</w>
结构 化</w>
稠 密</w>
恳 请</w>
威 斯
喷 射</w>
吉 斯</w>
减 慢</w>
m in
Joh n
避免 出现</w>
软 禁</w>
毛泽 东</w>
把 头</w>
富 兰
塞 米</w>
垄 断
在 世</w>
哈里 里</w>
4 81</w>
西 岛</w>
臭 名
索马里 人</w>
第一 副</w>
深 渊</w>
氨基 酸</w>
最 佳
明 晰</w>
或 少</w>
延 到</w>
妇幼 保健</w>
发 运</w>
制 卡</w>
互 通</w>
丐 </w>
XX V</w>
Ph il
4 67</w>
面 纱</w>
表 态</w>
花 儿</w>
端 口</w>
接 手</w>
捏 造</w>
把 戏</w>
张 开</w>
宽 阔</w>
实质 问题</w>
两 党</w>
3 5
诺贝尔 奖</w>
熄 灭</w>
洽 谈</w>
未 爆</w>
实用 新型</w>
国际 惯例</w>
回 落</w>
发 怒</w>
刃 </w>
二 号</w>
丹麦 政府</w>
中 环</w>
en ti
难 免</w>
贝 克
西 藏
菲 特</w>
职 场</w>
经理 人</w>
智 囊
接 通</w>
护 者</w>
投 影</w>
感 觉
哥 华</w>
周 密</w>
受到 破坏</w>
二 读</w>
高 手</w>
短 短</w>
电 荷</w>
温 哥华</w>
心 肌
席 卷</w>
工程 学</w>
对照 组</w>
创业 者</w>
几 句话</w>
ub e</w>
se in</w>
B ri
首 饰</w>
阿方 索</w>
评 议</w>
葛 </w>
苷 </w>
自行 决定</w>
育龄 妇女</w>
普 斯</w>
扩 张
徒 劳
可 选</w>
取 暖</w>
军事 演习</w>
其 反</w>
儿 科</w>
o a</w>
4 73</w>
2. 0</w>
虚 会</w>
葡萄 糖</w>
测 定
流 层</w>
智囊 团</w>
是 非
不知 所
不 耐
Mar c
A w
驾 驭
辣 椒</w>
衡量 标准</w>
脱 落</w>
米 尔
第二 位</w>
禁 止
破 损</w>
病 患</w>
湄 公
油 机</w>
思想 家</w>
广 度</w>
头 等
埃 德
坚实 基础</w>
图 示</w>
务 虚会</w>
击 手</w>
en z
采取 相应</w>
脱 贫</w>
空 虚</w>
科伦 坡</w>
环 礁</w>
狡 猾
学 系</w>
剧 场</w>
住宅 区</w>
Mart in</w>
Jul y</w>
高 分辨率</w>
缕 </w>
相 抵</w>
活 化</w>
油 轮</w>
普惠 制</w>
文化 交流</w>
属 地</w>
寡 </w>
客 机</w>
四 国</w>
去 年
优越 性</w>
买 入</w>
不 惜</w>
S w
M az
K an
7 36</w>
阿 美</w>
阳 光
策 略
欧洲 法院</w>
杰 里
最 强</w>
拉 马拉</w>
完 好</w>
受 邀</w>
佩 尔</w>
乞 丐</w>
之 夜</w>
B or
5 37</w>
饶 </w>
靴 </w>
配 制</w>
转 介</w>
设计 者</w>
第五十 一条</w>
第 13
商业 部门</w>
人 时</w>
与此 相关</w>
4 91</w>
4 76</w>
4 52</w>
1 1.1</w>
起 重
该 州</w>
要 约</w>
纷 争</w>
空 军
甚 高频</w>
独裁 者</w>
清 扫</w>
洋 葱</w>
泊 车</w>
根本 无法</w>
易卜拉 欣</w>
挡 住</w>
对 账</w>
克 利
光 子</w>
万 能</w>
E con
索 尼</w>
穿 透</w>
申 领</w>
犹豫 不决</w>
沉 浸</w>
存 续</w>
奇 怪
军事 法院</w>
公 有</w>
G ab
7 90</w>
遇 上</w>
诺 维奇</w>
至 终</w>
老 妇人</w>
缓 减</w>
第二 代</w>
目 击</w>
电视 会议</w>
歉 意</w>
期 所</w>
战略 重点</w>
平 滑</w>
对 以</w>
和 蔼
五 点</w>
上 天</w>
it ies</w>
Ne w</w>
K at
转 过身</w>
老 百姓</w>
洗涤 </w>
油 画</w>
明显 改善</w>
开 花</w>
E L</w>
6 92</w>
4 63</w>
魔 力</w>
高 价</w>
防范 措施</w>
辩护 人</w>
统计 分析</w>
矩 形</w>
流 感
无 几</w>
数 项</w>
托 雷斯</w>
应 否</w>
外交 大臣</w>
基督 山</w>
喝 一杯</w>
动 力
做 点</w>
偏 僻</w>
一 滴</w>
XX X</w>
8 30</w>
程序 员</w>
私营 化</w>
模块 化</w>
未 受</w>
拷 打</w>
情节 严重</w>
德 文</w>
平 和</w>
固 态</w>
四 岁</w>
几 类</w>
伙伴 国</w>
上 车</w>
i a
Abd ul</w>
鳍 </w>
须 知</w>
霍 华德</w>
调查 者</w>
被 保险人</w>
血 浆</w>
第三 份</w>
总 价值</w>
弗朗 西斯</w>
庄 园</w>
岳 </w>
勘 测</w>
办公 时间</w>
分 卡</w>
二 手
营业 执照</w>
积 蓄</w>
民 生</w>
承担 义务</w>
戴 尔</w>
叹 息</w>
受 聘</w>
上 诉人</w>
T S</w>
闪 闪
赫 尔</w>
草 药</w>
畔 </w>
正 轨</w>
时 宜</w>
整 数</w>
抗 旱</w>
就业 人数</w>
寄生 虫</w>
大使 级</w>
勘 察</w>
判 断
之 大</w>
F ed</w>
自 此</w>
穿 梭</w>
盐 类</w>
杂 交</w>
效 忠</w>
挥 霍</w>
帕特 里克</w>
布干 维尔</w>
布 料</w>
屏 蔽</w>
客户 关系</w>
妇 科</w>
B ut
领导 职务</w>
臀 部</w>
腊 </w>
细 小</w>
真 主</w>
滋 味</w>
地 站</w>
国 库</w>
充 资</w>
停 产</w>
一 幕</w>
社会 秩序</w>
用 手</w>
照 着</w>
奶 牛</w>
四 倍</w>
后 勤
取得 联系</w>
不同 之处</w>
Thom as</w>
4 74</w>
资 会</w>
肆 无
纬 度</w>
福 克</w>
直 流</w>
瘘 </w>
痰 </w>
永 生</w>
普 勒</w>
布 设</w>
大 主教</w>
可视 化</w>
分 界线</w>
具体 内容</w>
偷 渡</w>
债权 国</w>
nd ez</w>
iss ion</w>
et a</w>
4 64</w>
4 41</w>
阿勒 颇</w>
返 回
过 敏
说 不
炮 火</w>
急剧 下降</w>
专 员
一 桩</w>
T ur
黑 板</w>
里 程</w>
通讯 社</w>
赛 义
苦 苦</w>
当 值</w>
刺 激
颇 具</w>
要 地</w>
管理 模式</w>
牛 津
烹 调</w>
手 术
想 得到</w>
常 年</w>
家 畜</w>
八 项</w>
他 俩</w>
一 条
一 书</w>
id i</w>
am e</w>
9 60</w>
赢 家</w>
肆无 忌惮</w>
罗 拉
新 兵</w>
打 听</w>
基 质</w>
合 署</w>
几 分</w>
AI G</w>
4 93</w>
4 82</w>
言 不
有线 电视</w>
拉 法</w>
云 南</w>
书 院</w>
不 在此
v ir
Con vention</w>
＇ </w>
达 标</w>
该 分</w>
紧 凑</w>
科 夫</w>
矿 物质</w>
洗 衣</w>
哼 </w>
共 事</w>
信 条</w>
不 容许</w>
4 71</w>
辅 以</w>
跟 前</w>
艺术 作品</w>
自 大</w>
脱 水</w>
由 衷</w>
湄公 河</w>
沉 重
技 艺</w>
扶 助</w>
宣 誓
太 棒
不太 好</w>
for m
O p
重 担</w>
转 会</w>
越 高</w>
记 下</w>
警 示</w>
行 情</w>
胜 诉</w>
管制 系统</w>
等 效</w>
欣 喜</w>
妳 </w>
城 乡
不仅 如此</w>
ag a</w>
5 56</w>
5 48</w>
那 州</w>
谦 虚</w>
调 派</w>
现实 主义</w>
恢复 原状</w>
庞 </w>
尼 西亚</w>
同 感</w>
利 伯
修 剪</w>
陷入 僵局</w>
阿 德</w>
睦 邻</w>
液 态</w>
波 段</w>
曼哈 顿</w>
发 热</w>
全 能</w>
代 管</w>
九 龙
职 能
硫 酸</w>
投 向</w>
并 肩</w>
太棒 了</w>
大 型
地 用</w>
后 天</w>
剔 除</w>
二 日</w>
不 在
上 帝
o g</w>
L O
H y
钻 探</w>
计算 公式</w>
美国 联邦</w>
罗 德</w>
租 借</w>
求 是</w>
审 阅</w>
任 职
主要 职责</w>
计算机 辅助</w>
照 样</w>
水 力</w>
日 起
惟 有</w>
开普 敦</w>
应 分</w>
存储 器</w>
坏 人</w>
冲 击
作 一</w>
上 千</w>
万 公顷</w>
6 33</w>
重 整</w>
置 之
糊 口</w>
破 旧</w>
生产 成本</w>
瑕 疵</w>
末 端</w>
旺 盛</w>
成 就
恐 惧
总 务
内 置</w>
内 心
书面 报告</w>
ic o</w>
9. 8</w>
缺 勤</w>
明显 增加</w>
吉普 赛人</w>
伊朗 核</w>
付 息</w>
仍 须</w>
亚特兰 大</w>
业 者</w>
U r
E P
Anton io</w>
A H
财政 管理</w>
调 节
荒 凉</w>
胃 口</w>
比利 时
心 头</w>
往 事</w>
已 成</w>
声 响</w>
助 产</w>
你 们
a ev</w>
面 条</w>
重 负</w>
良 性</w>
番 茄</w>
楼 下</w>
梢 </w>
拉 登</w>
找 回</w>
恶性 肿瘤</w>
性 状</w>
弗雷 德</w>
和平 时期</w>
以 待</w>
o th
gu ez</w>
ak e</w>
质 询</w>
讳 </w>
纳 森</w>
竞争 能力</w>
正 本</w>
林 中</w>
总 付</w>
多 月</w>
可口 可乐</w>
准备 就绪</w>
am s</w>
IS 3</w>
难 堪</w>
镉 </w>
轧 </w>
袜 </w>
肥 胖
瘟 疫</w>
火山 爆发</w>
明 尼
抗 性</w>
手 铐</w>
外 资企业</w>
卒 </w>
出 新</w>
共 鸣</w>
Pro t
5 71</w>
财 团</w>
精力 充沛</w>
百分之 百</w>
混 杂</w>
枢 密
悄悄 地</w>
开 阔</w>
实验 性</w>
入 选</w>
XX VIII</w>
骨 髓</w>
预 知</w>
霸 </w>
辨 </w>
贸易 商</w>
说 不定</w>
裁 缝</w>
罗 先生</w>
纽约 时报</w>
离 破碎</w>
碱 性</w>
摆 放</w>
嫁 妆</w>
复 方</w>
后 台</w>
叨 </w>
冷 藏</w>
充满 希望</w>
5 31</w>
5 18</w>
阿尔巴 尼亚
铁路 网</w>
采购 计划</w>
辅导 员</w>
跤 </w>
斯蒂 德</w>
待 决</w>
应 能</w>
大 阪
北京 市</w>
优 秀
交流 会</w>
8 70</w>
金 斯克</w>
诺贝尔 和平奖</w>
网 友</w>
纪律 处分</w>
期 货
学龄 前</w>
各 节</w>
卫生 间</w>
半 径</w>
减 让</w>
亚 斯</w>
乌 龟</w>
丰富 多彩</w>
um b
贝 蒂</w>
贝 格</w>
航天 飞机</w>
群 众
统一 性</w>
立 宪</w>
现 率</w>
塑料 袋</w>
取 胜</w>
乞 讨</w>
不断 改进</w>
P or
见 惯</w>
编 印</w>
第一 部</w>
石油 换</w>
真 想</w>
核 反应堆</w>
执行 主席</w>
或多 或少</w>
怪 异</w>
布 尔
城 墙</w>
印度 教</w>
值 班</w>
中非 国家</w>
一 氧化
ber t</w>
运 抵</w>
运 公司</w>
沙姆 沙
教 区</w>
房 东</w>
归 来</w>
复 国主义</w>
吉尔吉斯 斯坦共和国</w>
ric a</w>
O t
香港 特别行政区政府</w>
贫 富
纳 赛尔</w>
监 视
彩 票</w>
广 岛</w>
工业 区</w>
就 医</w>
宾 夕
太 远</w>
南 瓜</w>
十分 困难</w>
几 起</w>
体 温</w>
Gon z</w>
Econ om
饮食 习惯</w>
钢 管</w>
进 取</w>
求 学</w>
查 莫罗</w>
打 乱</w>
戴 维斯</w>
建和 办</w>
大众 传媒</w>
养 分</w>
克里 斯托
会计 制度</w>
人民 代表</w>
交 错</w>
D om
编 造</w>
福 克兰</w>
牵 引</w>
民族 自治</w>
成 文法</w>
感 谢
怀 里</w>
平稳 过渡</w>
带头 作用</w>
始终 如一</w>
外交 代表</w>
基 准
发 脾气</w>
半 个世纪</w>
公共 事业</w>
五 千</w>
S ul
S ah
5 16</w>
骚 </w>
阿 斯</w>
近 期内</w>
认 识
见 识</w>
留 学生</w>
泉 水</w>
支 离破碎</w>
总 算</w>
寺 庙</w>
后 处理</w>
前 次</w>
倍 增</w>
伦 理学</w>
伤 痛</w>
__ __
D evelopment</w>
4 94</w>
1 1.2</w>
每 一件</w>
柱 子</w>
有 事</w>
围 巾</w>
发 指</w>
刻 意</w>
入 式</w>
交 所</w>
事务 股</w>
不 堪
一 大部分</w>
M el
C am
Ass oci
19 53</w>
酸 奶</w>
远 东</w>
贴 现率</w>
葡 语</w>
翅 </w>
民 权</w>
横 滨</w>
未 向</w>
新闻 简报</w>
当 着</w>
失 眠</w>
太阳 系</w>
发 自</w>
十 一大</w>
医 药
下 决心</w>
ight s</w>
G i
露 西</w>
阿 特
那 块</w>
绳 索</w>
第四十 六</w>
皇 室</w>
犯 法</w>
流 氓
昭 著</w>
放 在
引 起
尼 察</w>
创 新型</w>
之 意</w>
U B</w>
60 8</w>
高 精度</w>
枢密 院</w>
应邀 参加</w>
应 许</w>
即将 来临</w>
净 值</w>
克 森</w>
量 级</w>
贱 </w>
装甲 运兵车</w>
耽 误</w>
粗 略</w>
米 德</w>
第三十 九条</w>
灵 敏</w>
服务 水平</w>
新闻 媒介</w>
微 微</w>
学术 研究</w>
兴 旺</w>
蒂 娜</w>
经济 部</w>
纪 事</w>
操 控</w>
抢 劫
应 变
外 派</w>
名 是</w>
另 一家</w>
动 因</w>
付出 代价</w>
不 迟于</w>
ur y</w>
13 90</w>
败 坏</w>
衰 减</w>
第一 名</w>
睬 </w>
照 登</w>
晶 体
新 版</w>
排 行
弘 扬</w>
宾夕 法
威 德</w>
司 空
出生 地</w>
公 理</w>
儿童 教育</w>
三 是</w>
om en</w>
ep t
B WC</w>
默 克尔</w>
雇 工</w>
词 义</w>
英 俊</w>
沿 岸
污 辱</w>
干旱 地区</w>
常设 机构</w>
到 此
农民 工</w>
一 世</w>
Insp ira</w>
In v
逾 越</w>
第三 种</w>
死 伤</w>
报 盘</w>
愈 加</w>
心 爱</w>
应 急
实 事
字 节</w>
合法 利益</w>
先 到</w>
A G</w>
阳 台</w>
诀 窍</w>
角 膜</w>
血 管
美国 银行</w>
碳 酸
相 识</w>
敲 门</w>
故 乡</w>
打字 机</w>
富兰 克林</w>
因 其</w>
司空 见惯</w>
任职 期间</w>
ou s</w>
这 是
读 完</w>
自 已</w>
留 心</w>
栖 息
极 低</w>
木 炭</w>
日 致</w>
散 文</w>
实事 求是</w>
国际 争端</w>
双 臂</w>
分离 主义</w>
保护 者</w>
位 子</w>
or s</w>
ir i</w>
W e
4 96</w>
退 缩</w>
躯 </w>
踝 </w>
联合 公报</w>
羊 群</w>
笆 </w>
直 截
朋 友
撕 裂</w>
摆 动</w>
往 前</w>
已 为</w>
填 料</w>
在 编</w>
劝 阻</w>
il i</w>
ec t
all ah</w>
CO SP</w>
0 10</w>
骑 车</w>
过渡 阶段</w>
电视 广播</w>
独立 自主</w>
河 道</w>
梅 斯</w>
有 如</w>
很 难
反 响</w>
制定 方案</w>
储 层</w>
令人 发指</w>
他 的
一 席
长 江</w>
贷 记</w>
灭 火</w>
查 清</w>
果 树</w>
多 层次</w>
外 貌</w>
品 格</w>
卡 罗</w>
世界 遗产</w>
u p</w>
IS H</w>
零售 业</w>
闻 到</w>
辜 负</w>
赞 许</w>
该 校</w>
药剂 师</w>
脑 筋</w>
罗 安达</w>
第二 组</w>
沐 浴</w>
无 证</w>
斯特拉 斯堡</w>
扇 门</w>
库尔德 人</w>
哈姆 雷特</w>
可 再生</w>
伤 势</w>
Pro gr
Pa ul
N ab
4 000</w>
贸易 部</w>
获 量</w>
用 词</w>
环保 署</w>
狂 欢</w>
收 受</w>
宣布 独立</w>
坠 毁</w>
咨询 中心</w>
吞 噬</w>
可 恶</w>
优 待</w>
从 现在
五 人</w>
书 上</w>
不相 容</w>
8 64</w>
除此 以外</w>
若 要</w>
统 筹
盾 牌</w>
疑 似</w>
母 鸡</w>
故 障
打 量</w>
幻 觉</w>
寸 铁</w>
实地 调查</w>
再次 出现</w>
J une</w>
D L
风 机</w>
索 尔</w>
米 格尔</w>
海 鲜</w>
母 公司</w>
果 然</w>
无 愧</w>
接 见</w>
排行 榜</w>
强奸 罪</w>
军 阀</w>
下 半
st at
重 任</w>
轰 </w>
腰 带</w>
直截 了当</w>
狡猾 </w>
深 知</w>
最高 层</w>
斯 岛</w>
抗 争</w>
总统 府</w>
小 贩</w>
始 至终</w>
大 部份</w>
叙利亚 人</w>
元 朗</w>
伤亡 人数</w>
会 因</w>
伊 赫</w>
k s</w>
9 11</w>
4 99</w>
轻 蔑</w>
翻 译
指导 意义</w>
拖拉 机</w>
可 贵</w>
可 视</w>
刚 度</w>
凉 爽</w>
健身 房</w>
os h
那 样
选择 权</w>
汇报 工作</w>
梨 </w>
根 于</w>
昏 迷</w>
收 货人</w>
搜 救</w>
推 土机</w>
应付 账款</w>
图 谋</w>
可 循</w>
反 省</w>
4 89</w>
锥 体</w>
软件 开发</w>
赔 款</w>
警察 署</w>
血 流</w>
莉 莉</w>
色 调</w>
脱 节</w>
罐 头</w>
续 设</w>
经济 指标</w>
深 造</w>
期 初</w>
普 拉</w>
携带 者</w>
式 样</w>
复杂 程度</w>
填 埋</w>
压 低</w>
共同 商定</w>
倾 弃</w>
仓 促</w>
Al l
198 5年</w>
阿尔 马</w>
阿 族</w>
锥 </w>
衍 </w>
特 种
换 器</w>
少 见</w>
十 字</w>
减 债</w>
以 新</w>
5 34</w>
老 爸</w>
老 式</w>
第一 件</w>
故 事
化妆 </w>
乎 其
∕ </w>
魔 术</w>
邓 小
海 豹</w>
暂 缓</w>
打 架</w>
战 队</w>
总 线</w>
倾 </w>
60 9</w>
萨 克</w>
肾 上
疲力 尽</w>
牺牲 品</w>
牛 顿</w>
栖息 地</w>
护 卫</w>
成员 名单</w>
地 震
制 衡</w>
停 用</w>
P re
生命 线</w>
牟 利</w>
教唆 </w>
放 款</w>
抽 查</w>
战 火</w>
学习 成绩</w>
吸 血
北 方
内 塔
保 单</w>
体 质</w>
5 51</w>
难 看</w>
自然 保护区</w>
自 上</w>
结 石</w>
绌 </w>
社 署</w>
生态 学</w>
法律 委员会</w>
日 到</w>
手 脚</w>
塔 什</w>
喝 水</w>
各 行
受 难</w>
从现在 起</w>
一 再
T er
银 子</w>
酵 母</w>
邮 袋</w>
曲 直</w>
无处 不在</w>
收 集
指 标
就 诊</w>
十 五年</w>
像 素</w>
亿 多</w>
丰 度</w>
上 进</w>
o is</w>
a e</w>
I l
调 整
译 本</w>
裸 体</w>
裁 武</w>
缩 略
环 形</w>
格 伦</w>
承 载
往 前走</w>
安 抚</w>
回 答
四 点</w>
关节 炎</w>
丝 特</w>
ol o</w>
重 开</w>
蒙古 国</w>
第二 批</w>
相 传</w>
深 受
欲 了解</w>
智 者</w>
摇 摆</w>
拉 动</w>
情 境</w>
国际 货物</w>
园 林</w>
喇叭 </w>
叙 级</w>
二 百</w>
7 15</w>
5 52</w>
马拉 松</w>
银行 帐户</w>
突 破
神 学</w>
武 士</w>
各 家</w>
利润 率</w>
净 收入</w>
债券 市场</w>
何 不</w>
伊 特</w>
it h
9 80</w>
8 90</w>
领 馆</w>
贤 </w>
联络 员</w>
缺 血</w>
照 灯</w>
既定 目标</w>
无 上</w>
播 放
所 生</w>
密 封
妥善 处理</w>
奢 华</w>
国民 收入</w>
品 位</w>
匹 马</w>
全 部
侠 </w>
丰 收</w>
M is
18 20</w>
迷 路</w>
谦 卑</w>
砷 </w>
田 间</w>
热 忱</w>
滤 </w>
杜 马</w>
抓 住
抄 </w>
应 请</w>
安 纳
吸血 鬼</w>
u w
错 失</w>
节 俭</w>
第三十 四条</w>
笨 拙</w>
穆 沙
略 高于</w>
画 像</w>
热 处理</w>
激 励
沾 染</w>
正 由</w>
改 变
据 悉</w>
报 答</w>
变 质</w>
双 赢</w>
十 国集团</w>
内 核</w>
仰 </w>
不 及
K l
莱 曼</w>
纸 质</w>
玉 米
渺 茫</w>
浮 现</w>
核 可
机 车</w>
无 机</w>
性 人</w>
德 兰</w>
层 楼</w>
定 语</w>
同 步
内 务</w>
住 址</w>
互 </w>
中 东欧</w>
不耐 烦</w>
n o</w>
W il
麻 风
预备 会议</w>
陆 港</w>
铵 </w>
那 么
观察 家</w>
花 生</w>
甩 </w>
残 骸</w>
撒 下</w>
援助 国</w>
受 访</w>
切 勿</w>
几 百万</w>
保守 派</w>
不 入</w>
香港 特区政府</w>
还 称</w>
轮 社</w>
莉 亚</w>
经济 基础</w>
第 4</w>
武 术</w>
新闻 中心</w>
扭 </w>
恼 火</w>
弃 置</w>
平均 收入</w>
大 奖</w>
哪些 方面</w>
初 步
凝 固</w>
7 43</w>
遵 守
造 影</w>
当 其
坠 </w>
加以 改进</w>
剪 辑</w>
别 名</w>
体 型</w>
亚美 尼亚人</w>
亚洲 地区</w>
5 39</w>
风 度</w>
领导 权</w>
观 主义</w>
脂肪 酸</w>
职 称</w>
红 色
米 纳</w>
第3 段</w>
石 墨</w>
特别 法</w>
掏 出</w>
各 章</w>
出口 商品</w>
L U
Ar t
7 33</w>
非 但</w>
记 号</w>
衍 生物</w>
血 性</w>
莱 尔</w>
福利 制度</w>
相 符合</w>
点 子</w>
浮 标</w>
材 质</w>
昆 士
断 绝</w>
分类 账</w>
冗 余</w>
乘 以</w>
P S
F O
5 46</w>
非常 低</w>
评 选</w>
计 时</w>
西 非
行 贿</w>
纤维 素</w>
火 柴</w>
搬 进</w>
拨 电话</w>
愤 慨</w>
定期 检查</w>
奇怪 的是</w>
墨 尔
坚 果</w>
合 剂</w>
卜拉 希米</w>
代 之以</w>
中亚 地区</w>
一 动</w>
b in</w>
St ev
鹦 鹉
马 伊</w>
非常 规</w>
能源 技术</w>
立 即
睁 </w>
用户 界面</w>
效 率高</w>
披 </w>
扶 轮社</w>
尔 曼</w>
封 闭
基 点</w>
噩 梦</w>
出人 意料</w>
保安 人员</w>
an ish</w>
Or gan
1 A</w>
趋 同</w>
现 为</w>
灌 木
海关 总署</w>
沙姆沙 伊赫</w>
汉 斯</w>
比 特</w>
方 说</w>
扮演 着</w>
怒 气</w>
反 射
分 处</w>
s i</w>
V an</w>
SA S</w>
靴 子</w>
这 三项</w>
裁 判
脸 部</w>
此时 此刻</w>
植 根于</w>
小 猫</w>
一 试</w>
c o
CR PD</w>
9. 9</w>
问 世</w>
螺 栓</w>
艺 人</w>
绝 佳</w>
第二十 </w>
牛津 大学</w>
气 愤</w>
标 语</w>
昌 </w>
微 乎其
多 出</w>
多 一点</w>
凯 文</w>
m i</w>
Dep ts</w>
5 85</w>
198 7年</w>
青 红
青红 皂白</w>
结构 图</w>
生 死</w>
甘 蔗
新 手</w>
尼亚 胡</w>
双边 协议</w>
S us
9 8.
0. 0</w>
首 当其
讨 好</w>
篡 改</w>
灌 注</w>
潜 意识</w>
渗 </w>
检 视</w>
尚 存</w>
增加 收入</w>
公民 自由</w>
买 受人</w>
一 家
C om
5 67</w>
里 根</w>
跌 幅</w>
蒂 尔</w>
聚 在一起</w>
缩 水</w>
第七 节</w>
白 痴</w>
甜 美</w>
沉 闷</w>
民 粹主义</w>
时 装
早 起</w>
搭 档</w>
探 险
循环 基金</w>
射 程</w>
埃尔 比勒</w>
可 得
依 托</w>
伯 利亚</w>
乙 烷</w>
Mahm oud</w>
退 税</w>
足球 赛</w>
起重 机</w>
理论 依据</w>
理 发
敞 </w>
成 都</w>
开 明</w>
大 增</w>
增 殖</w>
圣诞 树</w>
口 感</w>
单 靠</w>
其 向</w>
关 在</w>
僚 </w>
不足为 奇</w>
一 夜
et h
5 75</w>
顶 尖</w>
部 内</w>
身 影</w>
计 量
胡 萝卜</w>
爱 情
暂 时性</w>
探 照灯</w>
崎 </w>
学 界</w>
妓 院</w>
卢旺 达
分 期付款</w>
二 中</w>
丰 盛</w>
世界 级</w>
下 图</w>
调 到</w>
树 干</w>
林 区</w>
来 得
总统 大选</w>
对 外部</w>
基 拉</w>
另 行
出 产</w>
雄 厚</w>
降 雨量</w>
设 辩护</w>
终 极</w>
篱 笆</w>
监测 中心</w>
斯 图
持 平</w>
多 处</w>
器 皿</w>
公 设辩护</w>
傅 </w>
交 界</w>
于 众</w>
La ur
5 28</w>
重 写</w>
酰 胺</w>
购 单</w>
臭名 昭著</w>
砾 </w>
棺 材</w>
构 筑</w>
星 人</w>
日益 加剧</w>
拉 开</w>
微乎其 微</w>
帐 务</w>
尔 格</w>
对 儿</w>
妇女 运动</w>
回 想</w>
唔 </w>
半数 以上</w>
军事 顾问</w>
上 扬</w>
一 栏</w>
R iv
限 值</w>
采 行</w>
追 寻</w>
跪 </w>
赖 以</w>
表 一</w>
股 东
管 子</w>
相 联</w>
无人 机</w>
惠 给</w>
干 线</w>
就业 人口</w>
不分 青红皂白</w>
三 章</w>
e in</w>
b u
7 46</w>
觉 悟</w>
法 测定</w>
标志 性</w>
打 猎</w>
宝 贵
奥地 利政府</w>
失业 人数</w>
凯 蒂</w>
免 责</w>
份 量</w>
为 一体</w>
y s
ep h</w>
e o</w>
IC M</w>
飞 过</w>
辽 阔</w>
计 价</w>
经济 犯罪</w>
数据 源</w>
手无 寸铁</w>
平方 英尺</w>
师 生</w>
安大 略</w>
名 言</w>
勺 </w>
出 走</w>
An g
5 27</w>
重 度</w>
警 报
西 奥</w>
行政 命令</w>
电视 剧</w>
本 意</w>
是非 曲直</w>
收 购
大 都市</w>
坎 大
倒 下</w>
T ri
C oun
路 段</w>
跨 过</w>
羔 </w>
穆沙 拉夫</w>
日 趋
斯拉 夫</w>
描 绘
房 客</w>
幸 免</w>
唑 </w>
制 片
出租 人</w>
关 照</w>
中 年</w>
不能 容忍</w>
上 场</w>
ik h</w>
ar i
Man ag
---- ----
驾驭 </w>
难 怪</w>
红 树林</w>
示 意</w>
痛 心</w>
痊 愈</w>
电 动机</w>
提出 诉讼</w>
大学 毕业</w>
复 数</w>
圣 洁</w>
原 判</w>
卡 斯
代 尔</w>
事 是</w>
c il</w>
N BA</w>
G U
5 19</w>
诚 恳</w>
紫 </w>
空 地</w>
生物 圈</w>
炸 伤</w>
植 树
本 体</w>
有 钱
晴 朗</w>
时 日</w>
早 孕</w>
接 过</w>
抽样 调查</w>
愚 昧</w>
巴 希尔</w>
反应 器</w>
争取 和平</w>
一 月份</w>
n y</w>
L A</w>
首当其 冲</w>
顺 序
陈 代谢</w>
银行 存款</w>
金正 日</w>
远 期</w>
迁 至</w>
诞 </w>
警 队</w>
自由 行动</w>
第五十 五</w>
社会 服务</w>
甜 点</w>
正 统</w>
新 陈代谢</w>
岸 上</w>
大幅 提高</w>
内塔 尼亚胡</w>
令人 兴奋</w>
世界 纪录</w>
下 限</w>
th at</w>
XX III</w>
9 6
香 槟
阿里 斯蒂德</w>
缉 毒</w>
维 加斯</w>
有 色
时间 段</w>
安东 尼</w>
咖啡 因</w>
可 口</w>
候 补
二零零 四年</w>
A 1</w>
飞 来</w>
面 料</w>
霞 </w>
釜 山</w>
调 味
脊 髓</w>
纳 西
纯 度</w>
第三 年</w>
相互 影响</w>
澳大利亚 人</w>
流 畅</w>
来 宾</w>
杠 </w>
无 奈</w>
振 荡</w>
富 足</w>
定 下</w>
奋 力</w>
失败 者</w>
外 向</w>
勋 爵</w>
免 费
休息 时间</w>
两 分钟</w>
198 6年</w>
00 0万</w>
查 谟</w>
无法 忍受</w>
摧 残</w>
折 断</w>
手 提</w>
并 称</w>
定 出</w>
利 安</w>
一 棵树</w>
一 排</w>
一 扇</w>
ch in
201 9</w>
醒 过来</w>
贫 乏</w>
脊 椎
漂 浮</w>
欧 美</w>
廉 洁</w>
大 致
塞 拉</w>
喝 咖啡</w>
利 纳</w>
伊 万</w>
世界 观</w>
ist a</w>
New s</w>
要 务</w>
突 尼斯
沃 斯</w>
校 园
查 获</w>
斯洛文 尼亚共和国</w>
教 资会</w>
排 污</w>
帕 尔
巴 菲特</w>
圣 彼得
同 该</w>
可 不
危地马拉 政府</w>
协 作
供 水系统</w>
书面 资料</w>
举报 人</w>
两 辆</w>
Mar ch</w>
CT OC</w>
B i
. )
购买 者</w>
缴 获</w>
简 陋</w>
皮 带</w>
白 血病</w>
牌 子</w>
法律 界</w>
比 方说</w>
查 封</w>
末 日</w>
数据 资料</w>
按 期</w>
执行 公务</w>
战略 意义</w>
应 激</w>
大吃 一惊</w>
多 夫</w>
咯 </w>
压 倒</w>
军 政府</w>
亮 点</w>
亚太经 合组织</w>
r el
c om
K on
软 骨</w>
观察 哨</w>
膀胱 </w>
真 话</w>
监 会</w>
点 名</w>
火 炉</w>
汉 普森</w>
气 动</w>
核 国家</w>
拒绝 给予</w>
幻 灯
修 理
作 响</w>
人口 密度</w>
个人 信息</w>
S l
Jos eph</w>
5 23</w>
5 17</w>
适 得
较 之</w>
调查 过程</w>
请 教</w>
第十 六</w>
犹 </w>
巴 伦西亚</w>
宇 航</w>
夫 妻
偿还 债务</w>
保 卫
人 性化</w>
dep ts</w>
Sh ah
Re v
R ash
M ir
2 A</w>
适得 其反</w>
责任 心</w>
终 将</w>
生物 学家</w>
演讲 者</w>
洗手 间</w>
校 友</w>
易 懂</w>
无 止
恶 毒</w>
往 后</w>
密 歇
八 日</w>
全 过程</w>
10. 3</w>
迈 尔</w>
素 季</w>
督 促</w>
甚 远</w>
玫瑰 花</w>
澳 新</w>
海 丝特</w>
放 贷</w>
执行 长</w>
应 答</w>
委 托
妓 </w>
发 泄</w>
先 进
信 片</w>
ot o</w>
I d
50 万</w>
雪 花</w>
铭 </w>
贫 富</w>
腔 镜</w>
浙 江</w>
巡 回
增 减</w>
听 懂</w>
几 十</w>
假 冒</w>
不 以</w>
B ah
A K
第二十 四</w>
税 额</w>
斯 利</w>
政治 学</w>
扑 灭</w>
所 应</w>
外籍 人</w>
嘲 弄</w>
发展 潜力</w>
半 衰
停火 线</w>
交 代</w>
不 关心</w>
ａ </w>
转 弯</w>
科 罗拉
氟 烃</w>
柠檬 </w>
已 到</w>
宝 座</w>
半衰 期</w>
三 边</w>
一 票</w>
er t
赐 予</w>
衡 算</w>
组 人员</w>
爱 是</w>
涉 案</w>
机 组人员</w>
有 系统</w>
搞 定</w>
技术 手段</w>
多 党</w>
坚 守</w>
唐 太
吉 奥</w>
休 战</w>
以 较</w>
乌 姆</w>
上 部</w>
Š </w>
S and
Ma c</w>
J P</w>
第十 八</w>
抓 紧</w>
尽其 所能</w>
型 肝炎</w>
地 壳</w>
古 斯
参 观者</w>
印 章</w>
前后 一致</w>
公 关</w>
他 命</w>
交 接</w>
中 所起</w>
D ani
鬼 魂</w>
高 层
这 款</w>
许 多人</w>
计 及</w>
若干 个</w>
舱 位</w>
系统 分析</w>
献 上</w>
消耗 品</w>
毛 细
有机 物</w>
暑 期</w>
拦 </w>
对外 开放</w>
僵 化</w>
低 利率</w>
代 号</w>
亚 利
两 段</w>
下 层</w>
as p
Eur op
相互 竞争</w>
球 菌</w>
犯 错误</w>
燃 气</w>
游 离</w>
放大 器</w>
探 寻</w>
弱 者</w>
布 加勒
左 侧</w>
失踪 案</w>
两 面</w>
L 1</w>
闲 置</w>
财政 收入</w>
语 文
蚊 </w>
职能 部门</w>
甸 </w>
电影 节</w>
毒 气</w>
枪 手</w>
有 能力</w>
旁 观者</w>
市 内</w>
巴西 利亚</w>
审判 庭</w>
和 约</w>
压缩 机</w>
全民 公决</w>
不知所 措</w>
一切 顺利</w>
on a</w>
T V</w>
Le e</w>
9 30</w>
5 36</w>
除 掉</w>
阿斯 马拉</w>
长 途</w>
被 选为</w>
碳 水
碳水 化合物</w>
本 篇</w>
新 奇</w>
拨 打</w>
得 体</w>
吸取 教训</w>
劳 拉</w>
分裂 主义</w>
分 流</w>
其 内</w>
今年 夏天</w>
个 别
费 时</w>
融 洽</w>
荫 </w>
第一 号</w>
瑞 德</w>
琪 </w>
炉 子</w>
污染 源</w>
检察 厅</w>
文 献
投 保人</w>
心理 咨询</w>
失 落</w>
太 低</w>
和 尚</w>
吝 啬
单 体</w>
克里 米亚</w>
i v</w>
for d</w>
S erg
D is
1 200</w>
言 行</w>
纵 火</w>
深 远
法 证</w>
果 子</w>
抗 原</w>
幕 后</w>
布 伦</w>
小 汽车</w>
受到 重视</w>
受 挫</w>
原 地</w>
功 用</w>
光 源</w>
中枢 </w>
y n</w>
ev i</w>
M ic
L ou
Ap ril</w>
韵 </w>
郊 野</w>
认 清</w>
粘 土</w>
盐 酸</w>
源 性</w>
深远 影响</w>
普 雷</w>
摇 滚
挤 满</w>
市 价</w>
实 体
坎大 哈</w>
君 子</w>
书 信</w>
Amer ic
5 35</w>
餐 具</w>
逆 境</w>
紧迫 感</w>
租 房</w>
明 信片</w>
日 语</w>
多 尔</w>
只 想</w>
北 区</w>
别 说</w>
住 家</w>
途 经</w>
要 死</w>
芬 兰政府</w>
约 合</w>
本 领</w>
攻击 性</w>
售 卖</w>
供应 方</w>
c i
青 岛</w>
维 的
标 出</w>
斯 托</w>
拳 头</w>
我 想</w>
慕 尼
巫 师</w>
完成 学业</w>
呈 上升</w>
动 脉
专员 公署</w>
it t
ays h</w>
W at
7 67</w>
5 38</w>
5 33</w>
金融 监管</w>
线 圈</w>
特 异性</w>
正确 方向</w>
方 都</w>
新 式</w>
尾 声</w>
哈利 法</w>
压倒 性</w>
净 减</w>
共同 财产</w>
共 市</w>
但 是
不 明智</w>
7 72</w>
量 度</w>
详细 审查</w>
致 富</w>
管理 体制</w>
第 16
确 证</w>
界 别</w>
环保 局</w>
王 储</w>
易 燃</w>
新兴 国家</w>
强奸 案</w>
布加勒 斯特</w>
刚果 人</w>
出 乎
严 禁</w>
一席 之地</w>
N i
N aj
6 01</w>
5 49</w>
都 市
蒙 得
研 拟</w>
电子 化</w>
测 算</w>
橄榄 球</w>
慈善 事业</w>
好 几年</w>
失 去
响 声</w>
区 块</w>
产 生
中 尉</w>
w eb
香港 大学</w>
馆 长</w>
预 售</w>
郑 重</w>
起 誓</w>
调查 队</w>
该 表</w>
美 貌</w>
相 悖</w>
病 床</w>
极 地</w>
无 所谓</w>
座 椅</w>
危 难</w>
刑事 法律</w>
仅 靠</w>
ik a</w>
J on
那 间</w>
花 卉
漠 不关心</w>
施加 影响</w>
报告 书</w>
庆 幸</w>
孩 子
奖 者</w>
填 报</w>
亲 友</w>
不为 过</w>
W H
R ights</w>
B ay
高 强度</w>
高 估</w>
经常 出现</w>
玛 伊</w>
永 </w>
必 行</w>
徽 章</w>
四 份</w>
d in</w>
N t
N at
5 62</w>
风 光</w>
雪 莉</w>
难 关</w>
过 低</w>
西 伯利亚</w>
维的 亚</w>
漆 黑</w>
洛 夫</w>
橇 </w>
架 上</w>
旗 舰</w>
损 益</w>
密切 配合</w>
体 贴</w>
os a</w>
er i</w>
费 尔</w>
简 编</w>
猜 疑</w>
更 名</w>
时 所作</w>
无 穷</w>
揭 发</w>
巫 术</w>
吧 。</w>
乘 车</w>
S in
P P
0 30
自 负</w>
联 危</w>
而 然</w>
羞 耻</w>
符合 规定</w>
王 星</w>
激进 分子</w>
每 逢</w>
无 意识</w>
恋 人</w>
受 命</w>
P an
M ig
G O
面 值</w>
演 愈
滕 </w>
涂 抹</w>
海上 运输</w>
模 态</w>
数据 库
强 暴</w>
庭 院</w>
已 同</w>
佬 </w>
伦 比</w>
二 恶
中华人民共和 国
一切 权利</w>
W ar
雷 拉</w>
观测 站</w>
要 求
自杀 式</w>
能源 危机</w>
[...]
