{
  "eos": 0, 
  "UNK": 1, 
  "the": 2, 
  "of": 3, 
  ",": 4, 
  ".": 5, 
  "and": 6, 
  "to": 7, 
  "in": 8, 
  "a": 9, 
  "for": 10, 
  "@-@": 11, 
  "on": 12, 
  "that": 13, 
  ")": 14, 
  "(": 15, 
  "is": 16, 
  "with": 17, 
  "by": 18, 
  "as": 19, 
  "be": 20, 
  "/": 21, 
  "it": 22, 
  "was": 23, 
  "at": 24, 
  "are": 25, 
  "&quot;": 26, 
  "its": 27, 
  "&apos;s": 28, 
  ":": 29, 
  ";": 30, 
  "from": 31, 
  "or": 32, 
  "this": 33, 
  "an": 34, 
  "United": 35, 
  "have": 36, 
  "not": 37, 
  "I": 38, 
  "has": 39, 
  "their": 40, 
  "Nations": 41, 
  "which": 42, 
  "all": 43, 
  "you": 44, 
  "will": 45, 
  "Committee": 46, 
  "also": 47, 
  "had": 48, 
  "been": 49, 
  "General": 50, 
  "were": 51, 
  "international": 52, 
  "he": 53, 
  "other": 54, 
  "States": 55, 
  "we": 56, 
  "should": 57, 
  "development": 58, 
  "would": 59, 
  "they": 60, 
  "countries": 61, 
  "his": 62, 
  "report": 63, 
  "rights": 64, 
  "but": 65, 
  "such": 66, 
  "-": 67, 
  "Council": 68, 
  "one": 69, 
  "under": 70, 
  "can": 71, 
  "more": 72, 
  "women": 73, 
  "work": 74, 
  "1": 75, 
  "human": 76, 
  "there": 77, 
  "including": 78, 
  "information": 79, 
  "support": 80, 
  "resolution": 81, 
  "national": 82, 
  "into": 83, 
  "State": 84, 
  "out": 85, 
  "up": 86, 
  "these": 87, 
  "made": 88, 
  "new": 89, 
  "?": 90, 
  "Assembly": 91, 
  "if": 92, 
  "2": 93, 
  "implementation": 94, 
  "no": 95, 
  "through": 96, 
  "time": 97, 
  "some": 98, 
  "those": 99, 
  "session": 100, 
  "system": 101, 
  "between": 102, 
  "Government": 103, 
  "well": 104, 
  "activities": 105, 
  "any": 106, 
  "people": 107, 
  "Secretary": 108, 
  "so": 109, 
  "against": 110, 
  "Convention": 111, 
  "who": 112, 
  "may": 113, 
  "Commission": 114, 
  "3": 115, 
  "country": 116, 
  "about": 117, 
  "per": 118, 
  "my": 119, 
  "two": 120, 
  "when": 121, 
  "A": 122, 
  "law": 123, 
  "our": 124, 
  "your": 125, 
  "than": 126, 
  "could": 127, 
  "meeting": 128, 
  "only": 129, 
  "security": 130, 
  "measures": 131, 
  "article": 132, 
  "them": 133, 
  "economic": 134, 
  "use": 135, 
  "do": 136, 
  "her": 137, 
  "children": 138, 
  "first": 139, 
  "cooperation": 140, 
  "number": 141, 
  "International": 142, 
  "during": 143, 
  "programme": 144, 
  "she": 145, 
  "efforts": 146, 
  "organizations": 147, 
  "$": 148, 
  "said": 149, 
  "resources": 150, 
  "level": 151, 
  "draft": 152, 
  "Conference": 153, 
  "need": 154, 
  "over": 155, 
  "Mr.": 156, 
  "financial": 157, 
  "process": 158, 
  "&apos;": 159, 
  "non": 160, 
  "shall": 161, 
  "right": 162, 
  "4": 163, 
  "what": 164, 
  "take": 165, 
  "regional": 166, 
  "cent": 167, 
  "must": 168, 
  "year": 169, 
  "provide": 170, 
  "further": 171, 
  "social": 172, 
  "order": 173, 
  "5": 174, 
  "years": 175, 
  "most": 176, 
  "many": 177, 
  "services": 178, 
  "issues": 179, 
  "public": 180, 
  "ensure": 181, 
  "Development": 182, 
  "management": 183, 
  "Republic": 184, 
  "members": 185, 
  "assistance": 186, 
  "&apos;t": 187, 
  "based": 188, 
  "The": 189, 
  "Security": 190, 
  "within": 191, 
  "party": 192, 
  "10": 193, 
  "being": 194, 
  "Rights": 195, 
  "provided": 196, 
  "paragraph": 197, 
  "make": 198, 
  "Group": 199, 
  "after": 200, 
  "me": 201, 
  "health": 202, 
  "world": 203, 
  "developing": 204, 
  "while": 205, 
  "areas": 206, 
  "6": 207, 
  "like": 208, 
  "education": 209, 
  "decision": 210, 
  "staff": 211, 
  "b": 212, 
  "programmes": 213, 
  "Office": 214, 
  "period": 215, 
  "related": 216, 
  "Special": 217, 
  "important": 218, 
  "agenda": 219, 
  "relevant": 220, 
  "both": 221, 
  "where": 222, 
  "part": 223, 
  "before": 224, 
  "particular": 225, 
  "however": 226, 
  "training": 227, 
  "following": 228, 
  "policy": 229, 
  "political": 230, 
  "held": 231, 
  "see": 232, 
  "action": 233, 
  "since": 234, 
  "how": 235, 
  "review": 236, 
  "persons": 237, 
  "now": 238, 
  "legal": 239, 
  "among": 240, 
  "adopted": 241, 
  "Human": 242, 
  "protection": 243, 
  "7": 244, 
  "effective": 245, 
  "three": 246, 
  "situation": 247, 
  "item": 248, 
  "parties": 249, 
  "taken": 250, 
  "high": 251, 
  "community": 252, 
  "President": 253, 
  "capacity": 254, 
  "December": 255, 
  "him": 256, 
  "China": 257, 
  "continue": 258, 
  "peace": 259, 
  "access": 260, 
  "each": 261, 
  "very": 262, 
  "regard": 263, 
  "same": 264, 
  "global": 265, 
  "used": 266, 
  "recommendations": 267, 
  "role": 268, 
  "working": 269, 
  "without": 270, 
  "special": 271, 
  "reports": 272, 
  "established": 273, 
  "8": 274, 
  "progress": 275, 
  "15": 276, 
  "data": 277, 
  "12": 278, 
  "set": 279, 
  "good": 280, 
  "Organization": 281, 
  "respect": 282, 
  "way": 283, 
  "present": 284, 
  "accordance": 285, 
  "technical": 286, 
  "life": 287, 
  "2008": 288, 
  "Member": 289, 
  "nuclear": 290, 
  "2005": 291, 
  "C": 292, 
  "case": 293, 
  "9": 294, 
  "because": 295, 
  "view": 296, 
  "Programme": 297, 
  "2006": 298, 
  "violence": 299, 
  "gender": 300, 
  "full": 301, 
  "Africa": 302, 
  "June": 303, 
  "local": 304, 
  "budget": 305, 
  "11": 306, 
  "cases": 307, 
  "30": 308, 
  "necessary": 309, 
  "long": 310, 
  "Board": 311, 
  "million": 312, 
  "basis": 313, 
  "place": 314, 
  "just": 315, 
  "2010": 316, 
  "possible": 317, 
  "&#91;": 318, 
  "2009": 319, 
  "end": 320, 
  "2007": 321, 
  "area": 322, 
  "trade": 323, 
  "did": 324, 
  "groups": 325, 
  "20": 326, 
  "institutions": 327, 
  "appropriate": 328, 
  "building": 329, 
  "policies": 330, 
  "general": 331, 
  "14": 332, 
  "increase": 333, 
  "needs": 334, 
  "2004": 335, 
  "control": 336, 
  "meetings": 337, 
  "even": 338, 
  "specific": 339, 
  "available": 340, 
  "!": 341, 
  "upon": 342, 
  "consideration": 343, 
  "proposed": 344, 
  "then": 345, 
  "&#93;": 346, 
  "Parties": 347, 
  "developed": 348, 
  "include": 349, 
  "13": 350, 
  "second": 351, 
  "African": 352, 
  "July": 353, 
  "region": 354, 
  "group": 355, 
  "given": 356, 
  "project": 357, 
  "2011": 358, 
  "E": 359, 
  "field": 360, 
  "current": 361, 
  "World": 362, 
  "us": 363, 
  "note": 364, 
  "concerned": 365, 
  "society": 366, 
  "South": 367, 
  "still": 368, 
  "issue": 369, 
  "d": 370, 
  "day": 371, 
  "water": 372, 
  "total": 373, 
  "continued": 374, 
  "provisions": 375, 
  "18": 376, 
  "National": 377, 
  "military": 378, 
  "future": 379, 
  "--": 380, 
  "16": 381, 
  "term": 382, 
  "change": 383, 
  "noted": 384, 
  "2003": 385, 
  "child": 386, 
  "framework": 387, 
  "address": 388, 
  "plan": 389, 
  "account": 390, 
  "various": 391, 
  "considered": 392, 
  "Social": 393, 
  "sector": 394, 
  "required": 395, 
  "promote": 396, 
  "government": 397, 
  "different": 398, 
  "sustainable": 399, 
  "2000": 400, 
  "particularly": 401, 
  "therefore": 402, 
  "know": 403, 
  "2002": 404, 
  "levels": 405, 
  "European": 406, 
  "importance": 407, 
  "much": 408, 
  "Court": 409, 
  "Economic": 410, 
  "delegation": 411, 
  "October": 412, 
  "conflict": 413, 
  "Fund": 414, 
  "participation": 415, 
  "help": 416, 
  "requirements": 417, 
  "September": 418, 
  "2012": 419, 
  "civil": 420, 
  "technology": 421, 
  "Department": 422, 
  "major": 423, 
  "addition": 424, 
  "several": 425, 
  "additional": 426, 
  "above": 427, 
  "last": 428, 
  "operations": 429, 
  "November": 430, 
  "results": 431, 
  "does": 432, 
  "poverty": 433, 
  "humanitarian": 434, 
  "family": 435, 
  "projects": 436, 
  "population": 437, 
  "Secretariat": 438, 
  "II": 439, 
  "service": 440, 
  "own": 441, 
  "conditions": 442, 
  "2001": 443, 
  "submitted": 444, 
  "authorities": 445, 
  "means": 446, 
  "17": 447, 
  "another": 448, 
  "police": 449, 
  "small": 450, 
  "private": 451, 
  "bodies": 452, 
  "impact": 453, 
  "19": 454, 
  "May": 455, 
  "21": 456, 
  "agencies": 457, 
  "31": 458, 
  "Working": 459, 
  "result": 460, 
  "document": 461, 
  "get": 462, 
  "towards": 463, 
  "New": 464, 
  "approach": 465, 
  "March": 466, 
  "go": 467, 
  "attention": 468, 
  "every": 469, 
  "making": 470, 
  "business": 471, 
  "whether": 472, 
  "men": 473, 
  "weapons": 474, 
  "food": 475, 
  "status": 476, 
  "according": 477, 
  "Law": 478, 
  "Union": 479, 
  "research": 480, 
  "representatives": 481, 
  "question": 482, 
  "personnel": 483, 
  "third": 484, 
  "Mission": 485, 
  "systems": 486, 
  "environment": 487, 
  "organization": 488, 
  "discrimination": 489, 
  "key": 490, 
  "Governments": 491, 
  "concern": 492, 
  "risk": 493, 
  "increased": 494, 
  "better": 495, 
  "25": 496, 
  "agreed": 497, 
  "Women": 498, 
  "market": 499, 
  "application": 500, 
  "1999": 501, 
  "context": 502, 
  "care": 503, 
  "member": 504, 
  "received": 505, 
  "22": 506, 
  "establishment": 507, 
  "especially": 508, 
  "force": 509, 
  "2013": 510, 
  "resolutions": 511, 
  "rule": 512, 
  "statement": 513, 
  "taking": 514, 
  "cost": 515, 
  "costs": 516, 
  "domestic": 517, 
  "mandate": 518, 
  "January": 519, 
  "improve": 520, 
  "April": 521, 
  "man": 522, 
  "monitoring": 523, 
  "requests": 524, 
  "provision": 525, 
  "24": 526, 
  "give": 527, 
  "requested": 528, 
  "study": 529, 
  "growth": 530, 
  "request": 531, 
  "reporting": 532, 
  "person": 533, 
  "might": 534, 
  "concerning": 535, 
  "called": 536, 
  "down": 537, 
  "existing": 538, 
  "best": 539, 
  "rules": 540, 
  "adoption": 541, 
  "consider": 542, 
  "problems": 543, 
  "representative": 544, 
  "23": 545, 
  "legislation": 546, 
  "comprehensive": 547, 
  "quality": 548, 
  "coordination": 549, 
  "next": 550, 
  "main": 551, 
  "Action": 552, 
  "contained": 553, 
  "land": 554, 
  "don": 555, 
  "1998": 556, 
  "Rapporteur": 557, 
  "Protocol": 558, 
  "five": 559, 
  "environmental": 560, 
  "recent": 561, 
  "four": 562, 
  "free": 563, 
  "terms": 564, 
  "regarding": 565, 
  "justice": 566, 
  "responsibility": 567, 
  "due": 568, 
  "great": 569, 
  "come": 570, 
  "fact": 571, 
  "common": 572, 
  "expressed": 573, 
  "strengthen": 574, 
  "subject": 575, 
  "standards": 576, 
  "procedures": 577, 
  "Affairs": 578, 
  "fully": 579, 
  "large": 580, 
  "included": 581, 
  "production": 582, 
  "governmental": 583, 
  "often": 584, 
  "put": 585, 
  "example": 586, 
  "become": 587, 
  "Executive": 588, 
  "back": 589, 
  "treatment": 590, 
  "rate": 591, 
  "relating": 592, 
  "found": 593, 
  "mechanisms": 594, 
  "S": 595, 
  "response": 596, 
  "criminal": 597, 
  "implement": 598, 
  "funds": 599, 
  "least": 600, 
  "follow": 601, 
  "challenges": 602, 
  "principles": 603, 
  "post": 604, 
  "already": 605, 
  "Declaration": 606, 
  "off": 607, 
  "energy": 608, 
  "amount": 609, 
  "practices": 610, 
  "together": 611, 
  "High": 612, 
  "able": 613, 
  "provides": 614, 
  "analysis": 615, 
  "significant": 616, 
  "26": 617, 
  "agreement": 618, 
  "thus": 619, 
  "foreign": 620, 
  "develop": 621, 
  "reported": 622, 
  "income": 623, 
  "%": 624, 
  "Act": 625, 
  "America": 626, 
  "performance": 627, 
  "UNDP": 628, 
  "problem": 629, 
  "form": 630, 
  "space": 631, 
  "strengthening": 632, 
  "armed": 633, 
  "addressed": 634, 
  "27": 635, 
  "providing": 636, 
  "table": 637, 
  "here": 638, 
  "contributions": 639, 
  "administrative": 640, 
  "No.": 641, 
  "took": 642, 
  "assessment": 643, 
  "Ministry": 644, 
  "decisions": 645, 
  "school": 646, 
  "yet": 647, 
  "obligations": 648, 
  "think": 649, 
  "28": 650, 
  "planning": 651, 
  "too": 652, 
  "entitled": 653, 
  "investment": 654, 
  "indigenous": 655, 
  "Chinese": 656, 
  "lack": 657, 
  "annex": 658, 
  "strategy": 659, 
  "February": 660, 
  "age": 661, 
  "days": 662, 
  "early": 663, 
  "practice": 664, 
  "Advisory": 665, 
  "decided": 666, 
  "August": 667, 
  "paper": 668, 
  "past": 669, 
  "having": 670, 
  "regular": 671, 
  "matter": 672, 
  "equipment": 673, 
  "consultations": 674, 
  "employment": 675, 
  "section": 676, 
  "Palestinian": 677, 
  "date": 678, 
  "today": 679, 
  "notes": 680, 
  "effect": 681, 
  "meet": 682, 
  "line": 683, 
  "victims": 684, 
  "cultural": 685, 
  "mission": 686, 
  "reform": 687, 
  "although": 688, 
  "documents": 689, 
  "actions": 690, 
  "secretariat": 691, 
  "establish": 692, 
  "needed": 693, 
  "want": 694, 
  "less": 695, 
  "office": 696, 
  "light": 697, 
  "others": 698, 
  "value": 699, 
  "power": 700, 
  "interest": 701, 
  "Arab": 702, 
  "always": 703, 
  "East": 704, 
  "annual": 705, 
  "around": 706, 
  "disarmament": 707, 
  "prevention": 708, 
  "focus": 709, 
  "matters": 710, 
  "terrorism": 711, 
  "commitment": 712, 
  "state": 713, 
  "initiatives": 714, 
  "objective": 715, 
  "inter": 716, 
  "position": 717, 
  "knowledge": 718, 
  "certain": 719, 
  "equality": 720, 
  "29": 721, 
  "self": 722, 
  "open": 723, 
  "peacekeeping": 724, 
  "statements": 725, 
  "using": 726, 
  "basic": 727, 
  "author": 728, 
  "little": 729, 
  "funding": 730, 
  "economy": 731, 
  "body": 732, 
  "individual": 733, 
  "missions": 734, 
  "promotion": 735, 
  "forces": 736, 
  "Israel": 737, 
  "Service": 738, 
  "Asia": 739, 
  "point": 740, 
  "clear": 741, 
  "dialogue": 742, 
  "joint": 743, 
  "living": 744, 
  "again": 745, 
  "Centre": 746, 
  "experience": 747, 
  "please": 748, 
  "property": 749, 
  "young": 750, 
  "priority": 751, 
  "never": 752, 
  "letter": 753, 
  "list": 754, 
  "say": 755, 
  "few": 756, 
  "expected": 757, 
  "crime": 758, 
  "organized": 759, 
  "operational": 760, 
  "serious": 761, 
  "trafficking": 762, 
  "para": 763, 
  "prevent": 764, 
  "official": 765, 
  "old": 766, 
  "communication": 767, 
  "III": 768, 
  "responsible": 769, 
  "laws": 770, 
  "low": 771, 
  "far": 772, 
  "arms": 773, 
  "plans": 774, 
  "greater": 775, 
  "delegations": 776, 
  "reduction": 777, 
  "evaluation": 778, 
  "To": 779, 
  "discussion": 780, 
  "peoples": 781, 
  "until": 782, 
  "recommendation": 783, 
  "company": 784, 
  "strategic": 785, 
  "home": 786, 
  "am": 787, 
  "achieve": 788, 
  "Representative": 789, 
  "procedure": 790, 
  "Iraq": 791, 
  "supported": 792, 
  "*": 793, 
  "potential": 794, 
  "let": 795, 
  "partners": 796, 
  "once": 797, 
  "50": 798, 
  "promoting": 799, 
  "financing": 800, 
  "recommended": 801, 
  "involved": 802, 
  "course": 803, 
  "principle": 804, 
  "HIV": 805, 
  "biennium": 806, 
  "sexual": 807, 
  "Ms.": 808, 
  "natural": 809, 
  "violations": 810, 
  "changes": 811, 
  "previous": 812, 
  "months": 813, 
  "money": 814, 
  "awareness": 815, 
  "strategies": 816, 
  "steps": 817, 
  "workers": 818, 
  "Director": 819, 
  "1997": 820, 
  "affected": 821, 
  "nature": 822, 
  "carried": 823, 
  "girls": 824, 
  "1996": 825, 
  "cannot": 826, 
  "purpose": 827, 
  "crisis": 828, 
  "exchange": 829, 
  "treaty": 830, 
  "Central": 831, 
  "essential": 832, 
  "find": 833, 
  "&apos;m": 834, 
  "higher": 835, 
  "currently": 836, 
  "rural": 837, 
  "agreements": 838, 
  "approved": 839, 
  "implemented": 840, 
  "mechanism": 841, 
  "call": 842, 
  "implementing": 843, 
  "forms": 844, 
  "2014": 845, 
  "limited": 846, 
  "facilities": 847, 
  "climate": 848, 
  "60": 849, 
  "overall": 850, 
  "enhance": 851, 
  "six": 852, 
  "acts": 853, 
  "forward": 854, 
  "objectives": 855, 
  "officials": 856, 
  "e": 857, 
  "experts": 858, 
  "American": 859, 
  "increasing": 860, 
  "issued": 861, 
  "understanding": 862, 
  "pursuant": 863, 
  "done": 864, 
  "opportunities": 865, 
  "Division": 866, 
  "aimed": 867, 
  "informal": 868, 
  "communities": 869, 
  "offices": 870, 
  "Bank": 871, 
  "why": 872, 
  "adequate": 873, 
  "committed": 874, 
  "behalf": 875, 
  "1994": 876, 
  "products": 877, 
  "look": 878, 
  "instruments": 879, 
  "operation": 880, 
  "prepared": 881, 
  "facilitate": 882, 
  "&apos;re": 883, 
  "whole": 884, 
  "proposals": 885, 
  "arrangements": 886, 
  "going": 887, 
  "benefits": 888, 
  "medical": 889, 
  "evidence": 890, 
  "Chairman": 891, 
  "P": 892, 
  "air": 893, 
  "conduct": 894, 
  "below": 895, 
  "posts": 896, 
  "informed": 897, 
  "strong": 898, 
  "presented": 899, 
  "Commissioner": 900, 
  "Article": 901, 
  "Covenant": 902, 
  "play": 903, 
  "1995": 904, 
  "hand": 905, 
  "English": 906, 
  "media": 907, 
  "opportunity": 908, 
  "proposal": 909, 
  "protect": 910, 
  "independent": 911, 
  "processes": 912, 
  "40": 913, 
  "equal": 914, 
  "AIDS": 915, 
  "Minister": 916, 
  "material": 917, 
  "stated": 918, 
  "ensuring": 919, 
  "questions": 920, 
  "guidelines": 921, 
  "de": 922, 
  "Panel": 923, 
  "resource": 924, 
  "functions": 925, 
  "safety": 926, 
  "hours": 927, 
  "Treaty": 928, 
  "war": 929, 
  "pay": 930, 
  "goals": 931, 
  "assist": 932, 
  "Europe": 933, 
  "Permanent": 934, 
  "Tribunal": 935, 
  "individuals": 936, 
  "recommends": 937, 
  "design": 938, 
  "remain": 939, 
  "effects": 940, 
  "conducted": 941, 
  "provisional": 942, 
  "labour": 943, 
  "items": 944, 
  "Democratic": 945, 
  "Millennium": 946, 
  "aspects": 947, 
  "court": 948, 
  "reduce": 949, 
  "methods": 950, 
  "wish": 951, 
  "face": 952, 
  "bring": 953, 
  "positive": 954, 
  "method": 955, 
  "transfer": 956, 
  "reference": 957, 
  "internal": 958, 
  "love": 959, 
  "team": 960, 
  "communications": 961, 
  "undertaken": 962, 
  "remains": 963, 
  "primary": 964, 
  "exercise": 965, 
  "contribute": 966, 
  "close": 967, 
  "York": 968, 
  "Management": 969, 
  "poor": 970, 
  "negotiations": 971, 
  "freedom": 972, 
  "Russian": 973, 
  "administration": 974, 
  "Japan": 975, 
  "integrated": 976, 
  "students": 977, 
  "concerns": 978, 
  "articles": 979, 
  "authority": 980, 
  "rather": 981, 
  "manner": 982, 
  "death": 983, 
  "capital": 984, 
  "Geneva": 985, 
  "away": 986, 
  "direct": 987, 
  "led": 988, 
  "calls": 989, 
  "lead": 990, 
  "real": 991, 
  "&apos;ll": 992, 
  "contribution": 993, 
  "Information": 994, 
  "return": 995, 
  "participants": 996, 
  "fundamental": 997, 
  "structure": 998, 
  "i": 999, 
  "s": 1000, 
  "final": 1001, 
  "compliance": 1002, 
  "recognized": 1003, 
  "1993": 1004, 
  "dated": 1005, 
  "Plan": 1006, 
  "infrastructure": 1007, 
  "wide": 1008, 
  "language": 1009, 
  "rates": 1010, 
  "drug": 1011, 
  "officers": 1012, 
  "allow": 1013, 
  "ways": 1014, 
  "Israeli": 1015, 
  "act": 1016, 
  "Agency": 1017, 
  "connection": 1018, 
  "materials": 1019, 
  "fifty": 1020, 
  "throughout": 1021, 
  "active": 1022, 
  "preparation": 1023, 
  "US": 1024, 
  "p.m.": 1025, 
  "refugees": 1026, 
  "difficult": 1027, 
  "F": 1028, 
  "regions": 1029, 
  "model": 1030, 
  "identified": 1031, 
  "things": 1032, 
  "text": 1033, 
  "former": 1034, 
  "share": 1035, 
  "keep": 1036, 
  "views": 1037, 
  "Charter": 1038, 
  "itself": 1039, 
  "UNICEF": 1040, 
  "believe": 1041, 
  "achieved": 1042, 
  "industry": 1043, 
  "despite": 1044, 
  "fourth": 1045, 
  "Trade": 1046, 
  "People": 1047, 
  "multilateral": 1048, 
  "asked": 1049, 
  "crimes": 1050, 
  "un@@": 1051, 
  "Federation": 1052, 
  "detention": 1053, 
  "Criminal": 1054, 
  "kind": 1055, 
  "improving": 1056, 
  "institutional": 1057, 
  "effectively": 1058, 
  "UN": 1059, 
  "commitments": 1060, 
  "conference": 1061, 
  "range": 1062, 
  "enforcement": 1063, 
  "vote": 1064, 
  "introduced": 1065, 
  "paragraphs": 1066, 
  "judicial": 1067, 
  "A.": 1068, 
  "Forum": 1069, 
  "integration": 1070, 
  "substantive": 1071, 
  "critical": 1072, 
  "hope": 1073, 
  "Global": 1074, 
  "claims": 1075, 
  "leave": 1076, 
  "outcome": 1077, 
  "benefit": 1078, 
  "effort": 1079, 
  "construction": 1080, 
  "referred": 1081, 
  "Code": 1082, 
  "regulations": 1083, 
  "Justice": 1084, 
  "job": 1085, 
  "B": 1086, 
  "families": 1087, 
  "times": 1088, 
  "Unit": 1089, 
  "UNCTAD": 1090, 
  "indicated": 1091, 
  "activity": 1092, 
  "left": 1093, 
  "across": 1094, 
  "Sudan": 1095, 
  "source": 1096, 
  "entities": 1097, 
  "governance": 1098, 
  "companies": 1099, 
  "similar": 1100, 
  "outside": 1101, 
  "live": 1102, 
  "purposes": 1103, 
  "goods": 1104, 
  "ongoing": 1105, 
  "create": 1106, 
  "came": 1107, 
  "summary": 1108, 
  "schools": 1109, 
  "travel": 1110, 
  "Pacific": 1111, 
  "words": 1112, 
  "name": 1113, 
  "half": 1114, 
  "debt": 1115, 
  "short": 1116, 
  "sessions": 1117, 
  "elements": 1118, 
  "participate": 1119, 
  "require": 1120, 
  "S@@": 1121, 
  "room": 1122, 
  "circumstances": 1123, 
  "got": 1124, 
  "themselves": 1125, 
  "scale": 1126, 
  "Kingdom": 1127, 
  "traditional": 1128, 
  "later": 1129, 
  "submit": 1130, 
  "mind": 1131, 
  "effectiveness": 1132, 
  "along": 1133, 
  "improved": 1134, 
  "Institute": 1135, 
  "estimated": 1136, 
  "discussions": 1137, 
  "house": 1138, 
  "brought": 1139, 
  "territory": 1140, 
  "revised": 1141, 
  "ability": 1142, 
  "enable": 1143, 
  "demand": 1144, 
  "India": 1145, 
  "assets": 1146, 
  "factors": 1147, 
  "soon": 1148, 
  "centres": 1149, 
  "side": 1150, 
  "civilian": 1151, 
  "sources": 1152, 
  "disabilities": 1153, 
  "interests": 1154, 
  "Services": 1155, 
  "culture": 1156, 
  "maintenance": 1157, 
  "whose": 1158, 
  "includes": 1159, 
  "guidance": 1160, 
  "relations": 1161, 
  "signed": 1162, 
  "Review": 1163, 
  "Agreement": 1164, 
  "apply": 1165, 
  "Summit": 1166, 
  "sixty": 1167, 
  "applied": 1168, 
  "standard": 1169, 
  "show": 1170, 
  "scope": 1171, 
  "month": 1172, 
  "directly": 1173, 
  "IV": 1174, 
  "Canada": 1175, 
  "balance": 1176, 
  "57": 1177, 
  "network": 1178, 
  "prior": 1179, 
  "Hong": 1180, 
  "contract": 1181, 
  "B.": 1182, 
  "build": 1183, 
  "expert": 1184, 
  "Constitution": 1185, 
  "transport": 1186, 
  "indicators": 1187, 
  "week": 1188, 
  "55": 1189, 
  "welcomed": 1190, 
  "central": 1191, 
  "met": 1192, 
  "Meeting": 1193, 
  "supply": 1194, 
  "core": 1195, 
  "really": 1196, 
  "mentioned": 1197, 
  "furthermore": 1198, 
  "physical": 1199, 
  "takes": 1200, 
  "sectors": 1201, 
  "parts": 1202, 
  "oil": 1203, 
  "situations": 1204, 
  "proceedings": 1205, 
  "either": 1206, 
  "points": 1207, 
  "distribution": 1208, 
  "something": 1209, 
  "efficiency": 1210, 
  "Kong": 1211, 
  "delivery": 1212, 
  "complete": 1213, 
  "step": 1214, 
  "Health": 1215, 
  "legislative": 1216, 
  "stakeholders": 1217, 
  "events": 1218, 
  "developments": 1219, 
  "65": 1220, 
  "aid": 1221, 
  "continues": 1222, 
  "combat": 1223, 
  "says": 1224, 
  "universal": 1225, 
  "comments": 1226, 
  "initiative": 1227, 
  "technologies": 1228, 
  "price": 1229, 
  "58": 1230, 
  "known": 1231, 
  "stability": 1232, 
  "average": 1233, 
  "deal": 1234, 
  "type": 1235, 
  "35": 1236, 
  "paid": 1237, 
  "collaboration": 1238, 
  "Cooperation": 1239, 
  "fund": 1240, 
  "seen": 1241, 
  "twenty": 1242, 
  "investigation": 1243, 
  "Support": 1244, 
  "claim": 1245, 
  "studies": 1246, 
  "torture": 1247, 
  "priorities": 1248, 
  "head": 1249, 
  "associated": 1250, 
  "elections": 1251, 
  "UNEP": 1252, 
  "single": 1253, 
  "intergovernmental": 1254, 
  "59": 1255, 
  "target": 1256, 
  "UNHCR": 1257, 
  "relationship": 1258, 
  "city": 1259, 
  "discussed": 1260, 
  "achieving": 1261, 
  "Korea": 1262, 
  "peaceful": 1263, 
  "ever": 1264, 
  "urban": 1265, 
  "abuse": 1266, 
  "responsibilities": 1267, 
  "Party": 1268, 
  "61": 1269, 
  "hold": 1270, 
  "goal": 1271, 
  "Public": 1272, 
  "alia": 1273, 
  "2015": 1274, 
  "fifth": 1275, 
  "Force": 1276, 
  "62": 1277, 
  "Protection": 1278, 
  "anti": 1279, 
  "relation": 1280, 
  "University": 1281, 
  "addressing": 1282, 
  "emergency": 1283, 
  "voluntary": 1284, 
  "32": 1285, 
  "ground": 1286, 
  "cause": 1287, 
  "start": 1288, 
  "encourage": 1289, 
  "identify": 1290, 
  "o": 1291, 
  "practical": 1292, 
  "citizens": 1293, 
  "c": 1294, 
  "thought": 1295, 
  "receive": 1296, 
  "conclusion": 1297, 
  "leaders": 1298, 
  "almost": 1299, 
  "recalling": 1300, 
  "Goals": 1301, 
  "64": 1302, 
  "extent": 1303, 
  "success": 1304, 
  "carry": 1305, 
  "supporting": 1306, 
  "loss": 1307, 
  "Report": 1308, 
  "went": 1309, 
  "longer": 1310, 
  "continuing": 1311, 
  "53": 1312, 
  "debate": 1313, 
  "vulnerable": 1314, 
  "border": 1315, 
  "completed": 1316, 
  "100": 1317, 
  "&apos;ve": 1318, 
  "markets": 1319, 
  "transition": 1320, 
  "external": 1321, 
  "recently": 1322, 
  "beyond": 1323, 
  "growing": 1324, 
  "34": 1325, 
  "billion": 1326, 
  "designed": 1327, 
  "lower": 1328, 
  "scientific": 1329, 
  "52": 1330, 
  "successful": 1331, 
  "invited": 1332, 
  "33": 1333, 
  "welcomes": 1334, 
  "Regional": 1335, 
  "initial": 1336, 
  "housing": 1337, 
  "reached": 1338, 
  "likely": 1339, 
  "permanent": 1340, 
  "specialized": 1341, 
  "G": 1342, 
  "though": 1343, 
  "advice": 1344, 
  "personal": 1345, 
  "63": 1346, 
  "hard": 1347, 
  "stage": 1348, 
  "establishing": 1349, 
  "periodic": 1350, 
  "&apos;@@": 1351, 
  "encouraged": 1352, 
  "48": 1353, 
  "threat": 1354, 
  "Headquarters": 1355, 
  "makes": 1356, 
  "B@@": 1357, 
  "opinion": 1358, 
  "compensation": 1359, 
  "election": 1360, 
  "religious": 1361, 
  "A@@": 1362, 
  "OF": 1363, 
  "36": 1364, 
  "moreover": 1365, 
  "maintain": 1366, 
  "partnership": 1367, 
  "al": 1368, 
  "determination": 1369, 
  "Caribbean": 1370, 
  "chapter": 1371, 
  "54": 1372, 
  "economies": 1373, 
  "reasons": 1374, 
  "France": 1375, 
  "ethnic": 1376, 
  "Afghanistan": 1377, 
  "adopt": 1378, 
  "Congo": 1379, 
  "expenditure": 1380, 
  "woman": 1381, 
  "THE": 1382, 
  "positions": 1383, 
  "task": 1384, 
  "56": 1385, 
  "Crime": 1386, 
  "proliferation": 1387, 
  "appreciation": 1388, 
  "function": 1389, 
  "female": 1390, 
  "states": 1391, 
  "units": 1392, 
  "enough": 1393, 
  "recovery": 1394, 
  "66": 1395, 
  "creation": 1396, 
  "solution": 1397, 
  "...": 1398, 
  "visit": 1399, 
  "remained": 1400, 
  "educational": 1401, 
  "Room": 1402, 
  "consensus": 1403, 
  "reason": 1404, 
  "Political": 1405, 
  "youth": 1406, 
  "co": 1407, 
  "requires": 1408, 
  "majority": 1409, 
  "follows": 1410, 
  "clearly": 1411, 
  "detailed": 1412, 
  "obligation": 1413, 
  "event": 1414, 
  "raised": 1415, 
  "finally": 1416, 
  "Environment": 1417, 
  "agency": 1418, 
  "Non": 1419, 
  "West": 1420, 
  "consultation": 1421, 
  "phase": 1422, 
  "feel": 1423, 
  "G@@": 1424, 
  "Chair": 1425, 
  "P@@": 1426, 
  "compared": 1427, 
  "statistics": 1428, 
  "serve": 1429, 
  "seek": 1430, 
  "French": 1431, 
  "tell": 1432, 
  "challenge": 1433, 
  "created": 1434, 
  "37": 1435, 
  "commercial": 1436, 
  "violation": 1437, 
  "professional": 1438, 
  "Implementation": 1439, 
  "D@@": 1440, 
  "re@@": 1441, 
  "Foreign": 1442, 
  "concluded": 1443, 
  "45": 1444, 
  "net": 1445, 
  "site": 1446, 
  "bilateral": 1447, 
  "mother": 1448, 
  "encourages": 1449, 
  "cover": 1450, 
  "terrorist": 1451, 
  "night": 1452, 
  "Islamic": 1453, 
  "road": 1454, 
  "skills": 1455, 
  "read": 1456, 
  "procurement": 1457, 
  "applicable": 1458, 
  "leadership": 1459, 
  "displaced": 1460, 
  "39": 1461, 
  "test": 1462, 
  "Disarmament": 1463, 
  "doing": 1464, 
  "North": 1465, 
  "disaster": 1466, 
  "courts": 1467, 
  "covered": 1468, 
  "accountability": 1469, 
  "sharing": 1470, 
  "Latin": 1471, 
  "prices": 1472, 
  "sufficient": 1473, 
  "sent": 1474, 
  "achievement": 1475, 
  "applications": 1476, 
  "Iran": 1477, 
  "export": 1478, 
  "suggested": 1479, 
  "Cuba": 1480, 
  "51": 1481, 
  "audit": 1482, 
  "heart": 1483, 
  "1992": 1484, 
  "UNFPA": 1485, 
  "treaties": 1486, 
  "Administrative": 1487, 
  "move": 1488, 
  "art": 1489, 
  "caused": 1490, 
  "nothing": 1491, 
  "Civil": 1492, 
  "jurisdiction": 1493, 
  "plenary": 1494, 
  "Peace": 1495, 
  ".@@": 1496, 
  "improvement": 1497, 
  "temporary": 1498, 
  "big": 1499, 
  "M@@": 1500, 
  "Germany": 1501, 
  "generally": 1502, 
  "reflected": 1503, 
  "aim": 1504, 
  "Syrian": 1505, 
  "67": 1506, 
  "avoid": 1507, 
  "K@@": 1508, 
  "history": 1509, 
  "focused": 1510, 
  "original": 1511, 
  "noting": 1512, 
  "lives": 1513, 
  "regime": 1514, 
  "destruction": 1515, 
  "approval": 1516, 
  "settlement": 1517, 
  "conclusions": 1518, 
  "offer": 1519, 
  "beginning": 1520, 
  "agricultural": 1521, 
  "consistent": 1522, 
  "Education": 1523, 
  "parents": 1524, 
  "submission": 1525, 
  "partnerships": 1526, 
  "T@@": 1527, 
  "49": 1528, 
  "duty": 1529, 
  "actors": 1530, 
  "Section": 1531, 
  "science": 1532, 
  "product": 1533, 
  "movement": 1534, 
  "mainly": 1535, 
  "run": 1536, 
  "operating": 1537, 
  "turn": 1538, 
  "Mexico": 1539, 
  "trust": 1540, 
  "tools": 1541, 
  "Optional": 1542, 
  "thing": 1543, 
  "reach": 1544, 
  "confidence": 1545, 
  "38": 1546, 
  "cash": 1547, 
  "Children": 1548, 
  "C.": 1549, 
  "weapon": 1550, 
  "Australia": 1551, 
  "judges": 1552, 
  "Middle": 1553, 
  "formal": 1554, 
  "efficient": 1555, 
  "cross": 1556, 
  "trial": 1557, 
  "monitor": 1558, 
  "respective": 1559, 
  "introduction": 1560, 
  "illegal": 1561, 
  "leading": 1562, 
  "Beijing": 1563, 
  "approaches": 1564, 
  "observations": 1565, 
  "concept": 1566, 
  "sea": 1567, 
  "Administration": 1568, 
  "began": 1569, 
  "written": 1570, 
  "presence": 1571, 
  "payment": 1572, 
  "mass": 1573, 
  "urges": 1574, 
  "criteria": 1575, 
  "implications": 1576, 
  "D": 1577, 
  "resulting": 1578, 
  "sound": 1579, 
  "sixth": 1580, 
  "In": 1581, 
  "47": 1582, 
  "heard": 1583, 
  "Vienna": 1584, 
  "t": 1585, 
  "conferences": 1586, 
  "learning": 1587, 
  "measure": 1588, 
  "negative": 1589, 
  "entry": 1590, 
  "41": 1591, 
  "contact": 1592, 
  "Federal": 1593, 
  "owing": 1594, 
  "insurance": 1595, 
  "Discrimination": 1596, 
  "useful": 1597, 
  "record": 1598, 
  "System": 1599, 
  "added": 1600, 
  "finance": 1601, 
  "decides": 1602, 
  "class": 1603, 
  "appeal": 1604, 
  "Joint": 1605, 
  "types": 1606, 
  "senior": 1607, 
  "Child": 1608, 
  "closely": 1609, 
  "All": 1610, 
  "independence": 1611, 
  "series": 1612, 
  "re": 1613, 
  "conflicts": 1614, 
  "raising": 1615, 
  "content": 1616, 
  "68": 1617, 
  "seven": 1618, 
  "transparency": 1619, 
  "industrial": 1620, 
  "involving": 1621, 
  "instrument": 1622, 
  "Association": 1623, 
  "told": 1624, 
  "44": 1625, 
  "consequences": 1626, 
  "safe": 1627, 
  "component": 1628, 
  "host": 1629, 
  "launched": 1630, 
  "a.m.": 1631, 
  "reduced": 1632, 
  "try": 1633, 
  "1990": 1634, 
  "sanctions": 1635, 
  "N@@": 1636, 
  "enterprises": 1637, 
  "damage": 1638, 
  "described": 1639, 
  "Pakistan": 1640, 
  "committee": 1641, 
  "42": 1642, 
  "sub": 1643, 
  "credit": 1644, 
  "electronic": 1645, 
  "actual": 1646, 
  "round": 1647, 
  "shown": 1648, 
  "capacities": 1649, 
  "sex": 1650, 
  "minimum": 1651, 
  "fight": 1652, 
  "complex": 1653, 
  "broad": 1654, 
  "Internet": 1655, 
  "welcome": 1656, 
  "46": 1657, 
  "God": 1658, 
  "Sustainable": 1659, 
  "nor": 1660, 
  "risks": 1661, 
  "timely": 1662, 
  "Lebanon": 1663, 
  "Brazil": 1664, 
  "advance": 1665, 
  "difficulties": 1666, 
  "forest": 1667, 
  "planned": 1668, 
  "collection": 1669, 
  "stressed": 1670, 
  "alternative": 1671, 
  "exploitation": 1672, 
  "Persons": 1673, 
  "indeed": 1674, 
  "concrete": 1675, 
  "bank": 1676, 
  "subregional": 1677, 
  "Asian": 1678, 
  "near": 1679, 
  "followed": 1680, 
  "reflect": 1681, 
  "UNIDO": 1682, 
  "understand": 1683, 
  "donors": 1684, 
  "illicit": 1685, 
  "ago": 1686, 
  "elected": 1687, 
  "competition": 1688, 
  "base": 1689, 
  "tax": 1690, 
  "lot": 1691, 
  "Countries": 1692, 
  "waste": 1693, 
  "late": 1694, 
  "ended": 1695, 
  "enhancing": 1696, 
  "father": 1697, 
  "enhanced": 1698, 
  "relief": 1699, 
  "Al": 1700, 
  "urgent": 1701, 
  "absence": 1702, 
  "causes": 1703, 
  "1991": 1704, 
  "pressure": 1705, 
  "recognition": 1706, 
  "Authority": 1707, 
  "determined": 1708, 
  "gave": 1709, 
  "L@@": 1710, 
  "Somalia": 1711, 
  "Western": 1712, 
  "true": 1713, 
  "top": 1714, 
  "determine": 1715, 
  "Bureau": 1716, 
  "registration": 1717, 
  "NGOs": 1718, 
  "increasingly": 1719, 
  "corruption": 1720, 
  "43": 1721, 
  "intended": 1722, 
  "defined": 1723, 
  "unit": 1724, 
  "aircraft": 1725, 
  "actively": 1726, 
  "fire": 1727, 
  "island": 1728, 
  "coming": 1729, 
  "membership": 1730, 
  "accounts": 1731, 
  "opening": 1732, 
  "published": 1733, 
  "prepare": 1734, 
  "medium": 1735, 
  "deployment": 1736, 
  "contributing": 1737, 
  "looking": 1738, 
  "seventh": 1739, 
  "Governing": 1740, 
  "sure": 1741, 
  "dollars": 1742, 
  "organizational": 1743, 
  "E@@": 1744, 
  "survey": 1745, 
  "languages": 1746, 
  "failure": 1747, 
  "Elimination": 1748, 
  "reducing": 1749, 
  "placed": 1750, 
  "Prevention": 1751, 
  "shared": 1752, 
  "in@@": 1753, 
  "word": 1754, 
  "accepted": 1755, 
  "documentation": 1756, 
  "immediately": 1757, 
  "extended": 1758, 
  "possibility": 1759, 
  "er": 1760, 
  "democratic": 1761, 
  "H@@": 1762, 
  "raise": 1763, 
  "Chief": 1764, 
  "rise": 1765, 
  "fair": 1766, 
  "immediate": 1767, 
  "son": 1768, 
  "attacks": 1769, 
  "assessments": 1770, 
  "definition": 1771, 
  "thank": 1772, 
  "workshops": 1773, 
  "reviewed": 1774, 
  "migration": 1775, 
  "deep": 1776, 
  "lost": 1777, 
  "accordingly": 1778, 
  "approximately": 1779, 
  "70": 1780, 
  "respond": 1781, 
  "Police": 1782, 
  "Officer": 1783, 
  "forced": 1784, 
  "civilians": 1785, 
  "discuss": 1786, 
  "prison": 1787, 
  "usually": 1788, 
  "Operations": 1789, 
  "allowed": 1790, 
  "estimates": 1791, 
  "involvement": 1792, 
  "shows": 1793, 
  "modern": 1794, 
  "Technology": 1795, 
  "instead": 1796, 
  "Territory": 1797, 
  "keeping": 1798, 
  "idea": 1799, 
  "expertise": 1800, 
  "Annex": 1801, 
  "computer": 1802, 
  "car": 1803, 
  "multi": 1804, 
  "sometimes": 1805, 
  "mean": 1806, 
  "mandates": 1807, 
  "solutions": 1808, 
  "ad": 1809, 
  "rehabilitation": 1810, 
  "saw": 1811, 
  "77": 1812, 
  "marriage": 1813, 
  "emerging": 1814, 
  "pre": 1815, 
  "sense": 1816, 
  "fields": 1817, 
  "Labour": 1818, 
  "produced": 1819, 
  "Community": 1820, 
  "strengthened": 1821, 
  "recognizing": 1822, 
  "works": 1823, 
  "mutual": 1824, 
  "workshop": 1825, 
  "Coordination": 1826, 
  "represented": 1827, 
  "gas": 1828, 
  "highest": 1829, 
  "counter": 1830, 
  "Nuclear": 1831, 
  "centre": 1832, 
  "&apos;d": 1833, 
  "eighth": 1834, 
  "options": 1835, 
  "R@@": 1836, 
  "democracy": 1837, 
  "k@@": 1838, 
  "F@@": 1839, 
  "category": 1840, 
  "recruitment": 1841, 
  "percentage": 1842, 
  "Guinea": 1843, 
  "consumption": 1844, 
  "setting": 1845, 
  "press": 1846, 
  "Egypt": 1847, 
  "banks": 1848, 
  "donor": 1849, 
  "participated": 1850, 
  "undertake": 1851, 
  "started": 1852, 
  "80": 1853, 
  "express": 1854, 
  "engaged": 1855, 
  "Strategy": 1856, 
  "values": 1857, 
  "ask": 1858, 
  "accounting": 1859, 
  "I.": 1860, 
  "specifically": 1861, 
  "racial": 1862, 
  "book": 1863, 
  "Rwanda": 1864, 
  "remaining": 1865, 
  "emphasized": 1866, 
  "places": 1867, 
  "processing": 1868, 
  "entire": 1869, 
  "urged": 1870, 
  "crucial": 1871, 
  "forty": 1872, 
  "unless": 1873, 
  "occupied": 1874, 
  "earlier": 1875, 
  "eight": 1876, 
  "direction": 1877, 
  "ninth": 1878, 
  "expression": 1879, 
  "separate": 1880, 
  "size": 1881, 
  "Kuwait": 1882, 
  "representation": 1883, 
  "inclusion": 1884, 
  "V": 1885, 
  "coordinated": 1886, 
  "governments": 1887, 
  "mine": 1888, 
  "became": 1889, 
  "alone": 1890, 
  "defence": 1891, 
  "enterprise": 1892, 
  "ready": 1893, 
  "s@@": 1894, 
  "Vice": 1895, 
  "considering": 1896, 
  "h": 1897, 
  "refugee": 1898, 
  "charge": 1899, 
  "O@@": 1900, 
  "guarantee": 1901, 
  "speaking": 1902, 
  "friends": 1903, 
  "subprogramme": 1904, 
  "records": 1905, 
  "l": 1906, 
  "stop": 1907, 
  "learned": 1908, 
  "resulted": 1909, 
  "affect": 1910, 
  "Palestine": 1911, 
  "everyone": 1912, 
  "highly": 1913, 
  "morning": 1914, 
  "dealing": 1915, 
  "Legal": 1916, 
  "targets": 1917, 
  "origin": 1918, 
  "rest": 1919, 
  "figure": 1920, 
  "emphasis": 1921, 
  "findings": 1922, 
  "observers": 1923, 
  "Kosovo": 1924, 
  "affairs": 1925, 
  "imposed": 1926, 
  "headquarters": 1927, 
  "departments": 1928, 
  "occupation": 1929, 
  "Add.1": 1930, 
  "chemical": 1931, 
  "networks": 1932, 
  "conventions": 1933, 
  "behind": 1934, 
  "combating": 1935, 
  "C@@": 1936, 
  "himself": 1937, 
  "produce": 1938, 
  "69": 1939, 
  "Policy": 1940, 
  "Other": 1941, 
  "Second": 1942, 
  "cooperate": 1943, 
  "holding": 1944, 
  "agriculture": 1945, 
  "W@@": 1946, 
  "assess": 1947, 
  "users": 1948, 
  "easy": 1949, 
  "influence": 1950, 
  "didn": 1951, 
  "Rules": 1952, 
  "OHCHR": 1953, 
  "closed": 1954, 
  "structures": 1955, 
  "perspective": 1956, 
  "details": 1957, 
  "subsequent": 1958, 
  "v.": 1959, 
  "statistical": 1960, 
  "ratification": 1961, 
  "components": 1962, 
  "participating": 1963, 
  "Mr": 1964, 
  "constitute": 1965, 
  "threats": 1966, 
  "responses": 1967, 
  "quite": 1968, 
  "regulation": 1969, 
  "contributed": 1970, 
  "learn": 1971, 
  "creating": 1972, 
  "e@@": 1973, 
  "requirement": 1974, 
  "offences": 1975, 
  "daily": 1976, 
  "tool": 1977, 
  "aware": 1978, 
  "&amp;": 1979, 
  "indicate": 1980, 
  "page": 1981, 
  "respectively": 1982, 
  "appointed": 1983, 
  "Indonesia": 1984, 
  "organs": 1985, 
  "disease": 1986, 
  "enjoy": 1987, 
  "felt": 1988, 
  "listed": 1989, 
  "Islands": 1990, 
  "Liberia": 1991, 
  "background": 1992, 
  "contains": 1993, 
  "secondary": 1994, 
  "collective": 1995, 
  "website": 1996, 
  "grounds": 1997, 
  "faced": 1998, 
  "Turkey": 1999, 
  "uses": 2000, 
  "eyes": 2001, 
  "integrity": 2002, 
  "observed": 2003, 
  "interested": 2004, 
  "floor": 2005, 
  "girl": 2006, 
  "factor": 2007, 
  "won": 2008, 
  "fall": 2009, 
  "contracts": 2010, 
  "reforms": 2011, 
  "degree": 2012, 
  "eliminate": 2013, 
  "worked": 2014, 
  "internationally": 2015, 
  "executive": 2016, 
  "freedoms": 2017, 
  "trends": 2018, 
  "spirit": 2019, 
  "highlighted": 2020, 
  "weeks": 2021, 
  "candidates": 2022, 
  "tasks": 2023, 
  "fuel": 2024, 
  "looked": 2025, 
  "speak": 2026, 
  "Ireland": 2027, 
  "cut": 2028, 
  "examination": 2029, 
  "honour": 2030, 
  "recorded": 2031, 
  "wife": 2032, 
  "authorized": 2033, 
  "offered": 2034, 
  "limit": 2035, 
  "interpretation": 2036, 
  "Italy": 2037, 
  "campaign": 2038, 
  "Territories": 2039, 
  "90": 2040, 
  "otherwise": 2041, 
  "significantly": 2042, 
  "bad": 2043, 
  "entered": 2044, 
  "Agenda": 2045, 
  "trying": 2046, 
  "whom": 2047, 
  "zone": 2048, 
  "actually": 2049, 
  "appointment": 2050, 
  "visits": 2051, 
  "investigations": 2052, 
  "courses": 2053, 
  "VI": 2054, 
  "AND": 2055, 
  "outcomes": 2056, 
  "declaration": 2057, 
  "Sierra": 2058, 
  "lessons": 2059, 
  "I@@": 2060, 
  "drugs": 2061, 
  "expenditures": 2062, 
  "played": 2063, 
  "giving": 2064, 
  "sought": 2065, 
  "existence": 2066, 
  "m": 2067, 
  "gross": 2068, 
  "Framework": 2069, 
  "Weapons": 2070, 
  "Ambassador": 2071, 
  "recognize": 2072, 
  "Experts": 2073, 
  "registered": 2074, 
  "identification": 2075, 
  "completion": 2076, 
  "alleged": 2077, 
  "punishment": 2078, 
  "namely": 2079, 
  "Research": 2080, 
  "condition": 2081, 
  "migrants": 2082, 
  "widely": 2083, 
  "software": 2084, 
  "accept": 2085, 
  "secure": 2086, 
  "substantial": 2087, 
  "3@@": 2088, 
  "allegations": 2089, 
  "institution": 2090, 
  "Assistance": 2091, 
  "thematic": 2092, 
  "First": 2093, 
  "except": 2094, 
  "Spain": 2095, 
  "agree": 2096, 
  "vehicles": 2097, 
  "employees": 2098, 
  "inform": 2099, 
  "experiences": 2100, 
  "sites": 2101, 
  "en": 2102, 
  "considers": 2103, 
  "categories": 2104, 
  "ill": 2105, 
  "rapid": 2106, 
  "Switzerland": 2107, 
  "nations": 2108, 
  "spoke": 2109, 
  "D.": 2110, 
  "anything": 2111, 
  "engage": 2112, 
  "seems": 2113, 
  "outstanding": 2114, 
  "percent": 2115, 
  "Space": 2116, 
  "element": 2117, 
  "diseases": 2118, 
  "Chamber": 2119, 
  "cycle": 2120, 
  "etc": 2121, 
  "failed": 2122, 
  "Peacekeeping": 2123, 
  "obtained": 2124, 
  "minorities": 2125, 
  "strongly": 2126, 
  "complaints": 2127, 
  "century": 2128, 
  "COP": 2129, 
  "y@@": 2130, 
  "marine": 2131, 
  "EU": 2132, 
  "4@@": 2133, 
  "granted": 2134, 
  "considerable": 2135, 
  "extend": 2136, 
  "proper": 2137, 
  "hear": 2138, 
  "release": 2139, 
  "religion": 2140, 
  "V@@": 2141, 
  "seeking": 2142, 
  "everything": 2143, 
  "database": 2144, 
  "availability": 2145, 
  "comes": 2146, 
  "y": 2147, 
  "moment": 2148, 
  "obtain": 2149, 
  "funded": 2150, 
  "forum": 2151, 
  "supports": 2152, 
  "inclusive": 2153, 
  "Zealand": 2154, 
  "vital": 2155, 
  "hands": 2156, 
  "strength": 2157, 
  "owned": 2158, 
  "Leone": 2159, 
  "teaching": 2160, 
  "thirty": 2161, 
  "stay": 2162, 
  "IAEA": 2163, 
  "Cultural": 2164, 
  "presentation": 2165, 
  "flow": 2166, 
  "begin": 2167, 
  "stand": 2168, 
  "consent": 2169, 
  "talk": 2170, 
  "delay": 2171, 
  "advisory": 2172, 
  "Netherlands": 2173, 
  "traffic": 2174, 
  "selected": 2175, 
  "facing": 2176, 
  "Argentina": 2177, 
  "simple": 2178, 
  "Chairperson": 2179, 
  "previously": 2180, 
  "territories": 2181, 
  "J@@": 2182, 
  "Haiti": 2183, 
  "teachers": 2184, 
  "Gaza": 2185, 
  "electoral": 2186, 
  "norms": 2187, 
  "Great": 2188, 
  "payments": 2189, 
  "functioning": 2190, 
  "Deputy": 2191, 
  "topic": 2192, 
  "mail": 2193, 
  "theme": 2194, 
  "Parliament": 2195, 
  "preventing": 2196, 
  "supplies": 2197, 
  "speakers": 2198, 
  "5@@": 2199, 
  "Norway": 2200, 
  "territorial": 2201, 
  "decide": 2202, 
  "someone": 2203, 
  "door": 2204, 
  "emissions": 2205, 
  "attack": 2206, 
  "Bosnia": 2207, 
  "Ministers": 2208, 
  "writing": 2209, 
  "amendments": 2210, 
  "globalization": 2211, 
  "yes": 2212, 
  "competent": 2213, 
  "populations": 2214, 
  "news": 2215, 
  "maintained": 2216, 
  "75": 2217, 
  "regulatory": 2218, 
  "killed": 2219, 
  "concluding": 2220, 
  "dissemination": 2221, 
  "Financial": 2222, 
  "Fifth": 2223, 
  "reproductive": 2224, 
  "linked": 2225, 
  "cities": 2226, 
  "Control": 2227, 
  "teams": 2228, 
  "stock": 2229, 
  "numbers": 2230, 
  "exist": 2231, 
  "00": 2232, 
  "losses": 2233, 
  "Congress": 2234, 
  "enter": 2235, 
  "pointed": 2236, 
  "decrease": 2237, 
  "jobs": 2238, 
  "instance": 2239, 
  "differences": 2240, 
  "trend": 2241, 
  "opened": 2242, 
  "subsequently": 2243, 
  "front": 2244, 
  "unable": 2245, 
  "engagement": 2246, 
  "victim": 2247, 
  "numerous": 2248, 
  "sovereignty": 2249, 
  "minority": 2250, 
  "expansion": 2251, 
  "Burundi": 2252, 
  "code": 2253, 
  "amounts": 2254, 
  "containing": 2255, 
  "largest": 2256, 
  "coverage": 2257, 
  "Cyprus": 2258, 
  "carrying": 2259, 
  "bearing": 2260, 
  "Field": 2261, 
  "inside": 2262, 
  "diplomatic": 2263, 
  "subsidiary": 2264, 
  "specified": 2265, 
  "targeted": 2266, 
  "investments": 2267, 
  "It": 2268, 
  "O": 2269, 
  "restrictions": 2270, 
  "expenses": 2271, 
  "standing": 2272, 
  "oversight": 2273, 
  "nationality": 2274, 
  "identity": 2275, 
  "o@@": 2276, 
  "realization": 2277, 
  "search": 2278, 
  "examples": 2279, 
  "characteristics": 2280, 
  "British": 2281, 
  "convened": 2282, 
  "Yugoslavia": 2283, 
  "draw": 2284, 
  "reintegration": 2285, 
  "ten": 2286, 
  "located": 2287, 
  "built": 2288, 
  "theory": 2289, 
  "showed": 2290, 
  "Gender": 2291, 
  "constitutional": 2292, 
  "nearly": 2293, 
  "nevertheless": 2294, 
  "flows": 2295, 
  "maximum": 2296, 
  "Habitat": 2297, 
  "contents": 2298, 
  "disability": 2299, 
  "formulation": 2300, 
  "add": 2301, 
  "complainant": 2302, 
  "sentence": 2303, 
  "ate": 2304, 
  "advanced": 2305, 
  "board": 2306, 
  "sustained": 2307, 
  "Assistant": 2308, 
  "Prosecutor": 2309, 
  "nation": 2310, 
  "announced": 2311, 
  "n": 2312, 
  "aims": 2313, 
  "heavy": 2314, 
  "Darfur": 2315, 
  "Lebanese": 2316, 
  "reconciliation": 2317, 
  "combined": 2318, 
  "latest": 2319, 
  "Year": 2320, 
  "advantage": 2321, 
  "delivered": 2322, 
  "recognizes": 2323, 
  "enjoyment": 2324, 
  "comply": 2325, 
  "older": 2326, 
  "elimination": 2327, 
  "sign": 2328, 
  "firm": 2329, 
  "Technical": 2330, 
  "Herzegovina": 2331, 
  "updated": 2332, 
  "red": 2333, 
  "fulfil": 2334, 
  "mortality": 2335, 
  "es": 2336, 
  "birth": 2337, 
  "simply": 2338, 
  "reservations": 2339, 
  "Decade": 2340, 
  "ideas": 2341, 
  "endorsed": 2342, 
  "maintaining": 2343, 
  "happy": 2344, 
  "satisfaction": 2345, 
  "confirmed": 2346, 
  "judge": 2347, 
  "encouraging": 2348, 
  "i@@": 2349, 
  "Nigeria": 2350, 
  "al@@": 2351, 
  "friend": 2352, 
  "unemployment": 2353, 
  "online": 2354, 
  "&apos;Ivoire": 2355, 
  "ownership": 2356, 
  "expresses": 2357, 
  "surface": 2358, 
  "white": 2359, 
  "troops": 2360, 
  "minutes": 2361, 
  "Third": 2362, 
  "guide": 2363, 
  "internally": 2364, 
  "Prime": 2365, 
  "nine": 2366, 
  "reasonable": 2367, 
  "offence": 2368, 
  "d@@": 2369, 
  "worldwide": 2370, 
  "Day": 2371, 
  "Supreme": 2372, 
  "duties": 2373, 
  "wishes": 2374, 
  "Colombia": 2375, 
  "disasters": 2376, 
  "budgetary": 2377, 
  "preliminary": 2378, 
  "allocation": 2379, 
  "Population": 2380, 
  "cold": 2381, 
  "mental": 2382, 
  "arising": 2383, 
  "object": 2384, 
  "paras": 2385, 
  "rich": 2386, 
  "assessed": 2387, 
  "governing": 2388, 
  "choice": 2389, 
  "enabling": 2390, 
  "_": 2391, 
  "Food": 2392, 
  "sale": 2393, 
  "Ukraine": 2394, 
  "initiated": 2395, 
  "equitable": 2396, 
  "frameworks": 2397, 
  "ratified": 2398, 
  "a@@": 2399, 
  "answer": 2400, 
  "stress": 2401, 
  "quickly": 2402, 
  "Ethiopia": 2403, 
  "getting": 2404, 
  "link": 2405, 
  "Training": 2406, 
  "technological": 2407, 
  "Northern": 2408, 
  "green": 2409, 
  "character": 2410, 
  "Sea": 2411, 
  "sensitive": 2412, 
  "systematic": 2413, 
  "perhaps": 2414, 
  "program": 2415, 
  "primarily": 2416, 
  "amended": 2417, 
  "UNODC": 2418, 
  "buy": 2419, 
  "appear": 2420, 
  "mainstreaming": 2421, 
  "latter": 2422, 
  "wanted": 2423, 
  "receiving": 2424, 
  "ILO": 2425, 
  "Côte": 2426, 
  "convention": 2427, 
  "tried": 2428, 
  "attend": 2429, 
  "heads": 2430, 
  "investigate": 2431, 
  "protected": 2432, 
  "names": 2433, 
  "generation": 2434, 
  "asylum": 2435, 
  "diversity": 2436, 
  "blood": 2437, 
  "achievements": 2438, 
  "principal": 2439, 
  "amendment": 2440, 
  "option": 2441, 
  "stations": 2442, 
  "t@@": 2443, 
  "Sweden": 2444, 
  "designated": 2445, 
  "estimate": 2446, 
  "outer": 2447, 
  "verification": 2448, 
  "sales": 2449, 
  "proportion": 2450, 
  "favour": 2451, 
  "department": 2452, 
  "location": 2453, 
  "Britain": 2454, 
  "And": 2455, 
  "lines": 2456, 
  "selection": 2457, 
  "transportation": 2458, 
  "ones": 2459, 
  "Inter": 2460, 
  "changed": 2461, 
  "changing": 2462, 
  "middle": 2463, 
  "thousands": 2464, 
  "eradication": 2465, 
  "unique": 2466, 
  "productive": 2467, 
  "accused": 2468, 
  "attended": 2469, 
  "kept": 2470, 
  "normal": 2471, 
  "preparing": 2472, 
  "publications": 2473, 
  "contain": 2474, 
  "pending": 2475, 
  "returned": 2476, 
  "Trust": 2477, 
  "protecting": 2478, 
  "g@@": 2479, 
  "n@@": 2480, 
  "Humanitarian": 2481, 
  "invites": 2482, 
  "FAO": 2483, 
  "penalty": 2484, 
  "Monday": 2485, 
  "station": 2486, 
  "occurred": 2487, 
  "fixed": 2488, 
  "incidents": 2489, 
  "Morocco": 2490, 
  "prosecution": 2491, 
  "resolve": 2492, 
  "publication": 2493, 
  "believes": 2494, 
  "sustainability": 2495, 
  "Internal": 2496, 
  "difference": 2497, 
  "seem": 2498, 
  "corporate": 2499, 
  "partner": 2500, 
  "Spanish": 2501, 
  "empowerment": 2502, 
  "6@@": 2503, 
  "race": 2504, 
  "fine": 2505, 
  "figures": 2506, 
  "helped": 2507, 
  "commissions": 2508, 
  "gap": 2509, 
  "ing": 2510, 
  "impacts": 2511, 
  "binding": 2512, 
  "multiple": 2513, 
  "Fourth": 2514, 
  "Regulations": 2515, 
  "thereby": 2516, 
  "an@@": 2517, 
  "drafting": 2518, 
  "racism": 2519, 
  "forth": 2520, 
  "send": 2521, 
  "chemicals": 2522, 
  "hour": 2523, 
  "finding": 2524, 
  "examine": 2525, 
  "acting": 2526, 
  "ed": 2527, 
  "Staff": 2528, 
  "structural": 2529, 
  "relatively": 2530, 
  "pursue": 2531, 
  "clean": 2532, 
  "transparent": 2533, 
  "k": 2534, 
  "variety": 2535, 
  "entity": 2536, 
  "UNESCO": 2537, 
  "geographical": 2538, 
  "commission": 2539, 
  "managers": 2540, 
  "represent": 2541, 
  "Friday": 2542, 
  "Eastern": 2543, 
  "9@@": 2544, 
  "hoped": 2545, 
  "becoming": 2546, 
  "facilitating": 2547, 
  "improvements": 2548, 
  "user": 2549, 
  "observer": 2550, 
  "fear": 2551, 
  "speed": 2552, 
  "formed": 2553, 
  "allocated": 2554, 
  "gives": 2555, 
  "innovative": 2556, 
  "exports": 2557, 
  "spread": 2558, 
  "ICT": 2559, 
  "patients": 2560, 
  "neither": 2561, 
  "refer": 2562, 
  "trading": 2563, 
  "Questions": 2564, 
  "saying": 2565, 
  "arrest": 2566, 
  "adaptation": 2567, 
  "join": 2568, 
  "regularly": 2569, 
  "increases": 2570, 
  "passed": 2571, 
  "Initiative": 2572, 
  "obstacles": 2573, 
  "Kenya": 2574, 
  "drawn": 2575, 
  "manage": 2576, 
  "controls": 2577, 
  "Azerbaijan": 2578, 
  "voice": 2579, 
  "sides": 2580, 
  "Thailand": 2581, 
  "socio": 2582, 
  "boy": 2583, 
  "committees": 2584, 
  "extensive": 2585, 
  "fish": 2586, 
  "released": 2587, 
  "Indigenous": 2588, 
  "born": 2589, 
  "dispute": 2590, 
  "liability": 2591, 
  "preparatory": 2592, 
  "Uganda": 2593, 
  "believed": 2594, 
  "boys": 2595, 
  "reconstruction": 2596, 
  "reviews": 2597, 
  "intention": 2598, 
  "U@@": 2599, 
  "charges": 2600, 
  "jointly": 2601, 
  "tourism": 2602, 
  "10@@": 2603, 
  "El": 2604, 
  "scheduled": 2605, 
  "examined": 2606, 
  "game": 2607, 
  "pilot": 2608, 
  "reservation": 2609, 
  "vision": 2610, 
  "coordinate": 2611, 
  "yourself": 2612, 
  "conformity": 2613, 
  "Principles": 2614, 
  "turned": 2615, 
  "CEDAW": 2616, 
  "affecting": 2617, 
  "savings": 2618, 
  "Members": 2619, 
  "message": 2620, 
  "vehicle": 2621, 
  "g": 2622, 
  "identifying": 2623, 
  "extension": 2624, 
  "radio": 2625, 
  "et": 2626, 
  "web": 2627, 
  "Y@@": 2628, 
  "attempt": 2629, 
  "suffering": 2630, 
  "Subcommittee": 2631, 
  "leaving": 2632, 
  "73": 2633, 
  "2@@": 2634, 
  "attached": 2635, 
  "town": 2636, 
  "Terrorism": 2637, 
  "plant": 2638, 
  "transit": 2639, 
  "Myanmar": 2640, 
  "powers": 2641, 
  "burden": 2642, 
  "prisoners": 2643, 
  "constraints": 2644, 
  "interim": 2645, 
  "male": 2646, 
  "write": 2647, 
  "declared": 2648, 
  "=": 2649, 
  "version": 2650, 
  "Resources": 2651, 
  "expand": 2652, 
  "testing": 2653, 
  "transactions": 2654, 
  "Chile": 2655, 
  "perform": 2656, 
  "e.g.": 2657, 
  "Under": 2658, 
  "image": 2659, 
  "legitimate": 2660, 
  "beautiful": 2661, 
  "check": 2662, 
  "expanded": 2663, 
  "violated": 2664, 
  "Iraqi": 2665, 
  "substances": 2666, 
  "Paris": 2667, 
  "preventive": 2668, 
  "mines": 2669, 
  "ers": 2670, 
  "schedule": 2671, 
  "Philippines": 2672, 
  "remember": 2673, 
  "demands": 2674, 
  "R": 2675, 
  "Status": 2676, 
  "rose": 2677, 
  "migrant": 2678, 
  "notice": 2679, 
  "choose": 2680, 
  "Z@@": 2681, 
  "VII": 2682, 
  "200": 2683, 
  "Jerusalem": 2684, 
  "employed": 2685, 
  "sanitation": 2686, 
  "remedies": 2687, 
  "disputes": 2688, 
  "capabilities": 2689, 
  "stable": 2690, 
  "discriminatory": 2691, 
  "bringing": 2692, 
  "Lord": 2693, 
  "Energy": 2694, 
  "teacher": 2695, 
  "letters": 2696, 
  "satellite": 2697, 
  "grave": 2698, 
  "managed": 2699, 
  "severe": 2700, 
  "His": 2701, 
  "fell": 2702, 
  "reiterates": 2703, 
  "thanks": 2704, 
  "links": 2705, 
  "constructive": 2706, 
  "troop": 2707, 
  "Oh": 2708, 
  "Refugees": 2709, 
  "advocacy": 2710, 
  "served": 2711, 
  "consultative": 2712, 
  "72": 2713, 
  "Algeria": 2714, 
  "husband": 2715, 
  "thinking": 2716, 
  "Power": 2717, 
  "Georgia": 2718, 
  "black": 2719, 
  "safeguards": 2720, 
  "You": 2721, 
  "soldiers": 2722, 
  "+": 2723, 
  "reiterated": 2724, 
  "books": 2725, 
  "extreme": 2726, 
  "ship": 2727, 
  "train": 2728, 
  "monthly": 2729, 
  "recalled": 2730, 
  "sets": 2731, 
  "grant": 2732, 
  "meaning": 2733, 
  "City": 2734, 
  "arrested": 2735, 
  "C.2": 2736, 
  "z@@": 2737, 
  "Drugs": 2738, 
  "trained": 2739, 
  "Timor": 2740, 
  "innovation": 2741, 
  "abroad": 2742, 
  "71": 2743, 
  "Project": 2744, 
  "valuable": 2745, 
  "appears": 2746, 
  "joined": 2747, 
  "OIOS": 2748, 
  "pollution": 2749, 
  "extremely": 2750, 
  "customs": 2751, 
  "focal": 2752, 
  "fast": 2753, 
  "NPT": 2754, 
  "doesn": 2755, 
  "covering": 2756, 
  "guarantees": 2757, 
  "eat": 2758, 
  "inspection": 2759, 
  "master": 2760, 
  "reaffirming": 2761, 
  "largely": 2762, 
  "reality": 2763, 
  "currency": 2764, 
  "launch": 2765, 
  "composition": 2766, 
  "represents": 2767, 
  "facts": 2768, 
  "perpetrators": 2769, 
  "explained": 2770, 
  "bear": 2771, 
  "London": 2772, 
  "reading": 2773, 
  "staffing": 2774, 
  "looks": 2775, 
  "j@@": 2776, 
  "adjustment": 2777, 
  "explore": 2778, 
  "Austria": 2779, 
  "Forces": 2780, 
  "Family": 2781, 
  "map": 2782, 
  "roles": 2783, 
  "music": 2784, 
  "welfare": 2785, 
  "truth": 2786, 
  "Network": 2787, 
  "moving": 2788, 
  "reply": 2789, 
  "probably": 2790, 
  "update": 2791, 
  "dis@@": 2792, 
  "Forms": 2793, 
  "volume": 2794, 
  "programming": 2795, 
  "er@@": 2796, 
  "treated": 2797, 
  "spent": 2798, 
  "ar@@": 2799, 
  "scheme": 2800, 
  "distributed": 2801, 
  "wall": 2802, 
  "easily": 2803, 
  "comment": 2804, 
  "settlements": 2805, 
  "indicates": 2806, 
  "ahead": 2807, 
  "methodology": 2808, 
  "break": 2809, 
  "panel": 2810, 
  "offers": 2811, 
  "reaching": 2812, 
  "running": 2813, 
  "earth": 2814, 
  "campaigns": 2815, 
  "authors": 2816, 
  "asset": 2817, 
  "dignity": 2818, 
  "p@@": 2819, 
  "Saudi": 2820, 
  "starting": 2821, 
  "7@@": 2822, 
  "Partnership": 2823, 
  "worth": 2824, 
  "Malaysia": 2825, 
  "judiciary": 2826, 
  "decade": 2827, 
  "machine": 2828, 
  "Bangladesh": 2829, 
  "Scientific": 2830, 
  "larger": 2831, 
  "south": 2832, 
  "permit": 2833, 
  "king": 2834, 
  "acceptance": 2835, 
  "experienced": 2836, 
  "Jordan": 2837, 
  "contrary": 2838, 
  "story": 2839, 
  "Coordinator": 2840, 
  "Monitoring": 2841, 
  "academic": 2842, 
  "remote": 2843, 
  "limits": 2844, 
  "reaffirms": 2845, 
  "file": 2846, 
  "wrong": 2847, 
  "seriously": 2848, 
  "stresses": 2849, 
  "Budgetary": 2850, 
  "features": 2851, 
  "mandated": 2852, 
  "district": 2853, 
  "Task": 2854, 
  "transmitted": 2855, 
  "76": 2856, 
  "seminars": 2857, 
  "Foundation": 2858, 
  "introduce": 2859, 
  "humanity": 2860, 
  "weight": 2861, 
  "television": 2862, 
  "Nairobi": 2863, 
  "Tuesday": 2864, 
  "investors": 2865, 
  "broader": 2866, 
  "Belarus": 2867, 
  "village": 2868, 
  "import": 2869, 
  "overcome": 2870, 
  "b@@": 2871, 
  "WTO": 2872, 
  "E.": 2873, 
  "locations": 2874, 
  "helping": 2875, 
  "decline": 2876, 
  "decades": 2877, 
  "fiscal": 2878, 
  "equity": 2879, 
  "welcoming": 2880, 
  "belief": 2881, 
  "bit": 2882, 
  "Thursday": 2883, 
  "gold": 2884, 
  "John": 2885, 
  "periods": 2886, 
  "suffered": 2887, 
  "storage": 2888, 
  "techniques": 2889, 
  "f@@": 2890, 
  "dangerous": 2891, 
  "impunity": 2892, 
  "demonstrated": 2893, 
  "utilization": 2894, 
  "deeply": 2895, 
  "north": 2896, 
  "Russia": 2897, 
  "mobile": 2898, 
  "consequently": 2899, 
  "officer": 2900, 
  "assigned": 2901, 
  "74": 2902, 
  "On": 2903, 
  "goes": 2904, 
  "reflects": 2905, 
  "coordinating": 2906, 
  "hoc": 2907, 
  "He": 2908, 
  "assisting": 2909, 
  "involve": 2910, 
  "track": 2911, 
  "gaps": 2912, 
  "carbon": 2913, 
  "salary": 2914, 
  "Wednesday": 2915, 
  "continuous": 2916, 
  "85": 2917, 
  "fighting": 2918, 
  "outlined": 2919, 
  "Peoples": 2920, 
  "performed": 2921, 
  "knew": 2922, 
  "Statute": 2923, 
  "vulnerability": 2924, 
  "bed": 2925, 
  "greatly": 2926, 
  "Movement": 2927, 
  "associations": 2928, 
  "studied": 2929, 
  "complaint": 2930, 
  "LDCs": 2931, 
  "anyone": 2932, 
  "double": 2933, 
  "enemy": 2934, 
  "depth": 2935, 
  "imprisonment": 2936, 
  "chance": 2937, 
  "cutting": 2938, 
  "seemed": 2939, 
  "78": 2940, 
  "career": 2941, 
  "association": 2942, 
  "engineering": 2943, 
  "C.3": 2944, 
  "sections": 2945, 
  "Earth": 2946, 
  "en@@": 2947, 
  "resumed": 2948, 
  "acquisition": 2949, 
  "ar": 2950, 
  "transferred": 2951, 
  "arbitrary": 2952, 
  "UNOPS": 2953, 
  "biological": 2954, 
  "Mechanism": 2955, 
  "Planning": 2956, 
  "budgets": 2957, 
  "focusing": 2958, 
  "serving": 2959, 
  "l@@": 2960, 
  "Safety": 2961, 
  "none": 2962, 
  "mining": 2963, 
  "topics": 2964, 
  "papers": 2965, 
  "u@@": 2966, 
  "Croatia": 2967, 
  "directed": 2968, 
  "output": 2969, 
  "oriented": 2970, 
  "hot": 2971, 
  "subjected": 2972, 
  "WHO": 2973, 
  "president": 2974, 
  "Southern": 2975, 
  "else": 2976, 
  "similarly": 2977, 
  "controlled": 2978, 
  "1.@@": 2979, 
  "Peru": 2980, 
  "modalities": 2981, 
  "deliver": 2982, 
  "recommend": 2983, 
  "on@@": 2984, 
  "warning": 2985, 
  "briefing": 2986, 
  "Expert": 2987, 
  "ch@@": 2988, 
  "bill": 2989, 
  "di@@": 2990, 
  "Finland": 2991, 
  "deliberations": 2992, 
  "la": 2993, 
  "mid": 2994, 
  "pleased": 2995, 
  "mobilization": 2996, 
  "relative": 2997, 
  "historical": 2998, 
  "southern": 2999, 
  "equally": 3000, 
  "weather": 3001, 
  "95": 3002, 
  "foundation": 3003, 
  "widespread": 3004, 
  "suitable": 3005, 
  "buildings": 3006, 
  "8@@": 3007, 
  "detained": 3008, 
  "talks": 3009, 
  "appeals": 3010, 
  "Eritrea": 3011, 
  "friendly": 3012, 
  "insufficient": 3013, 
  "coherence": 3014, 
  "platform": 3015, 
  "popular": 3016, 
  "models": 3017, 
  "aged": 3018, 
  "h@@": 3019, 
  "dead": 3020, 
  "operate": 3021, 
  "Professional": 3022, 
  "charged": 3023, 
  "Universal": 3024, 
  "hospital": 3025, 
  "el": 3026, 
  "street": 3027, 
  "premises": 3028, 
  "pattern": 3029, 
  "X": 3030, 
  "prostitution": 3031, 
  "legally": 3032, 
  "seminar": 3033, 
  "gone": 3034, 
  "preparations": 3035, 
  "solidarity": 3036, 
  "societies": 3037, 
  "competitive": 3038, 
  "deployed": 3039, 
  "regards": 3040, 
  "Science": 3041, 
  "balanced": 3042, 
  "evaluate": 3043, 
  "maternal": 3044, 
  "temperature": 3045, 
  "allows": 3046, 
  "segment": 3047, 
  "hearing": 3048, 
  "p": 3049, 
  "x": 3050, 
  "bound": 3051, 
  "army": 3052, 
  "ic": 3053, 
  "Strategic": 3054, 
  "relevance": 3055, 
  "Sri": 3056, 
  "speech": 3057, 
  "opposition": 3058, 
  "Independent": 3059, 
  "intervention": 3060, 
  "CN.4": 3061, 
  "federal": 3062, 
  "i.e.": 3063, 
  "Statistics": 3064, 
  "invitation": 3065, 
  "orders": 3066, 
  "completely": 3067, 
  "Cambodia": 3068, 
  "quarter": 3069, 
  "reaffirmed": 3070, 
  "substance": 3071, 
  "constitutes": 3072, 
  "replace": 3073, 
  "M": 3074, 
  "certainly": 3075, 
  "household": 3076, 
  "c@@": 3077, 
  "purchase": 3078, 
  "grow": 3079, 
  "soil": 3080, 
  "farmers": 3081, 
  "dealt": 3082, 
  "witnesses": 3083, 
  "Torture": 3084, 
  "oral": 3085, 
  "corresponding": 3086, 
  "box": 3087, 
  "T": 3088, 
  "interventions": 3089, 
  "rising": 3090, 
  "UNRWA": 3091, 
  "student": 3092, 
  "lasting": 3093, 
  "disabled": 3094, 
  "digital": 3095, 
  "Preparatory": 3096, 
  "Angola": 3097, 
  "airspace": 3098, 
  "commodity": 3099, 
  "&gt;": 3100, 
  "2.@@": 3101, 
  "card": 3102, 
  "overview": 3103, 
  "foster": 3104, 
  "calling": 3105, 
  "wished": 3106, 
  "prohibited": 3107, 
  "disposal": 3108, 
  "doubt": 3109, 
  "anniversary": 3110, 
  "functional": 3111, 
  "slow": 3112, 
  "98": 3113, 
  "convinced": 3114, 
  "path": 3115, 
  "resident": 3116, 
  "Nepal": 3117, 
  "conventional": 3118, 
  "competence": 3119, 
  "suggestions": 3120, 
  "Ministerial": 3121, 
  "posed": 3122, 
  "Guatemala": 3123, 
  "cluster": 3124, 
  "conservation": 3125, 
  "greatest": 3126, 
  "danger": 3127, 
  "promoted": 3128, 
  "dynamic": 3129, 
  "recalls": 3130, 
  "Poland": 3131, 
  "U.S.": 3132, 
  "inventory": 3133, 
  "Turkish": 3134, 
  "input": 3135, 
  "pass": 3136, 
  "gain": 3137, 
  "Platform": 3138, 
  "visited": 3139, 
  "successfully": 3140, 
  "died": 3141, 
  "execution": 3142, 
  "L": 3143, 
  "Comprehensive": 3144, 
  "advancement": 3145, 
  "reliable": 3146, 
  "newly": 3147, 
  "81": 3148, 
  "hit": 3149, 
  "homes": 3150, 
  "sponsors": 3151, 
  "properly": 3152, 
  "wind": 3153, 
  "voting": 3154, 
  "m@@": 3155, 
  "picture": 3156, 
  "counsel": 3157, 
  "In@@": 3158, 
  "save": 3159, 
  "Society": 3160, 
  "harm": 3161, 
  "or@@": 3162, 
  "nationals": 3163, 
  "79": 3164, 
  "spending": 3165, 
  "productivity": 3166, 
  "Financing": 3167, 
  "university": 3168, 
  "u": 3169, 
  "stocks": 3170, 
  "1@@": 3171, 
  "faith": 3172, 
  "fishing": 3173, 
  "accessible": 3174, 
  "barriers": 3175, 
  "emphasizes": 3176, 
  "camps": 3177, 
  "objects": 3178, 
  "drawing": 3179, 
  "unilateral": 3180, 
  "embargo": 3181, 
  "envisaged": 3182, 
  "healthy": 3183, 
  "vocational": 3184, 
  "summer": 3185, 
  "copies": 3186, 
  "NGO": 3187, 
  "82": 3188, 
  "Excellency": 3189, 
  "becomes": 3190, 
  "liberty": 3191, 
  "German": 3192, 
  "Japanese": 3193, 
  "Peacebuilding": 3194, 
  "pension": 3195, 
  "ex": 3196, 
  "explain": 3197, 
  "rapidly": 3198, 
  "intellectual": 3199, 
  "supervision": 3200, 
  "moved": 3201, 
  "industries": 3202, 
  "wider": 3203, 
  "GDP": 3204, 
  "No": 3205, 
  "film": 3206, 
  "patterns": 3207, 
  "Czech": 3208, 
  "rape": 3209, 
  "inadequate": 3210, 
  "yesterday": 3211, 
  "conducting": 3212, 
  "inflation": 3213, 
  "acknowledged": 3214, 
  "playing": 3215, 
  "dedicated": 3216, 
  "over@@": 3217, 
  "crises": 3218, 
  "Hoc": 3219, 
  "telephone": 3220, 
  "transnational": 3221, 
  "realize": 3222, 
  "withdrawal": 3223, 
  "ministerial": 3224, 
  "Red": 3225, 
  "phone": 3226, 
  "CD": 3227, 
  "Finance": 3228, 
  "loans": 3229, 
  "212": 3230, 
  "es@@": 3231, 
  "length": 3232, 
  "Belgium": 3233, 
  "drive": 3234, 
  "contingent": 3235, 
  "83": 3236, 
  "outreach": 3237, 
  "kinds": 3238, 
  "facility": 3239, 
  "phenomenon": 3240, 
  "residence": 3241, 
  "Ad": 3242, 
  "covers": 3243, 
  "Auditors": 3244, 
  "f": 3245, 
  "laid": 3246, 
  "adopting": 3247, 
  "package": 3248, 
  "Ecuador": 3249, 
  "title": 3250, 
  "circulated": 3251, 
  "married": 3252, 
  "financed": 3253, 
  "appeared": 3254, 
  "K": 3255, 
  "adverse": 3256, 
  "huge": 3257, 
  "interaction": 3258, 
  "is@@": 3259, 
  "Kyoto": 3260, 
  "tomorrow": 3261, 
  "detail": 3262, 
  "it@@": 3263, 
  "format": 3264, 
  "incorporated": 3265, 
  "frequently": 3266, 
  "doctor": 3267, 
  "undertaking": 3268, 
  "mercury": 3269, 
  "w@@": 3270, 
  "Model": 3271, 
  "via": 3272, 
  "integrate": 3273, 
  "Singapore": 3274, 
  "conclude": 3275, 
  "revenue": 3276, 
  "representing": 3277, 
  "degradation": 3278, 
  "qualified": 3279, 
  "Observer": 3280, 
  "reserve": 3281, 
  "wait": 3282, 
  "Developing": 3283, 
  "allowing": 3284, 
  "video": 3285, 
  "1989": 3286, 
  "stages": 3287, 
  "movements": 3288, 
  "species": 3289, 
  "Serbia": 3290, 
  "explanation": 3291, 
  "toward": 3292, 
  "at@@": 3293, 
  "firms": 3294, 
  "de@@": 3295, 
  "occur": 3296, 
  "duration": 3297, 
  "integral": 3298, 
  "Lanka": 3299, 
  "sports": 3300, 
  "considerations": 3301, 
  "outputs": 3302, 
  "rejected": 3303, 
  "myself": 3304, 
  "households": 3305, 
  "87": 3306, 
  "allowance": 3307, 
  "Equality": 3308, 
  "organize": 3309, 
  "99": 3310, 
  "C.5": 3311, 
  "significance": 3312, 
  "flexibility": 3313, 
  "applying": 3314, 
  "assisted": 3315, 
  "businesses": 3316, 
  "forums": 3317, 
  "eye": 3318, 
  "expect": 3319, 
  "Self": 3320, 
  "exception": 3321, 
  "projected": 3322, 
  "determining": 3323, 
  "composed": 3324, 
  "Greece": 3325, 
  "claimed": 3326, 
  "flexible": 3327, 
  "walk": 3328, 
  "arts": 3329, 
  "sun": 3330, 
  "CRC": 3331, 
  "300": 3332, 
  "devoted": 3333, 
  "relationships": 3334, 
  "customers": 3335, 
  "demonstrate": 3336, 
  "weak": 3337, 
  "gains": 3338, 
  "dependent": 3339, 
  "consumer": 3340, 
  "stood": 3341, 
  "zones": 3342, 
  "92": 3343, 
  "manufacturing": 3344, 
  "Venezuela": 3345, 
  "ating": 3346, 
  "Costa": 3347, 
  "carefully": 3348, 
  "drew": 3349, 
  "urge": 3350, 
  "copy": 3351, 
  "0@@": 3352, 
  "86": 3353, 
  "die": 3354, 
  "Denmark": 3355, 
  "plants": 3356, 
  "fill": 3357, 
  "whatever": 3358, 
  "Co": 3359, 
  "acceptable": 3360, 
  "millions": 3361, 
  "Afghan": 3362, 
  "devices": 3363, 
  "84": 3364, 
  "guaranteed": 3365, 
  "desire": 3366, 
  "suggest": 3367, 
  "Oversight": 3368, 
  "proved": 3369, 
  "Small": 3370, 
  "fees": 3371, 
  "moral": 3372, 
  "behaviour": 3373, 
  "tenth": 3374, 
  "tree": 3375, 
  "psychological": 3376, 
  "professionals": 3377, 
  "watch": 3378, 
  "feeling": 3379, 
  "skin": 3380, 
  "borders": 3381, 
  "translation": 3382, 
  "revision": 3383, 
  "deaths": 3384, 
  "Team": 3385, 
  "equivalent": 3386, 
  "Change": 3387, 
  "War": 3388, 
  "14@@": 3389, 
  "refers": 3390, 
  "Climate": 3391, 
  "begun": 3392, 
  "cancer": 3393, 
  "@": 3394, 
  "dollar": 3395, 
  "mitigation": 3396, 
  "ministries": 3397, 
  "Island": 3398, 
  "agents": 3399, 
  "ting": 3400, 
  "cell": 3401, 
  "Rome": 3402, 
  "residents": 3403, 
  "negotiation": 3404, 
  "SBI": 3405, 
  "District": 3406, 
  "88": 3407, 
  "Palestinians": 3408, 
  "maybe": 3409, 
  "submissions": 3410, 
  "formulated": 3411, 
  "leader": 3412, 
  "programs": 3413, 
  "co@@": 3414, 
  "accession": 3415, 
  "adjustments": 3416, 
  "remove": 3417, 
  "solid": 3418, 
  "style": 3419, 
  "Violence": 3420, 
  "v@@": 3421, 
  "ordinary": 3422, 
  "wealth": 3423, 
  "managing": 3424, 
  "heat": 3425, 
  "understood": 3426, 
  "97": 3427, 
  "ratio": 3428, 
  "procedural": 3429, 
  "commended": 3430, 
  "presidential": 3431, 
  "formation": 3432, 
  "grateful": 3433, 
  "ban": 3434, 
  "strict": 3435, 
  "prohibition": 3436, 
  "chief": 3437, 
  "window": 3438, 
  "hair": 3439, 
  "93": 3440, 
  "remedy": 3441, 
  "arrangement": 3442, 
  "impossible": 3443, 
  "presents": 3444, 
  "forests": 3445, 
  "96": 3446, 
  "flight": 3447, 
  "lose": 3448, 
  "happened": 3449, 
  "lawyers": 3450, 
  "win": 3451, 
  "powerful": 3452, 
  "machinery": 3453, 
  "Indian": 3454, 
  "lay": 3455, 
  "northern": 3456, 
  "Promotion": 3457, 
  "500": 3458, 
  "transfers": 3459, 
  "injury": 3460, 
  "91": 3461, 
  "memory": 3462, 
  "expressing": 3463, 
  "extradition": 3464, 
  "properties": 3465, 
  "el@@": 3466, 
  "willing": 3467, 
  "Part": 3468, 
  "3.@@": 3469, 
  "adequately": 3470, 
  "scientists": 3471, 
  "command": 3472, 
  "Integrated": 3473, 
  "excellent": 3474, 
  "ah": 3475, 
  "Roma": 3476, 
  "Re@@": 3477, 
  "spend": 3478, 
  "UNCITRAL": 3479, 
  "violent": 3480, 
  "sleep": 3481, 
  "Agriculture": 3482, 
  "regardless": 3483, 
  "manager": 3484, 
  "im@@": 3485, 
  "wants": 3486, 
  "sectoral": 3487, 
  "consultants": 3488, 
  "mostly": 3489, 
  "ON": 3490, 
  "transmission": 3491, 
  "intelligence": 3492, 
  "consolidated": 3493, 
  "requiring": 3494, 
  "expanding": 3495, 
  "Operation": 3496, 
  "peacebuilding": 3497, 
  "separation": 3498, 
  "occasion": 3499, 
  "requesting": 3500, 
  "accurate": 3501, 
  "Tanzania": 3502, 
  "proceed": 3503, 
  "signature": 3504, 
  "13@@": 3505, 
  "Arabia": 3506, 
  "drop": 3507, 
  "tolerance": 3508, 
  "sorry": 3509, 
  "Kazakhstan": 3510, 
  "C.1": 3511, 
  "12@@": 3512, 
  "lists": 3513, 
  "Senegal": 3514, 
  "lies": 3515, 
  "incident": 3516, 
  "seeks": 3517, 
  "intolerance": 3518, 
  "Military": 3519, 
  "School": 3520, 
  "finds": 3521, 
  "aspect": 3522, 
  "brother": 3523, 
  "cells": 3524, 
  "1988": 3525, 
  "reportedly": 3526, 
  "89": 3527, 
  "Increased": 3528, 
  "18@@": 3529, 
  "Shanghai": 3530, 
  "detainees": 3531, 
  "Tunisia": 3532, 
  "custody": 3533, 
  "Ghana": 3534, 
  "House": 3535, 
  "entering": 3536, 
  "define": 3537, 
  "reviewing": 3538, 
  "root": 3539, 
  "ts": 3540, 
  "Rev.1": 3541, 
  "Mrs.": 3542, 
  "Uruguay": 3543, 
  "notification": 3544, 
  "Region": 3545, 
  "lived": 3546, 
  "ation": 3547, 
  "tests": 3548, 
  "missing": 3549, 
  "aggression": 3550, 
  "collected": 3551, 
  "denied": 3552, 
  "subjects": 3553, 
  "belonging": 3554, 
  "correct": 3555, 
  "Armenia": 3556, 
  "www.un.org": 3557, 
  "One": 3558, 
  "Portugal": 3559, 
  "capable": 3560, 
  "Defence": 3561, 
  "profit": 3562, 
  "removal": 3563, 
  "quick": 3564, 
  "consolidation": 3565, 
  "um": 3566, 
  "researchers": 3567, 
  "pain": 3568, 
  "ESCAP": 3569, 
  "closer": 3570, 
  "color": 3571, 
  "wage": 3572, 
  "talking": 3573, 
  "protocol": 3574, 
  "index": 3575, 
  "reserves": 3576, 
  "marked": 3577, 
  "SBSTA": 3578, 
  "generated": 3579, 
  "surveys": 3580, 
  "combination": 3581, 
  "coastal": 3582, 
  "secret": 3583, 
  "arbitration": 3584, 
  "TV": 3585, 
  "Treatment": 3586, 
  "hundred": 3587, 
  "brief": 3588, 
  "Al@@": 3589, 
  "am@@": 3590, 
  "producing": 3591, 
  "journalists": 3592, 
  "94": 3593, 
  "schemes": 3594, 
  "delays": 3595, 
  "Washington": 3596, 
  "evaluations": 3597, 
  "driven": 3598, 
  "arrived": 3599, 
  "j": 3600, 
  "eastern": 3601, 
  "ending": 3602, 
  "commit": 3603, 
  "employers": 3604, 
  "Rica": 3605, 
  "Business": 3606, 
  "dark": 3607, 
  "sovereign": 3608, 
  "exposure": 3609, 
  "attempts": 3610, 
  "ra@@": 3611, 
  "distance": 3612, 
  "displacement": 3613, 
  "Procedure": 3614, 
  "Process": 3615, 
  "observation": 3616, 
  "We": 3617, 
  "Mali": 3618, 
  "hunger": 3619, 
  "electricity": 3620, 
  "award": 3621, 
  "biodiversity": 3622, 
  "sell": 3623, 
  "college": 3624, 
  "instances": 3625, 
  "120": 3626, 
  "r@@": 3627, 
  "ates": 3628, 
  "-@@": 3629, 
  "isn": 3630, 
  "shift": 3631, 
  "hazardous": 3632, 
  "extrabudgetary": 3633, 
  "frame": 3634, 
  "HRC": 3635, 
  "accountable": 3636, 
  "responding": 3637, 
  "applies": 3638, 
  "exists": 3639, 
  "chain": 3640, 
  "Doha": 3641, 
  "If": 3642, 
  "Open": 3643, 
  "medicine": 3644, 
  "demobilization": 3645, 
  "WFP": 3646, 
  "generate": 3647, 
  "stronger": 3648, 
  "repatriation": 3649, 
  "Olympic": 3650, 
  "balances": 3651, 
  "meant": 3652, 
  "cooperative": 3653, 
  "17@@": 3654, 
  "responded": 3655, 
  "relate": 3656, 
  "customary": 3657, 
  "renewed": 3658, 
  "derived": 3659, 
  "receipt": 3660, 
  "biennial": 3661, 
  "Rio": 3662, 
  "grants": 3663, 
  "resolved": 3664, 
  "ti@@": 3665, 
  "signing": 3666, 
  "vacancy": 3667, 
  "assessing": 3668, 
  "waiting": 3669, 
  "filed": 3670, 
  "Occupied": 3671, 
  "ag@@": 3672, 
  "alternatives": 3673, 
  "constant": 3674, 
  "transitional": 3675, 
  "laundering": 3676, 
  "meanwhile": 3677, 
  "capability": 3678, 
  "liabilities": 3679, 
  "transmitting": 3680, 
  "handling": 3681, 
  "..": 3682, 
  "bottom": 3683, 
  "mothers": 3684, 
  "valid": 3685, 
  "allegedly": 3686, 
  "conjunction": 3687, 
  "forthcoming": 3688, 
  "Committees": 3689, 
  "invite": 3690, 
  "Conventions": 3691, 
  "baby": 3692, 
  "explosive": 3693, 
  "15@@": 3694, 
  "Standing": 3695, 
  "depends": 3696, 
  "Budget": 3697, 
  "maritime": 3698, 
  "destroyed": 3699, 
  "exploration": 3700, 
  "administering": 3701, 
  "GEF": 3702, 
  "customer": 3703, 
  "Use": 3704, 
  "be@@": 3705, 
  "depend": 3706, 
  "consists": 3707, 
  "organ": 3708, 
  "transmit": 3709, 
  "steel": 3710, 
  "square": 3711, 
  "tables": 3712, 
  "gonna": 3713, 
  "facilitated": 3714, 
  "annually": 3715, 
  "frequency": 3716, 
  "offering": 3717, 
  "Libyan": 3718, 
  "feet": 3719, 
  "judgement": 3720, 
  "replaced": 3721, 
  "universities": 3722, 
  "fisheries": 3723, 
  "harassment": 3724, 
  "enforced": 3725, 
  "Web": 3726, 
  "river": 3727, 
  "houses": 3728, 
  "Reduction": 3729, 
  "comparison": 3730, 
  "mention": 3731, 
  "analytical": 3732, 
  "filled": 3733, 
  "ice": 3734, 
  "dream": 3735, 
  "MDGs": 3736, 
  "ine": 3737, 
  "hopes": 3738, 
  "parameters": 3739, 
  "neighbouring": 3740, 
  "municipal": 3741, 
  "League": 3742, 
  "port": 3743, 
  "fresh": 3744, 
  "linkages": 3745, 
  "Introduction": 3746, 
  "device": 3747, 
  "drinking": 3748, 
  "Armed": 3749, 
  "amounted": 3750, 
  "suggests": 3751, 
  "description": 3752, 
  "marketing": 3753, 
  "harmful": 3754, 
  "1,@@": 3755, 
  "heading": 3756, 
  "listen": 3757, 
  "animals": 3758, 
  "gradually": 3759, 
  "Chad": 3760, 
  "regarded": 3761, 
  "piece": 3762, 
  "advances": 3763, 
  "environmentally": 3764, 
  "963": 3765, 
  "suffer": 3766, 
  "Water": 3767, 
  "transaction": 3768, 
  "pertaining": 3769, 
  "1,000": 3770, 
  "Romania": 3771, 
  "wastes": 3772, 
  "anticipated": 3773, 
  "reflecting": 3774, 
  "brain": 3775, 
  "Environmental": 3776, 
  "non@@": 3777, 
  "Intergovernmental": 3778, 
  "blue": 3779, 
  "atmosphere": 3780, 
  "vast": 3781, 
  "struggle": 3782, 
  "trees": 3783, 
  "investigated": 3784, 
  "le": 3785, 
  "seized": 3786, 
  "instructions": 3787, 
  "eligible": 3788, 
  "ad@@": 3789, 
  "prospects": 3790, 
  "Youth": 3791, 
  "16@@": 3792, 
  "banking": 3793, 
  "underlying": 3794, 
  "plays": 3795, 
  "accompanied": 3796, 
  "collect": 3797, 
  "ated": 3798, 
  "realized": 3799, 
  "dog": 3800, 
  "Proliferation": 3801, 
  "Adviser": 3802, 
  "concepts": 3803, 
  "terrorists": 3804, 
  "contractual": 3805, 
  "Bolivia": 3806, 
  "dimensions": 3807, 
  "season": 3808, 
  "smaller": 3809, 
  "renewable": 3810, 
  "th@@": 3811, 
  "Salvador": 3812, 
  "restricted": 3813, 
  "facilitation": 3814, 
  "shape": 3815, 
  "distinction": 3816, 
  "parallel": 3817, 
  "genuine": 3818, 
  "necessity": 3819, 
  "As": 3820, 
  "VIII": 3821, 
  "incurred": 3822, 
  "limitations": 3823, 
  "negotiating": 3824, 
  "pursued": 3825, 
  "guided": 3826, 
  "Racial": 3827, 
  "branch": 3828, 
  "spring": 3829, 
  "provinces": 3830, 
  "proof": 3831, 
  "advantages": 3832, 
  "supplementary": 3833, 
  "wood": 3834, 
  "parliamentary": 3835, 
  "th": 3836, 
  "providers": 3837, 
  "motion": 3838, 
  "inputs": 3839, 
  "continent": 3840, 
  "normally": 3841, 
  "camp": 3842, 
  "Assessment": 3843, 
  "Qatar": 3844, 
  "division": 3845, 
  "dimension": 3846, 
  "dry": 3847, 
  "unfortunately": 3848, 
  "subparagraph": 3849, 
  "notably": 3850, 
  "Sub": 3851, 
  "ic@@": 3852, 
  "solve": 3853, 
  "agent": 3854, 
  "merely": 3855, 
  "Sixth": 3856, 
  "constituted": 3857, 
  "Nam": 3858, 
  "Taiwan": 3859, 
  "store": 3860, 
  "Mauritius": 3861, 
  "ted": 3862, 
  "monetary": 3863, 
  "restructuring": 3864, 
  "Heads": 3865, 
  "expectations": 3866, 
  "hence": 3867, 
  "What": 3868, 
  "incentives": 3869, 
  "Center": 3870, 
  "whenever": 3871, 
  "sky": 3872, 
  "coherent": 3873, 
  "si@@": 3874, 
  "driving": 3875, 
  "evening": 3876, 
  "introducing": 3877, 
  "assembly": 3878, 
  "For": 3879, 
  "mark": 3880, 
  "defenders": 3881, 
  "OECD": 3882, 
  "injured": 3883, 
  "se@@": 3884, 
  "ratify": 3885, 
  "Cameroon": 3886, 
  "as@@": 3887, 
  "headed": 3888, 
  "organizing": 3889, 
  "objection": 3890, 
  "respected": 3891, 
  "thousand": 3892, 
  "Obama": 3893, 
  "contacts": 3894, 
  "afternoon": 3895, 
  "Constitutional": 3896, 
  "Acting": 3897, 
  "inequality": 3898, 
  "des": 3899, 
  "removed": 3900, 
  "difficulty": 3901, 
  "shares": 3902, 
  "refused": 3903, 
  "ia": 3904, 
  "commodities": 3905, 
  "closing": 3906, 
  "register": 3907, 
  "union": 3908, 
  "liaison": 3909, 
  "accident": 3910, 
  "discharge": 3911, 
  "witness": 3912, 
  "incorporate": 3913, 
  "Communications": 3914, 
  "divided": 3915, 
  "This": 3916, 
  "Bissau": 3917, 
  "summit": 3918, 
  "adults": 3919, 
  "bus": 3920, 
  "harmonization": 3921, 
  "perfect": 3922, 
  "accommodation": 3923, 
  "replies": 3924, 
  "lawyer": 3925, 
  "ammunition": 3926, 
  "daughter": 3927, 
  "mandatory": 3928, 
  "pre@@": 3929, 
  "Road": 3930, 
  "2,@@": 3931, 
  "Counter": 3932, 
  "accelerate": 3933, 
  "animal": 3934, 
  "issuance": 3935, 
  "attributable": 3936, 
  "Trafficking": 3937, 
  "putting": 3938, 
  "falling": 3939, 
  "emphasize": 3940, 
  "FCCC": 3941, 
  "IPSAS": 3942, 
  "S.": 3943, 
  "150": 3944, 
  "Employment": 3945, 
  "Inspection": 3946, 
  "twice": 3947, 
  "rain": 3948, 
  "prove": 3949, 
  "bridge": 3950, 
  "western": 3951, 
  "references": 3952, 
  "F.": 3953, 
  "province": 3954, 
  "compulsory": 3955, 
  "happen": 3956, 
  "clothes": 3957, 
  "nutrition": 3958, 
  "excessive": 3959, 
  "east": 3960, 
  "involves": 3961, 
  "continuation": 3962, 
  "indicator": 3963, 
  "detection": 3964, 
  "macroeconomic": 3965, 
  "TO": 3966, 
  "biggest": 3967, 
  "votes": 3968, 
  "transformation": 3969, 
  "texts": 3970, 
  "Transitional": 3971, 
  "immigration": 3972, 
  "Yemen": 3973, 
  "Hungary": 3974, 
  "acquired": 3975, 
  "era": 3976, 
  "Guidelines": 3977, 
  "mutually": 3978, 
  "ri@@": 3979, 
  "Army": 3980, 
  "apart": 3981, 
  "pregnancy": 3982, 
  "certificate": 3983, 
  "gained": 3984, 
  "connected": 3985, 
  "whereas": 3986, 
  "Greek": 3987, 
  "closure": 3988, 
  "fit": 3989, 
  "clinical": 3990, 
  "Nicaragua": 3991, 
  "measurement": 3992, 
  "meaningful": 3993, 
  "relates": 3994, 
  "citizen": 3995, 
  "operative": 3996, 
  "di": 3997, 
  "Guide": 3998, 
  "feature": 3999, 
  "sort": 4000, 
  "observe": 4001, 
  "resistance": 4002, 
  "Building": 4003, 
  "beings": 4004, 
  "opinions": 4005, 
  "speaker": 4006, 
  "exclusion": 4007, 
  "clearance": 4008, 
  "eventually": 4009, 
  "truly": 4010, 
  "Ombudsman": 4011, 
  "remarks": 4012, 
  "Corr.1": 4013, 
  "couple": 4014, 
  "San": 4015, 
  "elderly": 4016, 
  "mode": 4017, 
  "desertification": 4018, 
  "exchanges": 4019, 
  "ran": 4020, 
  "pace": 4021, 
  "literacy": 4022, 
  "killing": 4023, 
  "Jamaica": 4024, 
  "careful": 4025, 
  "broken": 4026, 
  "sold": 4027, 
  "dates": 4028, 
  "ab@@": 4029, 
  "freely": 4030, 
  "ac@@": 4031, 
  "Transport": 4032, 
  "consumers": 4033, 
  "comprising": 4034, 
  "xenophobia": 4035, 
  "replacement": 4036, 
  "An@@": 4037, 
  "sit": 4038, 
  "servicing": 4039, 
  "mobility": 4040, 
  "Saint": 4041, 
  "deemed": 4042, 
  "pregnant": 4043, 
  "Viet": 4044, 
  "deprived": 4045, 
  "invasion": 4046, 
  "tend": 4047, 
  "famous": 4048, 
  "Ar@@": 4049, 
  "arise": 4050, 
  "ordered": 4051, 
  "unto": 4052, 
  "Penal": 4053, 
  "declarations": 4054, 
  "ancient": 4055, 
  "http": 4056, 
  "da": 4057, 
  "reductions": 4058, 
  "NLB": 4059, 
  "client": 4060, 
  "mobilize": 4061, 
  "fraud": 4062, 
  "match": 4063, 
  "persistent": 4064, 
  "ro@@": 4065, 
  "Mongolia": 4066, 
  "U": 4067, 
  "extra": 4068, 
  "Ban": 4069, 
  "drink": 4070, 
  "heritage": 4071, 
  "Cross": 4072, 
  "glass": 4073, 
  "Head": 4074, 
  "turning": 4075, 
  "Mar@@": 4076, 
  "permitted": 4077, 
  "formulate": 4078, 
  "Investment": 4079, 
  "provincial": 4080, 
  "Disabilities": 4081, 
  "unity": 4082, 
  "quantity": 4083, 
  "showing": 4084, 
  "helps": 4085, 
  "landlocked": 4086, 
  "interference": 4087, 
  "Local": 4088, 
  "Uzbekistan": 4089, 
  "briefings": 4090, 
  "propose": 4091, 
  "orientation": 4092, 
  "knows": 4093, 
  "trouble": 4094, 
  "logistics": 4095, 
  "assume": 4096, 
  "warm": 4097, 
  "themes": 4098, 
  "depending": 4099, 
  "cultures": 4100, 
  "afraid": 4101, 
  "ter": 4102, 
  "hospitals": 4103, 
  "Bill": 4104, 
  "necessarily": 4105, 
  "Montreal": 4106, 
  "disseminate": 4107, 
  "center": 4108, 
  "lands": 4109, 
  "gets": 4110, 
  "sum": 4111, 
  "Session": 4112, 
  "Chapter": 4113, 
  "technique": 4114, 
  "diverse": 4115, 
  "seat": 4116, 
  "interactive": 4117, 
  "occupying": 4118, 
  "signs": 4119, 
  "hotel": 4120, 
  "hundreds": 4121, 
  "clients": 4122, 
  "ol@@": 4123, 
  "ant": 4124, 
  "villages": 4125, 
  "That": 4126, 
  "loan": 4127, 
  "Ordinance": 4128, 
  "inter@@": 4129, 
  "lastly": 4130, 
  "manufacture": 4131, 
  "attitude": 4132, 
  "citizenship": 4133, 
  "beneficiaries": 4134, 
  "forget": 4135, 
  "sponsored": 4136, 
  "grade": 4137, 
  "minor": 4138, 
  "breach": 4139, 
  "Outer": 4140, 
  "ly": 4141, 
  "Dr.": 4142, 
  "strictly": 4143, 
  "Anti": 4144, 
  "makers": 4145, 
  "ultimately": 4146, 
  "intensive": 4147, 
  "seats": 4148, 
  "N": 4149, 
  "Americans": 4150, 
  "clarification": 4151, 
  "consequence": 4152, 
  "nice": 4153, 
  "accomplishments": 4154, 
  "David": 4155, 
  "conducive": 4156, 
  "genocide": 4157, 
  "decreased": 4158, 
  "fail": 4159, 
  "Industrial": 4160, 
  "Zambia": 4161, 
  "orally": 4162, 
  "prisons": 4163, 
  "commerce": 4164, 
  "abuses": 4165, 
  "minute": 4166, 
  "attitudes": 4167, 
  "Protocols": 4168, 
  "consistently": 4169, 
  "Basel": 4170, 
  "assumed": 4171, 
  "wear": 4172, 
  "FDI": 4173, 
  "metal": 4174, 
  "elsewhere": 4175, 
  "leaves": 4176, 
  "--@@": 4177, 
  "Province": 4178, 
  "signal": 4179, 
  "delegates": 4180, 
  "politics": 4181, 
  "possession": 4182, 
  "labor": 4183, 
  "st@@": 4184, 
  "Burkina": 4185, 
  "thereof": 4186, 
  "targeting": 4187, 
  "20@@": 4188, 
  "appreciate": 4189, 
  "IMF": 4190, 
  "Issues": 4191, 
  "lie": 4192, 
  "per@@": 4193, 
  "juvenile": 4194, 
  "Faso": 4195, 
  "focuses": 4196, 
  "preserve": 4197, 
  "adult": 4198, 
  "addendum": 4199, 
  "describe": 4200, 
  "UNIFIL": 4201, 
  "ODA": 4202, 
  "massive": 4203, 
  "conviction": 4204, 
  "salaries": 4205, 
  "analyses": 4206, 
  "sub@@": 4207, 
  "sentenced": 4208, 
  "handle": 4209, 
  "ourselves": 4210, 
  "ocean": 4211, 
  "mountain": 4212, 
  "hosted": 4213, 
  "mouth": 4214, 
  "trials": 4215, 
  "Drug": 4216, 
  "director": 4217, 
  "absolute": 4218, 
  "suspected": 4219, 
  "H": 4220, 
  "paying": 4221, 
  "6.@@": 4222, 
  "entirely": 4223, 
  "pages": 4224, 
  "candidate": 4225, 
  "kill": 4226, 
  "to@@": 4227, 
  "airport": 4228, 
  "imports": 4229, 
  "causing": 4230, 
  "competitiveness": 4231, 
  "treat": 4232, 
  "Procurement": 4233, 
  "interesting": 4234, 
  "holders": 4235, 
  "1990s": 4236, 
  "prejudice": 4237, 
  "stone": 4238, 
  "happiness": 4239, 
  "complement": 4240, 
  "fulfilment": 4241, 
  "drought": 4242, 
  "revealed": 4243, 
  "west": 4244, 
  "eliminating": 4245, 
  "1986": 4246, 
  "repeated": 4247, 
  "logistical": 4248, 
  "Main": 4249, 
  "patient": 4250, 
  "waters": 4251, 
  "ages": 4252, 
  "fax": 4253, 
  "behavior": 4254, 
  "shot": 4255, 
  "An": 4256, 
  "obvious": 4257, 
  "secured": 4258, 
  "elaboration": 4259, 
  "contrast": 4260, 
  "generations": 4261, 
  "coal": 4262, 
  "chosen": 4263, 
  "Developed": 4264, 
  "credibility": 4265, 
  "stands": 4266, 
  "library": 4267, 
  "Corruption": 4268, 
  "appointments": 4269, 
  "liberalization": 4270, 
  "measured": 4271, 
  "soft": 4272, 
  "favourable": 4273, 
  "enhancement": 4274, 
  "105": 4275, 
  "tel": 4276, 
  "error": 4277, 
  "electric": 4278, 
  "ing@@": 4279, 
  "Company": 4280, 
  "prosperity": 4281, 
  "addresses": 4282, 
  "ball": 4283, 
  "Decree": 4284, 
  "Evaluation": 4285, 
  "River": 4286, 
  "survival": 4287, 
  "overseas": 4288, 
  "combatants": 4289, 
  "memorandum": 4290, 
  "Q": 4291, 
  "www.@@": 4292, 
  "unions": 4293, 
  "intensify": 4294, 
  "Appeals": 4295, 
  "disaggregated": 4296, 
  "Arms": 4297, 
  "employee": 4298, 
  "shelter": 4299, 
  "sister": 4300, 
  "Closed": 4301, 
  "consult": 4302, 
  "sentences": 4303, 
  "servants": 4304, 
  "Tajikistan": 4305, 
  "Korean": 4306, 
  "comparative": 4307, 
  "0": 4308, 
  "Relations": 4309, 
  "Migration": 4310, 
  "convening": 4311, 
  "cruel": 4312, 
  "Area": 4313, 
  "counselling": 4314, 
  "channels": 4315, 
  "Emergency": 4316, 
  "s.@@": 4317, 
  "proceeds": 4318, 
  "wages": 4319, 
  "clarify": 4320, 
  "chaired": 4321, 
  "expulsion": 4322, 
  "appropriation": 4323, 
  "UNIFEM": 4324, 
  "See": 4325, 
  "prosecutors": 4326, 
  "Street": 4327, 
  "enabled": 4328, 
  "Slovenia": 4329, 
  "Land": 4330, 
  "Bulgaria": 4331, 
  "os": 4332, 
  "declined": 4333, 
  "Standards": 4334, 
  "ships": 4335, 
  "indicating": 4336, 
  "Montenegro": 4337, 
  "besides": 4338, 
  "systematically": 4339, 
  "threatened": 4340, 
  "ya": 4341, 
  "Least": 4342, 
  "calculated": 4343, 
  "L.@@": 4344, 
  "repair": 4345, 
  "referring": 4346, 
  "manual": 4347, 
  "classes": 4348, 
  "Directorate": 4349, 
  "recall": 4350, 
  "firmly": 4351, 
  "retirement": 4352, 
  "regimes": 4353, 
  "penalties": 4354, 
  "pool": 4355, 
  "grown": 4356, 
  "Sahara": 4357, 
  "Mozambique": 4358, 
  "leads": 4359, 
  "argument": 4360, 
  "emphasizing": 4361, 
  "reinforce": 4362, 
  "catch": 4363, 
  "ations": 4364, 
  "players": 4365, 
  "surveillance": 4366, 
  "merits": 4367, 
  "IT": 4368, 
  "stopped": 4369, 
  "exposed": 4370, 
  "Leste": 4371, 
  "budgeting": 4372, 
  "stressing": 4373, 
  "profile": 4374, 
  "presidency": 4375, 
  "suggestion": 4376, 
  "malaria": 4377, 
  "emergencies": 4378, 
  "obtaining": 4379, 
  "easier": 4380, 
  "adolescents": 4381, 
  "MONUC": 4382, 
  "ties": 4383, 
  "Settlements": 4384, 
  "tons": 4385, 
  "reaction": 4386, 
  "impose": 4387, 
  "progressive": 4388, 
  "disadvantaged": 4389, 
  "Arabic": 4390, 
  "prompt": 4391, 
  "est": 4392, 
  "USD": 4393, 
  "em@@": 4394, 
  "om@@": 4395, 
  "subsidies": 4396, 
  "Facility": 4397, 
  "Branch": 4398, 
  "complexity": 4399, 
  "occasions": 4400, 
  "inquiry": 4401, 
  "chap": 4402, 
  "mediation": 4403, 
  "taxes": 4404, 
  "fruit": 4405, 
  "IN": 4406, 
  "herself": 4407, 
  "Strip": 4408, 
  "Interim": 4409, 
  "radiation": 4410, 
  "offset": 4411, 
  "400": 4412, 
  "underlined": 4413, 
  "trip": 4414, 
  "rely": 4415, 
  "twentieth": 4416, 
  "sir": 4417, 
  "durable": 4418, 
  "roads": 4419, 
  "classification": 4420, 
  "concerted": 4421, 
  "foot": 4422, 
  "disclosure": 4423, 
  "convicted": 4424, 
  "thereto": 4425, 
  "deadline": 4426, 
  "winter": 4427, 
  "contemporary": 4428, 
  "therein": 4429, 
  "ha@@": 4430, 
  "earthquake": 4431, 
  "09": 4432, 
  "101": 4433, 
  "110": 4434, 
  "count": 4435, 
  "likewise": 4436, 
  "architecture": 4437, 
  "faces": 4438, 
  "Customs": 4439, 
  "Zimbabwe": 4440, 
  "claimant": 4441, 
  "restore": 4442, 
  "Alliance": 4443, 
  "prescribed": 4444, 
  "tangible": 4445, 
  "Sector": 4446, 
  "undermine": 4447, 
  "delayed": 4448, 
  "inhuman": 4449, 
  "evolution": 4450, 
  "Audit": 4451, 
  "shop": 4452, 
  "imperative": 4453, 
  "spare": 4454, 
  "complementary": 4455, 
  "momentum": 4456, 
  "organic": 4457, 
  "Activities": 4458, 
  "sh@@": 4459, 
  "saving": 4460, 
  "integrating": 4461, 
  "Organized": 4462, 
  "characterized": 4463, 
  "initially": 4464, 
  "mainstream": 4465, 
  "approve": 4466, 
  "bar": 4467, 
  "plus": 4468, 
  "reiterate": 4469, 
  "methodologies": 4470, 
  "se": 4471, 
  "pose": 4472, 
  "employer": 4473, 
  "historic": 4474, 
  "named": 4475, 
  "2nd": 4476, 
  "ter@@": 4477, 
  "exactly": 4478, 
  "NEPAD": 4479, 
  "interview": 4480, 
  "fired": 4481, 
  "Work": 4482, 
  "vessels": 4483, 
  "H.E.": 4484, 
  "Representatives": 4485, 
  "facto": 4486, 
  "monitored": 4487, 
  "102": 4488, 
  "0.@@": 4489, 
  "sight": 4490, 
  "calendar": 4491, 
  "applicant": 4492, 
  "1st": 4493, 
  "Benin": 4494, 
  "feasible": 4495, 
  "willingness": 4496, 
  "boat": 4497, 
  "ed@@": 4498, 
  "Combat": 4499, 
  "recruited": 4500, 
  "strike": 4501, 
  "insecurity": 4502, 
  "admissibility": 4503, 
  "ministers": 4504, 
  "suppliers": 4505, 
  "brings": 4506, 
  "touch": 4507, 
  "5.@@": 4508, 
  "enormous": 4509, 
  "W": 4510, 
  "prevented": 4511, 
  "seekers": 4512, 
  "administered": 4513, 
  "certification": 4514, 
  "outline": 4515, 
  "presentations": 4516, 
  "movie": 4517, 
  "enshrined": 4518, 
  "zero": 4519, 
  "analyzed": 4520, 
  "acquire": 4521, 
  "Strengthening": 4522, 
  "feedback": 4523, 
  "decent": 4524, 
  "contractors": 4525, 
  "yeah": 4526, 
  "suddenly": 4527, 
  "promise": 4528, 
  "entrusted": 4529, 
  "1980": 4530, 
  "promptly": 4531, 
  "Chemical": 4532, 
  "block": 4533, 
  "holds": 4534, 
  "potentially": 4535, 
  "thereon": 4536, 
  "4.@@": 4537, 
  "serves": 4538, 
  "Educational": 4539, 
  "DP": 4540, 
  "Euro@@": 4541, 
  "Atomic": 4542, 
  "sufficiently": 4543, 
  "tribunal": 4544, 
  "1967": 4545, 
  "wrote": 4546, 
  "Syria": 4547, 
  "Interior": 4548, 
  "Official": 4549, 
  "sat": 4550, 
  "exceptional": 4551, 
  "seeing": 4552, 
  "degrading": 4553, 
  "granting": 4554, 
  "suspended": 4555, 
  "Survey": 4556, 
  "corporations": 4557, 
  "mixed": 4558, 
  "Q@@": 4559, 
  "reimbursement": 4560, 
  "messages": 4561, 
  "safeguard": 4562, 
  "exceed": 4563, 
  "3,@@": 4564, 
  "dinner": 4565, 
  "protocols": 4566, 
  "analyse": 4567, 
  "worse": 4568, 
  "der": 4569, 
  "cease": 4570, 
  "subregion": 4571, 
  "Library": 4572, 
  "algorithm": 4573, 
  "highlight": 4574, 
  "concentration": 4575, 
  "Test": 4576, 
  "M.": 4577, 
  "couldn": 4578, 
  "authorization": 4579, 
  "emerged": 4580, 
  "Ocean": 4581, 
  "acute": 4582, 
  "curriculum": 4583, 
  "coffee": 4584, 
  "doctors": 4585, 
  "slightly": 4586, 
  "caught": 4587, 
  "returns": 4588, 
  "Libya": 4589, 
  "modified": 4590, 
  "Di@@": 4591, 
  "Commonwealth": 4592, 
  "heavily": 4593, 
  "Bush": 4594, 
  "consolidate": 4595, 
  "reaffirm": 4596, 
  "grass": 4597, 
  "deposit": 4598, 
  "When": 4599, 
  "stipulated": 4600, 
  "dropped": 4601, 
  "1987": 4602, 
  "inhabitants": 4603, 
  "&#124;": 4604, 
  "Right": 4605, 
  "generating": 4606, 
  "replied": 4607, 
  "sport": 4608, 
  "sing": 4609, 
  "Australian": 4610, 
  "regrets": 4611, 
  "satisfactory": 4612, 
  "unlawful": 4613, 
  "600": 4614, 
  "Panama": 4615, 
  "credible": 4616, 
  "satisfied": 4617, 
  "deprivation": 4618, 
  "suspension": 4619, 
  "fewer": 4620, 
  "eradicate": 4621, 
  "prevalence": 4622, 
  "submits": 4623, 
  "flowers": 4624, 
  "worst": 4625, 
  "false": 4626, 
  "estate": 4627, 
  "possibly": 4628, 
  "acid": 4629, 
  "RIGHTS": 4630, 
  "files": 4631, 
  "Their": 4632, 
  "IX": 4633, 
  "scene": 4634, 
  "substantially": 4635, 
  "tensions": 4636, 
  "sick": 4637, 
  "moon": 4638, 
  "greenhouse": 4639, 
  "maintains": 4640, 
  "tackle": 4641, 
  "auspices": 4642, 
  "pretty": 4643, 
  "adjusted": 4644, 
  "intends": 4645, 
  "Slovakia": 4646, 
  "participatory": 4647, 
  "engaging": 4648, 
  "4,@@": 4649, 
  "IN@@": 4650, 
  "attendance": 4651, 
  "01": 4652, 
  "retain": 4653, 
  "chair": 4654, 
  "severely": 4655, 
  "wave": 4656, 
  "Consultative": 4657, 
  "Air": 4658, 
  "#": 4659, 
  "103": 4660, 
  "occupational": 4661, 
  "emission": 4662, 
  "restoration": 4663, 
  "Durban": 4664, 
  "limitation": 4665, 
  "noise": 4666, 
  "retained": 4667, 
  "pursuit": 4668, 
  "experiment": 4669, 
  "CN.9": 4670, 
  "thou": 4671, 
  "1985": 4672, 
  "initiate": 4673, 
  "partly": 4674, 
  "smooth": 4675, 
  "cards": 4676, 
  "encountered": 4677, 
  "communicate": 4678, 
  "aside": 4679, 
  "Canadian": 4680, 
  "termination": 4681, 
  "conversion": 4682, 
  "engine": 4683, 
  "Biological": 4684, 
  "le@@": 4685, 
  "maternity": 4686, 
  "enjoyed": 4687, 
  "UNMIK": 4688, 
  "attract": 4689, 
  "destination": 4690, 
  "Officers": 4691, 
  "murder": 4692, 
  "250": 4693, 
  "disciplinary": 4694, 
  "cars": 4695, 
  "measuring": 4696, 
  "possibilities": 4697, 
  "sitting": 4698, 
  "deals": 4699, 
  "111": 4700, 
  "sole": 4701, 
  "genetic": 4702, 
  "wishing": 4703, 
  "computers": 4704, 
  "Con@@": 4705, 
  "sample": 4706, 
  "existed": 4707, 
  "il@@": 4708, 
  "images": 4709, 
  "questionnaire": 4710, 
  "parent": 4711, 
  "portion": 4712, 
  "milk": 4713, 
  "expensive": 4714, 
  "Measures": 4715, 
  "adding": 4716, 
  "fashion": 4717, 
  "immunity": 4718, 
  "excluded": 4719, 
  "Albania": 4720, 
  "ul@@": 4721, 
  "Pension": 4722, 
  "appearance": 4723, 
  "prevailing": 4724, 
  "Organizations": 4725, 
  "gratitude": 4726, 
  "UNAMID": 4727, 
  "thy": 4728, 
  "indirect": 4729, 
  "display": 4730, 
  "ecosystem": 4731, 
  "slowly": 4732, 
  "ecosystems": 4733, 
  "Cuban": 4734, 
  "performing": 4735, 
  "op@@": 4736, 
  "UK": 4737, 
  "statute": 4738, 
  "thorough": 4739, 
  "rock": 4740, 
  "tension": 4741, 
  "securities": 4742, 
  "tea": 4743, 
  "Professor": 4744, 
  "translated": 4745, 
  "explicitly": 4746, 
  "Prohibition": 4747, 
  "uniform": 4748, 
  "exercises": 4749, 
  "notwithstanding": 4750, 
  "accounted": 4751, 
  "pick": 4752, 
  "Legislative": 4753, 
  "mitigate": 4754, 
  "pursuing": 4755, 
  "bought": 4756, 
  "ASEAN": 4757, 
  "awarded": 4758, 
  "secondly": 4759, 
  "affects": 4760, 
  "confirm": 4761, 
  "establishes": 4762, 
  "iron": 4763, 
  "advisers": 4764, 
  "vis": 4765, 
  "li@@": 4766, 
  "Tom": 4767, 
  "separately": 4768, 
  "104": 4769, 
  "viable": 4770, 
  "haven": 4771, 
  "Poverty": 4772, 
  "layer": 4773, 
  "studying": 4774, 
  "Electoral": 4775, 
  "urgently": 4776, 
  "benefited": 4777, 
  "beauty": 4778, 
  "finished": 4779, 
  "discovered": 4780, 
  "ec@@": 4781, 
  "sect": 4782, 
  "discipline": 4783, 
  "prosecute": 4784, 
  "regret": 4785, 
  "spite": 4786, 
  "infection": 4787, 
  "viewed": 4788, 
  "Games": 4789, 
  "Stockholm": 4790, 
  "handed": 4791, 
  "plane": 4792, 
  "appoint": 4793, 
  "perspectives": 4794, 
  "arm": 4795, 
  "workload": 4796, 
  "definitions": 4797, 
  "duplication": 4798, 
  "excess": 4799, 
  "assurances": 4800, 
  "opposed": 4801, 
  "enrolment": 4802, 
  "consisting": 4803, 
  "un.org": 4804, 
  "appreciated": 4805, 
  "Statistical": 4806, 
  "fee": 4807, 
  "Journal": 4808, 
  "aviation": 4809, 
  "gathering": 4810, 
  "compilation": 4811, 
  "repeatedly": 4812, 
  "108": 4813, 
  "channel": 4814, 
  "finalized": 4815, 
  "incidence": 4816, 
  "injuries": 4817, 
  "Country": 4818, 
  "preparedness": 4819, 
  "eating": 4820, 
  "visiting": 4821, 
  "08": 4822, 
  "workplace": 4823, 
  "profits": 4824, 
  "contracting": 4825, 
  "Transnational": 4826, 
  "frequent": 4827, 
  "observance": 4828, 
  "municipalities": 4829, 
  "rice": 4830, 
  "tracking": 4831, 
  "Logistics": 4832, 
  "There": 4833, 
  "coordinator": 4834, 
  "readiness": 4835, 
  "formally": 4836, 
  "submitting": 4837, 
  "upper": 4838, 
  "creative": 4839, 
  "Post": 4840, 
  "sixtieth": 4841, 
  "Senior": 4842, 
  "tested": 4843, 
  "Punishment": 4844, 
  "suit": 4845, 
  "Draft": 4846, 
  "feasibility": 4847, 
  "Saharan": 4848, 
  "ruling": 4849, 
  "Muslim": 4850, 
  "Somali": 4851, 
  "worker": 4852, 
  "summarized": 4853, 
  "ii": 4854, 
  "owner": 4855, 
  "whereby": 4856, 
  "ethics": 4857, 
  "confident": 4858, 
  "telecommunications": 4859, 
  "producers": 4860, 
  "x@@": 4861, 
  "disappearance": 4862, 
  "partial": 4863, 
  "assignment": 4864, 
  "pleasure": 4865, 
  "select": 4866, 
  "owners": 4867, 
  "permits": 4868, 
  "beneficial": 4869, 
  "okay": 4870, 
  "minimize": 4871, 
  "automatic": 4872, 
  "adapt": 4873, 
  "Lithuania": 4874, 
  "Jamahiriya": 4875, 
  "urgency": 4876, 
  "selling": 4877, 
  "comprises": 4878, 
  "ring": 4879, 
  "ultimate": 4880, 
  "marginalized": 4881, 
  "remuneration": 4882, 
  "mo@@": 4883, 
  "College": 4884, 
  "Disaster": 4885, 
  "distinct": 4886, 
  "Administrator": 4887, 
  "dual": 4888, 
  "Scheme": 4889, 
  "000": 4890, 
  "Supplement": 4891, 
  "1982": 4892, 
  "Moldova": 4893, 
  "guilty": 4894, 
  "screen": 4895, 
  "ideal": 4896, 
  "Macedonia": 4897, 
  "afford": 4898, 
  "SecretaryGeneral": 4899, 
  "accessibility": 4900, 
  "bi@@": 4901, 
  "England": 4902, 
  "branches": 4903, 
  "considerably": 4904, 
  "games": 4905, 
  "crops": 4906, 
  "guiding": 4907, 
  "Relief": 4908, 
  "1373": 4909, 
  "autonomous": 4910, 
  "factory": 4911, 
  "calculation": 4912, 
  "assurance": 4913, 
  "sized": 4914, 
  "resume": 4915, 
  "enforce": 4916, 
  "mm": 4917, 
  "refrain": 4918, 
  "exclusive": 4919, 
  "districts": 4920, 
  "Malta": 4921, 
  "gathered": 4922, 
  "U.": 4923, 
  "extraordinary": 4924, 
  "Governmental": 4925, 
  "surrounding": 4926, 
  "G.": 4927, 
  "ranging": 4928, 
  "constantly": 4929, 
  "preservation": 4930, 
  "asking": 4931, 
  "compromise": 4932, 
  "impartial": 4933, 
  "consistency": 4934, 
  "cast": 4935, 
  "112": 4936, 
  "negotiated": 4937, 
  "wine": 4938, 
  "publicly": 4939, 
  "grew": 4940, 
  "Emirates": 4941, 
  "spot": 4942, 
  "amend": 4943, 
  "con@@": 4944, 
  "synergies": 4945, 
  "With": 4946, 
  "evident": 4947, 
  "colleagues": 4948, 
  "guy": 4949, 
  "pro": 4950, 
  "soul": 4951, 
  "Study": 4952, 
  "usual": 4953, 
  "contributes": 4954, 
  "installation": 4955, 
  "Dialogue": 4956, 
  "Namibia": 4957, 
  "liquid": 4958, 
  "fostering": 4959, 
  "redress": 4960, 
  "apparent": 4961, 
  "boss": 4962, 
  "ensured": 4963, 
  "Sunday": 4964, 
  "convene": 4965, 
  "promotes": 4966, 
  "credentials": 4967, 
  "star": 4968, 
  "capita": 4969, 
  "subsistence": 4970, 
  "diagnosis": 4971, 
  "surplus": 4972, 
  "straight": 4973, 
  "hostilities": 4974, 
  "29@@": 4975, 
  "launching": 4976, 
  "cited": 4977, 
  "ka": 4978, 
  "106": 4979, 
  "107": 4980, 
  "05": 4981, 
  "Iranian": 4982, 
  "literature": 4983, 
  "defining": 4984, 
  "printing": 4985, 
  "EC": 4986, 
  "z": 4987, 
  "dress": 4988, 
  "minors": 4989, 
  "Volunteers": 4990, 
  "Resolution": 4991, 
  "typically": 4992, 
  "indication": 4993, 
  "foundations": 4994, 
  "Contracting": 4995, 
  "Advancement": 4996, 
  "UNMIL": 4997, 
  "accuracy": 4998, 
  "bright": 4999, 
  "abortion": 5000, 
  "visitors": 5001, 
  "Aligned": 5002, 
  "King": 5003, 
  "ageing": 5004, 
  "CO": 5005, 
  "instability": 5006, 
  "obliged": 5007, 
  "Christmas": 5008, 
  "Property": 5009, 
  "yuan": 5010, 
  "economically": 5011, 
  "driver": 5012, 
  "te": 5013, 
  "innocent": 5014, 
  "ber@@": 5015, 
  "als": 5016, 
  "originally": 5017, 
  "115": 5018, 
  "Housing": 5019, 
  "rendered": 5020, 
  "returning": 5021, 
  "referendum": 5022, 
  "indispensable": 5023, 
  "realistic": 5024, 
  "budgeted": 5025, 
  "falls": 5026, 
  "dont": 5027, 
  "drafted": 5028, 
  "My": 5029, 
  "garden": 5030, 
  "Ch@@": 5031, 
  "sharp": 5032, 
  "Basic": 5033, 
  "sphere": 5034, 
  "newspaper": 5035, 
  "constitution": 5036, 
  "invest": 5037, 
  "wasn": 5038, 
  "advancing": 5039, 
  "enacted": 5040, 
  "mis@@": 5041, 
  "advised": 5042, 
  "exclusively": 5043, 
  "busy": 5044, 
  "withdraw": 5045, 
  "130": 5046, 
  "Dominican": 5047, 
  "equipped": 5048, 
  "separated": 5049, 
  "pledges": 5050, 
  "fulfilling": 5051, 
  "Order": 5052, 
  "miss": 5053, 
  "ecological": 5054, 
  "te@@": 5055, 
  "ceasefire": 5056, 
  "unprecedented": 5057, 
  "ex@@": 5058, 
  "UNDCP": 5059, 
  "smuggling": 5060, 
  "Italian": 5061, 
  "cargo": 5062, 
  "Mediterranean": 5063, 
  "faster": 5064, 
  "answered": 5065, 
  "prohibit": 5066, 
  "steady": 5067, 
  "characteristic": 5068, 
  "instruction": 5069, 
  "argued": 5070, 
  "ECA": 5071, 
  "childhood": 5072, 
  "codes": 5073, 
  "missile": 5074, 
  "Hall": 5075, 
  "extending": 5076, 
  "describes": 5077, 
  "continuity": 5078, 
  "resort": 5079, 
  "Yugoslav": 5080, 
  "updating": 5081, 
  "stories": 5082, 
  "flying": 5083, 
  "hurt": 5084, 
  "brand": 5085, 
  "ap@@": 5086, 
  "pro@@": 5087, 
  "UNOCI": 5088, 
  "pieces": 5089, 
  "raw": 5090, 
  "ou@@": 5091, 
  "revenues": 5092, 
  "Document": 5093, 
  "he@@": 5094, 
  "pillars": 5095, 
  "solely": 5096, 
  "electrical": 5097, 
  "endeavour": 5098, 
  "desk": 5099, 
  "firearms": 5100, 
  "formulating": 5101, 
  "experimental": 5102, 
  "sustain": 5103, 
  "114": 5104, 
  "5,@@": 5105, 
  "declare": 5106, 
  "justified": 5107, 
  "Former": 5108, 
  "curricula": 5109, 
  "Welfare": 5110, 
  "us@@": 5111, 
  "preceding": 5112, 
  "demographic": 5113, 
  "policymakers": 5114, 
  "poorest": 5115, 
  "operated": 5116, 
  "utilized": 5117, 
  "chronic": 5118, 
  "rooms": 5119, 
  "perceived": 5120, 
  "fly": 5121, 
  "116": 5122, 
  "Hague": 5123, 
  "arrival": 5124, 
  "organisations": 5125, 
  "ECOWAS": 5126, 
  "feelings": 5127, 
  "Honduras": 5128, 
  "relatives": 5129, 
  "unknown": 5130, 
  "additionally": 5131, 
  "assure": 5132, 
  "uncertainty": 5133, 
  "r": 5134, 
  "fun": 5135, 
  "normative": 5136, 
  "rental": 5137, 
  "confidential": 5138, 
  "the@@": 5139, 
  "&lt;": 5140, 
  "audience": 5141, 
  "ta@@": 5142, 
  "loved": 5143, 
  "wouldn": 5144, 
  "Jesus": 5145, 
  "ong": 5146, 
  "Envoy": 5147, 
  "advise": 5148, 
  "laboratory": 5149, 
  "executed": 5150, 
  "Kyrgyzstan": 5151, 
  "load": 5152, 
  "em": 5153, 
  "Resource": 5154, 
  "ou": 5155, 
  "Monetary": 5156, 
  "resolving": 5157, 
  "accidents": 5158, 
  "affordable": 5159, 
  "robust": 5160, 
  "essentially": 5161, 
  "109": 5162, 
  "Atlantic": 5163, 
  "autonomy": 5164, 
  "Independence": 5165, 
  "St@@": 5166, 
  "IC@@": 5167, 
  "registry": 5168, 
  "Analysis": 5169, 
  "06": 5170, 
  "Latvia": 5171, 
  "founded": 5172, 
  "Industry": 5173, 
  "reminded": 5174, 
  "fissile": 5175, 
  "ye": 5176, 
  "adherence": 5177, 
  "complicated": 5178, 
  "recipient": 5179, 
  "validity": 5180, 
  "damaged": 5181, 
  "precise": 5182, 
  "feed": 5183, 
  "Li": 5184, 
  "contractor": 5185, 
  "Trial": 5186, 
  "legitimacy": 5187, 
  "worry": 5188, 
  "decolonization": 5189, 
  "automatically": 5190, 
  "113": 5191, 
  "kilometres": 5192, 
  "succeed": 5193, 
  "profound": 5194, 
  "miles": 5195, 
  "upgrading": 5196, 
  "munitions": 5197, 
  "helpful": 5198, 
  "acknowledge": 5199, 
  "admission": 5200, 
  "edge": 5201, 
  "interface": 5202, 
  "bl@@": 5203, 
  "duly": 5204, 
  "highlights": 5205, 
  "Bahrain": 5206, 
  "Annual": 5207, 
  "ceremony": 5208, 
  "ve": 5209, 
  "infant": 5210, 
  "，": 5211, 
  "meat": 5212, 
  "ends": 5213, 
  "geographic": 5214, 
  "specify": 5215, 
  "Swiss": 5216, 
  "OSCE": 5217, 
  "ot@@": 5218, 
  "oceans": 5219, 
  "push": 5220, 
  "X@@": 5221, 
  "globally": 5222, 
  "departure": 5223, 
  "settled": 5224, 
  "elaborate": 5225, 
  "farm": 5226, 
  "il": 5227, 
  "permission": 5228, 
  "earnings": 5229, 
  "everybody": 5230, 
  "Paraguay": 5231, 
  "damages": 5232, 
  "UNCCD": 5233, 
  "man@@": 5234, 
  "escape": 5235, 
  "condemned": 5236, 
  "sons": 5237, 
  "stakeholder": 5238, 
  "qu@@": 5239, 
  "Capital": 5240, 
  "minister": 5241, 
  "plastic": 5242, 
  "proposes": 5243, 
  "Taliban": 5244, 
  "Michael": 5245, 
  "ans": 5246, 
  "certificates": 5247, 
  "inherent": 5248, 
  "solar": 5249, 
  "deficit": 5250, 
  "qualifications": 5251, 
  "But": 5252, 
  "broke": 5253, 
  "List": 5254, 
  "battle": 5255, 
  "nonetheless": 5256, 
  "appraisal": 5257, 
  "roll": 5258, 
  "simulation": 5259, 
  "formula": 5260, 
  "buyer": 5261, 
  "tradition": 5262, 
  "furniture": 5263, 
  "designing": 5264, 
  "ous": 5265, 
  "utmost": 5266, 
  "offenders": 5267, 
  "colour": 5268, 
  "efficiently": 5269, 
  "yield": 5270, 
  "regulate": 5271, 
  "Appeal": 5272, 
  "De@@": 5273, 
  "smile": 5274, 
  "narrow": 5275, 
  "Bangkok": 5276, 
  "continuously": 5277, 
  "epidemic": 5278, 
  "e.@@": 5279, 
  "acknowledging": 5280, 
  "hardly": 5281, 
  "stereotypes": 5282, 
  "ozone": 5283, 
  "statutory": 5284, 
  "lo@@": 5285, 
  "hate": 5286, 
  "Niger": 5287, 
  "predictable": 5288, 
  "governed": 5289, 
  "roots": 5290, 
  "securing": 5291, 
  "Presidents": 5292, 
  "FOR": 5293, 
  "fate": 5294, 
  "privacy": 5295, 
  "admitted": 5296, 
  "desirable": 5297, 
  "thoughts": 5298, 
  "islands": 5299, 
  "passing": 5300, 
  "07": 5301, 
  "wing": 5302, 
  "pressing": 5303, 
  "diversification": 5304, 
  "acted": 5305, 
  "virus": 5306, 
  "baseline": 5307, 
  "aspirations": 5308, 
  "livelihoods": 5309, 
  "How": 5310, 
  "obviously": 5311, 
  "redeployment": 5312, 
  "fault": 5313, 
  "Medical": 5314, 
  "Kuwaiti": 5315, 
  "choices": 5316, 
  "listing": 5317, 
  "pledged": 5318, 
  "environments": 5319, 
  "sending": 5320, 
  "networking": 5321, 
  "collaborative": 5322, 
  "ensures": 5323, 
  "documented": 5324, 
  "collecting": 5325, 
  "men@@": 5326, 
  "Mo@@": 5327, 
  "supportive": 5328, 
  "borne": 5329, 
  "ang": 5330, 
  "mankind": 5331, 
  "out@@": 5332, 
  "30@@": 5333, 
  "visible": 5334, 
  "verify": 5335, 
  "rare": 5336, 
  "JIU": 5337, 
  "degrees": 5338, 
  "clothing": 5339, 
  "allocate": 5340, 
  "Follow": 5341, 
  "residential": 5342, 
  "skill": 5343, 
  "supposed": 5344, 
  "examining": 5345, 
  "payable": 5346, 
  "typical": 5347, 
  "databases": 5348, 
  "unemployed": 5349, 
  "27@@": 5350, 
  "executions": 5351, 
  "Djibouti": 5352, 
  "Institutions": 5353, 
  "assumption": 5354, 
  "route": 5355, 
  "prefer": 5356, 
  "fat": 5357, 
  "ECE": 5358, 
  "commonly": 5359, 
  "Estonia": 5360, 
  "finish": 5361, 
  "interviews": 5362, 
  "White": 5363, 
  "judgment": 5364, 
  "phases": 5365, 
  "lots": 5366, 
  "arguments": 5367, 
  "illness": 5368, 
  "cultivation": 5369, 
  "Bar@@": 5370, 
  "walked": 5371, 
  "ke@@": 5372, 
  "Mary": 5373, 
  "reinforcing": 5374, 
  "Note": 5375, 
  "En@@": 5376, 
  "occurs": 5377, 
  "annexes": 5378, 
  "um@@": 5379, 
  "proceeding": 5380, 
  "122": 5381, 
  "ent": 5382, 
  "holiday": 5383, 
  "investigating": 5384, 
  "gift": 5385, 
  "100,000": 5386, 
  "processed": 5387, 
  "bird": 5388, 
  "Fiji": 5389, 
  "challenging": 5390, 
  "At": 5391, 
  "visual": 5392, 
  "weekly": 5393, 
  "kids": 5394, 
  "horse": 5395, 
  "regulated": 5396, 
  "partially": 5397, 
  "ri": 5398, 
  "familiar": 5399, 
  "associate": 5400, 
  "defend": 5401, 
  "res": 5402, 
  "Le@@": 5403, 
  "reflection": 5404, 
  "towns": 5405, 
  "ur@@": 5406, 
  "planet": 5407, 
  "ton": 5408, 
  "classified": 5409, 
  "5,000": 5410, 
  "Workers": 5411, 
  "la@@": 5412, 
  "117": 5413, 
  "controlling": 5414, 
  "Academy": 5415, 
  "Reform": 5416, 
  "settings": 5417, 
  "ie": 5418, 
  "CAT": 5419, 
  "divorce": 5420, 
  "3rd": 5421, 
  "shipment": 5422, 
  "debates": 5423, 
  "walking": 5424, 
  "boundary": 5425, 
  "fallen": 5426, 
  "slavery": 5427, 
  "reverse": 5428, 
  "yang": 5429, 
  "118": 5430, 
  "phrase": 5431, 
  "vary": 5432, 
  "George": 5433, 
  "ator": 5434, 
  "1978": 5435, 
  "vacancies": 5436, 
  "comparable": 5437, 
  "advertising": 5438, 
  "proven": 5439, 
  "26@@": 5440, 
  "totally": 5441, 
  "obstacle": 5442, 
  "delivering": 5443, 
  "smoke": 5444, 
  "Togo": 5445, 
  "lowest": 5446, 
  "Studies": 5447, 
  "thirds": 5448, 
  "thanked": 5449, 
  "Narcotic": 5450, 
  "ak@@": 5451, 
  "Ro@@": 5452, 
  "ai": 5453, 
  "28@@": 5454, 
  "Base": 5455, 
  "Equal": 5456, 
  "Luxembourg": 5457, 
  "acknowledges": 5458, 
  "micro": 5459, 
  "02": 5460, 
  "retention": 5461, 
  "no@@": 5462, 
  "Data": 5463, 
  "commends": 5464, 
  "protective": 5465, 
  "Records": 5466, 
  ".1": 5467, 
  "Free": 5468, 
  "Culture": 5469, 
  "tonight": 5470, 
  "ease": 5471, 
  "800": 5472, 
  "kg": 5473, 
  "GM": 5474, 
  "ist": 5475, 
  "ESCWA": 5476, 
  "pornography": 5477, 
  "opposite": 5478, 
  "birds": 5479, 
  "inequalities": 5480, 
  "wonder": 5481, 
  "A.@@": 5482, 
  "clause": 5483, 
  "shortly": 5484, 
  "meets": 5485, 
  "inadmissible": 5486, 
  "Monterrey": 5487, 
  "1.2": 5488, 
  "sweet": 5489, 
  "Cypriot": 5490, 
  "outset": 5491, 
  "Goal": 5492, 
  "wild": 5493, 
  "2,000": 5494, 
  "shipping": 5495, 
  "cl@@": 5496, 
  "accorded": 5497, 
  "watching": 5498, 
  "guard": 5499, 
  "et@@": 5500, 
  "traditions": 5501, 
  "locally": 5502, 
  "id@@": 5503, 
  "XI": 5504, 
  "ir@@": 5505, 
  "attributed": 5506, 
  "verbale": 5507, 
  "player": 5508, 
  "forestry": 5509, 
  "foreigners": 5510, 
  "flag": 5511, 
  "mere": 5512, 
  "click": 5513, 
  "therapy": 5514, 
  "elaborated": 5515, 
  "licence": 5516, 
  "Voluntary": 5517, 
  "Your": 5518, 
  "under@@": 5519, 
  "boost": 5520, 
  "analysed": 5521, 
  "Peter": 5522, 
  "lending": 5523, 
  "arrive": 5524, 
  "inspections": 5525, 
  "attempted": 5526, 
  "recording": 5527, 
  "fiftieth": 5528, 
  "undertook": 5529, 
  "unacceptable": 5530, 
  "harmony": 5531, 
  "print": 5532, 
  "county": 5533, 
  "unified": 5534, 
  "concentrated": 5535, 
  "symbol": 5536, 
  "awards": 5537, 
  "160": 5538, 
  "CA@@": 5539, 
  "ma": 5540, 
  "pupils": 5541, 
  "friendship": 5542, 
  "dear": 5543, 
  "realities": 5544, 
  "attending": 5545, 
  "insolvency": 5546, 
  "Conflict": 5547, 
  "struck": 5548, 
  "corner": 5549, 
  "Malawi": 5550, 
  "onto": 5551, 
  "dance": 5552, 
  "si": 5553, 
  "church": 5554, 
  "harmonized": 5555, 
  "Iceland": 5556, 
  "Y": 5557, 
  "wherever": 5558, 
  "skilled": 5559, 
  "tic": 5560, 
  "column": 5561, 
  "deposits": 5562, 
  "Golan": 5563, 
  "fragile": 5564, 
  "rescue": 5565, 
  "notion": 5566, 
  "hole": 5567, 
  "motor": 5568, 
  "Body": 5569, 
  "decentralization": 5570, 
  "applicants": 5571, 
  "Lao": 5572, 
  "ch": 5573, 
  "119": 5574, 
  "silence": 5575, 
  "1.5": 5576, 
  "nongovernmental": 5577, 
  "rent": 5578, 
  "plate": 5579, 
  "carrier": 5580, 
  "hatred": 5581, 
  "placement": 5582, 
  "Bo@@": 5583, 
  "Related": 5584, 
  "summits": 5585, 
  "thee": 5586, 
  "su@@": 5587, 
  "1981": 5588, 
  "UNITAR": 5589, 
  "installed": 5590, 
  "Desertification": 5591, 
  "religions": 5592, 
  "Registrar": 5593, 
  "smoking": 5594, 
  "evaluated": 5595, 
  "unlikely": 5596, 
  "simultaneously": 5597, 
  "interpreted": 5598, 
  "140": 5599, 
  "Life": 5600, 
  "\\": 5601, 
  "domain": 5602, 
  "responsive": 5603, 
  "evaluating": 5604, 
  "contingency": 5605, 
  "samples": 5606, 
  "seas": 5607, 
  "Samoa": 5608, 
  "Car@@": 5609, 
  "portfolio": 5610, 
  "justify": 5611, 
  "pe@@": 5612, 
  "teach": 5613, 
  "par@@": 5614, 
  "football": 5615, 
  "Powers": 5616, 
  "25@@": 5617, 
  "destroy": 5618, 
  "eleventh": 5619, 
  "ought": 5620, 
  "tribunals": 5621, 
  "Gulf": 5622, 
  "bases": 5623, 
  "6,@@": 5624, 
  "Congolese": 5625, 
  "é": 5626, 
  "deterioration": 5627, 
  "operators": 5628, 
  "LORD": 5629, 
  "justification": 5630, 
  "125": 5631, 
  "census": 5632, 
  "crop": 5633, 
  "nominated": 5634, 
  "unpaid": 5635, 
  "id": 5636, 
  "killings": 5637, 
  "recurrent": 5638, 
  "Program": 5639, 
  "settle": 5640, 
  "exercised": 5641, 
  "ge@@": 5642, 
  "lift": 5643, 
  "discussing": 5644, 
  "thereafter": 5645, 
  "expense": 5646, 
  "External": 5647, 
  "runs": 5648, 
  "toxic": 5649, 
  "till": 5650, 
  "Conduct": 5651, 
  "reinforced": 5652, 
  "tired": 5653, 
  "Additional": 5654, 
  "calm": 5655, 
  "passage": 5656, 
  "snow": 5657, 
  "wisdom": 5658, 
  "defense": 5659, 
  "exceptions": 5660, 
  "SMEs": 5661, 
  "radioactive": 5662, 
  "micro@@": 5663, 
  "jurisprudence": 5664, 
  "Haitian": 5665, 
  "Accounting": 5666, 
  "mineral": 5667, 
  "adjust": 5668, 
  "Turkmenistan": 5669, 
  "2.5": 5670, 
  "Forests": 5671, 
  "and@@": 5672, 
  "wise": 5673, 
  "kindly": 5674, 
  "releases": 5675, 
  "Botswana": 5676, 
  "guideline": 5677, 
  "1984": 5678, 
  "evolving": 5679, 
  "breakdown": 5680, 
  "everywhere": 5681, 
  "cuts": 5682, 
  "mobilizing": 5683, 
  "Tokelau": 5684, 
  "crossing": 5685, 
  "for@@": 5686, 
  "practitioners": 5687, 
  "allocations": 5688, 
  "manifestations": 5689, 
  "tenure": 5690, 
  "module": 5691, 
  "reliance": 5692, 
  "ethical": 5693, 
  "officially": 5694, 
  "tobacco": 5695, 
  "Conferences": 5696, 
  "ir": 5697, 
  "RC": 5698, 
  "introduces": 5699, 
  "alcohol": 5700, 
  "explicit": 5701, 
  "Royal": 5702, 
  "thin": 5703, 
  "directors": 5704, 
  "bonds": 5705, 
  "Co@@": 5706, 
  "ings": 5707, 
  "negotiate": 5708, 
  "assured": 5709, 
  "04": 5710, 
  "amounting": 5711, 
  "Sir": 5712, 
  "threshold": 5713, 
  "03": 5714, 
  "Ma@@": 5715, 
  "congratulate": 5716, 
  "happens": 5717, 
  "seller": 5718, 
  "medicines": 5719, 
  "ha": 5720, 
  "Ad@@": 5721, 
  "song": 5722, 
  "fulfilled": 5723, 
  "divisions": 5724, 
  "allowances": 5725, 
  "descent": 5726, 
  "exercising": 5727, 
  "transboundary": 5728, 
  "Commerce": 5729, 
  "park": 5730, 
  "forever": 5731, 
  "gun": 5732, 
  "Standard": 5733, 
  "peer": 5734, 
  "ite": 5735, 
  "optional": 5736, 
  "Barbados": 5737, 
  "123": 5738, 
  "Corporation": 5739, 
  "traditionally": 5740, 
  "refusal": 5741, 
  "coast": 5742, 
  "quiet": 5743, 
  "witnessed": 5744, 
  "proud": 5745, 
  "row": 5746, 
  "wake": 5747, 
  "empty": 5748, 
  "Communication": 5749, 
  "Brussels": 5750, 
  "Round": 5751, 
  "unlike": 5752, 
  "abolition": 5753, 
  "lesson": 5754, 
  "Decolonization": 5755, 
  "strive": 5756, 
  "preferred": 5757, 
  "Liechtenstein": 5758, 
  "Systems": 5759, 
  "Regulation": 5760, 
  "somewhat": 5761, 
  "streets": 5762, 
  "anti@@": 5763, 
  "ratifying": 5764, 
  "liable": 5765, 
  "me@@": 5766, 
  "mistake": 5767, 
  "valuation": 5768, 
  "reliability": 5769, 
  "taught": 5770, 
  "po@@": 5771, 
  "managerial": 5772, 
  "Madrid": 5773, 
  "arranged": 5774, 
  "telling": 5775, 
  "debris": 5776, 
  "Paul": 5777, 
  "Common": 5778, 
  "commentary": 5779, 
  "NATO": 5780, 
  "testimony": 5781, 
  ".2": 5782, 
  "shoes": 5783, 
  "1973": 5784, 
  "mechanical": 5785, 
  "restaurant": 5786, 
  "buying": 5787, 
  "OAU": 5788, 
  "fairly": 5789, 
  "Works": 5790, 
  "participant": 5791, 
  "benchmarks": 5792, 
  "ana": 5793, 
  "Production": 5794, 
  "piracy": 5795, 
  "Diversity": 5796, 
  "gate": 5797, 
  "Su@@": 5798, 
  "121": 5799, 
  "virtue": 5800, 
  "withdrawn": 5801, 
  "younger": 5802, 
  "ds": 5803, 
  "possess": 5804, 
  "quantitative": 5805, 
  "Unity": 5806, 
  "theoretical": 5807, 
  "Christian": 5808, 
  "ism": 5809, 
  "Consensus": 5810, 
  "SA@@": 5811, 
  "AN@@": 5812, 
  "underscored": 5813, 
  "punished": 5814, 
  "km": 5815, 
  "punish": 5816, 
  "As@@": 5817, 
  "creditors": 5818, 
  "Distr": 5819, 
  "bis": 5820, 
  "bid": 5821, 
  "H.": 5822, 
  "voters": 5823, 
  "maximize": 5824, 
  "Soviet": 5825, 
  "flat": 5826, 
  "answers": 5827, 
  "Park": 5828, 
  "Prosecution": 5829, 
  "denial": 5830, 
  "Add.2": 5831, 
  "RE@@": 5832, 
  "ons": 5833, 
  "creates": 5834, 
  "advocate": 5835, 
  "screening": 5836, 
  "Ex@@": 5837, 
  "evil": 5838, 
  "elect": 5839, 
  "malnutrition": 5840, 
  "Aid": 5841, 
  "intensified": 5842, 
  "Wang": 5843, 
  "motivated": 5844, 
  "journey": 5845, 
  "imported": 5846, 
  "timetable": 5847, 
  "Commander": 5848, 
  "stipulates": 5849, 
  "structured": 5850, 
  "audits": 5851, 
  "Man@@": 5852, 
  "fellow": 5853, 
  "passengers": 5854, 
  "sincere": 5855, 
  "distinguished": 5856, 
  "modernization": 5857, 
  "2.1": 5858, 
  "vessel": 5859, 
  "nobody": 5860, 
  "Mu@@": 5861, 
  "personality": 5862, 
  "Madagascar": 5863, 
  "shortage": 5864, 
  "Ensure": 5865, 
  "specialists": 5866, 
  "Account": 5867, 
  "sheet": 5868, 
  "impartiality": 5869, 
  "configuration": 5870, 
  "Workshop": 5871, 
  "venture": 5872, 
  "humans": 5873, 
  "ment": 5874, 
  "INF": 5875, 
  "succession": 5876, 
  "excuse": 5877, 
  "breaking": 5878, 
  "workforce": 5879, 
  "wording": 5880, 
  "Cape": 5881, 
  "revolution": 5882, 
  "appealed": 5883, 
  "cool": 5884, 
  "appropriately": 5885, 
  "demonstration": 5886, 
  "render": 5887, 
  "hosting": 5888, 
  "immigrants": 5889, 
  "wearing": 5890, 
  "ling": 5891, 
  "excluding": 5892, 
  "tu@@": 5893, 
  "Further": 5894, 
  "Ali": 5895, 
  "refuse": 5896, 
  "announcement": 5897, 
  "crowd": 5898, 
  "1.1": 5899, 
  "intend": 5900, 
  "metres": 5901, 
  "salt": 5902, 
  "ra": 5903, 
  "satisfy": 5904, 
  "glad": 5905, 
  "disparities": 5906, 
  "resilience": 5907, 
  "Tribunals": 5908, 
  "2020": 5909, 
  "Bolivarian": 5910, 
  "ked": 5911, 
  "parliament": 5912, 
  "missiles": 5913, 
  "Sh@@": 5914, 
  "Final": 5915, 
  "holistic": 5916, 
  "Level": 5917, 
  "alive": 5918, 
  "decisive": 5919, 
  "consist": 5920, 
  "enables": 5921, 
  "avoiding": 5922, 
  "server": 5923, 
  "Tokyo": 5924, 
  "utility": 5925, 
  "births": 5926, 
  "placing": 5927, 
  "Saturday": 5928, 
  "bag": 5929, 
  "UNMIS": 5930, 
  "ding": 5931, 
  "forming": 5932, 
  "aforementioned": 5933, 
  "imagine": 5934, 
  "confirmation": 5935, 
  "irrespective": 5936, 
  "patrol": 5937, 
  "ES": 5938, 
  "sugar": 5939, 
  "spoken": 5940, 
  "Number": 5941, 
  "IS@@": 5942, 
  "Registry": 5943, 
  "desired": 5944, 
  "surprise": 5945, 
  "blind": 5946, 
  "TD": 5947, 
  "7,@@": 5948, 
  "pillar": 5949, 
  "Pro@@": 5950, 
  "Election": 5951, 
  "remind": 5952, 
  "Capacity": 5953, 
  "capture": 5954, 
  "Mine": 5955, 
  "accomplished": 5956, 
  "imposition": 5957, 
  "Maritime": 5958, 
  "so@@": 5959, 
  "joy": 5960, 
  "4th": 5961, 
  "supplied": 5962, 
  "lady": 5963, 
  "receives": 5964, 
  "180": 5965, 
  "der@@": 5966, 
  "violate": 5967, 
  "incorporating": 5968, 
  "optimal": 5969, 
  "Un@@": 5970, 
  "apparently": 5971, 
  "St.": 5972, 
  "orbit": 5973, 
  "guess": 5974, 
  "ba": 5975, 
  "accommodate": 5976, 
  "communicated": 5977, 
  "hi@@": 5978, 
  "Decision": 5979, 
  "decree": 5980, 
  "marry": 5981, 
  "criticism": 5982, 
  "ay@@": 5983, 
  "ph@@": 5984, 
  "thesis": 5985, 
  "alien": 5986, 
  "utilize": 5987, 
  "wonderful": 5988, 
  "novel": 5989, 
  "ov": 5990, 
  "silver": 5991, 
  "puts": 5992, 
  "prime": 5993, 
  "CO@@": 5994, 
  "tendency": 5995, 
  "J": 5996, 
  "au": 5997, 
  "1949": 5998, 
  "navigation": 5999, 
  "resettlement": 6000, 
  "emotional": 6001, 
  "voted": 6002, 
  "tribute": 6003, 
  "2.2": 6004, 
  "broadly": 6005, 
  "acceded": 6006, 
  "Colonial": 6007, 
  "clarified": 6008, 
  "sponsoring": 6009, 
  "euro": 6010, 
  "abstentions": 6011, 
  "Matters": 6012, 
  "losing": 6013, 
  "arrange": 6014, 
  "briefed": 6015, 
  "Maldives": 6016, 
  "23@@": 6017, 
  "ina": 6018, 
  "concludes": 6019, 
  "UNAIDS": 6020, 
  "club": 6021, 
  "prosecuted": 6022, 
  "Personal": 6023, 
  "shortcomings": 6024, 
  "Woods": 6025, 
  "begins": 6026, 
  "circulation": 6027, 
  "arbitral": 6028, 
  "virtually": 6029, 
  "jurisdictions": 6030, 
  "identical": 6031, 
  "gather": 6032, 
  "writer": 6033, 
  "routine": 6034, 
  "posted": 6035, 
  "survivors": 6036, 
  "700": 6037, 
  "dust": 6038, 
  "mix": 6039, 
  "Register": 6040, 
  "independently": 6041, 
  "visa": 6042, 
  "comprise": 6043, 
  "124": 6044, 
  "PC": 6045, 
  "155": 6046, 
  "Chairs": 6047, 
  "absolutely": 6048, 
  "Suppression": 6049, 
  "hi": 6050, 
  "10,000": 6051, 
  "UNU": 6052, 
  "stars": 6053, 
  "Jean": 6054, 
  "courage": 6055, 
  "car@@": 6056, 
  "hey": 6057, 
  "ks": 6058, 
  "intimidation": 6059, 
  "Judge": 6060, 
  "marks": 6061, 
  "MINUSTAH": 6062, 
  "Holy": 6063, 
  "PA@@": 6064, 
  "freeze": 6065, 
  "ST": 6066, 
  "ke": 6067, 
  "taste": 6068, 
  "accelerated": 6069, 
  "Responsible": 6070, 
  "gu@@": 6071, 
  "nationally": 6072, 
  "1979": 6073, 
  "ies": 6074, 
  "economics": 6075, 
  "Puerto": 6076, 
  "Parliamentary": 6077, 
  "Judicial": 6078, 
  "ECLAC": 6079, 
  "Moscow": 6080, 
  "compound": 6081, 
  "stick": 6082, 
  "diet": 6083, 
  "ent@@": 6084, 
  "3,000": 6085, 
  "Green": 6086, 
  "disseminated": 6087, 
  "2016": 6088, 
  "usage": 6089, 
  "Per@@": 6090, 
  "ish": 6091, 
  "J.": 6092, 
  "Copenhagen": 6093, 
  "Manual": 6094, 
  "beat": 6095, 
  "attainment": 6096, 
  "upcoming": 6097, 
  "commencement": 6098, 
  "genital": 6099, 
  "strange": 6100, 
  "attacked": 6101, 
  "updates": 6102, 
  "1540": 6103, 
  "Guyana": 6104, 
  "detect": 6105, 
  "ti": 6106, 
  "SC": 6107, 
  "drivers": 6108, 
  "coordinates": 6109, 
  "Johannesburg": 6110, 
  "Mauritania": 6111, 
  "presenting": 6112, 
  "pair": 6113, 
  "Wall": 6114, 
  "receivable": 6115, 
  "Inter@@": 6116, 
  "threaten": 6117, 
  "prominent": 6118, 
  "Jack": 6119, 
  "resumption": 6120, 
  "rotation": 6121, 
  "unnecessary": 6122, 
  "characters": 6123, 
  "isolation": 6124, 
  "aren": 6125, 
  "Is": 6126, 
  "standardized": 6127, 
  "ibid": 6128, 
  "fertility": 6129, 
  "Steering": 6130, 
  "counterparts": 6131, 
  "belong": 6132, 
  "politically": 6133, 
  "shopping": 6134, 
  "investigative": 6135, 
  "Immigration": 6136, 
  "conversation": 6137, 
  "diplomacy": 6138, 
  "disappeared": 6139, 
  "128": 6140, 
  "incorporation": 6141, 
  "ta": 6142, 
  "reputation": 6143, 
  "é@@": 6144, 
  "exact": 6145, 
  "spouse": 6146, 
  "alternate": 6147, 
  "pull": 6148, 
  "Press": 6149, 
  "CDM": 6150, 
  "138": 6151, 
  "dismissed": 6152, 
  "commenced": 6153, 
  "supplement": 6154, 
  "penal": 6155, 
  "remarkable": 6156, 
  "Articles": 6157, 
  "tions": 6158, 
  "Practice": 6159, 
  "substitute": 6160, 
  "eg@@": 6161, 
  "tears": 6162, 
  "prosecutor": 6163, 
  "females": 6164, 
  "attain": 6165, 
  "adapted": 6166, 
  "briefly": 6167, 
  "synthesis": 6168, 
  "bo@@": 6169, 
  "Application": 6170, 
  "ci@@": 6171, 
  "7.@@": 6172, 
  "solving": 6173, 
  "twelfth": 6174, 
  "quantities": 6175, 
  "yellow": 6176, 
  "volunteers": 6177, 
  "divide": 6178, 
  "investing": 6179, 
  "weaknesses": 6180, 
  "flights": 6181, 
  "miscellaneous": 6182, 
  "hearings": 6183, 
  "virtual": 6184, 
  "assumptions": 6185, 
  "experiments": 6186, 
  "Ab@@": 6187, 
  "spokesman": 6188, 
  "boards": 6189, 
  "ty": 6190, 
  "politicians": 6191, 
  "stating": 6192, 
  "les": 6193, 
  "diamonds": 6194, 
  "shut": 6195, 
  "134": 6196, 
  "exhausted": 6197, 
  "8,@@": 6198, 
  "CERD": 6199, 
  "timing": 6200, 
  "Page": 6201, 
  "emergence": 6202, 
  "AMISOM": 6203, 
  "scenario": 6204, 
  "angry": 6205, 
  "guaranteeing": 6206, 
  "entrepreneurs": 6207, 
  "burning": 6208, 
  "sad": 6209, 
  "secretariats": 6210, 
  "vi@@": 6211, 
  "directions": 6212, 
  "rapporteurs": 6213, 
  "preambular": 6214, 
  "stabilization": 6215, 
  "Cairo": 6216, 
  "prolonged": 6217, 
  "realizing": 6218, 
  "coordinators": 6219, 
  "Prince": 6220, 
  "argues": 6221, 
  "aligned": 6222, 
  "spheres": 6223, 
  "153": 6224, 
  "casualties": 6225, 
  "deleted": 6226, 
  "default": 6227, 
  ".4": 6228, 
  "chairman": 6229, 
  "Governor": 6230, 
  "vice": 6231, 
  "machines": 6232, 
  "pl@@": 6233, 
  "Personnel": 6234, 
  "recover": 6235, 
  "Illicit": 6236, 
  "dreams": 6237, 
  "victory": 6238, 
  "diamond": 6239, 
  "tank": 6240, 
  "intent": 6241, 
  "convey": 6242, 
  "lacking": 6243, 
  "weekend": 6244, 
  "militia": 6245, 
  "draws": 6246, 
  "Marine": 6247, 
  "sand": 6248, 
  "clarity": 6249, 
  "Zone": 6250, 
  "bond": 6251, 
  "Arbitration": 6252, 
  "broadcast": 6253, 
  "institutes": 6254, 
  "ps": 6255, 
  "Insurance": 6256, 
  "hardware": 6257, 
  "ambitious": 6258, 
  "cope": 6259, 
  "parental": 6260, 
  "linking": 6261, 
  "bu@@": 6262, 
  "limiting": 6263, 
  "UNFCCC": 6264, 
  "st": 6265, 
  "promised": 6266, 
  "tariff": 6267, 
  "feels": 6268, 
  "Ltd": 6269, 
  "ID": 6270, 
  "rarely": 6271, 
  "P.@@": 6272, 
  "wondered": 6273, 
  "suicide": 6274, 
  "herewith": 6275, 
  "licensing": 6276, 
  "of@@": 6277, 
  "Sudanese": 6278, 
  "Addis": 6279, 
  "underlines": 6280, 
  "ma@@": 6281, 
  "adversely": 6282, 
  "painting": 6283, 
  "terrible": 6284, 
  "Degrading": 6285, 
  "breast": 6286, 
  "proactive": 6287, 
  "sudden": 6288, 
  "semi": 6289, 
  "certified": 6290, 
  "infected": 6291, 
  "universality": 6292, 
  "2017": 6293, 
  "incompatible": 6294, 
  "Coordinating": 6295, 
  "recession": 6296, 
  "beliefs": 6297, 
  "126": 6298, 
  "spectrum": 6299, 
  "supplier": 6300, 
  "Par@@": 6301, 
  "cleaning": 6302, 
  "extrajudicial": 6303, 
  "Organisation": 6304, 
  "attractive": 6305, 
  "adds": 6306, 
  "claimants": 6307, 
  "Baghdad": 6308, 
  "neighbours": 6309, 
  "smart": 6310, 
  "Adoption": 6311, 
  "multi@@": 6312, 
  "carries": 6313, 
  "9.@@": 6314, 
  "entrepreneurship": 6315, 
  "Ababa": 6316, 
  "questioned": 6317, 
  "regulating": 6318, 
  "discretion": 6319, 
  "Ac@@": 6320, 
  "assault": 6321, 
  "Trinidad": 6322, 
  "profession": 6323, 
  "ports": 6324, 
  "birthday": 6325, 
  "developmental": 6326, 
  "Violations": 6327, 
  "issuing": 6328, 
  "band": 6329, 
  "earned": 6330, 
  "consulted": 6331, 
  "Inhuman": 6332, 
  "agrees": 6333, 
  "countering": 6334, 
  "promulgated": 6335, 
  "isolated": 6336, 
  "Cabinet": 6337, 
  "Bretton": 6338, 
  "ballot": 6339, 
  "Victims": 6340, 
  "ters": 6341, 
  "programmatic": 6342, 
  "Rule": 6343, 
  "landscape": 6344, 
  "SR.@@": 6345, 
  "notify": 6346, 
  "revitalization": 6347, 
  "expects": 6348, 
  "circuit": 6349, 
  "installations": 6350, 
  "neutral": 6351, 
  "intersessional": 6352, 
  "panels": 6353, 
  "marriages": 6354, 
  "foods": 6355, 
  "returnees": 6356, 
  "reserved": 6357, 
  "colonial": 6358, 
  "thirteenth": 6359, 
  "storm": 6360, 
  "pertinent": 6361, 
  "1983": 6362, 
  "ICRC": 6363, 
  "modest": 6364, 
  "mutilation": 6365, 
  "accreditation": 6366, 
  "monitors": 6367, 
  "corporal": 6368, 
  "reconnaissance": 6369, 
  "spouses": 6370, 
  "compatible": 6371, 
  "Rwandan": 6372, 
  "magnitude": 6373, 
  "du@@": 6374, 
  "Granting": 6375, 
  "interdependence": 6376, 
  "ley": 6377, 
  "cat": 6378, 
  "prohibits": 6379, 
  "uphold": 6380, 
  "mapping": 6381, 
  "examinations": 6382, 
  "ence": 6383, 
  "inner": 6384, 
  "wounded": 6385, 
  "aiming": 6386, 
  "bone": 6387, 
  "conscious": 6388, 
  "dynamics": 6389, 
  "warrant": 6390, 
  "confidentiality": 6391, 
  "cooperating": 6392, 
  "ology": 6393, 
  "ative": 6394, 
  "prohibiting": 6395, 
  "indirectly": 6396, 
  "preference": 6397, 
  "Serious": 6398, 
  "council": 6399, 
  "farming": 6400, 
  "Table": 6401, 
  "essence": 6402, 
  "guys": 6403, 
  "livelihood": 6404, 
  "clearing": 6405, 
  "circled": 6406, 
  "do@@": 6407, 
  "ard": 6408, 
  "CEB": 6409, 
  "ker": 6410, 
  "revisions": 6411, 
  "native": 6412, 
  "oc@@": 6413, 
  "1.15": 6414, 
  "Two": 6415, 
  "fails": 6416, 
  "Lakes": 6417, 
  "varied": 6418, 
  "NATIONS": 6419, 
  "handled": 6420, 
  "valued": 6421, 
  "UN@@": 6422, 
  "ally": 6423, 
  "ore": 6424, 
  "misconduct": 6425, 
  "upgrade": 6426, 
  "135": 6427, 
  "3.1": 6428, 
  "182": 6429, 
  "turns": 6430, 
  "talent": 6431, 
  "sexually": 6432, 
  "rough": 6433, 
  "corrections": 6434, 
  "appropriations": 6435, 
  "collectively": 6436, 
  "qualitative": 6437, 
  "expressly": 6438, 
  "explored": 6439, 
  "2.3": 6440, 
  "Care": 6441, 
  "HUMAN": 6442, 
  "stimulate": 6443, 
  "Am@@": 6444, 
  "aliens": 6445, 
  "modules": 6446, 
  "sc@@": 6447, 
  "conscience": 6448, 
  "pictures": 6449, 
  "deferred": 6450, 
  "silent": 6451, 
  "Treasury": 6452, 
  "prospect": 6453, 
  "129": 6454, 
  "debtor": 6455, 
  "precisely": 6456, 
  "pure": 6457, 
  "restrict": 6458, 
  "earliest": 6459, 
  "tour": 6460, 
  "affirmed": 6461, 
  "pensions": 6462, 
  "satellites": 6463, 
  "sounds": 6464, 
  "Guam": 6465, 
  "holder": 6466, 
  "twelve": 6467, 
  "bigger": 6468, 
  "listening": 6469, 
  "132": 6470, 
  "criterion": 6471, 
  "gradual": 6472, 
  "AP@@": 6473, 
  "objections": 6474, 
  "perception": 6475, 
  "disappearances": 6476, 
  "Tobago": 6477, 
  "surely": 6478, 
  "knowing": 6479, 
  "Agricultural": 6480, 
  "peak": 6481, 
  "revise": 6482, 
  "anger": 6483, 
  "saved": 6484, 
  "cry": 6485, 
  "wet": 6486, 
  "collapse": 6487, 
  "up@@": 6488, 
  "enquiry": 6489, 
  "OK": 6490, 
  "discusses": 6491, 
  "ini": 6492, 
  "newspapers": 6493, 
  "Urban": 6494, 
  "variance": 6495, 
  "exit": 6496, 
  "HR": 6497, 
  "forecast": 6498, 
  "Gabon": 6499, 
  "rational": 6500, 
  "trans@@": 6501, 
  "19@@": 6502, 
  "Cruel": 6503, 
  "Attorney": 6504, 
  "dependence": 6505, 
  "abandoned": 6506, 
  "expedite": 6507, 
  "Port": 6508, 
  "avoided": 6509, 
  "spiritual": 6510, 
  "endeavours": 6511, 
  "Qu@@": 6512, 
  "intensity": 6513, 
  "consultant": 6514, 
  "printed": 6515, 
  "24@@": 6516, 
  ".The": 6517, 
  "lunch": 6518, 
  "133": 6519, 
  "moves": 6520, 
  "terror": 6521, 
  "grain": 6522, 
  "analysing": 6523, 
  "XV": 6524, 
  "shoulder": 6525, 
  "linguistic": 6526, 
  "pour": 6527, 
  "recourse": 6528, 
  "ur": 6529, 
  "GS": 6530, 
  "stream": 6531, 
  "boundaries": 6532, 
  "urbanization": 6533, 
  "versions": 6534, 
  "defines": 6535, 
  "landmines": 6536, 
  "chart": 6537, 
  "quota": 6538, 
  "ticket": 6539, 
  "alleviate": 6540, 
  "ators": 6541, 
  "cessation": 6542, 
  "Bhutan": 6543, 
  "5th": 6544, 
  "comfortable": 6545, 
  "threatening": 6546, 
  "exceeding": 6547, 
  "adhere": 6548, 
  "freight": 6549, 
  "irregular": 6550, 
  "sensing": 6551, 
  "failing": 6552, 
  "gh@@": 6553, 
  "inalienable": 6554, 
  "exploring": 6555, 
  "systemic": 6556, 
  "honest": 6557, 
  "Do": 6558, 
  "nineteenth": 6559, 
  "tri@@": 6560, 
  "ob@@": 6561, 
  "stuff": 6562, 
  "WP.@@": 6563, 
  "creditor": 6564, 
  "9,@@": 6565, 
  "dramatic": 6566, 
  "custom": 6567, 
  "Add.@@": 6568, 
  "concentrate": 6569, 
  "meal": 6570, 
  "dangers": 6571, 
  "ll": 6572, 
  "projections": 6573, 
  "walls": 6574, 
  "unanimously": 6575, 
  "3.2": 6576, 
  "8.@@": 6577, 
  "Domestic": 6578, 
  "checks": 6579, 
  "bread": 6580, 
  "declining": 6581, 
  "appendix": 6582, 
  "ep@@": 6583, 
  "thoroughly": 6584, 
  "du": 6585, 
  "socially": 6586, 
  "intense": 6587, 
  "reparation": 6588, 
  "accede": 6589, 
  "accredited": 6590, 
  "liquidation": 6591, 
  "incomes": 6592, 
  "feeding": 6593, 
  "operates": 6594, 
  "GA": 6595, 
  "racist": 6596, 
  "publish": 6597, 
  "alleviation": 6598, 
  "Sha@@": 6599, 
  "Time": 6600, 
  "privileges": 6601, 
  "surgery": 6602, 
  "Against": 6603, 
  "IMO": 6604, 
  "proceeded": 6605, 
  "inconsistent": 6606, 
  "influenced": 6607, 
  "accord": 6608, 
  "positively": 6609, 
  "centred": 6610, 
  "Qaida": 6611, 
  "au@@": 6612, 
  "CCW": 6613, 
  "currencies": 6614, 
  "UNFICYP": 6615, 
  "magazine": 6616, 
  "lying": 6617, 
  "abide": 6618, 
  "Liberian": 6619, 
  "mindful": 6620, 
  "patrols": 6621, 
  "1970": 6622, 
  "renewal": 6623, 
  "logical": 6624, 
  "tonnes": 6625, 
  "nationwide": 6626, 
  "reveal": 6627, 
  "translate": 6628, 
  "subprogrammes": 6629, 
  "Tax": 6630, 
  "attaches": 6631, 
  "throw": 6632, 
  "promising": 6633, 
  "ne@@": 6634, 
  "earn": 6635, 
  "Rotterdam": 6636, 
  "succeeded": 6637, 
  "restriction": 6638, 
  "designate": 6639, 
  "wedding": 6640, 
  "sees": 6641, 
  "introductory": 6642, 
  "contributors": 6643, 
  "ak": 6644, 
  "recosting": 6645, 
  "cup": 6646, 
  "Th@@": 6647, 
  "commend": 6648, 
  "segments": 6649, 
  "density": 6650, 
  "deny": 6651, 
  "ay": 6652, 
  "incitement": 6653, 
  "mountains": 6654, 
  "Rural": 6655, 
  "halt": 6656, 
  "Sexual": 6657, 
  "modification": 6658, 
  "dan": 6659, 
  "errors": 6660, 
  "bills": 6661, 
  "Smith": 6662, 
  "quarterly": 6663, 
  "indicative": 6664, 
  "purchasing": 6665, 
  "poses": 6666, 
  "mistakes": 6667, 
  "filling": 6668, 
  "Aviation": 6669, 
  "California": 6670, 
  "MA@@": 6671, 
  "Commercial": 6672, 
  "Home": 6673, 
  "brothers": 6674, 
  "incumbent": 6675, 
  "mon@@": 6676, 
  "Statement": 6677, 
  "matrix": 6678, 
  "Engineering": 6679, 
  "annexed": 6680, 
  "169": 6681, 
  "sponsor": 6682, 
  "perpetrated": 6683, 
  "authorize": 6684, 
  "endorses": 6685, 
  "steadily": 6686, 
  "individually": 6687, 
  "persistence": 6688, 
  "tin@@": 6689, 
  "constructed": 6690, 
  "Establishment": 6691, 
  "seed": 6692, 
  "philosophy": 6693, 
  "Liberation": 6694, 
  "waves": 6695, 
  "Outcome": 6696, 
  "Papua": 6697, 
  "inventories": 6698, 
  "meantime": 6699, 
  "CMP": 6700, 
  "specialist": 6701, 
  "Tourism": 6702, 
  "routes": 6703, 
  "ge": 6704, 
  "tight": 6705, 
  "Light": 6706, 
  "relocation": 6707, 
  "Summary": 6708, 
  "prerequisite": 6709, 
  "Investigation": 6710, 
  "ian": 6711, 
  "141": 6712, 
  "Natural": 6713, 
  "alignment": 6714, 
  "im": 6715, 
  "respects": 6716, 
  "keeps": 6717, 
  "Tibet": 6718, 
  "1.3": 6719, 
  "Chemicals": 6720, 
  "bulk": 6721, 
  "respecting": 6722, 
  "earmarked": 6723, 
  "gravity": 6724, 
  "blow": 6725, 
  "roster": 6726, 
  "logic": 6727, 
  "4.1": 6728, 
  "Multilateral": 6729, 
  "pressures": 6730, 
  "invoked": 6731, 
  "Senate": 6732, 
  "secretary": 6733, 
  "convenient": 6734, 
  "sensitivity": 6735, 
  "notified": 6736, 
  "Presidency": 6737, 
  "everyday": 6738, 
  "dogs": 6739, 
  "6th": 6740, 
  "ev@@": 6741, 
  "photo": 6742, 
  "127": 6743, 
  "starts": 6744, 
  "AR@@": 6745, 
  "readily": 6746, 
  "illiteracy": 6747, 
  "Istanbul": 6748, 
  "fifteenth": 6749, 
  "expendable": 6750, 
  "Martin": 6751, 
  "explosives": 6752, 
  "hostile": 6753, 
  "inability": 6754, 
  "chains": 6755, 
  "2.4": 6756, 
  "hazards": 6757, 
  "Harry": 6758, 
  "900": 6759, 
  "completing": 6760, 
  "adolescent": 6761, 
  "respondents": 6762, 
  "stored": 6763, 
  "Reserve": 6764, 
  "hazard": 6765, 
  "removing": 6766, 
  "vertical": 6767, 
  "filing": 6768, 
  "Response": 6769, 
  "tough": 6770, 
  "Exchange": 6771, 
  "Americas": 6772, 
  "OP": 6773, 
  "owed": 6774, 
  "exemption": 6775, 
  "fi@@": 6776, 
  "El@@": 6777, 
  "temporarily": 6778, 
  "cotton": 6779, 
  "Genocide": 6780, 
  "defendant": 6781, 
  "railway": 6782, 
  "shelters": 6783, 
  "exceeded": 6784, 
  "explanations": 6785, 
  "transform": 6786, 
  "ver@@": 6787, 
  "disseminating": 6788, 
  "1975": 6789, 
  "eliminated": 6790, 
  "162": 6791, 
  "lifting": 6792, 
  "disclosed": 6793, 
  "endorsement": 6794, 
  "ins": 6795, 
  "naturally": 6796, 
  "contingents": 6797, 
  "lock": 6798, 
  "CARICOM": 6799, 
  "wi@@": 6800, 
  "Governance": 6801, 
  "periodically": 6802, 
  "recovered": 6803, 
  "compare": 6804, 
  "invested": 6805, 
  "demonstrates": 6806, 
  "infections": 6807, 
  "tongue": 6808, 
  "Com@@": 6809, 
  "circle": 6810, 
  "entail": 6811, 
  "Eradication": 6812, 
  "ants": 6813, 
  "131": 6814, 
  "Seminar": 6815, 
  "renew": 6816, 
  "1974": 6817, 
  "policymaking": 6818, 
  "Resident": 6819, 
  "likes": 6820, 
  "warned": 6821, 
  "sessional": 6822, 
  "XII": 6823, 
  "suspect": 6824, 
  "ani": 6825, 
  "teeth": 6826, 
  "COMMITTEE": 6827, 
  "Amendment": 6828, 
  "commence": 6829, 
  "instalment": 6830, 
  "Bonn": 6831, 
  "fears": 6832, 
  "civilization": 6833, 
  "rocket": 6834, 
  "platforms": 6835, 
  "neck": 6836, 
  "somebody": 6837, 
  "conceptual": 6838, 
  "4.2": 6839, 
  "tender": 6840, 
  "camera": 6841, 
  "Blue": 6842, 
  "incentive": 6843, 
  "surprised": 6844, 
  "kitchen": 6845, 
  "chapters": 6846, 
  "barrier": 6847, 
  "Swedish": 6848, 
  "arrears": 6849, 
  "hidden": 6850, 
  "punishable": 6851, 
  "wrongful": 6852, 
  "136": 6853, 
  "eligibility": 6854, 
  "ignored": 6855, 
  "hall": 6856, 
  "highlighting": 6857, 
  "ity": 6858, 
  "Danish": 6859, 
  "dumping": 6860, 
  "Be": 6861, 
  "induced": 6862, 
  "graduate": 6863, 
  "end@@": 6864, 
  "windows": 6865, 
  "abilities": 6866, 
  "Cor@@": 6867, 
  "chairs": 6868, 
  "leg": 6869, 
  "ness": 6870, 
  "Gibraltar": 6871, 
  "Programmes": 6872, 
  "Goods": 6873, 
  "talked": 6874, 
  "taxation": 6875, 
  "attach": 6876, 
  "thinks": 6877, 
  "Peaceful": 6878, 
  "professor": 6879, 
  "occurring": 6880, 
  "shock": 6881, 
  "Racism": 6882, 
  "They": 6883, 
  "tragic": 6884, 
  "lease": 6885, 
  "Where": 6886, 
  "height": 6887, 
  "websites": 6888, 
  "wire": 6889, 
  "argue": 6890, 
  "suspects": 6891, 
  "Letter": 6892, 
  "apportionment": 6893, 
  "AS@@": 6894, 
  "ride": 6895, 
  "lights": 6896, 
  "Im": 6897, 
  "Lu@@": 6898, 
  "uh": 6899, 
  "à": 6900, 
  "implies": 6901, 
  "uranium": 6902, 
  "repeat": 6903, 
  "News": 6904, 
  "inheritance": 6905, 
  "workplan": 6906, 
  "tremendous": 6907, 
  "Me@@": 6908, 
  "unusual": 6909, 
  "~": 6910, 
  "3.3": 6911, 
  "Bi@@": 6912, 
  "hill": 6913, 
  "generous": 6914, 
  "Dis@@": 6915, 
  "Integration": 6916, 
  "v": 6917, 
  "ati@@": 6918, 
  "Hu@@": 6919, 
  "deploy": 6920, 
  "lawful": 6921, 
  "empower": 6922, 
  "industrialized": 6923, 
  "Olympics": 6924, 
  "harmonize": 6925, 
  "protein": 6926, 
  "gases": 6927, 
  "reproduced": 6928, 
  "Long": 6929, 
  "Take": 6930, 
  "confiscation": 6931, 
  "alike": 6932, 
  "verified": 6933, 
  "publishing": 6934, 
  "shadow": 6935, 
  "comprised": 6936, 
  "Liaison": 6937, 
  "audio": 6938, 
  "supervisory": 6939, 
  "Gu@@": 6940, 
  "Lesotho": 6941, 
  "Z": 6942, 
  "accomplishment": 6943, 
  "stores": 6944, 
  "males": 6945, 
  "nose": 6946, 
  "aggregate": 6947, 
  "super@@": 6948, 
  "For@@": 6949, 
  "heaven": 6950, 
  "DC": 6951, 
  "cancellation": 6952, 
  "wars": 6953, 
  "modify": 6954, 
  "favorite": 6955, 
  "Be@@": 6956, 
  "Islam": 6957, 
  "consolidating": 6958, 
  "1980s": 6959, 
  "Committed": 6960, 
  "Sal@@": 6961, 
  "un": 6962, 
  "Based": 6963, 
  "artificial": 6964, 
  "jump": 6965, 
  "Mor@@": 6966, 
  "deficiencies": 6967, 
  "consulting": 6968, 
  "C.4": 6969, 
  "Chambers": 6970, 
  "nomination": 6971, 
  "switch": 6972, 
  "hardship": 6973, 
  "Mon@@": 6974, 
  "flower": 6975, 
  "Line": 6976, 
  "personally": 6977, 
  "^": 6978, 
  "clock": 6979, 
  "Inspectors": 6980, 
  "tive": 6981, 
  "MINURSO": 6982, 
  "nominations": 6983, 
  "impression": 6984, 
  "static": 6985, 
  "councils": 6986, 
  "precision": 6987, 
  "noticed": 6988, 
  "contexts": 6989, 
  "com@@": 6990, 
  "differential": 6991, 
  "sake": 6992, 
  "ten@@": 6993, 
  "vacant": 6994, 
  "internet": 6995, 
  "rejection": 6996, 
  "debts": 6997, 
  "gen@@": 6998, 
  "AC.109": 6999, 
  "moratorium": 7000, 
  "flood": 7001, 
  "marking": 7002, 
  "By": 7003, 
  "tion": 7004, 
  "iz@@": 7005, 
  "Mainland": 7006, 
  "exclude": 7007, 
  "occurrence": 7008, 
  "40@@": 7009, 
  "packages": 7010, 
  "email": 7011, 
  "Grand": 7012, 
  "postponed": 7013, 
  "tuberculosis": 7014, 
  "PRESIDENT": 7015, 
  "passenger": 7016, 
  "Market": 7017, 
  "accelerating": 7018, 
  "res@@": 7019, 
  "143": 7020, 
  "symptoms": 7021, 
  "devastating": 7022, 
  "precious": 7023, 
  "demonstrations": 7024, 
  "violating": 7025, 
  "ari": 7026, 
  "explains": 7027, 
  "methodological": 7028, 
  "Har@@": 7029, 
  "Gambia": 7030, 
  "accurately": 7031, 
  "license": 7032, 
  "margin": 7033, 
  "dad": 7034, 
  "blame": 7035, 
  "imply": 7036, 
  "frozen": 7037, 
  "Mogadishu": 7038, 
  "committing": 7039, 
  "Situation": 7040, 
  "decentralized": 7041, 
  "hide": 7042, 
  "variable": 7043, 
  "142": 7044, 
  "picked": 7045, 
  "EN@@": 7046, 
  "risen": 7047, 
  "diversion": 7048, 
  "warming": 7049, 
  "ba@@": 7050, 
  "Registration": 7051, 
  "UNCDF": 7052, 
  "1,0@@": 7053, 
  "angle": 7054, 
  "cheap": 7055, 
  "varying": 7056, 
  "ear": 7057, 
  "produces": 7058, 
  "bar@@": 7059, 
  "Robert": 7060, 
  "Conventional": 7061, 
  "vendors": 7062, 
  "analysts": 7063, 
  "ain": 7064, 
  "ITC": 7065, 
  "passport": 7066, 
  "Construction": 7067, 
  "hat": 7068, 
  "phenomena": 7069, 
  "Participation": 7070, 
  "RA@@": 7071, 
  "laser": 7072, 
  "neglect": 7073, 
  "continental": 7074, 
  "Contributions": 7075, 
  "CST": 7076, 
  "Si@@": 7077, 
  "Coalition": 7078, 
  "UNITA": 7079, 
  "basically": 7080, 
  "safeguarding": 7081, 
  "Accounts": 7082, 
  "tor@@": 7083, 
  "Brazilian": 7084, 
  "137": 7085, 
  "Good": 7086, 
  "stem": 7087, 
  "preserving": 7088, 
  "forensic": 7089, 
  "She": 7090, 
  "CH@@": 7091, 
  "deliberate": 7092, 
  "PR@@": 7093, 
  "James": 7094, 
  "venue": 7095, 
  "awaiting": 7096, 
  "superior": 7097, 
  "ceiling": 7098, 
  "restrictive": 7099, 
  "Promoting": 7100, 
  "retail": 7101, 
  "hygiene": 7102, 
  "AI": 7103, 
  "winning": 7104, 
  "Ethics": 7105, 
  "ga": 7106, 
  "Democracy": 7107, 
  "clinics": 7108, 
  "1977": 7109, 
  "Plenary": 7110, 
  "operator": 7111, 
  "parliamentarians": 7112, 
  "144": 7113, 
  "Ms": 7114, 
  "Bahamas": 7115, 
  "entrance": 7116, 
  "giant": 7117, 
  "residual": 7118, 
  "couples": 7119, 
  "array": 7120, 
  "Limited": 7121, 
  "LA@@": 7122, 
  "00@@": 7123, 
  "recipients": 7124, 
  ".I": 7125, 
  "Solomon": 7126, 
  "amending": 7127, 
  "anywhere": 7128, 
  "ruled": 7129, 
  "coalition": 7130, 
  "Competition": 7131, 
  "attracted": 7132, 
  "145": 7133, 
  "deeper": 7134, 
  "ded": 7135, 
  "Recommendations": 7136, 
  "analyze": 7137, 
  "Its": 7138, 
  "hell": 7139, 
  "align": 7140, 
  "accomplish": 7141, 
  "IMIS": 7142, 
  "combine": 7143, 
  "6,000": 7144, 
  "1961": 7145, 
  "visibility": 7146, 
  "C.6": 7147, 
  "horizontal": 7148, 
  "subtotal": 7149, 
  "servant": 7150, 
  "correctly": 7151, 
  "discount": 7152, 
  "maps": 7153, 
  "ics": 7154, 
  "nearby": 7155, 
  "illegally": 7156, 
  "Enterprise": 7157, 
  "archives": 7158, 
  "joining": 7159, 
  "assistant": 7160, 
  "139": 7161, 
  "bomb": 7162, 
  "mom": 7163, 
  "credits": 7164, 
  "trainers": 7165, 
  "ears": 7166, 
  "ance": 7167, 
  "tackling": 7168, 
  "Opportunities": 7169, 
  "countermeasures": 7170, 
  "ig@@": 7171, 
  "Dispute": 7172, 
  "watched": 7173, 
  "coat": 7174, 
  "phased": 7175, 
  "pulled": 7176, 
  "1971": 7177, 
  "coupled": 7178, 
  "raises": 7179, 
  "blocks": 7180, 
  "ization": 7181, 
  "recycling": 7182, 
  "ray": 7183, 
  "ry": 7184, 
  "dominant": 7185, 
  "235": 7186, 
  "sp@@": 7187, 
  "UNDAF": 7188, 
  "thermal": 7189, 
  "8th": 7190, 
  "ho@@": 7191, 
  "lend": 7192, 
  "Media": 7193, 
  "designation": 7194, 
  "Centres": 7195, 
  "schooling": 7196, 
  "ES@@": 7197, 
  "thick": 7198, 
  "ors": 7199, 
  "broadcasting": 7200, 
  "ses": 7201, 
  "expressions": 7202, 
  "ang@@": 7203, 
  "tragedy": 7204, 
  "Ivorian": 7205, 
  "differ": 7206, 
  "3.5": 7207, 
  "accepting": 7208, 
  "portal": 7209, 
  "om": 7210, 
  "successor": 7211, 
  "ying": 7212, 
  "ger": 7213, 
  "signals": 7214, 
  "experiencing": 7215, 
  "Uses": 7216, 
  "imposing": 7217, 
  "pledge": 7218, 
  "Access": 7219, 
  "arrests": 7220, 
  "chances": 7221, 
  "alongside": 7222, 
  "all@@": 7223, 
  "Reconciliation": 7224, 
  "condemns": 7225, 
  "tied": 7226, 
  "exhibition": 7227, 
  "Portuguese": 7228, 
  "luck": 7229, 
  "SE@@": 7230, 
  "audited": 7231, 
  "147": 7232, 
  "purchased": 7233, 
  "multilateralism": 7234, 
  "accumulation": 7235, 
  "min@@": 7236, 
  "nursing": 7237, 
  "overdue": 7238, 
  "50@@": 7239, 
  "Radio": 7240, 
  "reiterating": 7241, 
  "7th": 7242, 
  "151": 7243, 
  "detected": 7244, 
  "definitely": 7245, 
  "deserve": 7246, 
  "container": 7247, 
  "tie": 7248, 
  "mood": 7249, 
  "impetus": 7250, 
  "IM@@": 7251, 
  "tall": 7252, 
  "AC@@": 7253, 
  "legs": 7254, 
  "harmonious": 7255, 
  "Destruction": 7256, 
  "4,000": 7257, 
  "survive": 7258, 
  "fathers": 7259, 
  "Jewish": 7260, 
  "Families": 7261, 
  "sixteenth": 7262, 
  "contaminated": 7263, 
  "abolished": 7264, 
  "overwhelming": 7265, 
  "Approach": 7266, 
  "ves": 7267, 
  "enactment": 7268, 
  "ation@@": 7269, 
  "humankind": 7270, 
  "CRIC": 7271, 
  "soldier": 7272, 
  "doubts": 7273, 
  "investor": 7274, 
  "Umoja": 7275, 
  "captured": 7276, 
  "Treaties": 7277, 
  "marital": 7278, 
  "Oman": 7279, 
  "PRST": 7280, 
  "Freedom": 7281, 
  "protest": 7282, 
  "Provisional": 7283, 
  "ICC": 7284, 
  "156": 7285, 
  "qualification": 7286, 
  "146": 7287, 
  "optical": 7288, 
  "apartment": 7289, 
  "livestock": 7290, 
  "Reports": 7291, 
  "finalize": 7292, 
  "undermined": 7293, 
  "pipe": 7294, 
  "commented": 7295, 
  "provider": 7296, 
  "Egyptian": 7297, 
  "inception": 7298, 
  "manufacturers": 7299, 
  "bottle": 7300, 
  "admit": 7301, 
  "compiled": 7302, 
  "streamlining": 7303, 
  "solved": 7304, 
  "sa": 7305, 
  "ale": 7306, 
  "Master": 7307, 
  "tissue": 7308, 
  "overcoming": 7309, 
  "challenged": 7310, 
  "Go@@": 7311, 
  "chose": 7312, 
  "seventeenth": 7313, 
  "peacekeepers": 7314, 
  "log": 7315, 
  "dose": 7316, 
  "Church": 7317, 
  "compounds": 7318, 
  "dy": 7319, 
  "Mc@@": 7320, 
  "honor": 7321, 
  "els": 7322, 
  "socioeconomic": 7323, 
  "tiny": 7324, 
  "helicopters": 7325, 
  "Se@@": 7326, 
  "Three": 7327, 
  "heating": 7328, 
  "es.@@": 7329, 
  "Wan": 7330, 
  "ly@@": 7331, 
  "chairmanship": 7332, 
  "IA@@": 7333, 
  "OIC": 7334, 
  "delete": 7335, 
  "Abu": 7336, 
  "mar@@": 7337, 
  "harder": 7338, 
  "demining": 7339, 
  "Joseph": 7340, 
  "demanded": 7341, 
  "multinational": 7342, 
  "split": 7343, 
  "9th": 7344, 
  "unclear": 7345, 
  "rebel": 7346, 
  "shaped": 7347, 
  "lifted": 7348, 
  "ER@@": 7349, 
  "Sha": 7350, 
  "drove": 7351, 
  "ys": 7352, 
  "stake": 7353, 
  "institute": 7354, 
  "voluntarily": 7355, 
  "corporation": 7356, 
  "spatial": 7357, 
  "L.": 7358, 
  "noon": 7359, 
  "ranking": 7360, 
  "confined": 7361, 
  "strain": 7362, 
  "methyl": 7363, 
  "Hotel": 7364, 
  "undoubtedly": 7365, 
  "burn": 7366, 
  "selective": 7367, 
  "volatile": 7368, 
  "rubber": 7369, 
  "guests": 7370, 
  "treating": 7371, 
  "costly": 7372, 
  "tone": 7373, 
  "seeds": 7374, 
  "quarters": 7375, 
  "powder": 7376, 
  "Mal@@": 7377, 
  "lake": 7378, 
  "FA@@": 7379, 
  "eggs": 7380, 
  "CONF.@@": 7381, 
  "Near": 7382, 
  "diligence": 7383, 
  "truck": 7384, 
  "Ber@@": 7385, 
  "tickets": 7386, 
  "gaining": 7387, 
  "rolling": 7388, 
  "ano": 7389, 
  "sed": 7390, 
  "go@@": 7391, 
  "doctrine": 7392, 
  "tourist": 7393, 
  "collaborate": 7394, 
  "Lee": 7395, 
  "ping": 7396, 
  "EC@@": 7397, 
  "comfort": 7398, 
  "remittances": 7399, 
  "251": 7400, 
  "arose": 7401, 
  "tropical": 7402, 
  "cloud": 7403, 
  "clusters": 7404, 
  "wheel": 7405, 
  "Offices": 7406, 
  "fuels": 7407, 
  "ink": 7408, 
  "we@@": 7409, 
  "166": 7410, 
  "cooperatives": 7411, 
  "corrected": 7412, 
  "applicability": 7413, 
  "liquidity": 7414, 
  "entitlements": 7415, 
  "Electronic": 7416, 
  "patent": 7417, 
  "dominated": 7418, 
  "USA": 7419, 
  "1976": 7420, 
  "Ko@@": 7421, 
  "ING": 7422, 
  "Aspects": 7423, 
  "vegetables": 7424, 
  "Conservation": 7425, 
  "formerly": 7426, 
  "5.2": 7427, 
  "ko": 7428, 
  "microfinance": 7429, 
  "films": 7430, 
  "1960": 7431, 
  "captain": 7432, 
  "extraction": 7433, 
  "encouragement": 7434, 
  "supporters": 7435, 
  "attempting": 7436, 
  "Hospital": 7437, 
  "magnetic": 7438, 
  "reasonably": 7439, 
  "golden": 7440, 
  "back@@": 7441, 
  "predecessor": 7442, 
  "breaches": 7443, 
  "communiqué": 7444, 
  "Practices": 7445, 
  "investigators": 7446, 
  "identifies": 7447, 
  "vacation": 7448, 
  "agendas": 7449, 
  "facilitates": 7450, 
  "Miss": 7451, 
  "notable": 7452, 
  "prosecutions": 7453, 
  "artistic": 7454, 
  "helicopter": 7455, 
  "Verde": 7456, 
  "UNV": 7457, 
  "ACC": 7458, 
  "Chairmen": 7459, 
  "Monaco": 7460, 
  "hang": 7461, 
  "employ": 7462, 
  "promises": 7463, 
  "merit": 7464, 
  "PV.@@": 7465, 
  "mercenaries": 7466, 
  "commensurate": 7467, 
  "judgements": 7468, 
  "iii": 7469, 
  "reception": 7470, 
  "worried": 7471, 
  "eighteenth": 7472, 
  "deciding": 7473, 
  "reject": 7474, 
  "deposited": 7475, 
  "legacy": 7476, 
  "empowered": 7477, 
  "Embassy": 7478, 
  "154": 7479, 
  "depression": 7480, 
  "aggressive": 7481, 
  "universally": 7482, 
  "ary": 7483, 
  "totalling": 7484, 
  "Vi@@": 7485, 
  "determines": 7486, 
  "ol": 7487, 
  "exemptions": 7488, 
  "170": 7489, 
  "Private": 7490, 
  "ments": 7491, 
  "CIS": 7492, 
  "appreciates": 7493, 
  "petroleum": 7494, 
  "breath": 7495, 
  "Minorities": 7496, 
  "restored": 7497, 
  "sophisticated": 7498, 
  "Transfer": 7499, 
  "firstly": 7500, 
  "stayed": 7501, 
  "Charles": 7502, 
  "coercive": 7503, 
  "marginalization": 7504, 
  "approached": 7505, 
  "celebrate": 7506, 
  "Christ": 7507, 
  "ministry": 7508, 
  "tells": 7509, 
  "Muslims": 7510, 
  "correspondence": 7511, 
  "erosion": 7512, 
  "moderate": 7513, 
  "HK": 7514, 
  "civic": 7515, 
  "Bu@@": 7516, 
  "volunteer": 7517, 
  "unfair": 7518, 
  "1.4": 7519, 
  "underground": 7520, 
  "rations": 7521, 
  "affirmative": 7522, 
  "belongs": 7523, 
  "ler": 7524, 
  "Prevent": 7525, 
  "Black": 7526, 
  "li": 7527, 
  "AU": 7528, 
  "immunities": 7529, 
  "deportation": 7530, 
  "Migrant": 7531, 
  "libraries": 7532, 
  "educated": 7533, 
  "33@@": 7534, 
  "compete": 7535, 
  "pen@@": 7536, 
  "backed": 7537, 
  "ized": 7538, 
  "criminals": 7539, 
  "pandemic": 7540, 
  "158": 7541, 
  "cable": 7542, 
  "Po@@": 7543, 
  "5.1": 7544, 
  "152": 7545, 
  "wash": 7546, 
  "amongst": 7547, 
  "freezing": 7548, 
  "Li@@": 7549, 
  "assuming": 7550, 
  "sin": 7551, 
  "K.": 7552, 
  "negatively": 7553, 
  "SADC": 7554, 
  "complemented": 7555, 
  "tor": 7556, 
  "deputy": 7557, 
  "air@@": 7558, 
  "interpretative": 7559, 
  "200@@": 7560, 
  "shareholders": 7561, 
  "kan": 7562, 
  "discovery": 7563, 
  "advocated": 7564, 
  "fed": 7565, 
  "aftermath": 7566, 
  "actor": 7567, 
  "roughly": 7568, 
  "af@@": 7569, 
  "devote": 7570, 
  "roof": 7571, 
  "157": 7572, 
  "successive": 7573, 
  "UNDOF": 7574, 
  "Border": 7575, 
  "specially": 7576, 
  "privatization": 7577, 
  "Informal": 7578, 
  "fairness": 7579, 
  "shocks": 7580, 
  "regretted": 7581, 
  "linear": 7582, 
  "signatories": 7583, 
  "161": 7584, 
  "COUNCIL": 7585, 
  "norm": 7586, 
  "connections": 7587, 
  "inspectors": 7588, 
  "establishments": 7589, 
  "edition": 7590, 
  "av@@": 7591, 
  "fourteenth": 7592, 
  "Sun": 7593, 
  "beneficiary": 7594, 
  "settlers": 7595, 
  "Enforced": 7596, 
  "ach@@": 7597, 
  "suspend": 7598, 
  "Brown": 7599, 
  "1972": 7600, 
  "Chen": 7601, 
  "Rico": 7602, 
  "Enhanced": 7603, 
  "Acts": 7604, 
  "ID@@": 7605, 
  "united": 7606, 
  "converted": 7607, 
  "ve@@": 7608, 
  "accessing": 7609, 
  "mer@@": 7610, 
  "Periodic": 7611, 
  "TS": 7612, 
  "civilizations": 7613, 
  "cycles": 7614, 
  "4.3": 7615, 
  "Zhang": 7616, 
  "ranks": 7617, 
  "affirms": 7618, 
  "Mohamed": 7619, 
  "graduates": 7620, 
  "borrowing": 7621, 
  "preferential": 7622, 
  "ov@@": 7623, 
  "Design": 7624, 
  "communicable": 7625, 
  "contracted": 7626, 
  "invention": 7627, 
  "bi": 7628, 
  "Intelligence": 7629, 
  "Dutch": 7630, 
  "Dr": 7631, 
  "paint": 7632, 
  "beaten": 7633, 
  "12.@@": 7634, 
  "distinguish": 7635, 
  "148": 7636, 
  "emerge": 7637, 
  "Quality": 7638, 
  "pride": 7639, 
  "q@@": 7640, 
  "4.5": 7641, 
  "scenarios": 7642, 
  "autumn": 7643, 
  "wheat": 7644, 
  "successes": 7645, 
  "Groups": 7646, 
  "Abyei": 7647, 
  "w": 7648, 
  "interregional": 7649, 
  "sequence": 7650, 
  "tube": 7651, 
  "weakness": 7652, 
  "NA@@": 7653, 
  "demanding": 7654, 
  "evacuation": 7655, 
  "innovations": 7656, 
  "}": 7657, 
  "Ba@@": 7658, 
  "minimal": 7659, 
  "60@@": 7660, 
  "rank": 7661, 
  "clauses": 7662, 
  "favor": 7663, 
  "restraint": 7664, 
  "importantly": 7665, 
  "poly@@": 7666, 
  "crew": 7667, 
  "Progress": 7668, 
  "crude": 7669, 
  "approves": 7670, 
  "benefiting": 7671, 
  "expectancy": 7672, 
  "insert": 7673, 
  "slight": 7674, 
  "az@@": 7675, 
  "publicity": 7676, 
  "tr@@": 7677, 
  "referral": 7678, 
  "undertakings": 7679, 
  "habit": 7680, 
  "auditors": 7681, 
  "Manager": 7682, 
  "restitution": 7683, 
  "assignments": 7684, 
  "vendor": 7685, 
  "UNAMA": 7686, 
  "Caledonia": 7687, 
  "score": 7688, 
  "inevitable": 7689, 
  "fiber": 7690, 
  "ash": 7691, 
  "mortgage": 7692, 
  "minds": 7693, 
  "cooking": 7694, 
  "suppose": 7695, 
  "liver": 7696, 
  "usefulness": 7697, 
  "incomplete": 7698, 
  "Defense": 7699, 
  "chamber": 7700, 
  "streamline": 7701, 
  "Virgin": 7702, 
  "{": 7703, 
  "generic": 7704, 
  "ED": 7705, 
  "travelling": 7706, 
  "composite": 7707, 
  "RES": 7708, 
  "ignore": 7709, 
  "ru@@": 7710, 
  "IP@@": 7711, 
  "linkage": 7712, 
  "MDG": 7713, 
  "tsunami": 7714, 
  "Agreements": 7715, 
  "149": 7716, 
  "Kar@@": 7717, 
  "lifetime": 7718, 
  "evolved": 7719, 
  "CTBT": 7720, 
  "Role": 7721, 
  "Equatorial": 7722, 
  "guards": 7723, 
  "shells": 7724, 
  "fl@@": 7725, 
  "metals": 7726, 
  "missed": 7727, 
  "CE@@": 7728, 
  "220": 7729, 
  "dramatically": 7730, 
  "Queen": 7731, 
  "licences": 7732, 
  "plenty": 7733, 
  "combining": 7734, 
  "admissible": 7735, 
  "suspicious": 7736, 
  "C.@@": 7737, 
  "gear": 7738, 
  "exam": 7739, 
  "steering": 7740, 
  "utilizing": 7741, 
  "compensate": 7742, 
  "landing": 7743, 
  "contamination": 7744, 
  "ment@@": 7745, 
  "MI@@": 7746, 
  "parliaments": 7747, 
  "physically": 7748, 
  "journal": 7749, 
  "broaden": 7750, 
  "tens": 7751, 
  "holidays": 7752, 
  "impede": 7753, 
  "plain": 7754, 
  "graduation": 7755, 
  "fluid": 7756, 
  "classroom": 7757, 
  "inappropriate": 7758, 
  "Presidential": 7759, 
  "proposing": 7760, 
  "pays": 7761, 
  "acquiring": 7762, 
  "ari@@": 7763, 
  "outlook": 7764, 
  "activists": 7765, 
  "208": 7766, 
  "stolen": 7767, 
  "pretrial": 7768, 
  "volatility": 7769, 
  "entitlement": 7770, 
  "20,000": 7771, 
  "tanks": 7772, 
  "tends": 7773, 
  "parity": 7774, 
  "reads": 7775, 
  "ki": 7776, 
  "competing": 7777, 
  "ud@@": 7778, 
  "yours": 7779, 
  "scourge": 7780, 
  "Bay": 7781, 
  "Serbian": 7782, 
  "Award": 7783, 
  "Stabilization": 7784, 
  "designs": 7785, 
  "pricing": 7786, 
  "chicken": 7787, 
  "Serb": 7788, 
  "cream": 7789, 
  "foreseen": 7790, 
  "inviting": 7791, 
  "attained": 7792, 
  "badly": 7793, 
  "ens": 7794, 
  "eradicating": 7795, 
  "Paper": 7796, 
  "delegate": 7797, 
  "201": 7798, 
  "lacked": 7799, 
  "Prison": 7800, 
  "socialist": 7801, 
  "gifts": 7802, 
  "accumulated": 7803, 
  "Norwegian": 7804, 
  "explosion": 7805, 
  "unchanged": 7806, 
  "worthy": 7807, 
  "Certain": 7808, 
  "consciousness": 7809, 
  "nowadays": 7810, 
  "globe": 7811, 
  "consisted": 7812, 
  "gene": 7813, 
  "Georgian": 7814, 
  "remainder": 7815, 
  "breakfast": 7816, 
  "unencumbered": 7817, 
  "MONUSCO": 7818, 
  "conform": 7819, 
  "choosing": 7820, 
  "offensive": 7821, 
  "accrued": 7822, 
  "inspired": 7823, 
  "escalation": 7824, 
  "County": 7825, 
  "rid": 7826, 
  "presently": 7827, 
  "retired": 7828, 
  "lets": 7829, 
  "dec@@": 7830, 
  "sharply": 7831, 
  "persecution": 7832, 
  "cleared": 7833, 
  "stepped": 7834, 
  "dioxide": 7835, 
  "11@@": 7836, 
  "Belize": 7837, 
  "thirdly": 7838, 
  "paramount": 7839, 
  "Mexican": 7840, 
  "voices": 7841, 
  "Provide": 7842, 
  "happening": 7843, 
  "Improved": 7844, 
  "connect": 7845, 
  "hired": 7846, 
  "democratization": 7847, 
  "consecutive": 7848, 
  "sk@@": 7849, 
  "seventy": 7850, 
  "Bali": 7851, 
  "prevail": 7852, 
  "y.@@": 7853, 
  "concentrations": 7854, 
  "Civilian": 7855, 
  "Thomas": 7856, 
  "protests": 7857, 
  "spaces": 7858, 
  "tortured": 7859, 
  "disposition": 7860, 
  "govern": 7861, 
  "seconds": 7862, 
  "cre@@": 7863, 
  "fix": 7864, 
  "165": 7865, 
  "illustrated": 7866, 
  "copper": 7867, 
  "prisoner": 7868, 
  "lucky": 7869, 
  "allegation": 7870, 
  "correlation": 7871, 
  "adviser": 7872, 
  "BY": 7873, 
  "terminal": 7874, 
  "sheets": 7875, 
  "displayed": 7876, 
  "inquiries": 7877, 
  "226": 7878, 
  "advocates": 7879, 
  "are@@": 7880, 
  "CISG": 7881, 
  "interviewed": 7882, 
  "forgotten": 7883, 
  "openness": 7884, 
  "&apos;i": 7885, 
  "absent": 7886, 
  "endorse": 7887, 
  "mixture": 7888, 
  "motivation": 7889, 
  "cumulative": 7890, 
  "hearts": 7891, 
  "Views": 7892, 
  "adopts": 7893, 
  "benchmark": 7894, 
  "ab": 7895, 
  "ascertain": 7896, 
  "connectivity": 7897, 
  "Festival": 7898, 
  "financially": 7899, 
  "Airport": 7900, 
  "centers": 7901, 
  "Catholic": 7902, 
  "pushed": 7903, 
  "failures": 7904, 
  "irrigation": 7905, 
  "pocket": 7906, 
  "legality": 7907, 
  "ical": 7908, 
  "injection": 7909, 
  "expeditiously": 7910, 
  "directives": 7911, 
  "159": 7912, 
  "Friends": 7913, 
  "os@@": 7914, 
  "reunification": 7915, 
  "profiles": 7916, 
  "Na@@": 7917, 
  "50,000": 7918, 
  "pump": 7919, 
  "outlines": 7920, 
  "recruit": 7921, 
  "executing": 7922, 
  "confrontation": 7923, 
  "nets": 7924, 
  "Sciences": 7925, 
  "tion@@": 7926, 
  "ee": 7927, 
  "stones": 7928, 
  "Risk": 7929, 
  "convictions": 7930, 
  "founding": 7931, 
  "tin": 7932, 
  "phones": 7933, 
  "Reporting": 7934, 
  "fleet": 7935, 
  "ethnicity": 7936, 
  "specifications": 7937, 
  "convergence": 7938, 
  "theories": 7939, 
  "campus": 7940, 
  "Him": 7941, 
  "beside": 7942, 
  "38@@": 7943, 
  "alization": 7944, 
  "Her@@": 7945, 
  "crossed": 7946, 
  "floods": 7947, 
  "Henry": 7948, 
  "Any": 7949, 
  "manufactured": 7950, 
  "DE@@": 7951, 
  "pharmaceutical": 7952, 
  "foremost": 7953, 
  "ven@@": 7954, 
  "rooted": 7955, 
  "Ru@@": 7956, 
  "&apos;affaires": 7957, 
  "forwarded": 7958, 
  "ot": 7959, 
  "ceased": 7960, 
  "hiring": 7961, 
  "sustaining": 7962, 
  "tailored": 7963, 
  "renovation": 7964, 
  "cleaner": 7965, 
  "bears": 7966, 
  "smell": 7967, 
  "hire": 7968, 
  "Subsidiary": 7969, 
  "ac": 7970, 
  "Richard": 7971, 
  "22@@": 7972, 
  "est@@": 7973, 
  "remnants": 7974, 
  "1.": 7975, 
  "Sa@@": 7976, 
  "sciences": 7977, 
  "fabric": 7978, 
  "fled": 7979, 
  "numerical": 7980, 
  "trace": 7981, 
  "vulnerabilities": 7982, 
  "Ser@@": 7983, 
  "educate": 7984, 
  "colleges": 7985, 
  "modifications": 7986, 
  "checking": 7987, 
  "terminated": 7988, 
  "expectation": 7989, 
  "exacerbated": 7990, 
  "Compensation": 7991, 
  "infectious": 7992, 
  "uncertain": 7993, 
  "Argentine": 7994, 
  "sleeping": 7995, 
  "factual": 7996, 
  "doors": 7997, 
  "ey": 7998, 
  "economists": 7999, 
  "noble": 8000, 
  "ni@@": 8001, 
  "undermining": 8002, 
  "simplified": 8003, 
  "brown": 8004, 
  "IDPs": 8005, 
  "tic@@": 8006, 
  "Clinton": 8007, 
  "Macao": 8008, 
  "Credentials": 8009, 
  "SA": 8010, 
  "stockpiles": 8011, 
  "shooting": 8012, 
  "10th": 8013, 
  "1969": 8014, 
  "Beirut": 8015, 
  "za": 8016, 
  "213": 8017, 
  "AWG": 8018, 
  "na": 8019, 
  "correction": 8020, 
  "quotas": 8021, 
  "procuring": 8022, 
  "intermediate": 8023, 
  "Ageing": 8024, 
  "fans": 8025, 
  "exporting": 8026, 
  "Operational": 8027, 
  "confusion": 8028, 
  "stamp": 8029, 
  "somewhere": 8030, 
  "string": 8031, 
  "disclose": 8032, 
  "oversee": 8033, 
  "CC": 8034, 
  "cohesion": 8035, 
  "Executives": 8036, 
  "shirt": 8037, 
  "ble": 8038, 
  "adjacent": 8039, 
  ",0@@": 8040, 
  "Compact": 8041, 
  "1951": 8042, 
  "tribal": 8043, 
  "trafficked": 8044, 
  "spreading": 8045, 
  "Rehabilitation": 8046, 
  "cement": 8047, 
  "FARDC": 8048, 
  "interrelated": 8049, 
  "han@@": 8050, 
  "UNDG": 8051, 
  "guest": 8052, 
  "accompanying": 8053, 
  "progressively": 8054, 
  "Economy": 8055, 
  "requisite": 8056, 
  "hampered": 8057, 
  "ali@@": 8058, 
  "3.4": 8059, 
  "167": 8060, 
  "Courts": 8061, 
  "Guiding": 8062, 
  "211": 8063, 
  "pounds": 8064, 
  "Col@@": 8065, 
  "ja": 8066, 
  "imbalances": 8067, 
  "242": 8068, 
  "packaging": 8069, 
  "extends": 8070, 
  "shell": 8071, 
  "Ver@@": 8072, 
  "urging": 8073, 
  "Microsoft": 8074, 
  "Ma": 8075, 
  "selecting": 8076, 
  "scarce": 8077, 
  "habits": 8078, 
  "AN": 8079, 
  "restoring": 8080, 
  "bin": 8081, 
  "claiming": 8082, 
  "ala": 8083, 
  "immune": 8084, 
  "segregation": 8085, 
  "perfectly": 8086, 
  "defeat": 8087, 
  "Club": 8088, 
  "Ethiopian": 8089, 
  "impressive": 8090, 
  "ize": 8091, 
  "AL@@": 8092, 
  "filter": 8093, 
  "anyway": 8094, 
  "notifications": 8095, 
  "ade": 8096, 
  "bureau": 8097, 
  "finalization": 8098, 
  "dying": 8099, 
  "centuries": 8100, 
  "Solidarity": 8101, 
  "PA": 8102, 
  "gi@@": 8103, 
  "instrumental": 8104, 
  "informing": 8105, 
  "instituted": 8106, 
  "outbreak": 8107, 
  "condemn": 8108, 
  "desert": 8109, 
  "William": 8110, 
  "2.6": 8111, 
  "button": 8112, 
  "complied": 8113, 
  "parking": 8114, 
  "inserted": 8115, 
  "embodied": 8116, 
  "rating": 8117, 
  "laugh": 8118, 
  "leverage": 8119, 
  "voltage": 8120, 
  "competencies": 8121, 
  "Major": 8122, 
  "locked": 8123, 
  "swimming": 8124, 
  "shelf": 8125, 
  "ological": 8126, 
  "plight": 8127, 
  "modes": 8128, 
  "Refugee": 8129, 
  "terminology": 8130, 
  "ser@@": 8131, 
  "scholars": 8132, 
  "develops": 8133, 
  "During": 8134, 
  "congratulations": 8135, 
  "UNOMIG": 8136, 
  "liked": 8137, 
  "van": 8138, 
  ".org": 8139, 
  "Auditor": 8140, 
  "tourists": 8141, 
  "deforestation": 8142, 
  "hoping": 8143, 
  "Point": 8144, 
  "Man": 8145, 
  "bel@@": 8146, 
  "persist": 8147, 
  "residing": 8148, 
  "strengths": 8149, 
  "optimization": 8150, 
  "pu@@": 8151, 
  "harvest": 8152, 
  "Sam@@": 8153, 
  "210": 8154, 
  "praise": 8155, 
  "den": 8156, 
  "UNMEE": 8157, 
  "destructive": 8158, 
  "pollutants": 8159, 
  "alarm": 8160, 
  "Counsel": 8161, 
  "confront": 8162, 
  "belt": 8163, 
  "inevitably": 8164, 
  "oxygen": 8165, 
  "sustainment": 8166, 
  "57@@": 8167, 
  "Ti@@": 8168, 
  "Higher": 8169, 
  "fluctuations": 8170, 
  "Albanian": 8171, 
  "Detention": 8172, 
  "Disability": 8173, 
  "gs": 8174, 
  "strikes": 8175, 
  "0.7": 8176, 
  "ines": 8177, 
  "rationale": 8178, 
  "guns": 8179, 
  "scales": 8180, 
  "2.": 8181, 
  "mirror": 8182, 
  "parameter": 8183, 
  "fruitful": 8184, 
  "interactions": 8185, 
  "blockade": 8186, 
  "ess": 8187, 
  "seizure": 8188, 
  "depleting": 8189, 
  "attracting": 8190, 
  "super": 8191, 
  "overarching": 8192, 
  "Men": 8193, 
  "ordnance": 8194, 
  "39@@": 8195, 
  "safer": 8196, 
  "rounds": 8197, 
  "a.i.": 8198, 
  "prioritize": 8199, 
  "enrolled": 8200, 
  "Ri@@": 8201, 
  "circular": 8202, 
  "photos": 8203, 
  "arises": 8204, 
  "indications": 8205, 
  "alert": 8206, 
  "mal@@": 8207, 
  "distant": 8208, 
  "34@@": 8209, 
  "aging": 8210, 
  "IS": 8211, 
  "seize": 8212, 
  "tur@@": 8213, 
  "panellists": 8214, 
  "banned": 8215, 
  "theft": 8216, 
  "1.6": 8217, 
  "containers": 8218, 
  "21st": 8219, 
  "Du@@": 8220, 
  "Kivu": 8221, 
  "sal@@": 8222, 
  "misuse": 8223, 
  "mainland": 8224, 
  "164": 8225, 
  "umbrella": 8226, 
  "Kowloon": 8227, 
  "elementary": 8228, 
  "stimulus": 8229, 
  "tape": 8230, 
  "her@@": 8231, 
  "policing": 8232, 
  "intercultural": 8233, 
  "163": 8234, 
  "painful": 8235, 
  "surge": 8236, 
  "Comoros": 8237, 
  "entails": 8238, 
  "10.@@": 8239, 
  "interpreters": 8240, 
  "deadlines": 8241, 
  "artillery": 8242, 
  "fruits": 8243, 
  "Liu": 8244, 
  "Suriname": 8245, 
  "hungry": 8246, 
  "og@@": 8247, 
  "receivables": 8248, 
  "radical": 8249, 
  "ada": 8250, 
  "supplemented": 8251, 
  "complementarity": 8252, 
  "TI@@": 8253, 
  "ICSC": 8254, 
  "270": 8255, 
  "construct": 8256, 
  "variation": 8257, 
  "favoured": 8258, 
  "suppression": 8259, 
  "transformed": 8260, 
  "veto": 8261, 
  "XIII": 8262, 
  "IOM": 8263, 
  "can@@": 8264, 
  "observes": 8265, 
  "ish@@": 8266, 
  "ff@@": 8267, 
  "ups": 8268, 
  "singing": 8269, 
  "reduces": 8270, 
  "trigger": 8271, 
  "stateless": 8272, 
  "227": 8273, 
  "enact": 8274, 
  "Or@@": 8275, 
  "abstract": 8276, 
  "tries": 8277, 
  "timber": 8278, 
  "apple": 8279, 
  "auditing": 8280, 
  "Accord": 8281, 
  "IFAD": 8282, 
  "op": 8283, 
  "ant@@": 8284, 
  "tech": 8285, 
  "opium": 8286, 
  "dressed": 8287, 
  "synergy": 8288, 
  "Contract": 8289, 
  "militias": 8290, 
  "participates": 8291, 
  "MA": 8292, 
  "grades": 8293, 
  "offshore": 8294, 
  "Promote": 8295, 
  "Indonesian": 8296, 
  "computing": 8297, 
  "laboratories": 8298, 
  "izing": 8299, 
  "shed": 8300, 
  "175": 8301, 
  "MO@@": 8302, 
  "mobilized": 8303, 
  "millennium": 8304, 
  "192": 8305, 
  "buyers": 8306, 
  "catalyst": 8307, 
  "purely": 8308, 
  "fortune": 8309, 
  "11.@@": 8310, 
  "sis": 8311, 
  "keen": 8312, 
  "speedy": 8313, 
  "ef@@": 8314, 
  "Im@@": 8315, 
  "copyright": 8316, 
  "ise": 8317, 
  "cor@@": 8318, 
  "searching": 8319, 
  "Kabul": 8320, 
  "ery": 8321, 
  "Google": 8322, 
  "shorter": 8323, 
  "Young": 8324, 
  "SR": 8325, 
  "Lucia": 8326, 
  "Missions": 8327, 
  "holy": 8328, 
  "Bur@@": 8329, 
  "discover": 8330, 
  "mor@@": 8331, 
  "Lake": 8332, 
  "Whole": 8333, 
  "rec@@": 8334, 
  "Language": 8335, 
  "reporters": 8336, 
  "reforming": 8337, 
  "worship": 8338, 
  "cap": 8339, 
  "purchases": 8340, 
  "36@@": 8341, 
  "naval": 8342, 
  "decreasing": 8343, 
  "afforded": 8344, 
  "cure": 8345, 
  "intervene": 8346, 
  "loving": 8347, 
  "signatory": 8348, 
  "ality": 8349, 
  "cancelled": 8350, 
  "beach": 8351, 
  "dialogues": 8352, 
  "qualities": 8353, 
  "dedication": 8354, 
  "egg": 8355, 
  "leisure": 8356, 
  "proclaimed": 8357, 
  "valve": 8358, 
  "bra@@": 8359, 
  "Inspector": 8360, 
  "10,@@": 8361, 
  "har@@": 8362, 
  "leaf": 8363, 
  "alarming": 8364, 
  "administrations": 8365, 
  "GHG": 8366, 
  "CON@@": 8367, 
  "farms": 8368, 
  "UNAMSIL": 8369, 
  "ne": 8370, 
  "complainants": 8371, 
  "Organic": 8372, 
  "reward": 8373, 
  "bold": 8374, 
  "voter": 8375, 
  "extensively": 8376, 
  "Crimes": 8377, 
  "248": 8378, 
  "IC": 8379, 
  "rail": 8380, 
  "unsustainable": 8381, 
  "threw": 8382, 
  "delicate": 8383, 
  "Fisheries": 8384, 
  "Sports": 8385, 
  "Swaziland": 8386, 
  "staying": 8387, 
  "vol": 8388, 
  "CO2": 8389, 
  "enjoys": 8390, 
  "concert": 8391, 
  "departmental": 8392, 
  "euros": 8393, 
  "Recovery": 8394, 
  "ns": 8395, 
  "deteriorating": 8396, 
  "opens": 8397, 
  "Station": 8398, 
  "clouds": 8399, 
  "L.1": 8400, 
  "producer": 8401, 
  "interior": 8402, 
  "CC@@": 8403, 
  "variations": 8404, 
  "volumes": 8405, 
  "touched": 8406, 
  "R.": 8407, 
  "confronted": 8408, 
  "P.": 8409, 
  "So@@": 8410, 
  "ff": 8411, 
  "celebration": 8412, 
  "industrialization": 8413, 
  "lodged": 8414, 
  "childcare": 8415, 
  "enjoying": 8416, 
  "AC": 8417, 
  "48@@": 8418, 
  "narrative": 8419, 
  "At@@": 8420, 
  "protracted": 8421, 
  "darkness": 8422, 
  "Tra@@": 8423, 
  "textbooks": 8424, 
  "buried": 8425, 
  "shortages": 8426, 
  "commissioned": 8427, 
  "Form": 8428, 
  "documentary": 8429, 
  "signatures": 8430, 
  "168": 8431, 
  "describing": 8432, 
  "replacing": 8433, 
  "compatibility": 8434, 
  "shops": 8435, 
  "unauthorized": 8436, 
  "highway": 8437, 
  "tended": 8438, 
  "consultancy": 8439, 
  "mouse": 8440, 
  "Sales": 8441, 
  "readers": 8442, 
  "5.3": 8443, 
  "dimensional": 8444, 
  "exploited": 8445, 
  "D.@@": 8446, 
  "4.4": 8447, 
  "Ku@@": 8448, 
  "discriminate": 8449, 
  "Pre@@": 8450, 
  "beer": 8451, 
  "wh@@": 8452, 
  "Serbs": 8453, 
  "Money": 8454, 
  "defer": 8455, 
  "packing": 8456, 
  "exploit": 8457, 
  "undue": 8458, 
  "Chargé": 8459, 
  "lacks": 8460, 
  "rests": 8461, 
  "variables": 8462, 
  "deserves": 8463, 
  "curb": 8464, 
  "fighters": 8465, 
  "Kimberley": 8466, 
  "repairs": 8467, 
  "José": 8468, 
  "mature": 8469, 
  "Vincent": 8470, 
  "Effective": 8471, 
  "academia": 8472, 
  "validation": 8473, 
  "Pe@@": 8474, 
  "UNAMI": 8475, 
  "cook": 8476, 
  "efficacy": 8477, 
  "Is@@": 8478, 
  "interfere": 8479, 
  "fossil": 8480, 
  "Increase": 8481, 
  "IT@@": 8482, 
  "excellence": 8483, 
  "Gar@@": 8484, 
  "consular": 8485, 
  "varies": 8486, 
  "checked": 8487, 
  "backlog": 8488, 
  "Cha@@": 8489, 
  "laying": 8490, 
  "cleansing": 8491, 
  "attaining": 8492, 
  "unequal": 8493, 
  "demonstrating": 8494, 
  "sheep": 8495, 
  "shipments": 8496, 
  "eventual": 8497, 
  "ches": 8498, 
  "ER": 8499, 
  "cloth": 8500, 
  "corrupt": 8501, 
  "recruiting": 8502, 
  "Series": 8503, 
  "Sub.2": 8504, 
  "asks": 8505, 
  "Jo@@": 8506, 
  "initiation": 8507, 
  "Applications": 8508, 
  "Traffic": 8509, 
  "tors": 8510, 
  "organisation": 8511, 
  "intelligent": 8512, 
  "adjournment": 8513, 
  "tics": 8514, 
  "Campaign": 8515, 
  "chest": 8516, 
  "geared": 8517, 
  "shouldn": 8518, 
  "seizures": 8519, 
  "random": 8520, 
  "confirms": 8521, 
  "deepen": 8522, 
  "engineers": 8523, 
  "abduction": 8524, 
  "diagnostic": 8525, 
  "SCO": 8526, 
  "Have": 8527, 
  "cried": 8528, 
  "lu@@": 8529, 
  "babies": 8530, 
  "ham": 8531, 
  "ster": 8532, 
  "183": 8533, 
  "acceding": 8534, 
  "Enforcement": 8535, 
  "Trans@@": 8536, 
  "inmates": 8537, 
  "350": 8538, 
  "ane": 8539, 
  "ass": 8540, 
  "announce": 8541, 
  "tail": 8542, 
  "IPCC": 8543, 
  "Performance": 8544, 
  "nutritional": 8545, 
  "measurable": 8546, 
  "prosperous": 8547, 
  "compile": 8548, 
  "Mother": 8549, 
  "Supply": 8550, 
  "37@@": 8551, 
  "upheld": 8552, 
  "Verification": 8553, 
  "junior": 8554, 
  "ours": 8555, 
  "Eritrean": 8556, 
  "cooperated": 8557, 
  "farmer": 8558, 
  "actuarial": 8559, 
  "protects": 8560, 
  "Combating": 8561, 
  "Forest": 8562, 
  "Vanuatu": 8563, 
  "Don": 8564, 
  "entertainment": 8565, 
  "affiliated": 8566, 
  "DNA": 8567, 
  "absorbed": 8568, 
  "announcements": 8569, 
  "unaccompanied": 8570, 
  "matching": 8571, 
  "Aboriginal": 8572, 
  "So": 8573, 
  "Southeast": 8574, 
  "6.1": 8575, 
  "visas": 8576, 
  "Arusha": 8577, 
  "minerals": 8578, 
  "disproportionate": 8579, 
  "bombs": 8580, 
  "lion": 8581, 
  "tertiary": 8582, 
  "Export": 8583, 
  "nervous": 8584, 
  "carriage": 8585, 
  "Five": 8586, 
  "absorption": 8587, 
  "loading": 8588, 
  "fin@@": 8589, 
  "rivers": 8590, 
  "cake": 8591, 
  "189": 8592, 
  "indiscriminate": 8593, 
  "Compliance": 8594, 
  "caring": 8595, 
  "centralized": 8596, 
  "&apos;clock": 8597, 
  "dependency": 8598, 
  "enacting": 8599, 
  "empowering": 8600, 
  "Of": 8601, 
  "pan@@": 8602, 
  "creativity": 8603, 
  "ica": 8604, 
  "suspicion": 8605, 
  "auto": 8606, 
  "schedules": 8607, 
  "IDF": 8608, 
  "5.5": 8609, 
  "exchanged": 8610, 
  "resistant": 8611, 
  "seriousness": 8612, 
  "mad": 8613, 
  "calculate": 8614, 
  "exported": 8615, 
  "accepts": 8616, 
  "fingers": 8617, 
  "dismissal": 8618, 
  "boxes": 8619, 
  "beam": 8620, 
  "ingly": 8621, 
  "TA@@": 8622, 
  "1325": 8623, 
  "coach": 8624, 
  "214": 8625, 
  "liberation": 8626, 
  "verbatim": 8627, 
  "songs": 8628, 
  "lengthy": 8629, 
  "Belgrade": 8630, 
  "mitigating": 8631, 
  "que": 8632, 
  "1963": 8633, 
  "controversial": 8634, 
  "CT": 8635, 
  "Impact": 8636, 
  "Add.3": 8637, 
  "240": 8638, 
  "58@@": 8639, 
  "immunization": 8640, 
  "ze": 8641, 
  "donations": 8642, 
  "vacuum": 8643, 
  "loose": 8644, 
  "magic": 8645, 
  "organised": 8646, 
  "ell": 8647, 
  "boats": 8648, 
  "buffer": 8649, 
  "distress": 8650, 
  "loves": 8651, 
  "deliberately": 8652, 
  "absorb": 8653, 
  "Effects": 8654, 
  "Front": 8655, 
  "Roman": 8656, 
  "exporters": 8657, 
  "circulate": 8658, 
  "190": 8659, 
  "Hamas": 8660, 
  "ut@@": 8661, 
  "6.5": 8662, 
  "yard": 8663, 
  "deficits": 8664, 
  "UNMIT": 8665, 
  "La": 8666, 
  "imbalance": 8667, 
  "striking": 8668, 
  "colors": 8669, 
  "6.2": 8670, 
  "br@@": 8671, 
  "Controller": 8672, 
  "reaches": 8673, 
  "artists": 8674, 
  "importing": 8675, 
  "Berlin": 8676, 
  "exciting": 8677, 
  "abolish": 8678, 
  "enemies": 8679, 
  "contest": 8680, 
  "intentions": 8681, 
  "scaling": 8682, 
  "likelihood": 8683, 
  "scholarships": 8684, 
  "narcotic": 8685, 
  "Mer@@": 8686, 
  "1,500": 8687, 
  "rigorous": 8688, 
  "hinder": 8689, 
  "cannabis": 8690, 
  "transferring": 8691, 
  "EP": 8692, 
  "perpetrator": 8693, 
  "harsh": 8694, 
  "slave": 8695, 
  "Case": 8696, 
  "viability": 8697, 
  "pa@@": 8698, 
  "Bal@@": 8699, 
  "Index": 8700, 
  "enrichment": 8701, 
  "equation": 8702, 
  "CN@@": 8703, 
  "tracing": 8704, 
  "SP": 8705, 
  "Mines": 8706, 
  "dish": 8707, 
  "sc": 8708, 
  "reveals": 8709, 
  "extremism": 8710, 
  "ca@@": 8711, 
  "infrastructures": 8712, 
  "quest": 8713, 
  "ji": 8714, 
  "grid": 8715, 
  "remembered": 8716, 
  "stomach": 8717, 
  "yearly": 8718, 
  "ata": 8719, 
  "alter": 8720, 
  "undergoing": 8721, 
  "predict": 8722, 
  "174": 8723, 
  "Principal": 8724, 
  "Arctic": 8725, 
  "172": 8726, 
  "Khartoum": 8727, 
  "stuck": 8728, 
  "Contracts": 8729, 
  "bags": 8730, 
  "anybody": 8731, 
  "Total": 8732, 
  "distribute": 8733, 
  "V.": 8734, 
  "suited": 8735, 
  "HKSAR": 8736, 
  "181": 8737, 
  "sewage": 8738, 
  "depended": 8739, 
  "dozen": 8740, 
  "employing": 8741, 
  "standardization": 8742, 
  "confiscated": 8743, 
  "MS": 8744, 
  "sensor": 8745, 
  "Ministries": 8746, 
  "Antigua": 8747, 
  "disorder": 8748, 
  "reactions": 8749, 
  "No@@": 8750, 
  "offender": 8751, 
  "bromide": 8752, 
  "dem@@": 8753, 
  "ama": 8754, 
  "ITU": 8755, 
  "ging": 8756, 
  "191": 8757, 
  "caution": 8758, 
  "relied": 8759, 
  "ratios": 8760, 
  "IF@@": 8761, 
  "I.@@": 8762, 
  "ERP": 8763, 
  "173": 8764, 
  "hostage": 8765, 
  "frank": 8766, 
  "0.5": 8767, 
  "coexistence": 8768, 
  "conditional": 8769, 
  "hu@@": 8770, 
  "syndrome": 8771, 
  "han": 8772, 
  "Minimum": 8773, 
  "Ne@@": 8774, 
  "asserted": 8775, 
  "overlap": 8776, 
  "reclassification": 8777, 
  "terminate": 8778, 
  "kin": 8779, 
  "tip": 8780, 
  "Twenty": 8781, 
  "curve": 8782, 
  "shoot": 8783, 
  "sts": 8784, 
  "Marshall": 8785, 
  "lips": 8786, 
  "flagrant": 8787, 
  "ev": 8788, 
  "2.7": 8789, 
  "Brindisi": 8790, 
  "ement": 8791, 
  "den@@": 8792, 
  "crazy": 8793, 
  "Investigations": 8794, 
  "Stockpiling": 8795, 
  "ion": 8796, 
  "conciliation": 8797, 
  "IR@@": 8798, 
  "ching": 8799, 
  "robbery": 8800, 
  "clashes": 8801, 
  "Ham@@": 8802, 
  "differentiated": 8803, 
  "particles": 8804, 
  "Ak@@": 8805, 
  "healthcare": 8806, 
  "1.8": 8807, 
  "seal": 8808, 
  "situated": 8809, 
  "foregoing": 8810, 
  "substantiated": 8811, 
  "185": 8812, 
  "Seychelles": 8813, 
  "Pi@@": 8814, 
  "vaccine": 8815, 
  "KP": 8816, 
  "218": 8817, 
  "Ahmed": 8818, 
  "universe": 8819, 
  "summaries": 8820, 
  "1.7": 8821, 
  "UNMISS": 8822, 
  "sincerely": 8823, 
  "suggesting": 8824, 
  "ful": 8825, 
  "ely": 8826, 
  "Offr": 8827, 
  "instant": 8828, 
  "He@@": 8829, 
  "estimation": 8830, 
  "photographs": 8831, 
  "tariffs": 8832, 
  "preamble": 8833, 
  "Republican": 8834, 
  "differently": 8835, 
  "deepening": 8836, 
  "funny": 8837, 
  "therapeutic": 8838, 
  "approaching": 8839, 
  "GENERAL": 8840, 
  "Procedures": 8841, 
  "multidisciplinary": 8842, 
  "commander": 8843, 
  "io": 8844, 
  "orderly": 8845, 
  "toll": 8846, 
  "install": 8847, 
  "petition": 8848, 
  "unliquidated": 8849, 
  "diabetes": 8850, 
  "gl@@": 8851, 
  "shortfall": 8852, 
  "daughters": 8853, 
  "doubled": 8854, 
  "encounter": 8855, 
  "believing": 8856, 
  "traders": 8857, 
  "After": 8858, 
  "kiss": 8859, 
  "embedded": 8860, 
  "San@@": 8861, 
  "Meetings": 8862, 
  "head@@": 8863, 
  "god": 8864, 
  "factories": 8865, 
  "comprehensively": 8866, 
  "177": 8867, 
  "233": 8868, 
  "extremist": 8869, 
  "burned": 8870, 
  "Kim": 8871, 
  "knife": 8872, 
  "crash": 8873, 
  "pot": 8874, 
  "B.@@": 8875, 
  "detrimental": 8876, 
  "Judges": 8877, 
  "leather": 8878, 
  "Landlocked": 8879, 
  "fought": 8880, 
  "184": 8881, 
  "overtime": 8882, 
  "230": 8883, 
  "influences": 8884, 
  "mg": 8885, 
  "sensitization": 8886, 
  "Croatian": 8887, 
  "insisted": 8888, 
  "Ps": 8889, 
  "Trustees": 8890, 
  "US@@": 8891, 
  "68@@": 8892, 
  "scrutiny": 8893, 
  "boom": 8894, 
  "UNPROFOR": 8895, 
  "thrust": 8896, 
  "enthusiasm": 8897, 
  "D.C.": 8898, 
  "oneself": 8899, 
  "&apos;a": 8900, 
  "ase": 8901, 
  "CPC": 8902, 
  "holdings": 8903, 
  "Empowerment": 8904, 
  "pragmatic": 8905, 
  "prize": 8906, 
  "observing": 8907, 
  "Yes": 8908, 
  "sacrifice": 8909, 
  "redeployed": 8910, 
  "bio@@": 8911, 
  "Communities": 8912, 
  "aerial": 8913, 
  "ars": 8914, 
  "uneven": 8915, 
  "fa@@": 8916, 
  "multisectoral": 8917, 
  "ST@@": 8918, 
  "186": 8919, 
  "Let": 8920, 
  "wa@@": 8921, 
  "resist": 8922, 
  "concessions": 8923, 
  "warehouse": 8924, 
  "alliance": 8925, 
  "CR@@": 8926, 
  "maturity": 8927, 
  "fan": 8928, 
  "tentative": 8929, 
  "rats": 8930, 
  "202": 8931, 
  "Not": 8932, 
  "Nature": 8933, 
  "wound": 8934, 
  "C.12": 8935, 
  "Income": 8936, 
  "Develop": 8937, 
  "invalid": 8938, 
  "70@@": 8939, 
  "constrained": 8940, 
  "permanently": 8941, 
  "1,4@@": 8942, 
  "Subcommission": 8943, 
  "Jane": 8944, 
  "stroke": 8945, 
  "bidding": 8946, 
  "OL": 8947, 
  "vested": 8948, 
  "armaments": 8949, 
  "passive": 8950, 
  "accessed": 8951, 
  "preferences": 8952, 
  "kid": 8953, 
  "finger": 8954, 
  "Tu@@": 8955, 
  "commanders": 8956, 
  "propaganda": 8957, 
  "Museum": 8958, 
  "amp": 8959, 
  "206": 8960, 
  "abducted": 8961, 
  "lovely": 8962, 
  "clubs": 8963, 
  "Oceans": 8964, 
  "Val@@": 8965, 
  "vibration": 8966, 
  "insist": 8967, 
  "enforcing": 8968, 
  "prompted": 8969, 
  "Ag@@": 8970, 
  "preserved": 8971, 
  "ideological": 8972, 
  "reorganization": 8973, 
  "compliant": 8974, 
  "safely": 8975, 
  "theatre": 8976, 
  "ists": 8977, 
  "hello": 8978, 
  "luxury": 8979, 
  "passes": 8980, 
  "Daniel": 8981, 
  "amnesty": 8982, 
  "arsenals": 8983, 
  "dirty": 8984, 
  "triangular": 8985, 
  "Annan": 8986, 
  "fer@@": 8987, 
  "understands": 8988, 
  "analyzing": 8989, 
  "Cup": 8990, 
  "pleasant": 8991, 
  "continually": 8992, 
  "execute": 8993, 
  "diffusion": 8994, 
  "meals": 8995, 
  "Tuvalu": 8996, 
  "171": 8997, 
  "measurements": 8998, 
  "ged": 8999, 
  "unconditional": 9000, 
  "FMCT": 9001, 
  "ously": 9002, 
  "charter": 9003, 
  "GC": 9004, 
  "regrettable": 9005, 
  "maker": 9006, 
  "AS": 9007, 
  "59@@": 9008, 
  "Directors": 9009, 
  "While": 9010, 
  "geological": 9011, 
  "remedial": 9012, 
  "basin": 9013, 
  "49@@": 9014, 
  "alized": 9015, 
  "hath": 9016, 
  "187": 9017, 
  "e.": 9018, 
  "altogether": 9019, 
  "illustrate": 9020, 
  "atmospheric": 9021, 
  "ea": 9022, 
  "complications": 9023, 
  "Lo@@": 9024, 
  "arriving": 9025, 
  "sexes": 9026, 
  "rush": 9027, 
  "burdens": 9028, 
  "manufacturer": 9029, 
  "traffickers": 9030, 
  "breaks": 9031, 
  "HK@@": 9032, 
  "pen": 9033, 
  "technically": 9034, 
  "interpret": 9035, 
  "Ozone": 9036, 
  "Question": 9037, 
  "refined": 9038, 
  "Falkland": 9039, 
  "Plurinational": 9040, 
  "executives": 9041, 
  "underlining": 9042, 
  "atomic": 9043, 
  "178": 9044, 
  "pointing": 9045, 
  "UPR": 9046, 
  "calculating": 9047, 
  "retaining": 9048, 
  "unexpected": 9049, 
  "generators": 9050, 
  "banning": 9051, 
  "supervise": 9052, 
  "ensuing": 9053, 
  "prevents": 9054, 
  "disadvantages": 9055, 
  "IP": 9056, 
  "rolled": 9057, 
  "radar": 9058, 
  "defects": 9059, 
  "ek": 9060, 
  "lectures": 9061, 
  "CP": 9062, 
  "á@@": 9063, 
  "movies": 9064, 
  "tower": 9065, 
  "rocks": 9066, 
  "passion": 9067, 
  "ICAO": 9068, 
  "assists": 9069, 
  "upward": 9070, 
  "emanating": 9071, 
  "ESA": 9072, 
  "optimize": 9073, 
  "ms": 9074, 
  "administer": 9075, 
  "UNLB": 9076, 
  "1,7@@": 9077, 
  "ill@@": 9078, 
  "loud": 9079, 
  "wa": 9080, 
  "Future": 9081, 
  "athletes": 9082, 
  "aya": 9083, 
  "orphans": 9084, 
  "Chicago": 9085, 
  "lighting": 9086, 
  "oma": 9087, 
  "guides": 9088, 
  "disadvantage": 9089, 
  "jet": 9090, 
  "ner": 9091, 
  "instructed": 9092, 
  "condemnation": 9093, 
  "widening": 9094, 
  "INSTRAW": 9095, 
  "predictability": 9096, 
  "PO@@": 9097, 
  "anxiety": 9098, 
  "rebuilding": 9099, 
  "deficiency": 9100, 
  "260": 9101, 
  "consuming": 9102, 
  "sooner": 9103, 
  "fifteen": 9104, 
  "Town": 9105, 
  "honey": 9106, 
  "od@@": 9107, 
  "synthetic": 9108, 
  "insofar": 9109, 
  "ats": 9110, 
  "washing": 9111, 
  "CA": 9112, 
  "embrace": 9113, 
  "speaks": 9114, 
  "keys": 9115, 
  "Kinshasa": 9116, 
  "From": 9117, 
  "countryside": 9118, 
  "stupid": 9119, 
  "Mil@@": 9120, 
  "shore": 9121, 
  "500,000": 9122, 
  "finances": 9123, 
  "47@@": 9124, 
  "Almaty": 9125, 
  "Who": 9126, 
  "sword": 9127, 
  "confronting": 9128, 
  "LDC": 9129, 
  "225": 9130, 
  "travelled": 9131, 
  "Valley": 9132, 
  "work@@": 9133, 
  "Organizational": 9134, 
  "undergo": 9135, 
  "8,000": 9136, 
  "expelled": 9137, 
  "certainty": 9138, 
  "12,@@": 9139, 
  "aw@@": 9140, 
  "presumption": 9141, 
  "organisms": 9142, 
  "aggravated": 9143, 
  "manuals": 9144, 
  "3.": 9145, 
  "gar@@": 9146, 
  "sampling": 9147, 
  "compact": 9148, 
  "2.30": 9149, 
  "mu@@": 9150, 
  "Cs": 9151, 
  "243": 9152, 
  "bridges": 9153, 
  "abandon": 9154, 
  "fever": 9155, 
  "Provisions": 9156, 
  "conservative": 9157, 
  "clearer": 9158, 
  "assign": 9159, 
  "Observatory": 9160, 
  "legislature": 9161, 
  "extraterritorial": 9162, 
  "Narcotics": 9163, 
  "contributor": 9164, 
  "GIS": 9165, 
  "ear@@": 9166, 
  "209": 9167, 
  "meters": 9168, 
  "ming": 9169, 
  "prone": 9170, 
  "Recommendation": 9171, 
  "complain": 9172, 
  "editor": 9173, 
  "muscle": 9174, 
  "prospective": 9175, 
  "ised": 9176, 
  "LRA": 9177, 
  "Substances": 9178, 
  "ders": 9179, 
  "rebels": 9180, 
  "exceeds": 9181, 
  "atory": 9182, 
  "artist": 9183, 
  "multidimensional": 9184, 
  "afterwards": 9185, 
  "LE@@": 9186, 
  "spots": 9187, 
  "underline": 9188, 
  "Maintenance": 9189, 
  "7,000": 9190, 
  "Overseas": 9191, 
  "hereinafter": 9192, 
  "Barbuda": 9193, 
  "encompass": 9194, 
  "Can": 9195, 
  "Moroccan": 9196, 
  "midterm": 9197, 
  "Brunei": 9198, 
  "Bel@@": 9199, 
  "taxi": 9200, 
  "La@@": 9201, 
  "Age": 9202, 
  "Sch@@": 9203, 
  "basketball": 9204, 
  "pipeline": 9205, 
  "II.@@": 9206, 
  "engineer": 9207, 
  "194": 9208, 
  "irreversible": 9209, 
  "ably": 9210, 
  "builds": 9211, 
  "Ben@@": 9212, 
  "SH@@": 9213, 
  "tra@@": 9214, 
  "del": 9215, 
  "176": 9216, 
  "ICCD": 9217, 
  "footing": 9218, 
  "interact": 9219, 
  "bacteria": 9220, 
  "strongest": 9221, 
  "cattle": 9222, 
  "unfortunate": 9223, 
  "interdependent": 9224, 
  "crystal": 9225, 
  "circumstance": 9226, 
  "surrender": 9227, 
  "simultaneous": 9228, 
  "disappointed": 9229, 
  "Ge@@": 9230, 
  "reluctant": 9231, 
  "automation": 9232, 
  "tear": 9233, 
  "firing": 9234, 
  "temperatures": 9235, 
  "sha@@": 9236, 
  "premium": 9237, 
  "checkpoints": 9238, 
  "6.3": 9239, 
  "Jim": 9240, 
  "steam": 9241, 
  "writers": 9242, 
  "Partnerships": 9243, 
  "moments": 9244, 
  "disorders": 9245, 
  "Tai": 9246, 
  "borrow": 9247, 
  "excited": 9248, 
  "Communist": 9249, 
  "battery": 9250, 
  "SS": 9251, 
  "cant": 9252, 
  "airports": 9253, 
  "defendants": 9254, 
  "incoming": 9255, 
  "convenience": 9256, 
  "13,@@": 9257, 
  "criminalization": 9258, 
  "literary": 9259, 
  "ineffective": 9260, 
  "Ta@@": 9261, 
  "AD@@": 9262, 
  "grows": 9263, 
  "embarked": 9264, 
  "Contact": 9265, 
  "ju@@": 9266, 
  "Austrian": 9267, 
  "OAS": 9268, 
  "conducts": 9269, 
  "222": 9270, 
  "reproduction": 9271, 
  "historically": 9272, 
  "207": 9273, 
  "surprising": 9274, 
  "Armenian": 9275, 
  "cornerstone": 9276, 
  "occasionally": 9277, 
  "municipality": 9278, 
  "bias": 9279, 
  "perceptions": 9280, 
  "poorly": 9281, 
  "Love": 9282, 
  "Appointment": 9283, 
  "litigation": 9284, 
  "rises": 9285, 
  "30,000": 9286, 
  "Crisis": 9287, 
  "ideals": 9288, 
  "AF@@": 9289, 
  "uncle": 9290, 
  "privately": 9291, 
  "memories": 9292, 
  "chemistry": 9293, 
  "crack": 9294, 
  "credited": 9295, 
  "Mi@@": 9296, 
  "confinement": 9297, 
  "hydro@@": 9298, 
  "nurses": 9299, 
  "Equipment": 9300, 
  "litem": 9301, 
  "verifiable": 9302, 
  "sl@@": 9303, 
  "Gra@@": 9304, 
  "dancing": 9305, 
  "neglected": 9306, 
  "Are": 9307, 
  "incremental": 9308, 
  "bo": 9309, 
  "deserved": 9310, 
  "audiences": 9311, 
  "ass@@": 9312, 
  "lecture": 9313, 
  "ICCPR": 9314, 
  "disk": 9315, 
  "portable": 9316, 
  "188": 9317, 
  "facilitator": 9318, 
  "203": 9319, 
  "qualify": 9320, 
  "Bar": 9321, 
  "devise": 9322, 
  "Accra": 9323, 
  "20th": 9324, 
  "enriched": 9325, 
  "DA@@": 9326, 
  "Inquiry": 9327, 
  "disturbing": 9328, 
  "if@@": 9329, 
  "ara": 9330, 
  "clinic": 9331, 
  "rom@@": 9332, 
  "titles": 9333, 
  "Polish": 9334, 
  "Fundamental": 9335, 
  "burst": 9336, 
  "ME@@": 9337, 
  "payroll": 9338, 
  "tasked": 9339, 
  "explaining": 9340, 
  "shifting": 9341, 
  "Dec@@": 9342, 
  "Ha@@": 9343, 
  "listened": 9344, 
  "rebuild": 9345, 
  "precarious": 9346, 
  "XIV": 9347, 
  "ICEF": 9348, 
  "opposing": 9349, 
  "eager": 9350, 
  "journalist": 9351, 
  "ip@@": 9352, 
  "Ra@@": 9353, 
  "utilities": 9354, 
  "disciplines": 9355, 
  "Delhi": 9356, 
  "bulletin": 9357, 
  "Sub@@": 9358, 
  "ran@@": 9359, 
  "SI@@": 9360, 
  "bitter": 9361, 
  "sympathy": 9362, 
  "abused": 9363, 
  "minded": 9364, 
  "deadly": 9365, 
  "relax": 9366, 
  "ess@@": 9367, 
  "imminent": 9368, 
  "wireless": 9369, 
  "wings": 9370, 
  "Intellectual": 9371, 
  "occupy": 9372, 
  "dare": 9373, 
  "Rec@@": 9374, 
  "restaurants": 9375, 
  "PS": 9376, 
  "IL@@": 9377, 
  "diplomats": 9378, 
  "auction": 9379, 
  "constituent": 9380, 
  "Please": 9381, 
  "Kofi": 9382, 
  "milestone": 9383, 
  "Abuse": 9384, 
  "summarizes": 9385, 
  "wanna": 9386, 
  "corn": 9387, 
  "Pan@@": 9388, 
  "hub": 9389, 
  "Te@@": 9390, 
  "pushing": 9391, 
  "precedent": 9392, 
  "hum@@": 9393, 
  "a.@@": 9394, 
  "Trusteeship": 9395, 
  "35@@": 9396, 
  "liberal": 9397, 
  "optimum": 9398, 
  "1,8@@": 9399, 
  "Tibetan": 9400, 
  "frames": 9401, 
  "Understanding": 9402, 
  "extract": 9403, 
  "beneath": 9404, 
  "struggling": 9405, 
  "ky": 9406, 
  "Citizens": 9407, 
  "questionnaires": 9408, 
  "exhaustion": 9409, 
  "grand": 9410, 
  "hydraulic": 9411, 
  "WMO": 9412, 
  "praised": 9413, 
  "gr@@": 9414, 
  "counties": 9415, 
  "ber": 9416, 
  "disproportionately": 9417, 
  "N.": 9418, 
  "oo@@": 9419, 
  "classical": 9420, 
  "wastewater": 9421, 
  "probability": 9422, 
  "impediments": 9423, 
  "ver": 9424, 
  "premature": 9425, 
  "immigrant": 9426, 
  "Fed": 9427, 
  "arena": 9428, 
  "timeliness": 9429, 
  "198@@": 9430, 
  "quo": 9431, 
  "SO@@": 9432, 
  "imagination": 9433, 
  "ON@@": 9434, 
  "recommending": 9435, 
  "induction": 9436, 
  "adequacy": 9437, 
  "Well": 9438, 
  "flame": 9439, 
  "delegated": 9440, 
  "Cam@@": 9441, 
  "Economics": 9442, 
  "practically": 9443, 
  "insured": 9444, 
  "Elizabeth": 9445, 
  "trips": 9446, 
  "jumped": 9447, 
  "ges": 9448, 
  "Learning": 9449, 
  "Best": 9450, 
  "alism": 9451, 
  "CE": 9452, 
  "del@@": 9453, 
  "Ger@@": 9454, 
  "amid": 9455, 
  "span": 9456, 
  "hunting": 9457, 
  "7.5": 9458, 
  "streamlined": 9459, 
  "initiating": 9460, 
  "chocolate": 9461, 
  "fulfill": 9462, 
  "Sar@@": 9463, 
  "cocaine": 9464, 
  "regulators": 9465, 
  "sur@@": 9466, 
  "toxicity": 9467, 
  "1948": 9468, 
  "carriers": 9469, 
  "228": 9470, 
  "221": 9471, 
  "hasn": 9472, 
  "immense": 9473, 
  "withdrew": 9474, 
  "241": 9475, 
  "slum": 9476, 
  "apartheid": 9477, 
  "constituting": 9478, 
  "eighty": 9479, 
  "slowdown": 9480, 
  "TION": 9481, 
  "1,5@@": 9482, 
  "whatsoever": 9483, 
  "mice": 9484, 
  "200,000": 9485, 
  "refuge": 9486, 
  "fullest": 9487, 
  "wives": 9488, 
  "ban@@": 9489, 
  "237": 9490, 
  "subsidy": 9491, 
  "15,@@": 9492, 
  "expiration": 9493, 
  "mentally": 9494, 
  "transported": 9495, 
  "lung": 9496, 
  "ind@@": 9497, 
  "complained": 9498, 
  "intra": 9499, 
  "outsourcing": 9500, 
  "Abkhazia": 9501, 
  "2.8": 9502, 
  "predicted": 9503, 
  "199": 9504, 
  "overcrowding": 9505, 
  "ites": 9506, 
  "statutes": 9507, 
  "Crescent": 9508, 
  "albeit": 9509, 
  "Mike": 9510, 
  "Oil": 9511, 
  "Watch": 9512, 
  "Ottawa": 9513, 
  "calculations": 9514, 
  "hotels": 9515, 
  "factions": 9516, 
  "versus": 9517, 
  "monopoly": 9518, 
  "mat@@": 9519, 
  "Os": 9520, 
  "destiny": 9521, 
  "criticized": 9522, 
  "collaborating": 9523, 
  "Ap@@": 9524, 
  "threatens": 9525, 
  "permitting": 9526, 
  "Judiciary": 9527, 
  "hol@@": 9528, 
  "14,@@": 9529, 
  "barely": 9530, 
  "francs": 9531, 
  "vigorous": 9532, 
  "Mohammed": 9533, 
  "Documentation": 9534, 
  "Malvinas": 9535, 
  "Colombian": 9536, 
  "silk": 9537, 
  "Atlas": 9538, 
  "exert": 9539, 
  "Joe": 9540, 
  "Israelis": 9541, 
  "peacefully": 9542, 
  "Johnson": 9543, 
  "impeding": 9544, 
  "q": 9545, 
  "Grenada": 9546, 
  "Arabs": 9547, 
  "hurry": 9548, 
  "invoke": 9549, 
  "ium": 9550, 
  "OS": 9551, 
  "velocity": 9552, 
  "Tri@@": 9553, 
  "IA": 9554, 
  "kidnapping": 9555, 
  "2.45": 9556, 
  "193": 9557, 
  "guilt": 9558, 
  "Mac@@": 9559, 
  "exhaust": 9560, 
  "formats": 9561, 
  "waited": 9562, 
  "heroin": 9563, 
  "bars": 9564, 
  "pi@@": 9565, 
  "asleep": 9566, 
  "tier": 9567, 
  "hanging": 9568, 
  "originating": 9569, 
  "totalled": 9570, 
  "Ben": 9571, 
  "inflows": 9572, 
  "reservoir": 9573, 
  "Growth": 9574, 
  "hung": 9575, 
  "conveyed": 9576, 
  "cu@@": 9577, 
  "groupings": 9578, 
  "turnover": 9579, 
  "biotechnology": 9580, 
  "attributes": 9581, 
  "Areas": 9582, 
  "implied": 9583, 
  "69@@": 9584, 
  "tennis": 9585, 
  "analyzes": 9586, 
  "amazing": 9587, 
  "prevalent": 9588, 
  "meter": 9589, 
  "classic": 9590, 
  "patience": 9591, 
  "fold": 9592, 
  "upset": 9593, 
  "cooling": 9594, 
  "des@@": 9595, 
  "undertakes": 9596, 
  "Mrs": 9597, 
  "5.4": 9598, 
  "narcotics": 9599, 
  "179": 9600, 
  "lamp": 9601, 
  "homework": 9602, 
  "TE@@": 9603, 
  "approving": 9604, 
  "Inc": 9605, 
  "coercion": 9606, 
  "stamps": 9607, 
  "Arts": 9608, 
  "EA": 9609, 
  "harmonizing": 9610, 
  "queries": 9611, 
  "sun@@": 9612, 
  "surgical": 9613, 
  "hospitality": 9614, 
  "quoted": 9615, 
  "WIPO": 9616, 
  "indictment": 9617, 
  "col@@": 9618, 
  "post@@": 9619, 
  "ce": 9620, 
  "convert": 9621, 
  "imprisoned": 9622, 
  "rightly": 9623, 
  "basket": 9624, 
  "reminder": 9625, 
  "Dynasty": 9626, 
  "kick": 9627, 
  "bore": 9628, 
  "Jones": 9629, 
  "chip": 9630, 
  "Why": 9631, 
  "infants": 9632, 
  "Entity": 9633, 
  "alizing": 9634, 
  "counts": 9635, 
  "motions": 9636, 
  "flew": 9637, 
  "Vietnam": 9638, 
  "fortieth": 9639, 
  "ung": 9640, 
  "inflicted": 9641, 
  "Ram@@": 9642, 
  "seldom": 9643, 
  "Bosnian": 9644, 
  "war@@": 9645, 
  "annotations": 9646, 
  "Continue": 9647, 
  "SP@@": 9648, 
  "groundwater": 9649, 
  "Ho@@": 9650, 
  "204": 9651, 
  "ically": 9652, 
  "Father": 9653, 
  "apparatus": 9654, 
  "nationalities": 9655, 
  "Sol@@": 9656, 
  "Timorese": 9657, 
  "warfare": 9658, 
  "da@@": 9659, 
  "1966": 9660, 
  "shaping": 9661, 
  "affirm": 9662, 
  "aquifer": 9663, 
  "SAR": 9664, 
  "merger": 9665, 
  "worn": 9666, 
  "specifies": 9667, 
  "bribery": 9668, 
  "pesticides": 9669, 
  "mathematics": 9670, 
  "UNITED": 9671, 
  "fe@@": 9672, 
  "compounded": 9673, 
  "ey@@": 9674, 
  "forecasting": 9675, 
  "TH@@": 9676, 
  "Palau": 9677, 
  "abundant": 9678, 
  "Em@@": 9679, 
  "CB": 9680, 
  "fires": 9681, 
  "drag": 9682, 
  "bur@@": 9683, 
  "precursors": 9684, 
  "Satellite": 9685, 
  "abortions": 9686, 
  "physics": 9687, 
  "problematic": 9688, 
  "Providing": 9689, 
  "alliances": 9690, 
  "dozens": 9691, 
  "vigorously": 9692, 
  "1970s": 9693, 
  "Abidjan": 9694, 
  "temple": 9695, 
  "unresolved": 9696, 
  "trusted": 9697, 
  "Sim@@": 9698, 
  "forcing": 9699, 
  "oppose": 9700, 
  "nurse": 9701, 
  "Euro": 9702, 
  "download": 9703, 
  "connecting": 9704, 
  "constraint": 9705, 
  "craft": 9706, 
  "compelled": 9707, 
  "ce@@": 9708, 
  "destroying": 9709, 
  "ast@@": 9710, 
  "disposed": 9711, 
  "drinks": 9712, 
  "altered": 9713, 
  "chairpersons": 9714, 
  "Disabled": 9715, 
  "205": 9716, 
  "regrettably": 9717, 
  "positioning": 9718, 
  "Pol@@": 9719, 
  "handbook": 9720, 
  "swing": 9721, 
  "codification": 9722, 
  "ads": 9723, 
  "Commissions": 9724, 
  "deter": 9725, 
  "Sahel": 9726, 
  "215": 9727, 
  "supplementing": 9728, 
  "festival": 9729, 
  "266": 9730, 
  "communal": 9731, 
  "valley": 9732, 
  "pop": 9733, 
  "lonely": 9734, 
  "disruption": 9735, 
  "diversified": 9736, 
  "bal@@": 9737, 
  "react": 9738, 
  "216": 9739, 
  "downward": 9740, 
  "Pal@@": 9741, 
  "exhaustive": 9742, 
  "Opening": 9743, 
  "Carrie": 9744, 
  "Dag": 9745, 
  "mounted": 9746, 
  "dawn": 9747, 
  "3.6": 9748, 
  "academics": 9749, 
  "Malaria": 9750, 
  "2,500": 9751, 
  "tan@@": 9752, 
  "hereby": 9753, 
  "damaging": 9754, 
  "compelling": 9755, 
  "reconsider": 9756, 
  "tes": 9757, 
  "tracks": 9758, 
  "t.@@": 9759, 
  "comparing": 9760, 
  "mer": 9761, 
  "colleague": 9762, 
  "E.@@": 9763, 
  "wholly": 9764, 
  "talents": 9765, 
  "Grenadines": 9766, 
  "glory": 9767, 
  "enters": 9768, 
  "expeditious": 9769, 
  "gan@@": 9770, 
  "Phase": 9771, 
  "whereabouts": 9772, 
  "relies": 9773, 
  "s.": 9774, 
  "269": 9775, 
  "billions": 9776, 
  "aries": 9777, 
  "somehow": 9778, 
  "sch@@": 9779, 
  "Item": 9780, 
  "Naqurah": 9781, 
  "allies": 9782, 
  "Times": 9783, 
  "brush": 9784, 
  "lesser": 9785, 
  "adapting": 9786, 
  "217": 9787, 
  "defending": 9788, 
  "angel": 9789, 
  "trauma": 9790, 
  "relying": 9791, 
  "OR@@": 9792, 
  "dental": 9793, 
  "elaborating": 9794, 
  "optimistic": 9795, 
  "Far@@": 9796, 
  "Dakar": 9797, 
  "museum": 9798, 
  "freshwater": 9799, 
  "scheduling": 9800, 
  "demarcation": 9801, 
  "advocating": 9802, 
  "pack": 9803, 
  "psychosocial": 9804, 
  "gang": 9805, 
  "tips": 9806, 
  "OR": 9807, 
  "invaluable": 9808, 
  "thirtieth": 9809, 
  "hero": 9810, 
  "rigid": 9811, 
  "Consideration": 9812, 
  "anymore": 9813, 
  "Maria": 9814, 
  "trillion": 9815, 
  "Sao": 9816, 
  "fragmentation": 9817, 
  "wildlife": 9818, 
  "Andorra": 9819, 
  "Socialist": 9820, 
  "Bermuda": 9821, 
  "trucks": 9822, 
  "genes": 9823, 
  "breeding": 9824, 
  "alize": 9825, 
  "ial": 9826, 
  "heightened": 9827, 
  "circles": 9828, 
  "14.@@": 9829, 
  "casting": 9830, 
  "declares": 9831, 
  "secrets": 9832, 
  "emotions": 9833, 
  "striving": 9834, 
  "com": 9835, 
  "Chernobyl": 9836, 
  "L.2": 9837, 
  "BC": 9838, 
  "evidenced": 9839, 
  "triennial": 9840, 
  "CD@@": 9841, 
  "critics": 9842, 
  "AC.105": 9843, 
  "cabinet": 9844, 
  "Daily": 9845, 
  "vicinity": 9846, 
  "Adaptation": 9847, 
  "childbirth": 9848, 
  "DPRK": 9849, 
  "Directive": 9850, 
  "reversed": 9851, 
  "morbidity": 9852, 
  "mathematical": 9853, 
  "195": 9854, 
  "Yu@@": 9855, 
  "kits": 9856, 
  "reminds": 9857, 
  "CCPR": 9858, 
  "restricting": 9859, 
  "ew@@": 9860, 
  "reinforcement": 9861, 
  "Cluster": 9862, 
  "drilling": 9863, 
  "coral": 9864, 
  "Ibid": 9865, 
  "uncertainties": 9866, 
  "hydrogen": 9867, 
  "template": 9868, 
  "molecular": 9869, 
  "por@@": 9870, 
  "worrying": 9871, 
  "manifest": 9872, 
  "Lands": 9873, 
  "ODS": 9874, 
  "Ukrainian": 9875, 
  "Lusaka": 9876, 
  "Pact": 9877, 
  "CTC": 9878, 
  "....": 9879, 
  "Pre": 9880, 
  "bet": 9881, 
  "S.@@": 9882, 
  "tunnel": 9883, 
  "enquiries": 9884, 
  "cha@@": 9885, 
  "void": 9886, 
  "suppress": 9887, 
  "blocked": 9888, 
  "Cypriots": 9889, 
  "finalizing": 9890, 
  "tide": 9891, 
  "ning": 9892, 
  "Transit": 9893, 
  "Intolerance": 9894, 
  "4.6": 9895, 
  "bike": 9896, 
  "grace": 9897, 
  "brave": 9898, 
  "shifts": 9899, 
  "lifestyle": 9900, 
  "Chi@@": 9901, 
  "neutrality": 9902, 
  "ped": 9903, 
  "graduated": 9904, 
  "hybrid": 9905, 
  "reparations": 9906, 
  "ranges": 9907, 
  "slip": 9908, 
  "53@@": 9909, 
  "promotional": 9910, 
  "homeless": 9911, 
  "Classification": 9912, 
  "atrocities": 9913, 
  "intervals": 9914, 
  "pos@@": 9915, 
  "kit": 9916, 
  "197": 9917, 
  "stigma": 9918, 
  "menu": 9919, 
  "Seabed": 9920, 
  "unexploded": 9921, 
  "Truth": 9922, 
  "accompany": 9923, 
  "1968": 9924, 
  "pregnancies": 9925, 
  "triggered": 9926, 
  "Cities": 9927, 
  "affair": 9928, 
  "W.": 9929, 
  "dies": 9930, 
  "cancel": 9931, 
  "gay": 9932, 
  "attainable": 9933, 
  "metric": 9934, 
  "ily": 9935, 
  "catalytic": 9936, 
  "psychiatric": 9937, 
  "economical": 9938, 
  "dissolution": 9939, 
  "forecasts": 9940, 
  "definitive": 9941, 
  "ca": 9942, 
  "juice": 9943, 
  "Certificate": 9944, 
  "Tehran": 9945, 
  "fence": 9946, 
  "18.@@": 9947, 
  "rockets": 9948, 
  "Jews": 9949, 
  "46@@": 9950, 
  "ans@@": 9951, 
  "treasure": 9952, 
  "tis": 9953, 
  "privilege": 9954, 
  "Departments": 9955, 
  "Fifty": 9956, 
  "Tonga": 9957, 
  "romantic": 9958, 
  "tactics": 9959, 
  "invitations": 9960, 
  "AL": 9961, 
  "glasses": 9962, 
  "19th": 9963, 
  "sisters": 9964, 
  "folk": 9965, 
  "Supplementary": 9966, 
  "Strengthen": 9967, 
  "occupations": 9968, 
  "pr@@": 9969, 
  "Moses": 9970, 
  "Darussalam": 9971, 
  "Memorandum": 9972, 
  "CEO": 9973, 
  "pretext": 9974, 
  "tar@@": 9975, 
  "implements": 9976, 
  "upholding": 9977, 
  "Course": 9978, 
  "bones": 9979, 
  "routinely": 9980, 
  "optimism": 9981, 
  "15.@@": 9982, 
  "corrigendum": 9983, 
  "Our": 9984, 
  "illustrates": 9985, 
  "vector": 9986, 
  "violates": 9987, 
  "openly": 9988, 
  "Thai": 9989, 
  "wealthy": 9990, 
  "1,9@@": 9991, 
  "ow@@": 9992, 
  "Exploitation": 9993, 
  "unanimous": 9994, 
  "surveyed": 9995, 
  "commemoration": 9996, 
  "adjusting": 9997, 
  "denying": 9998, 
  "counting": 9999, 
  "ls": 10000, 
  "strip": 10001, 
  "Quartet": 10002, 
  "vegetable": 10003, 
  "ile": 10004, 
  "seismic": 10005, 
  "charity": 10006, 
  "commits": 10007, 
  "hectares": 10008, 
  "Ay@@": 10009, 
  "shake": 10010, 
  "AT": 10011, 
  "nerve": 10012, 
  "hand@@": 10013, 
  "ched": 10014, 
  "OS@@": 10015, 
  "quadrennial": 10016, 
  "sw@@": 10017, 
  "Sheikh": 10018, 
  "interrogation": 10019, 
  "holes": 10020, 
  "ah@@": 10021, 
  "flesh": 10022, 
  "down@@": 10023, 
  "macro": 10024, 
  "planted": 10025, 
  "reasoning": 10026, 
  "depositary": 10027, 
  "peninsula": 10028, 
  "HIPC": 10029, 
  "13.@@": 10030, 
  "escaped": 10031, 
  "finite": 10032, 
  "allocating": 10033, 
  "67@@": 10034, 
  "appropriated": 10035, 
  "Marino": 10036, 
  "affirming": 10037, 
  "backgrounds": 10038, 
  "judged": 10039, 
  "Laundering": 10040, 
  "OP@@": 10041, 
  "conceived": 10042, 
  "repercussions": 10043, 
  "walks": 10044, 
  "ideology": 10045, 
  "Br@@": 10046, 
  ".com": 10047, 
  "layers": 10048, 
  "engines": 10049, 
  "disappointment": 10050, 
  "fracture": 10051, 
  "ales": 10052, 
  "Karabakh": 10053, 
  "Ki@@": 10054, 
  "Oslo": 10055, 
  "Buenos": 10056, 
  "ICTR": 10057, 
  "cul@@": 10058, 
  "í@@": 10059, 
  "wooden": 10060, 
  "Physical": 10061, 
  "Ni@@": 10062, 
  "ae": 10063, 
  "resignation": 10064, 
  "thrown": 10065, 
  "Hammarskjöld": 10066, 
  "ISU": 10067, 
  "automated": 10068, 
  "psychology": 10069, 
  "corrective": 10070, 
  "agro": 10071, 
  "sel@@": 10072, 
  "Travel": 10073, 
  "OC": 10074, 
  "deems": 10075, 
  "proximity": 10076, 
  "Documents": 10077, 
  "stemming": 10078, 
  "enclosed": 10079, 
  "climb": 10080, 
  "ous@@": 10081, 
  "developers": 10082, 
  "forgive": 10083, 
  "nominal": 10084, 
  "Heritage": 10085, 
  "gentle": 10086, 
  "eng@@": 10087, 
  "prediction": 10088, 
  "pers": 10089, 
  "constituencies": 10090, 
  "ure@@": 10091, 
  "symbols": 10092, 
  "margins": 10093, 
  "5.": 10094, 
  "WA@@": 10095, 
  "interpretations": 10096, 
  "soup": 10097, 
  "mortar": 10098, 
  "Labor": 10099, 
  "Spring": 10100, 
  "improves": 10101, 
  "Exercise": 10102, 
  "Funds": 10103, 
  "scores": 10104, 
  "disregard": 10105, 
  "influencing": 10106, 
  "Aires": 10107, 
  "80@@": 10108, 
  "jury": 10109, 
  "clarifying": 10110, 
  "constructively": 10111, 
  "TC": 10112, 
  "ladies": 10113, 
  "bureaux": 10114, 
  "Dec.@@": 10115, 
  "7.1": 10116, 
  "264": 10117, 
  "brilliant": 10118, 
  "obsolete": 10119, 
  "cheaper": 10120, 
  "combustion": 10121, 
  "255": 10122, 
  "Los": 10123, 
  "Er@@": 10124, 
  "societal": 10125, 
  "severity": 10126, 
  "agreeing": 10127, 
  "15,000": 10128, 
  "stimulating": 10129, 
  "Wu": 10130, 
  "wore": 10131, 
  "injustice": 10132, 
  "packed": 10133, 
  "Morgan": 10134, 
  "sickness": 10135, 
  "effected": 10136, 
  "223": 10137, 
  "ys@@": 10138, 
  "reconcile": 10139, 
  "276": 10140, 
  "gray": 10141, 
  "forgot": 10142, 
  "eco": 10143, 
  "mud": 10144, 
  "reader": 10145, 
  "symposium": 10146, 
  "stance": 10147, 
[...]
