e </w>
s </w>
t h
n </w>
d </w>
t i
t </w>
th e</w>
e r
a n
i n
e n
o r
r e
y </w>
o n
a l
f </w>
o n</w>
o f</w>
, </w>
. </w>
o </w>
a r
e d</w>
an d</w>
a ti
g </w>
t o</w>
o u
e s</w>
al </w>
i n</w>
i t
o m
in g</w>
a </w>
i c
s t
er </w>
e c
a t
r o
s i
f or
m en
e l
a c
ati on</w>
i l
a t</w>
i s
s u
a s</w>
p o
e s
p ro
on s</w>
a n</w>
i s</w>
c on
t s</w>
r i
e m
l </w>
for </w>
men t</w>
p l
h </w>
th </w>
r a
v e</w>
u r
ti on</w>
@ </w>
@ -
@- @</w>
a s
e v
o l
u n
c e</w>
th at</w>
e n</w>
b l
re s
q u
o p
; </w>
c om
w i
v i
a d
po s
a g
) </w>
( </w>
t er
i m
e x
h a
d i
i r
l y</w>
ati ons</w>
w h
ou n
on al</w>
it y</w>
p or
ti n
p ar
w </w>
u l
c l
u s
wi th</w>
c i
or </w>
o t
b y</w>
i t</w>
k </w>
at e</w>
2 0
v er
& a
f f
s h
en t</w>
&a pos
b e
g h
a p
b e</w>
a m
ou r
u m
c h
n o
l i
l o
/ </w>
&apos ;
l d</w>
d e
si on</w>
ic </w>
t r
m e
p er
t ed</w>
d u
ar e</w>
ati onal</w>
ev el
st r
tin g</w>
e g
r om
t a
th e
u d
it s</w>
e ar
m a
er e</w>
ou ld</w>
al l</w>
ti es</w>
1 </w>
w as</w>
w or
er s</w>
ar y</w>
th er</w>
bl e</w>
0 </w>
p </w>
n ational</w>
qu ot
i z
I </w>
an ce</w>
quot ;</w>
& quot;</w>
c o
a b
t e
U n
C om
evel op
for m
20 0
p e
2 </w>
it ed</w>
&apos; s</w>
: </w>
p ec
d s</w>
ti c
S t
Com m
in ter
at ed</w>
c oun
rom </w>
f rom</w>
b u
m e</w>
s t</w>
en ce</w>
d er</w>
3 </w>
n e
th is</w>
5 </w>
por t</w>
re g
s e
ir </w>
no t</w>
er al</w>
t y</w>
ti ons</w>
4 </w>
es s</w>
Un ited</w>
s o</w>
o ver
ha ve</w>
d is
b er</w>
d evelop
men ts</w>
p re
m in
c h</w>
at es</w>
d ing</w>
t ri
e ment</w>
du c
p res
o c
s e</w>
m an
r ou
a y</w>
s ec
6 </w>
i g
em </w>
e st
il </w>
1 9
t er</w>
an t</w>
g ra
h as</w>
d e</w>
8 </w>
ic h</w>
the ir</w>
7 </w>
h e</w>
ou </w>
il l</w>
ou t</w>
N ations</w>
e p
m o
wh ich</w>
l e
ff ic
p r
pro vi
v en
d ed</w>
re c
y ou</w>
our </w>
men t
d er
C on
en eral</w>
it te
com m
a ble</w>
over n
t ur
o w
I n
k e</w>
ti ve</w>
w ill</w>
itte e</w>
pl e
k ing</w>
o o
on e</w>
gh t</w>
cl ud
o ther</w>
g e
s er
t u
9 </w>
Comm ittee</w>
gh ts</w>
f in
w e
ar </w>
ha d</w>
al so</w>
re l
c es</w>
en t
f i
m </w>
g an
S ec
es s
al ly</w>
be en</w>
t ra
ar i
pec i
G eneral</w>
ac c
t en
a in
t ec
su b
ci al</w>
w ere</w>
in clud
su p
re s</w>
s o
inter national</w>
gra m
op er
g e</w>
l a
U N
su r
St ates</w>
c re
l ic
wor k</w>
i d
re qu
i es</w>
gan iz
m or
ou s</w>
e f
w e</w>
em ber</w>
- </w>
d ec
s ti
um an</w>
v ic
a f
ol u
ati ve</w>
ear </w>
sh ould</w>
h i
el </w>
pro c
p u
a u
j ec
f er
ac e</w>
pl e</w>
g en
develop ment</w>
c ri
es t</w>
re d</w>
i ties</w>
ag e</w>
s y
k e
ar d</w>
en ti
el y</w>
tri es</w>
in form
w ould</w>
20 1
o b
p ri
re t
19 9
is sion</w>
e w</w>
en d
in g
A </w>
al l
the y</w>
C oun
om en</w>
b o
on g</w>
as e</w>
h is</w>
coun tries</w>
g u
is h
reg i
i d</w>
c er
l e</w>
us t</w>
ic al</w>
al s</w>
us e</w>
g n
t o
si ons</w>
a y
g h</w>
pro gram
re port</w>
v es</w>
ac ti
om e</w>
ri ghts</w>
mor e</w>
es e</w>
ff ec
h e
res olu
p on
bu t</w>
ur ity</w>
w el
su ch</w>
con si
C h
in v
f ac
c il</w>
a bl
ati n
u s</w>
Coun cil</w>
P ro
atin g</w>
il ity</w>
th o
bl ic</w>
me e
sy st
per s
un der</w>
o v
c an</w>
or y</w>
or s</w>
G overn
A s
or ganiz
im ple
or d
i a</w>
en g
por t
u p
su l
s em
w omen</w>
h uman</w>
str u
um </w>
st an
ven tion</w>
e d
S </w>
con tin
lo w
v ed</w>
be t
sti tu
an s
Sec ret
k s</w>
th ere</w>
po lic
tur e</w>
includ ing</w>
on om
ad e</w>
ap pro
inform ation</w>
as t</w>
a d</w>
l eg
f u
m s</w>
ment ation</w>
s peci
C </w>
is su
in i
ic ation</w>
wi th
sup port</w>
resolu tion</w>
ec onom
h n
in t
e qu
a re
an y</w>
contin u
m on
s es
an n
f un
com men
ch il
p h
d el
r ic
bl y</w>
d ra
per i
th rou
g i
as si
en c
t w
m ar
pe o
in to</w>
i </w>
St ate</w>
v ing</w>
ti cl
f t</w>
m il
u p</w>
in e</w>
tic al</w>
e ffec
as ed</w>
ne w</w>
o g
tr y</w>
r u
f ir
res pon
t e</w>
dec i
con t
h el
ti me</w>
th er
comm un
th ese</w>
sem bly</w>
m ade</w>
s ed</w>
h an
sur e</w>
b </w>
con cer
l evel
? </w>
ti onal</w>
est abl
tr ans
As sembly</w>
sh i
fer ence</w>
oper ation</w>
a v
r an
i al</w>
ur e</w>
oo d</w>
In ter
f ol
i f</w>
re at
si s</w>
n o</w>
p er</w>
d re
g overn
re commen
imple mentation</w>
c ap
throu gh</w>
ses sion</w>
P </w>
s el
syst em</w>
vi ew</w>
s ome</w>
ac h</w>
tec hn
me a
stru c
ser vic
vi ties</w>
tho se</w>
n ot
in ing</w>
s p
res s</w>
a id</w>
ment al</w>
ev er</w>
we en</w>
re por
re e</w>
wel l</w>
bet ween</w>
m es</w>
e i
Govern ment</w>
p rom
acti vities</w>
ol og
ci p
in cre
rou p</w>
peo ple</w>
ticl e</w>
c ur
m y</w>
un der
Secret ary</w>
an s</w>
fin an
m at
r on
oun d</w>
em b
A f
h o
par t
pl o
o ffic
ain st</w>
f ur
il l
in ed</w>
ul ar</w>
ag ainst</w>
pres ent
st s</w>
as s
il e</w>
ad op
Con vention</w>
f ul
n um
wh o</w>
ma y</w>
en ts</w>
our ces</w>
0 0</w>
Comm ission</w>
im port
am e</w>
ch an
s it
consi der
al ity</w>
d ay</w>
d ic
mea su
coun try</w>
st ance</w>
t or</w>
g o
for e</w>
ab out</w>
si gn
ef for
si d
par ti
lo c
par tic
tw o</w>
dre n</w>
wh en</w>
is h</w>
ag ement</w>
la w</w>
ge t</w>
D ec
no w</w>
im </w>
at eg
establ ish
h er</w>
com p
v is
ap pl
l ar
au th
y our</w>
i f
ra p
econom ic</w>
c ent</w>
so ci
th an</w>
on ly</w>
pro duc
p s</w>
sec urity</w>
ov er</w>
st at
c or
program me</w>
M r
b ec
d ur
measu res</w>
vi ol
c ould</w>
ay s</w>
requ i
mee ting</w>
d o</w>
em s</w>
tri bu
or der</w>
r it
pro tec
mo st</w>
min i
ac t</w>
P ar
regi onal</w>
om </w>
th em</w>
ar ticle</w>
f l
ar ds</w>
si ble</w>
chil dren</w>
is m</w>
ta k
ta ke</w>
a il
par ag
parti cip
fir st</w>
ear s</w>
A d
al th</w>
c ol
& #
ing s</w>
co operation</w>
Af ric
num ber</w>
es ti
us ed</w>
re sul
Inter national</w>
man y</w>
ow n</w>
dur ing</w>
D </w>
u blic</w>
al iz
c </w>
e duc
concer n
com e</w>
m emb
is e</w>
&# 9
sh e</w>
ad d
effor ts</w>
organiz ations</w>
u ation</w>
en tr
b i
lo w</w>
$ </w>
pro pos
peri o
ri ght</w>
level </w>
ou t
cri min
tic </w>
E </w>
ver y</w>
s aid</w>
W or
res ources</w>
n ec
fol low
shi p</w>
dra ft</w>
ig h</w>
w ay</w>
ter s</w>
D evelop
pro jec
Con ference</w>
k ed</w>
p ur
ne ed</w>
ac k</w>
ma in
f ra
en d</w>
ag re
wh at</w>
Mr .</w>
finan cial</w>
si ve</w>
con tribu
R i
d em
O ffic
vi ron
lo b
sh all</w>
P re
Ch in
&apos ;</w>
d oc
proc ess</w>
bu il
d o
n on</w>
A c
1 0</w>
ff er
cl ear</w>
plo y
in ation</w>
im pro
so cial</w>
e ments</w>
com pl
m ust</w>
ac h
y ear</w>
provi de</w>
fur ther</w>
h ol
b ility</w>
y ears</w>
ex t</w>
R ep
res pec
C o
ab ility</w>
m er
O </w>
ac tion</w>
servic es</w>
am </w>
po si
l l</w>
e ty</w>
a ir
el ec
pu blic</w>
issu es</w>
T he</w>
in di
en sure</w>
ad di
man agement</w>
F </w>
Develop ment</w>
ac coun
rap h</w>
memb ers</w>
Rep ublic</w>
assi stance</w>
recommen d
parag raph</w>
tak en</w>
as es</w>
u st
b ased</w>
g es</w>
a st
in stitu
c ar
b ud
&apos; t</w>
af ter</w>
Sec urity</w>
g s</w>
with in</w>
cur r
wh ile</w>
e t</w>
par ty</w>
I I</w>
i an</w>
po li
form </w>
m is
I s
wh ere</w>
str eng
th en</w>
ent ly</w>
be ing</w>
re present
mini str
in ce</w>
Ri ghts</w>
p end
provi ded</w>
s es</w>
s ch
doc u
ma ke</w>
c ul
O r
G roup</w>
eg r
leg al</w>
l an
pl es</w>
li ke</w>
m an</w>
b el
he alth</w>
in ci
ev er
lob al</w>
wor ld</w>
s ing</w>
n er
l ed</w>
or ity</w>
rel ev
ac hi
develop ing</w>
it ted</w>
re co
ati ves</w>
su m
is t</w>
par t</w>
in t</w>
ne e
e w
y ing</w>
d es
are as</w>
program mes</w>
an c
b il
str ateg
cap ac
b a
rel ated</w>
ro w
educ ation</w>
sid ent</w>
S peci
it e</w>
on d</w>
p en
v al
deci sion</w>
E x
af f</w>
en viron
st aff</w>
enc y</w>
p a
l and</w>
j o
ag end
d ate</w>
Offic e</w>
sub m
ul ation</w>
r ul
d at
ex </w>
perio d</w>
R </w>
import ant</w>
Speci al</w>
D i
agend a</w>
l im
il y</w>
ic e</w>
ci v
dis c
ver s
s ev
se t</w>
a k
ot e</w>
relev ant</w>
at er</w>
r ati
a use</w>
f e
ta in</w>
ou th</w>
del eg
st ri
cl o
se e</w>
h ow
bo th</w>
ini ti
ic ations</w>
be fore</w>
r is
hel d</w>
con f
u ro
partic ular</w>
tra ining</w>
fi ed</w>
how ever</w>
n u
me di
en n
poli tical</w>
x </w>
F or
follow ing</w>
B o
ho w</w>
th ou
g re
1 2</w>
i ght</w>
polic y</w>
en ces</w>
c our
pers ons</w>
R e
disc us
f ic</w>
olog y</w>
m u
t ors</w>
s ince</w>
un i
1 5</w>
ob jec
li on</w>
u e</w>
requ est
chan ge</w>
re view</w>
E n
int egr
A r
g ress</w>
v ely</w>
no w
sel f</w>
rec ei
E uro
ari at</w>
f am
s en
f e</w>
cont ro
g r
o f
g ed</w>
acc ord
ex am
ex pres
3 0</w>
ten tion</w>
am ong</w>
u al</w>
ther e
an ts</w>
adop ted</w>
ti on
H uman</w>
protec tion</w>
effec tive</w>
s c
v ari
or ities</w>
it em</w>
Or ganiz
s ol
em ploy
th ree</w>
sit uation</w>
s s</w>
b r
di ffer
k now
su st
fu l</w>
n ing</w>
pro bl
par ties</w>
capac ity</w>
C ha
M ini
h igh</w>
h im</w>
commun ity</w>
Pre sident</w>
ec han
di rec
pres ent</w>
Dec ember</w>
A u
Chin a</w>
nec ess
continu e</w>
con sul
wor king</w>
a im
al y
i st
m ul
20 </w>
reg ard</w>
di es</w>
pe ace</w>
e ach</w>
st ud
fac il
V </w>
j ud
g o</w>
cl u
acc ess</w>
col l
pl ace</w>
sust ain
ou ra
s ame</w>
co ord
in es</w>
T </w>
us ti
g lobal</w>
th ing</w>
1 1</w>
ch ar
in dic
buil ding</w>
b an
wor k
w ar
hi gh
appro pri
recommend ations</w>
tur al</w>
M ar
ad v
ro le</w>
ati on
el l
ig n</w>
ta ined</w>
with out</w>
id enti
Un i
el d</w>
speci al</w>
A n
repor ts</w>
proc e
str y</w>
b en
establish ed</w>
i p
c all
en ing</w>
a in</w>
D e
po p
m ed</w>
pro gress</w>
em p
r e</w>
P e
h ar
ta ble</w>
dat a</w>
un e</w>
b er
g ood</w>
lo o
h um
av ail
v e
t ly</w>
ag es</w>
at t
A mer
v en</w>
Organiz ation</w>
im p
reco gn
respec t</w>
li fe</w>
m echan
Amer ic
ar ly</w>
qu es
1 4</w>
S er
t en</w>
re ad
t reat
accord ance</w>
techn ical</w>
ur al</w>
ci es</w>
al e</w>
I C
mar ke
Pro gram
ffic i
si bility</w>
S o
pos sible</w>
v er</w>
i um</w>
ec u
200 8</w>
ma j
stan d
is l
c ase</w>
M ember</w>
an it
nu clear</w>
200 5</w>
inv ol
po w
con di
tin gs</w>
j ust</w>
1 0
pr inci
com ple
consul t
e t
n al</w>
f oc
pl ac
conf lic
de pend
necess ary</w>
gen der</w>
bec ause</w>
t or
f ication</w>
c ed</w>
d y</w>
an aly
t ot
Program me</w>
1 3</w>
t re
200 6</w>
pr is
ter min
e p</w>
viol ence</w>
si a</w>
ful l</w>
achi ev
Afric a</w>
y p
c c
J une</w>
loc al</w>
g row
h ou
n eg
i ti
, 0
ma in</w>
bud get</w>
iz ed</w>
g rou
ear ch</w>
c ases</w>
a ff
in ess</w>
govern mental</w>
l ong</w>
it ary</w>
th ir
l ine</w>
me work</w>
Bo ard</w>
mil lion</w>
1 8</w>
201 0</w>
ba sis</w>
ad ministr
mon it
J u
leg isl
ev en</w>
pri v
n at
ass ess
appropri ate</w>
di d</w>
200 9</w>
1 ;</w>
&#9 1;</w>
ari an</w>
g ing</w>
r or
200 7</w>
sup por
re duc
are a</w>
tra de</w>
im pl
prom o
P er
si de</w>
1 6</w>
me tho
or ing</w>
grou ps</w>
usti ce</w>
ob ser
requi re
on n
ul arly</w>
s m
we ap
enc oura
con duc
institu tions</w>
b us
ear ly</w>
re li
ac e
part ment</w>
polic ies</w>
mat er
regi on</w>
ati s
g eneral</w>
fun c
incre ase</w>
ben ef
nee ds</w>
ex peri
vi ew
200 4</w>
indi vi
c y</w>
F e
l ess</w>
avail able</w>
a w</w>
oo k</w>
g er</w>
st er</w>
si onal</w>
consider ation</w>
i ed</w>
d om
contro l</w>
c a
pr ac
mee tings</w>
up on</w>
speci fic</w>
mul ti
w ater</w>
t ow
crimin ation</w>
C entr
! </w>
con c
ep t
ha p
indivi du
f a
o bl
ex per
con tr
o ff
O c
op </w>
propos ed</w>
om e
le ad
develop ed</w>
ch all
I D
fi eld</w>
it al</w>
add res
pre par
g l
3 ;</w>
&#9 3;</w>
w ays</w>
h al
not e</w>
Par ties</w>
g roup</w>
ke ep
includ e</w>
e ign</w>
s af
sec ond</w>
b ro
anit arian</w>
obl ig
ke y</w>
tot al</w>
su cc
s pe
gi ven</w>
Afric an</w>
Ju ly</w>
o w</w>
l at
projec t</w>
curr ent</w>
201 1</w>
d es</w>
om ic</w>
1 7</w>
ex c
continu ed</w>
Wor ld</w>
concern ed</w>
sti ll</w>
am oun
comm it
en cies</w>
soci ety</w>
. 1</w>
P al
S outh</w>
ol d</w>
an d
n ed</w>
F un
issu e</w>
imple men
pl an</w>
ful ly</w>
inv est
ter m</w>
- -</w>
oo l</w>
r en
E con
tic s</w>
provi sions</w>
C our
port un
Is ra
esti g
enn ium</w>
,0 00</w>
N ational</w>
ac ts</w>
e ve</w>
h en
if ic
D is
mil itary</w>
2 5</w>
keep ing</w>
2 1</w>
air s</w>
ac y</w>
fu ture</w>
P ol
com b
19 </w>
sustain able</w>
c ing</w>
in k</w>
pers on</w>
not ed</w>
chil d</w>
200 3</w>
consider ed</w>
fra mework</w>
ter ror
add ress</w>
d ers</w>
sign ific
accoun t</w>
r y</w>
de termin
gen er
vari ous</w>
int ro
So cial</w>
mo d
c an
vi sion</w>
sec tor</w>
struc tion</w>
L e
it ation</w>
del i
h er
for ce</w>
le d
Euro pe
a ffec
requi red</w>
prom ote</w>
iz ation</w>
posi tion</w>
200 0</w>
govern ment</w>
differ ent</w>
op portun
la w
3 1</w>
sub jec
o ve</w>
mu ch</w>
partic ularly</w>
there fore</w>
stan ding</w>
n ess</w>
i als</w>
k now</w>
st er
p an
s pec
200 2</w>
level s</w>
Europe an</w>
pro f
es tin
H e
import ance</w>
pu t</w>
ef u
e f</w>
str ic
vic e</w>
Cour t</w>
L </w>
Econ omic</w>
deleg ation</w>
w a
gen cy</w>
n er</w>
conflic t</w>
to ber</w>
Oc tober</w>
en ted</w>
ab or
M </w>
ro ss</w>
se qu
m en</w>
Fun d</w>
at ely</w>
N ov
m ember</w>
wh e
S ept
particip ation</w>
hel p</w>
thou gh</w>
require ments</w>
de b
Sept ember</w>
Pal estin
acc or
pre hen
n or
st or
201 2</w>
reg ar
civ il</w>
techn ology</w>
I V</w>
s ci
at ors</w>
po ver
streng th
De partment</w>
inv estig
maj or</w>
2 2</w>
g y</w>
at ory</w>
ur </w>
addi tion</w>
bel i
re as
sev eral</w>
our ce</w>
addi tional</w>
ex pl
ab ove</w>
ar ma
l ast</w>
oper ations</w>
ta in
f y</w>
s ome
condi tions</w>
ou s
pur pos
Nov ember</w>
pl ann
se t
resul ts</w>
do es</w>
pover ty</w>
aliz ation</w>
in d</w>
f re
ex pec
go ing</w>
ta king</w>
g g
per form
hum anitarian</w>
al i
know led
pop ulation</w>
fam ily</w>
com pe
projec ts</w>
ecu tive</w>
Secret ariat</w>
enti al</w>
ati c</w>
servic e</w>
sec u
gu id
read y</w>
subm itted</w>
t ro
op e</w>
d on</w>
th em
2 4</w>
200 1</w>
L i
ab il
t ar
pur su
auth orities</w>
me ans</w>
tu al</w>
struc ture</w>
arma ment</w>
G u
syst ems</w>
an other</w>
bo dies</w>
fi f
ma king</w>
ol s</w>
polic e</w>
ev al
in du
m ary</w>
2 3</w>
sm all</w>
u t
ir e</w>
priv ate</w>
u b
O N
D P</w>
R eg
lar ation</w>
imp act</w>
l s</w>
onn el</w>
M ay</w>
hal f</w>
d own</w>
an u
si on
ep t</w>
d on
as s</w>
t le</w>
st ar
M on
de fin
pl y</w>
s k
ag encies</w>
prehen sive</w>
po in
an ti
Wor king</w>
resul t</w>
c are</w>
docu ment</w>
tow ards</w>
vis ory</w>
N ew</w>
o ti
l it
appro ach</w>
sub stan
ac k
li ght</w>
Mar ch</w>
qu ality</w>
l es</w>
m ission</w>
i ous</w>
intro duc
at tention</w>
5 0</w>
b as
ap p
ex ten
a ve</w>
bus iness</w>
ever y</w>
al ia</w>
organiz ation</w>
B </w>
is ting</w>
whe ther</w>
si z
weap ons</w>
co l</w>
f ood</w>
to col</w>
en ter
A ra
ess es</w>
c ir
st ed</w>
de f
es tic</w>
oc c
fl ec
por te
ac tions</w>
stat us</w>
us ing</w>
h ear
pers onnel</w>
dis crimination</w>
accor ding</w>
L aw</w>
Uni on</w>
reg ul
v ol
M I
thir d</w>
res earch</w>
represent atives</w>
ques tion</w>
M ission</w>
environ ment</w>
w ard</w>
re flec
ris k</w>
G </w>
th ers</w>
b re
esti m
aliz ed</w>
marke t</w>
agre ed</w>
Govern ments</w>
concer n</w>
v ement</w>
t ary</w>
du ce</w>
incre ased</w>
bet ter</w>
an k</w>
2 6</w>
e k</w>
vic ti
W omen</w>
stat ement</w>
co ver
sp ace</w>
facil it
le t
m ig
h ere</w>
v o
gen ous</w>
appl ication</w>
b al
199 9</w>
wel com
cont ext</w>
t al
be g
b ack</w>
recei ved</w>
du e</w>
pu bl
th s</w>
es peci
g reat
gi ve</w>
u </w>
employ ment</w>
establish ment</w>
especi ally</w>
em er
A pr
201 3</w>
en er
si an</w>
resolu tions</w>
olog ical</w>
rul e</w>
co st</w>
J anu
co sts</w>
efu l</w>
dom estic</w>
man date</w>
Janu ary</w>
impro ve</w>
Apr il</w>
in stru
A l
gu e</w>
chall eng
monit oring</w>
p ap
C ri
in ten
N o
T ra
request s</w>
coll ec
R ap
provi sion</w>
pro per
consi der</w>
neg oti
qu ar
man ent</w>
2 7</w>
effec ti
request ed</w>
form s</w>
grow th</w>
stud y</w>
in depend
ace keeping</w>
requ est</w>
ist an</w>
repor ting</w>
n ers</w>
con stitu
m ight</w>
vers ity</w>
ag ed</w>
concern ing</w>
call ed</w>
prac tic
e a</w>
porte ur</w>
sh or
ex isting</w>
re tur
b est</w>
2 8</w>
ric ul
st e
rul es</w>
adop tion</w>
bo dy</w>
g ir
S y
probl ems</w>
Cha ir
v ation</w>
si x
represent ative</w>
ffic ul
oc rati
ish ed</w>
ad equ
di fficul
is ms</w>
legisl ation</w>
ti al</w>
j ustice</w>
v ity</w>
com prehensive</w>
abil ities</w>
ri ed</w>
e ffici
at or</w>
coord ination</w>
n ext</w>
Ac tion</w>
19 8
Rap porteur</w>
con tained</w>
du res</w>
ti m
d ated</w>
199 8</w>
Pro tocol</w>
t led</w>
incre as
al o
con ven
b ri
fi ve</w>
produc tion</w>
iz e</w>
pr acti
f our</w>
environ mental</w>
f ree</w>
rec ent</w>
t yp
regar ding</w>
r ate</w>
il i
de si
ter ms</w>
ti ves</w>
C .
respon sibility</w>
or ies</w>
ter rit
l ear
ous ly</w>
T A
comm on</w>
sec ret
P l
pres ented</w>
gre at</w>
treat ment</w>
A ff
lar ge</w>
m it</w>
amoun t</w>
rec or
fac t</w>
c ha
expres sed</w>
streng then</w>
subjec t</w>
stand ards</w>
1 .
1 5
proce dures</w>
N or
Aff airs</w>
el l</w>
includ ed</w>
ge ther</w>
M e
of ten</w>
emp ha
I II</w>
exam ple</w>
bec ome</w>
ra is
t ook</w>
Ex ecutive</w>
to gether</w>
pre vi
us es</w>
n am
sign ed</w>
rel ating</w>
f ound</w>
equ ip
mechan isms</w>
fun ds</w>
respon se</w>
2 9</w>
crimin al</w>
impl ement</w>
mis sions</w>
pos t</w>
g n</w>
of f</w>
cl aim
1 3
ac tive</w>
ar ran
f er</w>
po int</w>
b ur
ra q
su gg
s olu
ocrati c</w>
ar med</w>
le ast</w>
est s</w>
. m
agre ement</w>
I raq
M an
fol low</w>
challeng es</w>
a z
b ru
princi ples</w>
al ready</w>
G o
Dec laration</w>
ener gy</w>
in ter</w>
practic es</w>
re fer
signific ant</w>
R es
repor ted</w>
f ri
ev i
G en
an g
our s</w>
H igh</w>
C O
f ace</w>
UN C
s .</w>
l ing</w>
a k</w>
l ack</w>
Di rec
6 0</w>
provi des</w>
b un
pow er</w>
equ ality</w>
analy sis</w>
ab our</w>
pre v
p ay
th us</w>
r ac
for eign</w>
develop </w>
as k</w>
in come</w>
di t</w>
.m .</w>
re fu
2 .
perform ance</w>
ta il
% </w>
Ac t</w>
c ent
Americ a</w>
lan gu
l in
UN DP</w>
as soci
c am
p at
T er
ic s</w>
reg ular</w>
u re
u res</w>
probl em</w>
con nec
addres sed</w>
strength ening</w>
s ex
pos ed</w>
he ad
provi ding</w>
d ays</w>
or ig
er c
assess ment</w>
4 0</w>
ar ms</w>
en s</w>
e y</w>
contribu tions</w>
administr ative</w>
c entr
V i
No .</w>
th ink</w>
occ up
n ation
c ement</w>
alo gue</w>
Mini stry</w>
cer tain</w>
deci sions</w>
sch ool</w>
In di
gra ph
knowled ge</w>
y et</w>
oblig ations</w>
ne t
J o
clu sion</w>
sec tion</w>
to o</w>
cul tural</w>
plann ing</w>
invest ment</w>
proc ed
enti tled</w>
tra di
indi genous</w>
L .
form ation</w>
Chin ese</w>
ann ex</w>
Au g
ffic king</w>
strateg y</w>
fre ed
Fe bru
tr an
wi de</w>
coord in
v al</w>
Febru ary</w>
practi ce</w>
a im</w>
po ten
deci ded</w>
jud ic
ha ving</w>
ic ally</w>
Ad visory</w>
y oun
T h
pap er</w>
plac ed</w>
al low
le t</w>
st ate</w>
Aug ust</w>
p ast</w>
T ri
p ed</w>
refu ge
not es</w>
en th</w>
t ation</w>
en ed</w>
mat ter</w>
equip ment</w>
consult ations</w>
oun d
ti mes</w>
d ru
Re present
Palestin ian</w>
con clud
F in
ap pe
aff ir
to day</w>
Ad ministr
c ust
a men
effec t</w>
mee t</w>
victi ms</w>
r ation</w>
st re
U </w>
secret ariat</w>
chan ges</w>
view s</w>
re form</w>
al though</w>
ex erc
1 8
ner ship</w>
cor por
o thers</w>
res er
ann ual</w>
establ ish</w>
wor ks</w>
a war
docu ments</w>
nee ded</w>
w ant</w>
adequ ate</w>
ar ound</w>
offic e</w>
H C
en ess</w>
b an</w>
terror ism</w>
i tion</w>
val ue</w>
foc us</w>
inter est</w>
pre ci
Ara b</w>
ne t</w>
oo ds</w>
al ways</w>
E ast</w>
b ed</w>
ic es</w>
n s</w>
dis armament</w>
pre vention</w>
mat ters</w>
d en</w>
t em
commit ment</w>
initi atives</w>
objec tive</w>
a red</w>
op en</w>
e th
stri bu
en han
integr ation</w>
ti z
tran si
er n</w>
m ing</w>
cl im
A N
b it
R us
R o
st ep
I m
om s</w>
l ist</w>
pe acekeeping</w>
gr ound</w>
for ces</w>
st u
I N
stat ements</w>
expec ted</w>
el ines</w>
E S
hol d</w>
d a
ol e</w>
elec tr
1 4
bas ic</w>
rec all
auth or</w>
let ter</w>
fun ding</w>
c u
ev id
lit tle</w>
er ia</w>
econom y</w>
di stribu
individu al</w>
promo tion</w>
cri me</w>
ing ly</w>
en s
Isra el</w>
Ser vice</w>
f ar</w>
A sia</w>
an ces</w>
gu ar
sur ing</w>
S up
j ob
ta ining</w>
di alogue</w>
D em
experi ence</w>
jo int</w>
li ving</w>
ag ain</w>
Centr e</w>
shi ps</w>
P an
me d
de a
respon sible</w>
comp an
f ew</w>
b ia</w>
ple ase</w>
offic ial</w>
organiz ed</w>
s ay</w>
comp any</w>
proper ty</w>
Reg i
law s</w>
s al
youn g</w>
pri ority</w>
n ever</w>
reli gi
i de
m un
par a</w>
st a
r up
pl ans</w>
y s
Ch il
er ship</w>
T reat
un ti
oper ational</w>
w it
J ap
our th</w>
ser ious</w>
tra fficking</w>
est ed</w>
d le</w>
ex pend
au </w>
prev ent</w>
quar ters</w>
en h
commun ication</w>
eval uation</w>
cour se</w>
an t
ex plo
as pec
fl u
d ates</w>
lan ds</w>
t ent</w>
T o</w>
c en
great er</w>
is sion
p tion</w>
deleg ations</w>
reduc tion</w>
ven ess</w>
ever y
Ch ar
discus sion</w>
peo ples</w>
pl ay</w>
sex ual</w>
unti l</w>
li a
j ur
all eg
recommend ation</w>
strateg ic</w>
c um
h ome</w>
si mil
en ds</w>
achi eve</w>
Represent ative</w>
proced ure</w>
suppor ted</w>
p e</w>
f ail
ge ments</w>
E F</w>
dra w
compl ain
char ac
it er
Iraq </w>
y s</w>
T r
loo k</w>
finan cing</w>
s or
* </w>
poten tial</w>
f il
con struction</w>
des cri
part ners</w>
nat ural</w>
on ce</w>
promo ting</w>
en for
recommen ded</w>
Pe o
ID S</w>
invol ved</w>
princi ple</w>
H IV</w>
bi ennium</w>
x im
step s</w>
ap </w>
M s.</w>
affec ted</w>
si m
viol ations</w>
1 6
previ ous</w>
M o
mon ths</w>
curr ently</w>
mon ey</w>
awar eness</w>
d ev
work ers</w>
t es</w>
bun al</w>
e an</w>
tra v
nat ure</w>
strateg ies</w>
Direc tor</w>
1 7
199 7</w>
car ried</w>
ach ed</w>
su s</w>
gir ls</w>
199 6</w>
lim ited</w>
i de</w>
re at</w>
purpos e</w>
se ts</w>
sh ow
a ir</w>
agre ements</w>
can not</w>
re ma
cri sis</w>
conduc t</w>
i gh
ex change</w>
treat y</w>
M al
bud ge
Centr al</w>
a w
an te
ess ential</w>
for ward</w>
Ad d
stitu tion</w>
expend it
de tail
fin d</w>
implemen ted</w>
&apos; m</w>
high er</w>
d om</w>
appro ved</w>
ticl es</w>
s ha
st atis
r ural</w>
A IDS</w>
stan ces</w>
ch ed</w>
w rit
s ent</w>
mechan ism</w>
c all</w>
under standing</w>
implemen ting</w>
p ing</w>
he ad</w>
su ffici
201 4</w>
facil ities</w>
pre pa
clim ate</w>
over all</w>
enh ance</w>
issu ed</w>
d one</w>
si x</w>
c al
S tr
objec tives</w>
ther n</w>
abl y</w>
Americ an</w>
offic ials</w>
ar ing</w>
v ul
on g
ch em
exper ts</w>
m p
sit e</w>
ap preci
por ts</w>
increas ing</w>
in ary</w>
pursu ant</w>
opportun ities</w>
guar ante
Di vision</w>
ec hn
aim ed</w>
ma k
inform al</w>
commun ities</w>
k ind</w>
en jo
ci tiz
i v
offic es</w>
comm itted</w>
se e
B ank</w>
wh y</w>
tu res</w>
equ al</w>
sel ec
pl ay
prof es
la un
se par
be half</w>
succ ess
C ol
Comm ission
coll abor
empha siz
compl i
199 4</w>
prepa red</w>
de ploy
at ten
produc ts</w>
medi a</w>
con sequ
instru ments</w>
tion ed</w>
v ations</w>
el im
iz ing</w>
facilit ate</w>
compe ti
in f
E C
Co ven
&apos; re</w>
o graph
ag ricul
C an
al ter
wh ole</w>
clo se</w>
d ri
propos als</w>
t l
st ated</w>
vol un
arran gements</w>
6 3</w>
vers al</w>
benef its</w>
consi st
po sts</w>
med ical</w>
h and</w>
evid ence</w>
vul ner
En gl
in d
in fra
re main
op s</w>
Chair man</w>
bel ow</w>
str ong</w>
saf ety</w>
sci enti
an y
hou se</w>
inform ed</w>
st res
p ay</w>
Commission er</w>
Ar ticle</w>
fi d
Coven ant</w>
O p
g ran
st ra
199 5</w>
S u
w ar</w>
u ations</w>
ast er</w>
rou ght</w>
Engl ish</w>
po l
d ro
M ill
mater ial</w>
opportun ity</w>
hol ders</w>
fun da
im medi
propos al</w>
protec t</w>
independ ent</w>
proc esses</w>
ne w
f o
desi gn</w>
at ure</w>
Mini ster</w>
acc ep
en suring</w>
func tions</w>
ques tions</w>
sel ves</w>
guid elines</w>
Pan el</w>
res ource</w>
h ours</w>
In stitu
Treat y</w>
ro w</w>
go als</w>
assi st</w>
Euro pe</w>
Per manent</w>
der ation</w>
com pon
Tri bunal</w>
individu als</w>
vis ed</w>
el s</w>
re affir
s ou
lat eral</w>
work sh
i or</w>
recommen ds</w>
civ il
con sum
b or
tar ge
ar ri
re main</w>
rel ation
or gan
UN O
effec ts</w>
E R
conduc ted</w>
provi sional</w>
l abour</w>
it ems</w>
Dem ocratic</w>
w ish</w>
Mill ennium</w>
aspec ts</w>
Y or
sol id
sch o
t ory</w>
cour t</w>
lo ve</w>
re duce</w>
metho ds</w>
d am
d en
er ing</w>
o t</w>
ev a</w>
o se</w>
s po
al loc
T echn
br ing</w>
posi tive</w>
3 .
con fid
d a</w>
metho d</w>
c ateg
appl ic
orig in
trans fer</w>
vi a</w>
re ference</w>
olog ies</w>
judic ial</w>
inter nal</w>
te am</w>
indu stri
h on
commun ications</w>
integr ated</w>
under taken</w>
li k
remain s</w>
pri mary</w>
exerc ise</w>
contribu te</w>
al low</w>
3 5</w>
g ent</w>
ph ys
Yor k</w>
Isra el
Man agement</w>
l u
po or</w>
qu i
a way</w>
negoti ations</w>
freed om</w>
T I
ar ticles</w>
E N
at eral</w>
direc t</w>
Rus sian</w>
administr ation</w>
G er
pro secu
Jap an</w>
stud ents</w>
o s</w>
concern s</w>
ro om</w>
st and</w>
si st
ment ary</w>
auth ority</w>
oc k</w>
ou gh</w>
a i
t ext</w>
com ing</w>
K or
ra ther</w>
man ner</w>
dea th</w>
w w
sur ve
cap ital</w>
le ad</w>
ad a</w>
re al</w>
Gen eva</w>
compli ance</w>
S ud
ari es</w>
e y
ex pan
ro ad</w>
un ity</w>
call s</w>
z er
ra ph
&apos; ll</w>
r ates</w>
ad j
contribu tion</w>
19 7
In formation</w>
IC EF</w>
retur n</w>
as ked</w>
cir cum
5 5</w>
regi ons</w>
particip ants</w>
c ra
S um
recogn ized</w>
pre ven
funda mental</w>
Ter rit
es ting</w>
fin al</w>
U S</w>
6 5</w>
l on
al ities</w>
li fer
throu gh
en ty</w>
5 7</w>
T ur
Af gh
id dle</w>
raph s</w>
199 3</w>
il ies</w>
Pl an</w>
identi fied</w>
infra structure</w>
qu e</w>
s ing
f av
6 1</w>
. .
en able</w>
T H
langu age</w>
4 5</w>
connec tion</w>
dru g</w>
offic ers</w>
5 8</w>
sem in
tec tion</w>
6 7</w>
form er</w>
des p
as h</w>
d ou
auth or
com es</w>
lifer ation</w>
h y
min d</w>
li gh
ic k</w>
re stric
co oper
tu ally</w>
alter n
A gency</w>
1 ,
Israel i</w>
di </w>
res t</w>
parag raphs</w>
Le ban
si t</w>
- -
ill s</w>
mater ials</w>
fif ty</w>
through out</w>
val u
Co ord
ach es</w>
prepar ation</w>
p .m.</w>
refuge es</w>
difficul t</w>
trans par
mod el</w>
ke ep</w>
th ings</w>
bil ities</w>
on es</w>
A .</w>
sh are</w>
man ag
av o
W </w>
comm ittee</w>
a ver
in no
wor ds</w>
S A
d r
Char ter</w>
K </w>
it self</w>
s atis
UN ICEF</w>
st ory</w>
min al</w>
Tra de</w>
sta ke
s on</w>
beli eve</w>
A b
4 8</w>
achiev ed</w>
indu stry</w>
desp ite</w>
suffici ent</w>
cor e</w>
dem on
men tioned</w>
3 3</w>
5 9</w>
A gre
f ourth</w>
ur ban</w>
con ference</w>
Peo ple</w>
si bilities</w>
multi lateral</w>
p aid</w>
He ad
6 4</w>
cri mes</w>
st ability</w>
ex p
ill ed</w>
ran ge</w>
Fe deration</w>
de tention</w>
sup pl
b ir
Cri minal</w>
comp ens
y a</w>
impro ving</w>
par ts</w>
know n</w>
4 .
comm er
UN </w>
introduc ed</w>
p un
acti vity</w>
institu tional</w>
poin ted</w>
ad or</w>
cri tical</w>
ul ations</w>
u ti
op ini
effecti vely</w>
claim s</w>
oun ds</w>
commit ments</w>
min im
P A</w>
3 2</w>
enfor cement</w>
v ote</w>
ach ing</w>
l am
6 2</w>
5 1</w>
jur is
d ly</w>
demon str
For um</w>
substan tive</w>
at s</w>
go t</w>
h ope</w>
d ol
in e
ten ance</w>
t om
En viron
5 3</w>
G lobal</w>
an g</w>
re le
Q u
c y
n ame</w>
ing dom</w>
le ave</w>
out come</w>
benef it</w>
effor t</w>
P ac
is sions</w>
E P</w>
r an</w>
refer red</w>
h un
ish ment</w>
A p
poin ts</w>
c e
ar s</w>
W e
Co de</w>
regul ations</w>
bal ance</w>
tor al</w>
5 2</w>
f em
J ustice</w>
job </w>
UNC TA
indic ated</w>
fam ilies</w>
compan ies</w>
l ec
Un it</w>
UNCTA D</w>
adv ant
s ource</w>
dis e
if ic</w>
inter pre
le ft</w>
ac ross</w>
it able</w>
simil ar</w>
li ve</w>
Sud an</w>
1 00</w>
ses sions</w>
a h</w>
j u
O per
enti ties</w>
tr ac
c ame</w>
govern ance</w>
b ack
d ings</w>
ter nal</w>
mo ve</w>
out side</w>
purpos es</w>
f ig
C A
g oods</w>
fur ther
e ting</w>
3 4</w>
3 6</w>
on going</w>
cre ate</w>
w ast
sum mary</w>
scho ols</w>
trav el</w>
comple te</w>
Pac ific</w>
com pu
tl ement</w>
estim ated</w>
th reat
ver s</w>
R evi
re ach</w>
5 4</w>
buil d</w>
bro ad
w at
ac eful</w>
6 6</w>
pro hi
mo der
UN F
re iter
ed eral</w>
deb t</w>
me an
shor t</w>
re f
sur ance</w>
in s</w>
el ements</w>
particip ate</w>
por ary</w>
low er</w>
hap p
tak es</w>
requ ire</w>
me t</w>
sc ale</w>
circum stances</w>
effecti veness</w>
3 7</w>
sub sequ
them selves</w>
m b
subm it</w>
v in
K ingdom</w>
li z
Ser vic
tradi tional</w>
l ater</w>
contr ac
4 9</w>
5 6</w>
ch o
S ub
si ght</w>
as h
ed ul
al ong</w>
sc ope</w>
impro ved</w>
so on</w>
Institu te</w>
or i
clo s
discus sions</w>
rec ru
P r
b rought</w>
territ ory</w>
re vised</w>
de sign
ic k
dem and</w>
Indi a</w>
as sets</w>
fac tors</w>
cent res</w>
stand ard</w>
rel ations</w>
C or
B el
lik ely</w>
civil ian</w>
s ources</w>
dis abilities</w>
inter ests</w>
t el
Servic es</w>
cul ture</w>
b oo
main tenance</w>
ure ment</w>
ta bility</w>
wh ose</w>
distribu tion</w>
in a</w>
includ es</w>
guid ance</w>
rel ation</w>
de al
P R
C N
ed ings</w>
Revi ew</w>
I T
N G
Agre ement</w>
appl y</w>
Sum mit</w>
six ty</w>
c ity</w>
appl ied</w>
ra di
u te</w>
sh ow</w>
sup ply</w>
lo g
mon th</w>
direc tly</w>
contr act</w>
Can ada</w>
st ers</w>
tain s</w>
s la
th y</w>
S i
er y</w>
net work</w>
l d
c o</w>
ti vely</w>
pri or</w>
H ong</w>
cover ed</w>
B .</w>
er r
effici ency</w>
no ti
exper t</w>
sec tors</w>
mig ration</w>
Con stitution</w>
trans port</w>
indic ators</w>
we ek</w>
cl aim</w>
welcom ed</w>
centr al</w>
t est</w>
nor m
ei ther</w>
produc tive</w>
dic tion</w>
Me eting</w>
ag g
C ub
m i
re ally</w>
further more</w>
phys ical</w>
Str ateg
h ic
eth n
Sy ri
sit uations</w>
o il</w>
t op
reg im
fun d</w>
proce edings</w>
st ep</w>
some thing</w>
rup tion</w>
z </w>
s ting</w>
3 9</w>
c hap
B ra
K ong</w>
E duc
deli very</w>
d ic</w>
om an</w>
f ying</w>
c op
c ru
se en</w>
we e
He alth</w>
ic i
legisl ative</w>
stake holders</w>
fer ences</w>
sen sus</w>
ev ents</w>
de al</w>
tr u
st age</w>
t on</w>
ish ing</w>
develop ments</w>
in flu
on ic</w>
pr ise</w>
M a
Au str
continu es</w>
comb at</w>
u su
ex tre
in ning</w>
O F</w>
s ays</w>
h ard</w>
uni versal</w>
com ments</w>
su per
initi ative</w>
techn ologies</w>
pr ice</w>
Per s
. 2</w>
is tic</w>
adv anc
relation ship</w>
pris es</w>
St at
3 8</w>
aver age</w>
p i
typ e</w>
p il
I S
collabor ation</w>
pow er
volun tary</w>
c are
Co operation</w>
pr in
inci d
sch edul
re view
R C</w>
F r
tw enty</w>
investig ation</w>
Sup port</w>
g ol
stu dies</w>
tor ture</w>
pri orities</w>
ex i
ag o</w>
s ent
1 2
associ ated</w>
elec tions</w>
el ess</w>
UN EP</w>
en ded</w>
sing le</w>
O b
star t</w>
201 5</w>
C iv
inter governmental</w>
UN HC
cam pa
ill ing</w>
is ing</w>
I A
beli ev
an ds</w>
4 7</w>
4 4</w>
charac ter
tar get</w>
con fir
UNHC R</w>
discus sed</w>
4 6</w>
achiev ing</w>
Kor ea</w>
pe aceful</w>
w ent</w>
wa it</w>
ab use</w>
4 1</w>
c ause</w>
ve hic
fif th</w>
S om
respon sibilities</w>
Par ty</w>
ud e</w>
prac tical</w>
go al</w>
ot ed</w>
f el
P ublic</w>
est ern</w>
es sion</w>
For ce</w>
amen d
stric t</w>
Pro tection</w>
anti </w>
Uni versity</w>
addres sing</w>
emer gency</w>
com par
0 ,000</w>
success ful</w>
s pon
citiz ens</w>
be y
res ol
po int
encoura ge</w>
lo ss</w>
be an</w>
identi fy</w>
pl en
h u
ess ing</w>
W h
co ver</w>
pers onal</w>
thou ght</w>
C am
recei ve</w>
lar g
con clusion</w>
lead ers</w>
al most</w>
recall ing</w>
anc y</w>
Go als</w>
ex tent</w>
marke ts</w>
succ ess</w>
b order</w>
car ry</w>
continu ing</w>
rais ed</w>
ch i
suppor ting</w>
comple ted</w>
6 8</w>
cl e</w>
pro liferation</w>
hou sing</w>
religi ous</w>
is tics</w>
Re port</w>
lon ger</w>
ffer ed</w>
er ous</w>
de signed</w>
ar bit
solu tion</w>
deb ate</w>
ad ap
4 2</w>
ch ing</w>
ac ks</w>
vulner able</w>
G e
str ation</w>
&apos; ve</w>
ei gh
An n
elec tion</w>
e es</w>
pris on
att emp
posi tions</w>
form ul
transi tion</w>
ex ternal</w>
L eg
man u
h op
a king</w>
w ise</w>
sci ence</w>
ic o</w>
rec ently</w>
bey ond</w>
R ec
determin ation</w>
grow ing</w>
bil lion</w>
ati es</w>
. 4</w>
l ess
scienti fic</w>
n ight</w>
inv ited</w>
dis pu
welcom es</w>
expendit ure</w>
sec on
an ia</w>
ari b
consist ent</w>
Regi onal</w>
Is lam
f f</w>
initi al</w>
respec tive</w>
id es</w>
re ached</w>
e e</w>
p ul
mor e
Sy st
elim in
per manent</w>
ON </w>
e th</w>
speci alized</w>
if ication</w>
w oman</w>
ad vice</w>
ex ecu
oc cur
As soci
K u
4 3</w>
establish ing</w>
or ial</w>
cust om
B ur
perio dic</w>
b it</w>
encoura ged</w>
th reat</w>
Head quarters</w>
mak es</w>
Ex per
opini on</w>
compens ation</w>
func tion</w>
ch ec
ar t</w>
ti s
C arib
more over</w>
main tain</w>
c rit
part nership</w>
ethn ic</w>
p ass
Afgh an
R A
ex pen
Carib bean</w>
vi sit</w>
adj ust
chap ter</w>
econom ies</w>
for ced</w>
reas ons</w>
Fr ance</w>
F i
Afghan istan</w>
cor rec
tur n</w>
ful f
s anc
adop t</w>
Con go</w>
Pol i
mo ther</w>
re ad</w>
Im ple
TH E</w>
D C</w>
t ask</w>
ag ency</w>
M or
ser ve</w>
M ex
ic ate</w>
en ge</w>
st ates</w>
z e</w>
Cri me</w>
tri al</w>
l ines</w>
appreci ation</w>
char ge</w>
.. .</w>
b ook</w>
origin al</w>
aliz e</w>
fem ale</w>
un its</w>
en ding</w>
in corpor
en ough</w>
ren ch</w>
cre ation</w>
effici ent</w>
reco very</w>
form al</w>
m er</w>
deploy ment</w>
P ri
s n
Li ber
C E
c ou
con solid
rema ined</w>
l ined</w>
P h
educ ational</w>
H a
Ro om</w>
con sensus</w>
ev ent</w>
C .</w>
reas on</w>
O s</w>
Poli tical</w>
y outh</w>
ex ist
requi res</w>
K o
maj ority</w>
follow s</w>
ati n</w>
har mon
ner ships</w>
min e</w>
C C
cl early</w>
detail ed</w>
lic it</w>
oblig ation</w>
m ach
fin ance</w>
fin ally</w>
Environ ment</w>
N on</w>
W est</w>
f low
in c
clu sions</w>
lo t</w>
consult ation</w>
ver se</w>
do ing</w>
ph ase</w>
fe el</w>
Cha ir</w>
stre am
7 0</w>
F A
comp ared</w>
oc r
re si
I P
ap point
statis tics</w>
enc ed</w>
can di
se ek</w>
Bra z
F rench</w>
t ell</w>
chall enge</w>
it es</w>
cre ated</w>
m om
commer cial</w>
G re
viol ation</w>
profes sional</w>
ac tors</w>
is ed</w>
Imple mentation</w>
ol er
wi d
For eign</w>
conclud ed</w>
pl om
han d
n on
e e
tem porary</w>
re sid
bil ateral</w>
gra du
z one</w>
encoura ges</w>
a vi
sub si
applic able</w>
dec re
terror ist</w>
ha bil
syst em
Pro c
mo bil
l ate</w>
le a
ster ed</w>
Islam ic</w>
C O</w>
sk ills</w>
proc urement</w>
and a</w>
expl or
h or
S ci
te enth</w>
Tr ans
ans w
lead ership</w>
dis placed</w>
Y u
j ing</w>
Dis armament</w>
Nor th</w>
r ant</w>
coun ter
dis aster</w>
r </w>
cour ts</w>
en abl
ig n
f ar
uti liz
accoun tability</w>
sh aring</w>
X </w>
pre c
L atin</w>
pr ices</w>
R el
U S
dis tin
6 9</w>
c at
achiev ement</w>
appl ications</w>
se a</w>
I ran</w>
w an
par ents</w>
ann oun
ex port</w>
sugg ested</w>
a si
Cub a</w>
pres s</w>
au dit</w>
C y
r un
hear t</w>
199 2</w>
UNF PA</w>
C hi
tre aties</w>
Administr ative</w>
end or
ran ts</w>
pay ment</w>
lead ing</w>
H </w>
pa in</w>
ca used</w>
no thing</w>
Civ il</w>
juris diction</w>
appro val</w>
eg u
plen ary</w>
Pe ace</w>
wor d</w>
c el
impro vement</w>
8 0</w>
ow ing</w>
bi g</w>
Ger many</w>
he av
foc used</w>
gener ally</w>
reflec ted</w>
T O</w>
manu fac
s ph
cre dit</w>
t an
ar ity</w>
vi r
Syri an</w>
ul es</w>
B u
avo id</w>
ru n</w>
mo di
hi story</w>
m ic
produc t</w>
it ors</w>
g ation</w>
no ting</w>
li ves</w>
regim e</w>
P ak
der ed</w>
de struction</w>
set tlement</w>
6 .
con clusions</w>
off er</w>
op h
beg inning</w>
agricul tural</w>
a ke</w>
Educ ation</w>
tr ust</w>
m em
subm ission</w>
in st
w al
pro por
B ei
mar ri
ep tion</w>
m ag
part nerships</w>
s ound</w>
du ty</w>
Sec tion</w>
in spec
saf e</w>
mo vement</w>
writ ten</w>
cer ti
weap on</w>
re pres
main ly</w>
c ar</w>
oper ating</w>
cra ft</w>
R w
S a
am s</w>
Mex ico</w>
speci f
B ud
m itted</w>
to ols</w>
pl an
Op tional</w>
f requ
Y </w>
7 7</w>
di ed</w>
confid ence</w>
c ash</w>
introduc tion</w>
Chil dren</w>
con struc
Austr alia</w>
pre ad</w>
I n</w>
jud ges</w>
an im
we b
M iddle</w>
oc </w>
t op</w>
c ross</w>
D A
p ace</w>
monit or</w>
P A
assi gn
an tly</w>
il legal</w>
E g
adv oc
UN ID
Bei jing</w>
appro aches</w>
obser vations</w>
c ro
mar k</w>
hear d</w>
conc ept</w>
Au th
m us
el ds</w>
k a</w>
Administr ation</w>
p ic
beg an</w>
h om
mea sure</w>
lan d
pres ence</w>
pers pec
s over
N A
r ound</w>
rais ing</w>
p ati
enn a</w>
six th</w>
clu sive</w>
x ed</w>
m ass</w>
satis fac
con ferences</w>
ur ges</w>
crit eria</w>
ra ise</w>
impl ications</w>
t ting</w>
cre te</w>
resul ting</w>
di versity</w>
es tions</w>
g lob
clo sed</w>
spe ak
in surance</w>
cont ent</w>
ad em
fa ir</w>
S ust
Vi enna</w>
in de
2 8
di plom
lear ning</w>
ad ded</w>
Sust ain
sen si
en ter</w>
ser ies</w>
tion ing</w>
neg ative</w>
t old</w>
en try</w>
re ly</w>
g ement</w>
ch es</w>
cont act</w>
F ederal</w>
g a
v ac
Dis crimination</w>
H R</w>
5 .
bec om
us eful</w>
recor d</w>
st ly</w>
Syst em</w>
ocr acy</w>
in king</w>
li ber
ro b
produc ed</w>
er ad
dec ides</w>
cl ass</w>
appe al</w>
Eg yp
Jo int</w>
N u
ili ation</w>
typ es</w>
fa ther</w>
or g
enter prises</w>
sen ior</w>
Chil d</w>
y er</w>
clos ely</w>
v ements</w>
A ll</w>
independ ence</w>
stres sed</w>
ar gu
g ain
budge tary</w>
UN MI
c ell
ho st</w>
ec h</w>
0 .
conflic ts</w>
sev en</w>
re habil
transpar ency</w>
ati c
f lo
re m
ke t</w>
industri al</w>
ear li
invol ving</w>
instru ment</w>
Associ ation</w>
reas on
th i
consequ ences</w>
ron t</w>
ab s
sp i
compon ent</w>
bro ad</w>
wel come</w>
laun ched</w>
plann ed</w>
ver sion</w>
a .m.</w>
B ri
n or</w>
reduc ed</w>
c r
199 0</w>
sanc tions</w>
S en
ti vity</w>
re pe
dam age</w>
T im
descri bed</w>
Pak istan</w>
e as
es day</w>
ati vely</w>
re presented</w>
tim ely</w>
sub </w>
2 ,
hou se
electr onic</w>
ac tual</w>
sh own</w>
for est</w>
oc k
capac ities</w>
s ex</w>
minim um</w>
fi ght</w>
compl ex</w>
I tal
Inter net</w>
2 9
acti vely</w>
c k</w>
en e
ban k</w>
ast ern</w>
Go d</w>
saf egu
ne igh
it ting</w>
Sustain able</w>
re in
re mo
deli ver
ris ks</w>
explo itation</w>
Leban on</w>
ag u
g ence</w>
it ment</w>
as ting</w>
Braz il</w>
mor t
ta x</w>
elec ted</w>
7 3</w>
y ed</w>
adv ance</w>
inten ded</w>
determin ed</w>
ord ers</w>
is on</w>
difficul ties</w>
defin ed</w>
y l
per pe
collec tion</w>
O S</w>
B ure
appro xim
under stand</w>
ound ation</w>
respon d</w>
altern ative</w>
su sp
fir e</w>
Pers ons</w>
inde ed</w>
con crete</w>
sub regional</w>
A sian</w>
n ear</w>
itte es</w>
follow ed</w>
reflec t</w>
ma xim
lar s</w>
b ase</w>
ex tra
E lim
pos e</w>
H er
coun ter</w>
UNID O</w>
P o
don ors</w>
il licit</w>
t le
ic a</w>
de part
p sy
di vi
ar re
competi tion</w>
op ening</w>
m al
nation ally</w>
depend ent</w>
tr ue</w>
l y
plac ement</w>
om in
Coun tries</w>
z ed</w>
h im
o k
c tion</w>
ac knowled
wast e</w>
f ting</w>
ra in</w>
enhan cing</w>
R E
C ul
enhan ced</w>
th an
ho sp
g ave</w>
N e
reli ef</w>
dis crimin
E m
A l</w>
ur gent</w>
iti </w>
abs ence</w>
ca uses</w>
199 1</w>
er ed</w>
n in
d y
pres sure</w>
recogn ition</w>
r ing</w>
pen ding</w>
Auth ority</w>
thou s
loo king</w>
I F
publ ished</w>
Som alia</w>
W estern</w>
cl ari
metho d
ul t</w>
determin e</w>
3 0
Bure au</w>
regi stration</w>
NG Os</w>
com mod
increas ingly</w>
cor ruption</w>
ic ity</w>
ri es</w>
ac qui
s mo
C s</w>
wh er
sev enth</w>
sch em
dat ab
pu ts</w>
pos sibility</w>
un it</w>
air craft</w>
N ig
A t
ent al</w>
fi elds</w>
ver si
is land</w>
eval u
s aw</w>
memb ership</w>
h a</w>
accoun ts</w>
ren ew
um s</w>
tle ments</w>
k ers</w>
prepar e</w>
re d
medi um</w>
usu ally</w>
in ste
r ise</w>
contribu ting</w>
fer red</w>
hi stor
v ill
Govern ing</w>
bi tion</w>
dol lars</w>
tur ing</w>
v o</w>
organiz ational</w>
m ess
surve y</w>
hol ding</w>
ffer ing</w>
ge ograph
ti se</w>
me t
langu ages</w>
9 0</w>
fail ure</w>
o l</w>
j our
de p
dem ocratic</w>
Elim ination</w>
mig rants</w>
reduc ing</w>
allow ed</w>
Pre vention</w>
or g</w>
sha red</w>
high ligh
mb ass
al ism</w>
ster ial</w>
pat ter
cent age</w>
accep ted</w>
app ear
P .
docu mentation</w>
immedi ately</w>
exten ded</w>
defin ition</w>
ili ans</w>
f all</w>
Par lia
plac es</w>
neigh b
iz es</w>
be ha
don e
Chi ef</w>
f are</w>
sen se</w>
n e</w>
compu ter</w>
di d
immedi ate</w>
di men
e al
att acks</w>
Pro secu
assess ments</w>
as ks</w>
e .
th ank</w>
worksh ops</w>
Gu in
Pol ic
review ed</w>
pris on</w>
fl exi
R om
ti t
7 5</w>
de ep</w>
show s</w>
lo st</w>
con ten
accord ingly</w>
In done
approxim ately</w>
Pol ice</w>
Offic er</w>
pur ch
struc tures</w>
me an</w>
civ ilians</w>
f all
cre d
discus s</w>
Oper ations</w>
estim ates</w>
invol vement</w>
o ther
ci pl
moder n</w>
ag ing</w>
Techn ology</w>
cl ass
go sla
D ar
. org</w>
Yu gosla
inste ad</w>
Territ ory</w>
ide a</w>
exper tise</w>
dra w</w>
gra m</w>
am a</w>
Ann ex</w>
b ul
ap pointed</w>
multi </w>
some times</w>
marri age</w>
man dates</w>
pen al
solu tions</w>
V I</w>
set ting</w>
rehabil itation</w>
As si
st ro
so f
pr e</w>
emer ging</w>
g as</w>
t un
E A</w>
leg iti
is c
bri ef
eigh th</w>
beha vi
L abour</w>
gr at
sit es</w>
5 00</w>
Comm unity</w>
20 0</w>
strength ened</w>
recogn izing</w>
ail y</w>
ri t</w>
proc essing</w>
i ting</w>
des er
siz e</w>
mu tual</w>
worksh op</w>
Coord ination</w>
ta il</w>
cer tain
oler ance</w>
m a</w>
chem ical</w>
high est</w>
é </w>
em ed</w>
categ ory</w>
cal cul
Nu clear</w>
centr e</w>
&apos; d</w>
emphasiz ed</w>
sum ed</w>
op tions</w>
sid es</w>
occup ied</w>
represent ation</w>
author ized</w>
S al
dem ocracy</w>
form ed</w>
play ed</w>
gr ounds</w>
S B
recru itment</w>
O R
si l
per centage</w>
I .</w>
ri </w>
star ted</w>
ro l
Guin ea</w>
consum ption</w>
j i
oc ks</w>
qu anti
rac ial</w>
arbit r
eng aged</w>
I L
Egyp t</w>
appoint ment</w>
nin th</w>
hum an
ban ks</w>
don or</w>
particip ated</w>
m ber</w>
under take</w>
A gen
be au
expres s</w>
legiti m
Strateg y</w>
ha z
valu es</w>
ac compl
b ers</w>
ei ght</w>
accoun ting</w>
S T
ww w
enter prise</w>
specif ically</w>
ven tions</w>
direc tion</w>
ad vis
Rw anda</w>
Pro f
coordin ated</w>
rema ining</w>
pro duce</w>
F ra
j usti
contro l
re conc
h ood</w>
exist ence</w>
aw are</w>
enti re</w>
ur ged</w>
cru cial</w>
for ty</w>
un less</w>
R ev
earli er</w>
ti </w>
D ru
expres sion</w>
separ ate</w>
consider ing</w>
al one</w>
ari a</w>
ac ting</w>
Ku wait</w>
in clusion</w>
C D</w>
st op</w>
oun ded</w>
fri ends</w>
d ge</w>
d ary</w>
govern ments</w>
us ers</w>
bec ame</w>
su res</w>
Ko so
co her
ec e</w>
ti l
P or
def ence</w>
V ice</w>
oc ca
A g
p t</w>
refuge e</w>
UN A
guarante e</w>
dou b
gen tin
ag ue</w>
www .
F ri
c anc
chan ged</w>
Ar gentin
spe aking</w>
occup ation</w>
v oc
sub programme</w>
perpe tr
ha m
recor ds</w>
lear ned</w>
h ind</w>
el abor
resul ted</w>
er o
T u
acc ur
st ood</w>
deli ber
conc entr
affec t</w>
r ying</w>
Palestin e</w>
eas y</w>
every one</w>
olu tion</w>
ace building</w>
high ly</w>
port ation</w>
e asi
l er</w>
mor ning</w>
str ong
di ary</w>
loo ked</w>
P S</w>
Con tro
deal ing</w>
K y
B ar
B i
respon ding</w>
ass ess</w>
We ap
p age</w>
Leg al</w>
s eg
targe ts</w>
bo ard</w>
In t
orig in</w>
J am
st ac
fig ure</w>
empha sis</w>
fin dings</w>
obser vers</w>
ir ing</w>
us h</w>
s at
C ar
fel t</w>
g ar
Koso vo</w>
pres er
aff airs</w>
n ation</w>
ish es</w>
re jec
G az
im posed</w>
condi tion</w>
T a
head quarters</w>
au tom
depart ments</w>
d ow
at ures</w>
do or</w>
Add .1</w>
dis cipl
techn i
net works</w>
conven tions</w>
loc ation</w>
be hind</w>
comb ating</w>
t ou
cu t</w>
him self</w>
ff ic</w>
F if
duc tion</w>
2 7
Polic y</w>
rati fication</w>
ic ip
HC HR</w>
y an
lo s
O ther</w>
D ep
Sec ond</w>
ex tr
b ar
cooper ate</w>
agricul ture</w>
cl assi
Bo sn
influ ence</w>
did n</w>
m y
b and</w>
gi ving</w>
li sted</w>
R ules</w>
O HCHR</w>
s l
o s
re pl
P en
v el
de g
m iti
perspec tive</w>
detail s</w>
S ta
subsequ ent</w>
v .</w>
statis tical</w>
compon ents</w>
particip ating</w>
f low</w>
si vely</w>
for e
Mr </w>
S we
constitu te</w>
indic ate</w>
fac ed</w>
threat s</w>
respon ses</w>
qu ite</w>
E lec
reg ulation</w>
trans l
par lia
spon s
In v
contribu ted</w>
enter ed</w>
A mbass
lear n</w>
wi fe</w>
cre ating</w>
require ment</w>
min es</w>
tur y</w>
con stra
off ences</w>
d aily</w>
t ool</w>
wor ked</w>
pro b
mp ;</w>
&a mp;</w>
de gra
fu el</w>
respec tively</w>
cir cul
S .</w>
ag ree</w>
sec ure</w>
Indone sia</w>
tw are</w>
ob stac
organ s</w>
dise ase</w>
cour ses</w>
w ri
s qu
spi rit</w>
inter ested</w>
bl es</w>
enjo y</w>
m oun
contr acts</w>
E S</w>
Is lands</w>
w on</w>
Liber ia</w>
back ground</w>
op tion</w>
ch e
con tains</w>
secon dary</w>
collec tive</w>
ell ing</w>
web site</w>
d in
Tur key</w>
L u
P ow
ser v
ey es</w>
integr ity</w>
emb ar
obser ved</w>
flo or</w>
eng agement</w>
gir l</w>
i th</w>
el er
fac tor</w>
fri end</w>
cl e
re forms</w>
expl ain
t a</w>
deg ree</w>
re a</w>
E .</w>
W A</w>
B an
ci ties</w>
elimin ate</w>
inter nationally</w>
recor ded</w>
ex ecutive</w>
freed oms</w>
tr ends</w>
rel and</w>
nu tri
3 ,
highligh ted</w>
interpre tation</w>
wee ks</w>
candi dates</w>
regi stered</w>
t asks</w>
bi o
spe ak</w>
si gn</w>
I reland</w>
expendit ures</w>
mar ine</w>
AN D</w>
AN </w>
at tribu
fun ded</w>
con tra
F ir
exam ination</w>
hon our</w>
ac adem
draw n</w>
pre dic
employ ed</w>
pre sid
o ffered</w>
lim it</w>
f ru
p as
acc es
ut es</w>
li qu
ap s</w>
Col om
Ital y</w>
err a</w>
end ers</w>
C ap
campa ign</w>
Territ ories</w>
ma il</w>
other wise</w>
cy cle</w>
signific antly</w>
ou se</w>
n esses</w>
l or
sur vi
sist ant</w>
t our
b ad</w>
an ger</w>
ow ned</w>
Agen da</w>
tr ying</w>
P op
w in
g res
wh om</w>
Coord in
ac tually</w>
b s</w>
reg n
Ph il
vis its</w>
shor t
thi op
p ack
investig ations</w>
T e
acc eler
ic als</w>
se ems</w>
out comes</w>
hol ds</w>
dec laration</w>
ach ers</w>
Si erra</w>
less ons</w>
B a
E thiop
R I
dru gs</w>
M E
ci d
he al
ay ing</w>
k ra
sou ght</w>
S wit
lit er
H ar
ad mini
inter n
g ross</w>
Fra mework</w>
ess ed</w>
Weap ons</w>
fri end
Ambass ador</w>
i j
D .</w>
recogn ize</w>
them atic</w>
Exper ts</w>
K en
identi fication</w>
inf ec
comple tion</w>
Fir st</w>
Comm un
E U</w>
alleg ed</w>
pun ishment</w>
advant age</w>
pres sion</w>
nam ely</w>
Res earch</w>
lin ked</w>
Bur un
categ ories</w>
n ar
wid ely</w>
sof tware</w>
acc ept</w>
substan tial</w>
eng age</w>
H ab
avail ability</w>
alleg ations</w>
con vic
institu tion</w>
ast ers</w>
Assi stance</w>
bir th</w>
i ent</w>
exc ept</w>
w on
S pain</w>
b ran
vehic les</w>
employ ees</w>
shi p
Swit zer
k en</w>
inform </w>
experi ences</w>
sy n
il and</w>
p ir
consi ders</w>
S pace</w>
Dep u
ra ble</w>
s a
rap id</w>
wher e
Switzer land</w>
sem ination</w>
dy nam
n ations</w>
spo ke</w>
f ec
O M</w>
I t</w>
any thing</w>
out standing</w>
ol i
re stor
per cent</w>
st ay</w>
al a</w>
is s
th ly</w>
el ement</w>
dise ases</w>
em power
wri ting</w>
Cha mber</w>
et c</w>
Z eal
fail ed</w>
st ress</w>
Pe acekeeping</w>
o x
ob tained</w>
r ace</w>
min orities</w>
strong ly</w>
complain ts</w>
cen tury</w>
prin cip
CO P</w>
p regn
tu red</w>
A S
ph en
B as
qu al
hap pen
l ab
O I
gran ted</w>
consider able</w>
ar ch
exten d</w>
mar g
pro per</w>
h ear</w>
U kra
rele ase</w>
tion ally</w>
pay ments</w>
religi on</w>
see king</w>
Th ir
y es</w>
every thing</w>
I M
datab ase</w>
in ven
tis h</w>
el li
T ha
ob tain</w>
mom ent</w>
eng ine
for um</w>
fur </w>
ed ly</w>
loc ated</w>
t ely</w>
st ock</w>
H um
suppor ts</w>
in clusive</w>
Zeal and</w>
s cre
af for
v ital</w>
fac ing</w>
ad es</w>
han ds</w>
po st
St atis
streng th</w>
re medi
7 2</w>
Le one</w>
sat ell
te aching</w>
thir ty</w>
Ne ther
IA EA</w>
ster ing</w>
Cul tural</w>
b all</w>
present ation</w>
reason able</w>
beg in</w>
an ge</w>
pl at
psy ch
C ro
compe tent</w>
te achers</w>
ch oo
happ y</w>
con sent</w>
S ch
conven ed</w>
comm ission</w>
J er
ex ist</w>
tal k</w>
in ts</w>
del ay</w>
re ven
pre me</w>
m ar</w>
op ened</w>
mar ks</w>
s le
ad visory</w>
t ex
p ain
d ang
Jo h
y our
Nether lands</w>
tra ffic</w>
selec ted</w>
Argentin a</w>
J ud
sim ple</w>
y ers</w>
Chair person</w>
func tioning</w>
previ ously</w>
territ ories</w>
Ha iti</w>
d ar
Gaz a</w>
5 0
qu ick
speci fied</w>
elec toral</w>
f ront</w>
be aring</w>
i sts</w>
nor ms</w>
pro spec
v ince</w>
Par t
e ding</w>
P rom
G reat</w>
li st
Depu ty</w>
dow n
top ic</w>
Tur k
r ich</w>
them e</w>
Parlia ment</w>
preven ting</w>
ali sts</w>
ot es</w>
fin e</w>
per c
constitu tional</w>
ta x
flow s</w>
suppl ies</w>
chan ging</w>
speak ers</w>
mun icip
im pe
Nor way</w>
territ orial</w>
r o</w>
Fin an
deci de</w>
some one</w>
em issions</w>
app ear</w>
re v
di a</w>
7 .
att ack</w>
f ast</w>
Bosn ia</w>
et ary</w>
F am
ann ing</w>
i e</w>
Mini sters</w>
di g
amend ments</w>
glob alization</w>
bor n</w>
pop ulations</w>
op tim
h us
b ot
new s</w>
main tained</w>
regul atory</w>
k illed</w>
conclud ing</w>
dis semination</w>
Finan cial</w>
Fif th</w>
re productive</w>
b y
atic ally</w>
l a</w>
ing ing</w>
buil t</w>
Contro l</w>
ord inary</w>
te ams</w>
amoun ts</w>
num bers</w>
Hab it
b in
e ign
en ting</w>
al ed</w>
es h</w>
los ses</w>
main stream
t ;</w>
N P
eign ty</w>
L an
In iti
Habit at</w>
Con gress</w>
S h
head s</w>
M ic
wan ted</w>
decre ase</w>
job s</w>
aliz ing</w>
ne y</w>
co de</w>
st an</w>
a o</w>
in stance</w>
fi gh
differ ences</w>
tr end</w>
subsequ ently</w>
sol di
So ci
un able</w>
victi m</w>
num erous</w>
Add .
boo ks</w>
A zer
sover eignty</w>
min ority</w>
enjo y
satisfac tion</w>
F ac
expan sion</w>
I L</w>
Cy pr
clo sure</w>
Burun di</w>
qu esti
wor ld
S ou
con taining</w>
larg est</w>
is es</w>
cl ear
sc en
cover age</w>
Cypr us</w>
4 ,
car rying</w>
confir med</w>
Fi eld</w>
de stro
L A
inst all
in side</w>
we alth</w>
diplom atic</w>
norm al</w>
subsi diary</w>
me dic
targe ted</w>
invest ments</w>
al ist</w>
mic ro
s av
restric tions</w>
expen ses</w>
ar ily</w>
announ ced</w>
jud ge</w>
form ulation</w>
z ation</w>
over sight</w>
nation ality</w>
identi ty</w>
7 4</w>
le y</w>
re alization</w>
s earch</w>
exam ples</w>
dec la
character istics</w>
ba ij
Bri tish</w>
Azer baij
on ia</w>
Yugosla via</w>
un .org</w>
s w
b on</w>
ti eth</w>
lo ad</w>
ever th
re integration</w>
everth eless</w>
3 00</w>
R efu
&apos; I
S lo
re t</w>
au t
the ory</w>
show ed</w>
or ed</w>
re ment</w>
Gen der</w>
dis semin
er ies</w>
9 .
extre m
n evertheless</w>
n early</w>
V II</w>
ac ted</w>
8 .
sh el
pro vin
maxim um</w>
b ig
un g</w>
B rit
ner gy</w>
ar d
ser vation</w>
men ted</w>
conten ts</w>
Refu ge
dis ability</w>
pat ri
T S</w>
ad d</w>
complain ant</w>
jec t</w>
alloc ation</w>
sent ence</w>
sup ple
rati fied</w>
advanc ed</w>
ol der</w>
t on
anc ing</w>
ov ina</w>
sustain ed</w>
me works</w>
mort ality</w>
estim ate</w>
As sistant</w>
7 1</w>
Her z
m uni
Prosecu tor</w>
M us
f ish</w>
aim s</w>
heav y</w>
Dar fur</w>
Leban ese</w>
fir m</w>
reconc iliation</w>
comb ined</w>
ac cid
lat est</w>
equ itable</w>
mo del
tradi tion</w>
it or</w>
Y ear</w>
deliver ed</w>
0 s</w>
sur face</w>
vol um
C ON
Herz eg
recogn izes</w>
ge tting</w>
enjoy ment</w>
i ans</w>
compl y</w>
M ed
si tion</w>
st ant</w>
e ing</w>
elim ination</w>
af ter
a ther</w>
fe el
con dem
tic ally</w>
Techn ical</w>
enn ial</w>
om en
Herzeg ovina</w>
up dated</w>
pol lu
ip p
fulf il</w>
ser i
pre lim
s anit
sim ply</w>
reser vations</w>
au di
Dec ade</w>
ide as</w>
cl ust
endor sed</w>
vo ire</w>
h ur
main taining</w>
al i</w>
ha ps</w>
el led</w>
expl an
ir y</w>
tem per
ad s</w>
U R
col d</w>
encoura ging</w>
st aff
inno v
assess ed</w>
Nig eria</w>
bre ak</w>
Al g
T or
un employment</w>
on line</w>
&apos;I voire</w>
ow nership</w>
expres ses</w>
su me</w>
wh ite</w>
sensi tive</w>
protec ted</w>
O ver
T E
ad mis
s cri
st able</w>
mar ily</w>
el ine</w>
tro ops</w>
min utes</w>
Thir d</w>
gu ide</w>
intern ally</w>
Pri me</w>
ch ann
mig rant</w>
n ine</w>
as yl
for th</w>
off ence</w>
L D
k in
An d</w>
world wide</w>
gre en</w>
D ay</w>
Su preme</w>
du ties</w>
b ound
sph ere</w>
w ishes</w>
Colom bia</w>
an ese</w>
dis asters</w>
l ink</w>
TI ON</w>
U gan
V ol
S af
prelim inary</w>
Pop ulation</w>
N </w>
ex clud
A ust
st ation</w>
ar ising</w>
gener ation</w>
objec t</w>
par as</w>
govern ing</w>
st ations</w>
cho ice</w>
enabl ing</w>
_ </w>
7 6</w>
In spec
ac qu
enti ty</w>
F ood</w>
s ale</w>
Ukra ine</w>
initi ated</w>
ar di
cha ir
fra meworks</w>
at er
ti fication</w>
answ er</w>
nam es</w>
quick ly</w>
Ethiop ia</w>
struc tural</w>
ph ot
Tra ining</w>
s hap
5 ,
techn ological</w>
Nor thern</w>
ff er</w>
gu i
form ity</w>
charac ter</w>
leg e</w>
bl ood</w>
S ea</w>
system atic</w>
pro gram</w>
per haps</w>
pri marily</w>
prohi b
o to</w>
amen ded</w>
UNO DC</w>
bu y</w>
N et
mainstream ing</w>
ic ial</w>
lat ter</w>
Aust ri
a ud
atten ded</w>
at tit
ur ing</w>
recei ving</w>
IL O</w>
M il
C ô
comm ittees</w>
O R</w>
Cô te</w>
con vention</w>
tri ed</w>
atten d</w>
8 7</w>
B en
e ties</w>
investig ate</w>
in struc
a th
asyl um</w>
stri es</w>
D ef
achiev ements</w>
princip al</w>
in fl
amend ment</w>
S pan
Swe den</w>
design ated</w>
t ative</w>
i o</w>
ou ter</w>
ver ification</w>
sal es</w>
t own</w>
propor tion</w>
fav our</w>
MI N
de partment</w>
M emb
Brit ain</w>
inten si
accep table</w>
Int egr
selec tion</w>
trans portation</w>
Pr inci
comm issions</w>
anc ed</w>
In ter</w>
pas sed</w>
j un
thous ands</w>
m iddle</w>
erad ication</w>
uni que</w>
coun t</w>
am es</w>
acc used</w>
appe ared</w>
k ept</w>
in ju
cl ean</w>
we ak
Phil ipp
O D
In du
prepar ing</w>
s am
ol es
publ ications</w>
b arri
ser ver</w>
im mun
con tain</w>
Ter ror
am e
agg res
T he
gra de</w>
equ i
leg ally</w>
retur ned</w>
Tr ust</w>
8 5</w>
protec ting</w>
bo y</w>
Mor occ
gu n</w>
corpor ate</w>
sy m
end um</w>
IC T</w>
Hum anitarian</w>
su spec
inv ites</w>
v </w>
FA O</w>
penal ty</w>
k istan</w>
cl in
Mon day</w>
occur red</w>
m ac
men d
ES CO</w>
fi xed</w>
E qu
incid ents</w>
Morocc o</w>
resol ve</w>
prosecu tion</w>
A ud
publ ication</w>
ess or</w>
ell ec
dra fting</w>
believ es</w>
CN .
sustain ability</w>
4 0
Inter nal</w>
ci de</w>
se em</w>
differ ence</w>
part ner</w>
min ing</w>
Span ish</w>
empower ment</w>
b ing</w>
L or
am bi
schedul ed</w>
char ges</w>
en em
k er</w>
mar ked</w>
ld n</w>
I S</w>
di gn
C E</w>
ac her</w>
M ad
vi de
fig ures</w>
hel ped</w>
l ying</w>
re ve
g ap</w>
t ations</w>
i ther</w>
imp acts</w>
d ance</w>
bin ding</w>
multi ple</w>
F ourth</w>
te dly</w>
dom in
Reg ulations</w>
her e
there by</w>
on y</w>
Vi ol
rac ism</w>
legitim ate</w>
beau ti
s end</w>
chem icals</w>
h ot
us er</w>
h our</w>
fin ding</w>
exam ine</w>
alloc ated</w>
phen omen
Sta ff</w>
P O
rel atively</w>
pursu e</w>
Jam a
transpar ent</w>
E rit
vari ety</w>
UN ESCO</w>
geograph ical</w>
id ity</w>
M ac
u ally</w>
manag ers</w>
J ord
w r
7 8</w>
jo in</w>
de ter
e ous</w>
re present</w>
Fri day</w>
E astern</w>
hop ed</w>
becom ing</w>
for tun
UN IF
t oc
facilit ating</w>
impro vements</w>
se ment</w>
reg ularly</w>
pl ant</w>
we ight</w>
obser ver</w>
f ear</w>
qu es</w>
spe ed</w>
cre di
M D
Cro ati
do es
br inging</w>
res ear
s el</w>
l eng
tur ned</w>
c ut
gi ves</w>
re ti
innov ative</w>
ex ports</w>
E st
s pread</w>
se as</w>
reser vation</w>
pa ir</w>
ti ous</w>
pati ents</w>
ne ither</w>
re fer</w>
tra ding</w>
im prison
pow ers</w>
Qu estions</w>
s aying</w>
ic an</w>
ar rest</w>
adap tation</w>
li es</w>
incre ases</w>
decla red</w>
Initi ative</w>
ac compan
obstac les</w>
Ken ya</w>
e ts</w>
jour n
claim ed</w>
mak ers</w>
man age</w>
contro ls</w>
Azerbaij an</w>
at tr
su red</w>
de e
evi sion</w>
vo ice</w>
g .</w>
Tha iland</w>
soci o</w>
int ly</w>
B e
writ e</w>
S ing
ul ti
bel on
exten sive</w>
rele ased</w>
Indi genous</w>
m ers</w>
S ur
appear ance</w>
ob il
6 ,
dispu te</w>
A C
t esting</w>
9 5</w>
li ability</w>
prepar atory</w>
Ugan da</w>
believ ed</w>
bo ys</w>
8 3</w>
re construction</w>
S au
re views</w>
in tention</w>
M ig
toc ols</w>
let ters</w>
UN D
9 8</w>
jo intly</w>
DA W</w>
Y ou</w>
tour ism</w>
E l</w>
de ad
exam ined</w>
sp ent</w>
cover ing</w>
g ame</w>
pil ot</w>
en vis
ma y
ig ns</w>
coordin ate</w>
conc ep
per fec
li ghts</w>
your self</w>
deploy ed</w>
C l
con formity</w>
Princi ples</w>
n it
CE DAW</w>
gl ad
dou ble</w>
affec ting</w>
ma ster</w>
sav ings</w>
Sa har
B oli
S R
Memb ers</w>
mess age</w>
vehic le</w>
ac ked</w>
ig i
identi fying</w>
exten sion</w>
c au
Mal ay
bur den</w>
radi o</w>
en se</w>
r ent</w>
8 1</w>
o ts</w>
we b</w>
der i
ser ved</w>
di ag
discrimin atory</w>
attemp t</w>
su ffering</w>
us h
chec k</w>
St and
Sub committee</w>
lea ving</w>
fe a
per form</w>
ment ally</w>
th inking</w>
att ached</w>
U .
e .</w>
certi f
L on
br ary</w>
E ar
gr ant</w>
M in
Terror ism</w>
agg reg
go es</w>
M yan
transi t</w>
A li
M echan
fac ts</w>
Myan mar</w>
m ap</w>
dis pos
ab ol
prison ers</w>
7 9</w>
constra ints</w>
Pre par
inter im</w>
b ou
C. 2</w>
m ale</w>
ic it</w>
= </w>
pro ved</w>
ly mp
ev en
Res ources</w>
8 2</w>
CO M
exp and</w>
por ting</w>
trans actions</w>
abl ed</w>
Ag ricul
Ch ile</w>
W H
e. g.</w>
dre w</w>
est er
Un der</w>
im age</w>
M ov
lin ks</w>
Jer us
beauti ful</w>
expan ded</w>
viol ated</w>
a por
Iraq i</w>
a il</w>
substan ces</w>
Par is</w>
satell ite</w>
Jerus al
in her
preven tive</w>
C S
depend ence</w>
g one</w>
schedul e</w>
sel ling</w>
re member</w>
Philipp ines</w>
O h</w>
ul g
e ed</w>
qu iry</w>
M A
har d
app ears</w>
Prom o
dem ands</w>
N ic
Stat us</w>
ro se</w>
d el</w>
noti ce</w>
choo se</w>
ic ated</w>
Jerusal em</w>
loc ked</w>
Bel ar
our ing</w>
bus in
sanit ation</w>
remedi es</w>
dispu tes</w>
c row
cap abilities</w>
Lor d</w>
E nergy</w>
des tin
te acher</w>
gra ve</w>
con ver
man aged</w>
e br
sev ere</w>
8 6</w>
9 6</w>
Ge org
Cam bo
D o
H is</w>
C R
f ell</w>
b ra
reiter ates</w>
than ks</w>
te sts</w>
construc tive</w>
tro op</w>
8 4</w>
D en
exc ep
Refuge es</w>
tra ined</w>
advoc acy</w>
y le</w>
consult ative</w>
judic i
C P
H e</w>
Alg eria</w>
hus band</w>
w all</w>
F D
ari time</w>
pro gres
e at</w>
profes sion
O lymp
explain ed</w>
isc al</w>
Pow er</w>
f ish
Georg ia</w>
jo ined</w>
bl ack</w>
loo ks</w>
safegu ards</w>
es sional</w>
soldi ers</w>
char ged</w>
s cor
+ </w>
reiter ated</w>
f ications</w>
8 8</w>
Sci enti
with draw
extre me</w>
tre ated</w>
tra in</w>
mon thly</w>
recall ed</w>
9 9</w>
9 7</w>
an a</w>
mean ing</w>
ust ed</w>
re al
C ity</w>
de tec
arre sted</w>
B er
ti ally</w>
b on
Dru gs</w>
ser ving</w>
li ons</w>
nutri tion</w>
Tim or</w>
4 00</w>
t y
inno vation</w>
S am
ab road</w>
1 st</w>
ep h
Pro ject</w>
valu able</w>
OI OS</w>
pollu tion</w>
extrem ely</w>
foc al</w>
cust oms</w>
sp ir
con vin
tr ou
ellec tual</w>
NP T</w>
does n</w>
guarante es</w>
inspec tion</w>
Ban glad
acc ept
sti pul
reaffir ming</w>
larg ely</w>
si le</w>
re ality</w>
curr ency</w>
laun ch</w>
distribu ted</w>
or al</w>
ga ther
ob vi
ris es</w>
em o
h t
An gol
sec toral</w>
com position</w>
repres ents</w>
car bon</w>
ak es</w>
T ran
perpetr ators</w>
en de
oun ding</w>
un il
be ar</w>
Lon don</w>
i red</w>
read ing</w>
staff ing</w>
Bud ge
adjust ment</w>
explor e</w>
experi enced</w>
Austri a</w>
For ces</w>
Fam ily</w>
In cre
el f</w>
ro les</w>
mus ic</w>
m ist
wel fare</w>
z ing</w>
th or
tru th</w>
ta bles</w>
n omin
ur s
Net work</w>
mo ving</w>
9 2</w>
equ ity</w>
re ply</w>
control led</w>
prob ably</w>
up date</w>
S te
star ting</w>
H un
For ms</w>
volum e</w>
program ming</w>
m its</w>
stre am</w>
ec o
el a</w>
wor th</w>
S P
W TO</w>
schem e</w>
9 1</w>
Vol un
assign ed</w>
A C.
easi ly</w>
com ment</w>
set tlements</w>
indic ates</w>
a head</w>
method ology</w>
lin k
int elli
pan el</w>
off ers</w>
anti cip
f ted</w>
re aching</w>
w il
g ate</w>
Por tu
run ning</w>
id ation</w>
ear th</w>
campa igns</w>
cap it
ann i
6 00</w>
auth ors</w>
as set</w>
dign ity</w>
En g
ap par
b ound</w>
Sau di</w>
Pro vi
Part nership</w>
st abil
Malay sia</w>
ad y</w>
judici ary</w>
dec ade</w>
mach ine</w>
9 3</w>
p ped</w>
Scienti fic</w>
Banglad esh</w>
Mon it
hi </w>
as sum
lar ger</w>
LD Cs</w>
pers on
s outh</w>
wh at
gh ter</w>
E M</w>
S e
bre ak
per mit</w>
CC C</w>
O u
accept ance</w>
ende av
Jord an</w>
contr ary</w>
loc ations</w>
b ile</w>
intro duce</w>
figh ting</w>
s pr
Con sul
is s</w>
N ai
Coordin ator</w>
el igi
pl us</w>
D oc
Monit oring</w>
beli ef</w>
se as
is ation</w>
val ent</w>
b om
academ ic</w>
rem ote</w>
lim its</w>
C H
exc ell
reaffir ms</w>
at em
utiliz ation</w>
f ile</w>
E C</w>
wr ong</w>
ex pe
W ed
prom ise</w>
stres ses</w>
seri ously</w>
TI ON
Budge tary</w>
il s</w>
Ap pe
ha i</w>
fe atures</w>
man dated</w>
Th urs
chil d
um p</w>
m id</w>
di strict</w>
T ask</w>
trans mitted</w>
an z
semin ars</w>
R ac
F oundation</w>
human ity</w>
tel evision</w>
ex ac
g ri
rob i</w>
er a</w>
Nai robi</w>
vers ary</w>
Tu esday</w>
al es</w>
Gu atem
invest ors</w>
broad er</w>
sec tions</w>
Belar us</w>
Bel gi
vill age</w>
f res
i ds</w>
im port</w>
qu ali
over come</w>
ke ts</w>
hel ping</w>
ur s</w>
dec line</w>
bal anced</w>
dec ades</w>
f iscal</w>
n d</w>
sh ar
per sist
cur ricul
welcom ing</w>
P lat
g old</w>
Thurs day</w>
Joh n</w>
g ain</w>
9 4</w>
l ining</w>
val uation</w>
perio ds</w>
su ffered</w>
stor age</w>
c ast</w>
s low
if y</w>
techni ques</w>
H ol
y e
wa iting</w>
ill u
dang erous</w>
imp unity</w>
demonstr ated</w>
marg in
dee ply</w>
perform ed</w>
nor th</w>
continu ous</w>
Rus sia</w>
Pre sid
Wed n
on ed</w>
comp il
su itable</w>
se emed</w>
t ence</w>
mo bile</w>
cust o
cro s
consequ ently</w>
I I
offic er</w>
st op
O n</w>
direc ted</w>
foc using</w>
Ar men
reflec ts</w>
coordin ating</w>
bo x</w>
h oc</w>
assi sting</w>
invol ve</w>
tr ack</w>
C. 3</w>
g aps</w>
bi ological</w>
sal ary</w>
an ding</w>
ad ver
Wedn esday</w>
pop ular</w>
c k
out lined</w>
N ep
pro s
Peo ples</w>
k new</w>
ak h
Stat ute</w>
vulner ability</w>
H am
jur y</w>
fa ith</w>
8 9</w>
great ly</w>
ori ented</w>
sm all
M u
Mov ement</w>
associ ations</w>
stu died</w>
complain t</w>
rel ative</w>
pre mis
any one</w>
d ation</w>
enem y</w>
ou l
dep th</w>
m id
imprison ment</w>
ch ance</w>
cut ting</w>
7 ,
id ly</w>
care er</w>
associ ation</w>
engine ering</w>
Ear th</w>
w ood</w>
z u
re sumed</w>
acqui sition</w>
M O
acces sible</w>
i or
X X
func tional</w>
trans ferred</w>
arbitr ary</w>
de dic
UNO PS</w>
sti mul
Mechan ism</w>
ul e</w>
friend ly</w>
budge ts</w>
Pl anning</w>
l asting</w>
par ame
heal thy</w>
Saf ety</w>
parti al</w>
n one</w>
man if
oph ob
top ics</w>
pap ers</w>
Croati a</w>
ple ased</w>
on ization</w>
ple d
N E
pres cri
enc ing</w>
out put</w>
ti ci
i .
g y
subjec ted</w>
ho t</w>
WH O</w>
air e</w>
pre sident</w>
ab solu
Sou thern</w>
G H
competi tive</w>
aut onom
pr ene
equ ally</w>
el se</w>
simil arly</w>
D el
reli able</w>
p ass</w>
Per u</w>
mod alities</w>
deli ver</w>
quali fied</w>
em en</w>
re min
ch ers</w>
Ex cell
recommen d</w>
st ages</w>
so il</w>
war ning</w>
oper ate</w>
d ness</w>
brief ing</w>
Exper t</w>
b ill</w>
l abor
C z
UN R
cur y</w>
coher ence</w>
Fin land</w>
v or
S han
e ds</w>
por ted</w>
deliber ations</w>
bal ances</w>
mobil ization</w>
ph one</w>
wi des
histor ical</w>
r a</w>
w age</w>
ex ha
sou thern</w>
b id</w>
we ather</w>
ac commod
wides pread</w>
m itting</w>
f oundation</w>
f as
buil dings</w>
vis ited</w>
tal ks</w>
de tained</w>
hy dro
appe als</w>
Erit rea</w>
re place</w>
m ur
sh op</w>
6 0
conven tional</w>
m atic</w>
in sufficient</w>
dynam ic</w>
E cu
plat form</w>
im bur
it ations</w>
har m</w>
allow s</w>
model s</w>
2 nd</w>
re patri
comp ati
quar ter</w>
de ad</w>
mar ried</w>
Prof essional</w>
Com p
wee k
as ing</w>
de pos
relev ance</w>
diag no
Uni versal</w>
ti v
play ing</w>
hosp ital</w>
stre et</w>
premis es</w>
patter n</w>
pro stitution</w>
pol y
ra y</w>
der ly</w>
semin ar</w>
du al</w>
prepar ations</w>
solid arity</w>
soci eties</w>
reg ards</w>
Sci ence</w>
compe tence</w>
c ard</w>
evalu ate</w>
no on</w>
-- --
hol der</w>
ha bit
purch ase</w>
mini sterial</w>
mater nal</w>
im ag
o k</w>
temper ature</w>
ris ing</w>
pe ti
seg ment</w>
hear ing</w>
ad ing</w>
ar my</w>
n ur
g gl
com pris
Strateg ic</w>
es sive</w>
s par
w ind</w>
S ri</w>
spe ech</w>
op position</w>
T i
10 .
do w</w>
In dependent</w>
success fully</w>
inter vention</w>
Q </w>
CN .4</w>
f ederal</w>
su n
i. e.</w>
8 00</w>
th u
t ack
hosp it
Statis tics</w>
fo ot
inv itation</w>
comple tely</w>
Cambo dia</w>
eph one</w>
reaffir med</w>
sub stance</w>
constitu tes</w>
law ful</w>
certain ly</w>
house hold</w>
g row</w>
ap er</w>
j </w>
far mers</w>
str on
deal t</w>
at a</w>
v ess
wit nesses</w>
f oo
8 ,
ve y</w>
Tor ture</w>
cor responding</w>
A m
it ec
integr ate</w>
inter ventions</w>
ON U
om mun
de pen
V ene
UNR WA</w>
spons ors</w>
stud ent</w>
dis abled</w>
hi bition</w>
re imbur
dig ital</w>
Prepar atory</w>
Angol a</w>
f ishing</w>
ad oles
Ch em
air space</w>
commod ity</w>
g t;</w>
& gt;</w>
i on</w>
ent re
w illing</w>
over view</w>
fo ster</w>
call ing</w>
. .</w>
sum mar
w ished</w>
prohib ited</w>
dispos al</w>
doub t</w>
O A
ul ts</w>
anni versary</w>
a th</w>
ho sti
bud s
s low</w>
convin ced</w>
pa th</w>
re sident</w>
F OR</w>
o cide</w>
respon d
Nep al</w>
s en</w>
a i</w>
bound ary</w>
sugg estions</w>
D ra
Mini sterial</w>
under ing</w>
S ha
st a</w>
Guatem ala</w>
clust er</w>
ac king</w>
de ep
con servation</w>
O S
great est</w>
in cur
d anger</w>
prom oted</w>
g al</w>
recall s</w>
o d
s we
Pol and</w>
es tion</w>
U. S.</w>
pres ents</w>
inven tory</w>
at mo
b es</w>
Res pon
Turk ish</w>
in put</w>
Plat form</w>
i ents</w>
rap e</w>
execu tion</w>
ay ed</w>
P s</w>
Sing apor
Com prehensive</w>
advanc ement</w>
k il
accompan ied</w>
d au
dro p</w>
new ly</w>
pl i
pen sion</w>
am bia</w>
b ab
hom es</w>
h it</w>
Vene zu
y ester
proper ly</w>
pl ication</w>
de tain
vo ting</w>
M EN
pic ture</w>
coun sel</w>
B us
B r
s ave</w>
ol d
cel ebr
Soci ety</w>
resol ved</w>
su d
nation als</w>
f ill</w>
sp ending</w>
tin e</w>
O m
sh e
produc tivity</w>
uni versity</w>
Fin ancing</w>
O cc
st ocks</w>
ev ol
as tic</w>
barri ers</w>
C. 5</w>
cover s</w>
emphasiz es</w>
cam ps</w>
As s
F ran
D es
en ophob
con grat
K az
objec ts</w>
unil ateral</w>
draw ing</w>
benef ici
embar go</w>
envis aged</w>
acknowled ged</w>
di e</w>
obil ization</w>
u bl
0 1</w>
voc ational</w>
sum mer</w>
er t</w>
entre prene
cop ies</w>
s .
NG O</w>
or row</w>
elec ommun
Excell ency</w>
si mul
liber ty</w>
becom es</w>
Ger man</w>
Pe acebuilding</w>
Jap anese</w>
f le
g or
mem or
expl ain</w>
rap idly</w>
int ellectual</w>
sh r
9 ,
T uni
correc t</w>
p ill
super vision</w>
suppl i
f ers</w>
mo ved</w>
fra g
industri es</w>
wi der</w>
an e</w>
G DP</w>
RA L</w>
N o</w>
fil m</w>
V III</w>
patter ns</w>
ar m</w>
Cz ech</w>
in adequate</w>
yester day</w>
conduc ting</w>
m all</w>
infl ation</w>
A L</w>
cap able</w>
N a
dedic ated</w>
Occ up
ch ron
advant ages</w>
c rises</w>
fi es</w>
H oc</w>
organiz e</w>
gen u
tel ephone</w>
trans national</w>
prec ed
re alize</w>
O P
withdraw al</w>
y i
ti tle</w>
R ed</w>
l ar</w>
ci ve</w>
Fin ance</w>
mor al</w>
S ol
mach in
incorpor ated</w>
w in</w>
b att
S C</w>
un fortun
lo ans</w>
car ri
H u
2 12</w>
st one</w>
allow ing</w>
relation ships</w>
d ry</w>
n a
leng th</w>
Belgi um</w>
dri ve</w>
mer cury</w>
accur ate</w>
degra dation</w>
ard ous</w>
contin gent</w>
out reach</w>
wal k</w>
n ity</w>
kin ds</w>
chi ef</w>
flexi ble</w>
fac ility</w>
phenomen on</w>
resid ence</w>
A d</w>
T ai
Aud itors</w>
L B</w>
inv o
C o</w>
la id</w>
adop ting</w>
at ter
ec h
pack age</w>
Ecu ador</w>
cap e</w>
circul ated</w>
finan ced</w>
the sis</w>
ad verse</w>
com for
bl ed</w>
hu ge</w>
inter action</w>
Ky oto</w>
tom orrow</w>
de tail</w>
to x
Ad vis
discipl inary</w>
form at</w>
f air
frequ ently</w>
doc tor</w>
under taking</w>
Mo del</w>
ing ton</w>
Singapor e</w>
c ot
ul ated</w>
conclud e</w>
reven ue</w>
repres enting</w>
F P</w>
ou red</w>
der ing</w>
Ob server</w>
reser ve</w>
Develop ing</w>
s li
vide o</w>
u t</w>
deter ior
198 9</w>
w an</w>
cont em
mo vements</w>
speci es</w>
C P</w>
Ser bia</w>
i i</w>
oc al</w>
ex emp
explan ation</w>
tow ard</w>
fir ms</w>
pl ants</w>
occur </w>
dur ation</w>
integr al</w>
Lan ka</w>
s ports</w>
row n</w>
V er
consider ations</w>
bot t
fi re
rejec ted</w>
out puts</w>
my self</w>
house holds</w>
formul ated</w>
allow ance</w>
gain s</w>
E quality</w>
indi rec
we ak</w>
oper ative</w>
signific ance</w>
flexi bility</w>
appl ying</w>
ow s</w>
f la
assi sted</w>
n i
de pri
busin esses</w>
for ums</w>
ograph ic</w>
ey e</w>
expec t</w>
w ards</w>
S elf</w>
exc eption</w>
Em ploy
app ing</w>
projec ted</w>
under stood</w>
determin ing</w>
te ers</w>
ain t</w>
tion ary</w>
u es</w>
com posed</w>
Gre ece</w>
di versi
s wi
j a</w>
adequ ately</w>
Str eng
ar ts</w>
ann ex
te en</w>
su n</w>
Com b
C RC</w>
A R
co ast
ol onization</w>
dev oted</w>
t al</w>
R educ
custom ers</w>
pl ays</w>
demonstr ate</w>
prom p
s h</w>
ag ents</w>
har m
re cip
bu t
7 00</w>
C lim
ar ti
consum er</w>
G han
z ones</w>
al g
CA P</w>
l ay</w>
manufac turing</w>
is ol
en rol
f ts</w>
jun ction</w>
1 1
dec lar
Venezu ela</w>
Co sta</w>
J e
care fully</w>
si </w>
ig nor
arch itec
ur ge</w>
ti n</w>
cop y</w>
abl es</w>
Den mark</w>
muni tion</w>
C .1</w>
what ever</w>
ul ate</w>
mil lions</w>
Afgh an</w>
dev ices</w>
lo se</w>
guarante ed</w>
desi re</w>
Al ban
sugg est</w>
ex po
ra d
Sen eg
Over sight</w>
S mall</w>
d less</w>
fe es</w>
behavi our</w>
fra me</w>
ten th</w>
st yle</w>
t ree</w>
psych ological</w>
pen s
profession als</w>
H on
wat ch</w>
em or
Doc u
T anz
feel ing</w>
sk in</w>
ver b
tor ate</w>
Bu il
ud es</w>
b orders</w>
V al
pros per
transl ation</w>
re vision</w>
Ac coun
P un
he at</w>
dea ths</w>
A s</w>
Te am</w>
am b
equi valent</w>
Ch ange</w>
W ar</w>
ref ers</w>
so ft</w>
Clim ate</w>
be gun</w>
ju ven
canc er</w>
Gu id
dol lar</w>
miti gation</w>
ent ation</w>
mini stries</w>
Is land</w>
defin e</w>
c ell</w>
publ ic
R ome</w>
grat eful</w>
er ation</w>
H RC</w>
oura ble</w>
resid ents</w>
ab sor
negoti ation</w>
SB I</w>
Di strict</w>
gen e
e ans</w>
re ver
exc ee
Palestin ians</w>
may be</w>
assi ve</w>
U ru
for ests</w>
a x
T ok
sub missions</w>
Shan g
f light</w>
po or
lead er</w>
program s</w>
T V</w>
acc ession</w>
restric ted</w>
for th
adjust ments</w>
ar m
u d</w>
re move</w>
sol id</w>
e en</w>
hou ses</w>
Om buds
r d</w>
li sts</w>
Viol ence</w>
m ot
manag ing</w>
W e</w>
new sp
it age</w>
pos s
re me
rati o</w>
proced ural</w>
commen ded</w>
enti als</w>
presid ential</w>
l ity</w>
prohi bition</w>
vel i
win dow</w>
ha ir</w>
L a
con sci
reme dy</w>
arran gement</w>
Uru gu
im possible</w>
connec ted</w>
I C</w>
SR .
gi ble</w>
Con stitu
viol ent</w>
mis sing</w>
happen ed</w>
law yers</w>
Proc ed
E R</w>
as ser
power ful</w>
machin ery</w>
w est</w>
ti an</w>
Indi an</w>
nor thern</w>
Promo tion</w>
trans fers</w>
stru gg
form ing</w>
s mil
in jury</w>
s ever
mem ory</w>
expres sing</w>
ster e
ex tradition</w>
proper ties</w>
prof it</w>
distin c
polic y
Par t</w>
bu s</w>
E l
scienti sts</w>
link ages</w>
comm and</w>
Integr ated</w>
del e
S E
cle an
excell ent</w>
Rom a</w>
ti veness</w>
IT RAL</w>
sp end</w>
UNC ITRAL</w>
e ded</w>
G s</w>
sle ep</w>
Agricul ture</w>
ot yp
2 5
Kaz akh
par all
regar dless</w>
manag er</w>
w ants</w>
z z
b ad
ef ul
consult ants</w>
ro c
mo stly</w>
trans mission</w>
pro ve</w>
mean ing
all evi
intelli gence</w>
consolid ated</w>
requ iring</w>
p h</w>
dis cre
trac ting</w>
per s</w>
uni vers
pi ece</w>
Hun g
expan ding</w>
S P</w>
re struc
enophob ia</w>
Oper ation</w>
for es
3 rd</w>
stan ds</w>
te sted</w>
pe acebuilding</w>
L E
separ ation</w>
occa sion</w>
requ esting</w>
sel l</w>
Tanz ania</w>
fa ult</w>
distin gu
ew s</w>
adver ti
pro p
sign ature</w>
proce ed</w>
Ara bia</w>
t olerance</w>
sor ry</w>
spon sor
Kazakh stan</w>
T re
t esti
versi ties</w>
respon ded</w>
Seneg al</w>
o es</w>
incid ent</w>
see ks</w>
int olerance</w>
Mil itary</w>
Sch ool</w>
fin ds</w>
B .
s in
aspec t</w>
S et
s ory</w>
li ance</w>
produc ing</w>
usu al</w>
Inv est
bro ther</w>
O ne</w>
ri ti
cell s</w>
198 8</w>
a sion</w>
repor tedly</w>
m ly</w>
en e</w>
illu str
stri al</w>
li veli
Incre ased</w>
mac ro
Shang hai</w>
IN G</w>
comm it</w>
detain ees</w>
Tuni sia</w>
f loo
bun als</w>
regar ded</w>
In tro
custo dy</w>
d il
Ghan a</w>
d red</w>
la u
H ouse</w>
enter ing</w>
ES CAP</w>
review ing</w>
ro ot</w>
onn a</w>
Rev .1</w>
in si
Mr s.</w>
bri dge</w>
Urugu ay</w>
noti fication</w>
Regi on</w>
li ved</w>
ST A</w>
gener ated</w>
sol ve</w>
I f</w>
aggres sion</w>
10 5</w>
at ar</w>
li e</w>
W ash
Sal v
collec ted</w>
den ied</w>
subjec ts</w>
ggl ing</w>
belon ging</w>
www. un.org</w>
Armen ia</w>
C er
eval uations</w>
MI S
Portu gal</w>
al ing</w>
Def ence</w>
sur r
classi fication</w>
remo val</w>
Or gan
qu ick</w>
c ents</w>
consolid ation</w>
Pro liferation</w>
spr ing</w>
resear chers</w>
V ic
g est</w>
im per
TION S</w>
f al
sign ing</w>
clos er</w>
g rati
col or</w>
Si x
tal king</w>
fac es</w>
gener ate</w>
PR O
pro tocol</w>
f ran
f it</w>
ind ex</w>
reser ves</w>
ear th
rel ate</w>
SB STA</w>
surve ys</w>
comb ination</w>
coast al</w>
sec ret</w>
arbit ration</w>
Treat ment</w>
l ing
C ust
hun dred</w>
bri ef</w>
Is su
F .
for ec
on ing</w>
W A
journ alists</w>
Ge or
schem es</w>
del ays</w>
Wash ington</w>
ri ver</w>
dri ven</w>
b ol
arri ved</w>
M au
e astern</w>
and um</w>
mo vi
conf ron
il ing</w>
k es
employ ers</w>
dec entr
R ica</w>
Bus iness</w>
dar k</w>
acc um
ph il
sover eign</w>
expo sure</w>
attemp ts</w>
di stance</w>
k es</w>
S O
dis placement</w>
Proced ure</w>
C M
clo sing</w>
Proc ess</w>
1 ,000</w>
obser vation</w>
Mal i</w>
hun ger</w>
ten sion</w>
electr icity</w>
a ward</w>
bio diversity</w>
col lege</w>
in stances</w>
view ed</w>
St ock
1 20</w>
har ass
gu il
is n</w>
10 9</w>
shi ft</w>
D r
ov </w>
ther ap
haz ardous</w>
extra budgetary</w>
accoun table</w>
S un
ad her
I X</w>
appl ies</w>
exi sts</w>
cha in</w>
ed onia</w>
on ial</w>
Do ha</w>
Op en</w>
medic ine</w>
g en</w>
dem obilization</w>
ten d</w>
W FP</w>
stron ger</w>
repatri ation</w>
stor e</w>
w ill
do g</w>
comp ul
0 5</w>
Olymp ic</w>
n t</w>
me ant</w>
ou d</w>
Li by
t ons</w>
ish ments</w>
cooper ative</w>
sk y</w>
il eg
K ar
Wh at</w>
rec ur
S at
renew ed</w>
custom ary</w>
deri ved</w>
recei pt</w>
bi ennial</w>
eligi ble</w>
Ri o</w>
H el
in sul
re alized</w>
gran ts</w>
C T
y al</w>
anticip ated</w>
m ation</w>
fre e
en ship</w>
inc enti
vac ancy</w>
1 2.
f illed</w>
C D
assess ing</w>
head ing</w>
fil ed</w>
um n</w>
C A</w>
id em
C I</w>
Occup ied</w>
9 00</w>
altern atives</w>
con stant</w>
ad ed</w>
re ts</w>
transi tional</w>
la undering</w>
or m
mean while</w>
cap ability</w>
li abilities</w>
trans mitting</w>
hand ling</w>
gui ded</w>
j e
u n</w>
w estern</w>
bott om</w>
pro of</w>
mo thers</w>
val id</w>
alleg edly</w>
con junction</w>
forth coming</w>
inv ite</w>
Comm ittees</w>
Con ventions</w>
ba by</w>
s tic
explo sive</w>
perfec t</w>
St anding</w>
depen ds</w>
Bud get</w>
m aritime</w>
destro yed</w>
explor ation</w>
el ev
admini stering</w>
G EF</w>
custom er</w>
continu ation</w>
h in
U se</w>
dep end</w>
consi sts</w>
an ci
org an</w>
4 th</w>
Mon gol
trans mit</w>
stere otyp
ste el</w>
squ are</w>
g onna</w>
a sure</w>
facilit ated</w>
SA S</w>
dat ory</w>
ar agu
ail ing</w>
ann ually</w>
M at
U z
Ass ess
head ed</w>
frequ ency</w>
T ru
o ffering</w>
Liby an</w>
fe et</w>
jud gement</w>
re placed</w>
uni versities</w>
smo o
harass ment</w>
fish eries</w>
enfor ced</w>
We b</w>
Nic aragu
constitu ted</w>
Reduc tion</w>
compar ison</w>
men tion</w>
analy tical</w>
ab and
dre am</w>
sch ol
MD Gs</w>
Comm er
hop es</w>
parame ters</w>
Cor r
neighb ouring</w>
p ip
municip al</w>
Le ague</w>
uni on</w>
fres h</w>
Intro duction</w>
dev ice</w>
1 1.
dr inking</w>
de par
Ar med</w>
amoun ted</w>
sugg ests</w>
descri ption</w>
W il
F re
marke ting</w>
d able</w>
harm ful</w>
Cam ero
pri or
list en</w>
anim als</w>
gradu ally</w>
C had</w>
O EC
t ari
Uz be
e u
A P
divi ded</w>
adv ances</w>
environ mentally</w>
9 63</w>
di am
su ffer</w>
di vision</w>
com man
E mer
W ater</w>
trans action</w>
mat ely</w>
compl ex
per taining</w>
norm ally</w>
Rom ania</w>
wast es</w>
e di
ben ch
ro ll</w>
reflec ting</w>
st ock
F as
i k
pos ite</w>
b rain</w>
Environ mental</w>
contin ent</w>
ag ent</w>
Inter governmental</w>
Ch ris
bl ue</w>
fas hi
clo th
St ud
N ar
atmo sphere</w>
incenti ves</w>
v ast</w>
H ou
tr ic</w>
i ding</w>
strugg le</w>
tre es</w>
si bly</w>
investig ated</w>
T his</w>
se ized</w>
instruc tions</w>
li ties</w>
a qu
prospec ts</w>
mo tion</w>
H o
ro p
Y outh</w>
ban king</w>
ra id</w>
ori th
under lying</w>
collec t</w>
le ts</w>
0 0
Advis er</w>
n ings</w>
concep ts</w>
terror ists</w>
contrac tual</w>
coher ent</w>
Boli via</w>
dimen sions</w>
seas on</w>
questi onn
small er</w>
renew able</w>
organiz ing</w>
electr ic</w>
B iss
ri ties</w>
ri d</w>
t ude</w>
Salv ador</w>
S T</w>
pr ud
facil itation</w>
shap e</w>
distin ction</w>
wh en
m ir
C lo
tain ment</w>
r or</w>
parall el</w>
genu ine</w>
necess ity</w>
Inv estig
ge ts</w>
incur red</w>
Biss au</w>
F or</w>
lim itations</w>
negoti ating</w>
pursu ed</w>
Rac ial</w>
m el
bran ch</w>
ei ved</w>
as sembly</w>
rati on
s car
provin ces</w>
w ear</w>
see ing</w>
supple mentary</w>
dau ghter</w>
tex ts</w>
parlia mentary</w>
C C</w>
provi ders</w>
dis mis
in puts</w>
cam p</w>
Assess ment</w>
Leg isl
Q atar</w>
def ici
G i
graph y</w>
lic en
Mau riti
ur ch</w>
u tr
Cha p
dimen sion</w>
unfortun ately</w>
sub paragraph</w>
S I
bi an</w>
not ably</w>
com modi
pat ro
Su b</w>
reg ret
conf ig
mer ely</w>
Six th</w>
ti vation</w>
N am</w>
necess arily</w>
Tai wan</w>
Mauriti us</w>
hol id
defin i
mon etary</w>
en a</w>
restruc turing</w>
v able</w>
Head s</w>
expec tations</w>
t wel
h ence</w>
an cies</w>
C enter</w>
when ever</w>
st ur
ori entation</w>
a us
dri ving</w>
ev ening</w>
introduc ing</w>
earth qu
ric h
c oura
1 50</w>
def enders</w>
UNA M
OEC D</w>
pos ing</w>
v eg
g ently</w>
inju red</w>
cy cl
Slo v
z a</w>
war m</w>
rati fy</w>
ab st
Camero on</w>
objec tion</w>
IN </w>
respec ted</w>
thous and</w>
Ob ama</w>
cont acts</w>
after noon</w>
Constitu tional</w>
Ac ting</w>
sph er
res or
ep idem
ses sional</w>
in equality</w>
remo ved</w>
difficul ty</w>
compati ble</w>
in tim
sha res</w>
ref used</w>
n y</w>
prior iti
b a</w>
fav ourable</w>
commodi ties</w>
regi ster</w>
u c
all s</w>
lia ison</w>
a ks</w>
moder n
accid ent</w>
dis charge</w>
wit ness</w>
incorpor ate</w>
Commun ications</w>
sum mit</w>
ad ults</w>
harmon ization</w>
M ain
mat ch</w>
accommod ation</w>
ou ldn</w>
b ar</w>
v ent</w>
repl ies</w>
stand ardi
law yer</w>
B ulg
po ol</w>
am munition</w>
man datory</w>
Ro ad</w>
Coun ter</w>
pass eng
est ation</w>
acceler ate</w>
anim al</w>
issu ance</w>
attribu table</w>
Tra fficking</w>
pu tting</w>
j i</w>
fall ing</w>
Ta ji
emphasiz e</w>
F CCC</w>
ef s</w>
IP SAS</w>
ti me
fam ous</w>
Employ ment</w>
re vi
Inspec tion</w>
R ob
ell s</w>
tw ice</w>
t ty</w>
con du
rel ates</w>
sol d</w>
L im
de emed</w>
bro ken</w>
Tran si
pati ent</w>
D avi
z h
hun dre
refer ences</w>
F .</w>
up gra
enti eth</w>
pro vince</w>
compul sory</w>
speak er</w>
ht t
admis sible</w>
happ en</w>
cloth es</w>
exc essive</w>
e ast</w>
invol ves</w>
indic ator</w>
de tection</w>
St re
macro economic</w>
col le
big gest</w>
alg orith
g er
v otes</w>
acc red
trans formation</w>
r ic</w>
in ated</w>
or e</w>
Transi tional</w>
im migration</w>
hel ps</w>
Y emen</w>
Hung ary</w>
6 th</w>
ne utr
acqui red</w>
sh ot</w>
Guid elines</w>
or dered</w>
mu tually</w>
p tions</w>
Ar my</w>
satisfac tory</w>
a part</w>
pregn ancy</w>
certif icate</w>
gain ed</w>
hol e</w>
co al</w>
gen cies</w>
where as</w>
ful fil
Gre ek</w>
v als</w>
clin ical</w>
Nicaragu a</w>
measu rement</w>
meaning ful</w>
ar y
as n</w>
oc curr
citiz en</w>
fra ud</w>
Gu ide</w>
propor tion
in ser
fe ature</w>
v el</w>
dis aggreg
sor t</w>
obser ve</w>
trac ted</w>
Mo z
Streng th
resi stance</w>
d ating</w>
Buil ding</w>
be ings</w>
opini ons</w>
e fin
R ad
g ies</w>
ex clusion</w>
ro ads</w>
if e</w>
oo d
it ly</w>
even tually</w>
clear ance</w>
tru ly</w>
Ombuds man</w>
re marks</w>
Corr .1</w>
cou ple</w>
el derly</w>
S an</w>
UN I
mo de</w>
obser v
formul ate</w>
fam ili
deser tification</w>
ex changes</w>
0 9</w>
B ran
liter acy</w>
ous ness</w>
k illing</w>
Jama ica</w>
t ac
care ful</w>
certain ty</w>
s mu
S S</w>
gl ass</w>
y l</w>
tur ning</w>
FD I</w>
wi </w>
ES C
fre ely</w>
plo y</w>
v it
C ER
efin gs</w>
t el</w>
Trans port</w>
consum ers</w>
compris ing</w>
mom ent
x enophobia</w>
re placement</w>
D u
servic ing</w>
mo bility</w>
Mon tre
S aint</w>
inter ference</w>
pregn ant</w>
ov a</w>
Vi et</w>
p ra
D an
Ad v
depri ved</w>
inv asion</w>
su m</w>
k ind
ar ise</w>
un to</w>
Pen al</w>
declar ations</w>
anci ent</w>
htt p</w>
sim pl
pre ce
bu re
ad ian</w>
ab </w>
priv ileg
reduc tions</w>
commun ic
d ad</w>
N LB</w>
cl ient</w>
sign s</w>
mobil ize</w>
loc k</w>
F u
ur ation</w>
persist ent</w>
Or din
Mongol ia</w>
S A</w>
T w
Th at</w>
L est
extr a</w>
B an</w>
dr ink</w>
her itage</w>
C ross</w>
comb at
He ad</w>
H .
per mitted</w>
en orm
Invest ment</w>
UNA MI
provin cial</w>
Dis abilities</w>
D omin
CA T</w>
s ac
5 ,000</w>
quanti ty</w>
show ing</w>
land locked</w>
L ocal</w>
or e
A D
rev it
Uzbe kistan</w>
bri efings</w>
propos e</w>
know s</w>
trou ble</w>
log istics</w>
as sume</w>
pre jud
dis h</w>
Ch ri
them es</w>
ul sion</w>
de pending</w>
pl ate</w>
cul tures</w>
ear ing</w>
af raid</w>
E CO
termin ation</w>
hospit als</w>
B ill</w>
fe ed
Montre al</w>
wat ers</w>
dissemin ate</w>
cen ter</w>
c ular</w>
h at
W el
S ession</w>
val ence</w>
Chap ter</w>
expe di
I T</w>
techni que</w>
co tic</w>
t elecommun
di verse</w>
se at</w>
inter active</w>
B al
occup ying</w>
rein for
Slo ven
admis sibility</w>
tor ies</w>
appropri ation</w>
hot el</w>
fall s</w>
e ase</w>
hundre ds</w>
cl ients</w>
happ iness</w>
gre en
T ER
vill ages</w>
el se
Me a
secu red</w>
lo an</w>
Ordin ance</w>
la stly</w>
manufac ture</w>
attit ude</w>
citiz enship</w>
ing ness</w>
bur g</w>
i o
poli tics</w>
benefici aries</w>
sponsor ed</w>
for get</w>
suffici ently</w>
ligh tly</w>
min or</w>
ill ance</w>
bre ach</w>
bl ing</w>
Ou ter</w>
Dr .</w>
stric tly</w>
plan e</w>
An ti</w>
di stur
m outh</w>
co ff
k ina</w>
ulti mately</w>
inten sive</w>
G A
a h
am i
se ats</w>
u an</w>
sec t</w>
id a</w>
Americ ans</w>
clari fication</w>
consequ ence</w>
M ONU
n ice</w>
accompl ishments</w>
gen ocide</w>
condu cive</w>
Davi d</w>
decre ased</w>
fa il</w>
Indu strial</w>
Z ambia</w>
pris ons</w>
or ally</w>
en shr
commer ce</w>
ab uses</w>
min ute</w>
ma d</w>
attit udes</w>
Li b
Pro tocols</w>
Mon ten
consist ently</w>
Bas el</w>
egr o</w>
ric e</w>
as sumed</w>
Z im
g ment</w>
Con tin
vo y</w>
pay ing</w>
5 th</w>
will ingness</w>
met al</w>
else where</w>
lea ves</w>
O ut
Pro vince</w>
sign al</w>
deleg ates</w>
log is
pos session</w>
pos es</w>
lab or</w>
organ ic</w>
E ffec
as pir
Bur kina</w>
there of</w>
por tion</w>
targe ting</w>
no tic
plac ing</w>
ti vities</w>
er ial</w>
appreci ate</w>
IM F</w>
appoint ments</w>
Issu es</w>
St ri
juven ile</w>
foc uses</w>
Fas o</w>
preser ve</w>
ad ult</w>
add endum</w>
descri be</w>
m al</w>
UNIF IL</w>
OD A</w>
m assive</w>
convic tion</w>
M i
sal aries</w>
sol ven
analy ses</w>
scen ari
sent enced</w>
han dle</w>
sur pris
our selves</w>
oc ean</w>
moun tain</w>
cont am
ho sted</w>
sp ac
tri als</w>
Dru g</w>
direc tor</w>
absolu te</w>
suspec ted</w>
is ite</w>
d im
poli tici
stres sing</w>
Est abl
radi ation</w>
under scor
enti rely</w>
p ages</w>
ou ght</w>
k ill</w>
candi date</w>
air port</w>
im ports</w>
Ky r
ca using</w>
assign ment</w>
competi tiveness</w>
tre at</w>
ari </w>
m as</w>
Proc urement</w>
inter esting</w>
199 0s</w>
prejud ice</w>
sum ption</w>
compl ement</w>
simul tan
fulfil ment</w>
ca su
uni ons</w>
d rought</w>
utiliz ed</w>
reve aled</w>
elimin ating</w>
198 6</w>
repe ated</w>
m ol
Kyr gy
l un
logis tical</w>
M ain</w>
0 8</w>
al ian</w>
Lest e</w>
pre fer
1 .</w>
medi ation</w>
fa x</w>
behavi or</w>
obvi ous</w>
A n</w>
am p</w>
satis fied</w>
dis advant
conven ing</w>
an i</w>
ro oms</w>
elabor ation</w>
E D</w>
f ro
b ic</w>
dis par
contra st</w>
con vers
gener ations</w>
cho sen</w>
mil iti
pres sed</w>
Ba h
gh t
ph ra
at or
Develop ed</w>
A .
ag er</w>
credi bility</w>
li brary</w>
Cor ruption</w>
liber alization</w>
ol ing</w>
y ou
nam ed</w>
measu red</w>
ak ia</w>
10 1</w>
og o</w>
enhan cement</w>
An aly
err or</w>
stan tly</w>
Comp any</w>
p al
ic itly</w>
J our
ow ed</w>
tion ers</w>
0 7</w>
su it</w>
prosper ity</w>
end ar</w>
addres ses</w>
duc t</w>
st y</w>
li ke
Dec ree</w>
ri d
Ri ver</w>
E valuation</w>
survi val</w>
over seas</w>
Zim bab
I l
combat ants</w>
memor andum</w>
see kers</w>
ur o</w>
ber ed</w>
pro te
C a
Cy pri
intensi fy</w>
Appe als</w>
disaggreg ated</w>
Ar ms</w>
shel ter</w>
employ ee</w>
gran d
P R</w>
b its</w>
si ster</w>
dec ent</w>
C al
re mun
Clo sed</w>
m m</w>
consul t</w>
sent ences</w>
serv ants</w>
grow n</w>
Taji kistan</w>
Kor ean</w>
compar ative</w>
Rel ations</w>
D F</w>
cat aly
it ative</w>
cha ir</w>
L og
Mig ration</w>
z en</w>
cru el</w>
integr ating</w>
ef ire</w>
A rea</w>
coun selling</w>
chann els</w>
F ol
expen sive</w>
Emer gency</w>
S ar
foo t</w>
re sta
pl ed</w>
W G
c asting</w>
proce eds</w>
w ages</w>
contrac tors</w>
clari fy</w>
v acc
gh ly</w>
cha ired</w>
exp ulsion</w>
o a</w>
0 6</w>
di vor
i ally</w>
UNIF EM</w>
RI GH
prosecu tors</w>
gr y</w>
S ee</w>
Stre et</w>
enabl ed</w>
appro ve</w>
fru it</w>
Sloven ia</w>
L and</w>
resta ur
la h</w>
Bulg aria</w>
s ear
conf isc
0 3</w>
ć </w>
A L
susp en
dec lined</w>
Stand ards</w>
indic ating</w>
Monten egro</w>
be sides</w>
system atically</w>
threat ened</w>
Le ast</w>
calcul ated</w>
Moz ambi
re pair</w>
bo at</w>
H y
refer ring</w>
ti le</w>
man ual</w>
class es</w>
U r
Direc torate</w>
rec all</w>
histor ic</w>
ass es</w>
ac t
fir mly</w>
reti rement</w>
regim es</w>
penal ties</w>
om a</w>
Sahar a</w>
Mozambi que</w>
lead s</w>
argu ment</w>
emphasiz ing</w>
rein force</w>
h oods</w>
cat ch</w>
play ers</w>
surve illance</w>
mer its</w>
stop ped</w>
ex posed</w>
budge ting</w>
re fra
prof ile</w>
presid ency</w>
sugg estion</w>
an der</w>
mal aria</w>
emer gencies</w>
tan gible</w>
s pl
in habit
de posi
p are
ob taining</w>
easi er</w>
cer em
Cor por
adoles cents</w>
d um
Set tlements</w>
MONU C</w>
PA D</w>
fin ished</w>
f ounded</w>
re action</w>
im pose</w>
sy ner
siz ed</w>
super vis
progres sive</w>
disadvant aged</w>
sist ence</w>
Ara bic</w>
k y</w>
prom pt</w>
ow ners</w>
US D</w>
subsi dies</w>
sol e</w>
Fac ility</w>
Bran ch</w>
y o</w>
complex ity</w>
occa sions</w>
in o</w>
in quiry</w>
cha p</w>
tax es</w>
s wit
S em
T here</w>
P ris
ali tion</w>
G ol
her self</w>
Stri p</w>
Inter im</w>
M c
pr er
w ing</w>
off set</w>
under lined</w>
tri p</w>
tw entieth</w>
si r</w>
lo ts</w>
wat er
ren der</w>
du rable</w>
incid ence</w>
concer ted</w>
dis closure</w>
fin ed</w>
convic ted</w>
there to</w>
dead line</w>
vi sible</w>
w inter</w>
contem porary</w>
there in</w>
si ting</w>
ren dered</w>
g ar</w>
earthqu ake</w>
1 10</w>
like wise</w>
architec ture</w>
P u
Cust oms</w>
mo on</w>
Zimbab we</w>
real istic</w>
en counter
claim ant</w>
scen e</w>
Wh en</w>
restor e</w>
Al liance</w>
prescri bed</w>
pr int</w>
bl ock</w>
w are</w>
Sec tor</w>
under mine</w>
di an</w>
del ayed</w>
in human</w>
ev olution</w>
is sile</w>
u red</w>
Au dit</w>
spar e</w>
imper ative</w>
en comp
re par
moment um</w>
comple mentary</w>
Ac tivities</w>
a side</w>
y ang</w>
s at</w>
sa ving</w>
pl ement</w>
Organiz ed</w>
character ized</w>
ro te</w>
pare dness</w>
initi ally</w>
J i
main stream</w>
per si
b id
s s
il ian</w>
f ound
reiter ate</w>
method ologies</w>
d am</w>
employ er</w>
f ab
han g</w>
g a</w>
predic table</w>
exac tly</w>
rup t</w>
V .
CON F.
S w
B l
ic op
NE PAD</w>
v is</w>
ar ding</w>
C la
w ron
inter view</w>
fi red</w>
Rep ubl
Wor k</w>
in et</w>
vess els</w>
H. E.</w>
de priv
Represent atives</w>
B ro
fac to</w>
den ly</w>
monit ored</w>
G ran
justi fied</w>
I R
10 2</w>
P ap
Dec i
concentr ation</w>
de ple
cal endar</w>
solven cy</w>
O ff
enti ally</w>
applic ant</w>
Rec om
Ben in</w>
fea sible</w>
consist ency</w>
Comb at</w>
12 4
ter re
recru ited</w>
if ications</w>
accoun ted</w>
stri ke</w>
on wealth</w>
Ar bit
in security</w>
mini sters</w>
Li thu
y n
suppli ers</w>
o sis</w>
tou ch</w>
br ings</w>
k id
cir cl
enorm ous</w>
preven ted</w>
admini stered</w>
du ly</w>
L at
present ations</w>
out line</w>
certi fication</w>
movi e</w>
enshr ined</w>
y e</w>
I .
zer o</w>
J </w>
analy zed</w>
acqu ire</w>
repe at
re pu
regul ated</w>
Strength ening</w>
feed back</w>
dis pens
in ks</w>
ye ah</w>
sud denly</w>
f ew
entr usted</w>
lan tic</w>
198 0</w>
E L
promp tly</w>
Chem ical</w>
there on</w>
poten tially</w>
in ations</w>
ter ri
mo tiv
ser ves</w>
l im</w>
Educ ational</w>
fil es</w>
pi ec
At omic</w>
tri bunal</w>
la yer</w>
19 67</w>
Rel i
s or</w>
w rote</w>
Syri a</w>
Inter ior</w>
at ories</w>
b ac
Offic ial</w>
excep tional</w>
f ly</w>
degra ding</w>
gran ting</w>
k ill
susp ended</w>
corpor ations</w>
Sur vey</w>
S O</w>
mi xed</w>
reimbur sement</w>
mess ages</w>
safegu ard</w>
l ad
exc eed</w>
din ner</w>
chec k
ad ding</w>
pro tocols</w>
analy se</w>
ten ed</w>
wor se</w>
ver i
sub stitu
ce ase</w>
mar k
7 th</w>
c ards</w>
st ar</w>
sub region</w>
Li brary</w>
with standing</w>
high light</w>
algorith m</w>
T o
di ver
T est</w>
M .</w>
cou ldn</w>
emer ged</w>
author ization</w>
2 6
ac ute</w>
Oc ean</w>
agu es</w>
infec tion</w>
Econ om
curricul um</w>
ven d
coff ee</w>
2 50</w>
the tic</w>
s lightly</w>
doc tors</w>
cau ght</w>
retur ns</w>
Lib ya</w>
row ing</w>
modi fied</w>
Comm onwealth</w>
desi rable</w>
heav ily</w>
B ush</w>
consolid ate</w>
reaffir m</w>
men ting</w>
ap point</w>
docu mented</w>
gra ss</w>
deposi t</w>
ch lor
stipul ated</w>
dro pped</w>
inhabit ants</w>
198 7</w>
pres sing</w>
124 ;</w>
&# 124;</w>
Ri ght</w>
gener ating</w>
repl ied</w>
ce as
s port</w>
hel icop
S chem
Austr alian</w>
reg rets</w>
un lawful</w>
aus p
il ed</w>
Chri st
n avi
Pan ama</w>
credi ble</w>
suspen sion</w>
depriv ation</w>
few er</w>
ac i
erad icate</w>
phil os
pre valence</w>
subm its</w>
0 00</w>
wor st</w>
flow ers</w>
fal se</w>
ge o
est ate</w>
eth ics</w>
confir m</w>
pos sibly</w>
ac id</w>
RIGH TS</w>
contrac ting</w>
The ir</w>
H K
vol ati
gn ed</w>
E AN</w>
substan tially</w>
neg lec
ten sions</w>
s ick</w>
green house</w>
main tains</w>
con tain
H igh
tack le</w>
is ations</w>
ausp ices</w>
vir tu
pre tty</w>
adjust ed</w>
inten ds</w>
Slov akia</w>
particip atory</w>
w is
eng aging</w>
Pro per
ic ates</w>
I D</w>
it t
atten dance</w>
N ami
re tain</w>
SA R</w>
sever ely</w>
wa ve</w>
as king</w>
cl ock</w>
Consul tative</w>
A ir</w>
# </w>
10 3</w>
vi able</w>
be t</w>
occup ational</w>
em ission</w>
8 th</w>
restor ation</w>
ex clu
c ope</w>
D urban</w>
secu rities</w>
lim itation</w>
g ot
V ir
sur ances</w>
M ag
no ise</w>
fav or
re tained</w>
1. 2</w>
pursu it</w>
n om
experi ment</w>
CN. 9</w>
th ou</w>
198 5</w>
initi ate</w>
smoo th</w>
part ly</w>
encounter ed</w>
I ran
commun icate</w>
Can adian</w>
S U
con version</w>
eng ine</w>
Bi ological</w>
un anim
bor ne</w>
spec tr
mater nity</w>
enjo yed</w>
UNMI K</w>
g un
attr act</w>
tim ate</w>
destin ation</w>
Offic ers</w>
prom in
mur der</w>
du </w>
th ro
car s</w>
ri f
M old
0 2</w>
C F
H R
mea suring</w>
S hi
pos sibilities</w>
sit ting</w>
re vis
di um</w>
de als</w>
sur g
ar a</w>
G M</w>
il es</w>
1 11</w>
gene tic</w>
w ishing</w>
M ulti
ar chi
compu ters</w>
sam ple</w>
exist ed</w>
im ages</w>
ic ide</w>
questionn aire</w>
Z </w>
par ent</w>
mil k</w>
al co
Mea sures</w>
fashi on</w>
immun ity</w>
exclud ed</w>
Alban ia</w>
un d
ro ots</w>
Pen sion</w>
co er
prev ailing</w>
grati tude</w>
Organiz ations</w>
IC T
UNAMI D</w>
ri ya</w>
indirec t</w>
dis play</w>
y cl
en der</w>
re p
conven e</w>
eco system</w>
slow ly</w>
A ir
eco systems</w>
Ma j
Cub an</w>
Ac adem
stric ts</w>
fore ig
perform ing</w>
U K</w>
L A</w>
thor ough</w>
stat ute</w>
hol m</w>
Sahar an</w>
ro ck</w>
te a</w>
Prof essor</w>
transl ated</w>
ple asure</w>
expl icitly</w>
spo t</w>
Pro hibition</w>
uni form</w>
P C</w>
A h
sh oo
exerc ises</w>
ul timate</w>
in ev
not withstanding</w>
p ick</w>
Legisl ative</w>
a e</w>
miti gate</w>
pursu ing</w>
bou ght</w>
parti ally</w>
AS EAN</w>
d ite</w>
awar ded</w>
secon dly</w>
ru b
inv al
sh oul
affec ts</w>
discrimin ate</w>
answ ered</w>
reco ver
establish es</w>
f at</w>
ir on</w>
P over
ut ory</w>
advis ers</w>
ab inet</w>
f lic
T om</w>
separ ately</w>
10 4</w>
ha ven</w>
Pover ty</w>
LA C</w>
stud ying</w>
ur gently</w>
Elec toral</w>
e ously</w>
benef ited</w>
D E
beau ty</w>
fl ag
dis covered</w>
testi mon
resi li
discipl ine</w>
prosecu te</w>
sp ite</w>
reg ret</w>
T R
G ames</w>
Stock holm</w>
han ded</w>
appear ances</w>
MIN UR
z y</w>
c in
perspec tives</w>
work load</w>
c ue</w>
defini tions</w>
acces sibility</w>
du plication</w>
exc ess</w>
Fac il
as surances</w>
Secret ary
op posed</w>
classi fied</w>
g ers</w>
enrol ment</w>
consi sting</w>
ha m</w>
appreci ated</w>
B ang
scre en</w>
fe e</w>
avi ation</w>
Statis tical</w>
Jour nal</w>
gather ing</w>
compil ation</w>
repeat edly</w>
defin ing</w>
10 8</w>
chann el</w>
fin alized</w>
ling u
bi ting</w>
ord in
inju ries</w>
Coun try</w>
pre paredness</w>
hel p
e ating</w>
vi siting</w>
work place</w>
prof its</w>
re stra
1 .1</w>
wron g
app rais
Trans national</w>
ID B.
10 6</w>
t ant</w>
C op
2 ,000</w>
frequ ent</w>
Bu t</w>
observ ance</w>
f our
ush ed</w>
municip alities</w>
spo kes
trac king</w>
fac tory</w>
the ore
Log istics</w>
ul l</w>
Govern mental</w>
coordin ator</w>
read iness</w>
subm itting</w>
form ally</w>
2 3
Ali gned</w>
Em ir
up per</w>
cre ative</w>
Po st</w>
six tieth</w>
ri g
Sen ior</w>
l ong
Pun ishment</w>
cri tic
ass a
Dra ft</w>
fea sibility</w>
s co
rul ing</w>
dra fted</w>
Som ali</w>
Mus lim</w>
work er</w>
St u
ter ed</w>
summar ized</w>
mar t</w>
where by</w>
ow ner</w>
i th
confid ent</w>
eful ly</w>
telecommun ications</w>
produc ers</w>
Wor k
I U</w>
gradu ate</w>
di tional</w>
ev </w>
dis appearance</w>
ta st
ai res</w>
M y</w>
Jama hi
ic ious</w>
coll ap
selec t</w>
iz ations</w>
per mits</w>
porte urs</w>
benef icial</w>
ok ay</w>
def end
minim ize</w>
O n
autom atic</w>
adap t</w>
Lithu ania</w>
Jamahi riya</w>
Hon dur
ur gency</w>
a wi</w>
in equ
com prises</w>
juris dic
our g</w>
comm emor
EC A</w>
remun eration</w>
margin alized</w>
u ght</w>
p ping</w>
Dis aster</w>
Col lege</w>
accur acy</w>
Rec or
am p
distinc t</w>
Administr ator</w>
Schem e</w>
9 th</w>
th res
k an</w>
Sup plement</w>
198 2</w>
constitu tion</w>
Mold ova</w>
guil ty</w>
manif est
ide al</w>
our se</w>
prin ting</w>
ex hi
Mac edonia</w>
affor d</w>
Secretary General</w>
MIN US
ven ture</w>
bran ches</w>
Eng land</w>
ke t
b right</w>
consider ably</w>
us al</w>
g ames</w>
cro ps</w>
gui ding</w>
Reli ef</w>
13 73</w>
ec ological</w>
autonom ous</w>
calcul ation</w>
as surance</w>
k i</w>
re sume</w>
en force</w>
tin y</w>
refra in</w>
ste ady</w>
j um
ex clusive</w>
y uan</w>
di stricts</w>
inf r
Mal ta</w>
gather ed</w>
U .</w>
in s
t ar</w>
all ing</w>
extra ordinary</w>
surr ounding</w>
ran ging</w>
G .</w>
con stantly</w>
preser vation</w>
hor iz
com promise</w>
im partial</w>
1 12</w>
w ine</w>
negoti ated</w>
muni tions</w>
budge ted</w>
public ly</w>
Pri v
mis s</w>
mi x
gre w</w>
Emir ates</w>
amen d</w>
dri ver</w>
syner gies</w>
W ith</w>
evid ent</w>
colle agues</w>
w ind
gu y</w>
pr o</w>
vi gor
sou l</w>
Stud y</w>
contribu tes</w>
install ation</w>
ab a</w>
at al</w>
lo g</w>
liqu id</w>
fo stering</w>
Nami bia</w>
Di alogue</w>
M er
red ress</w>
wa ke</w>
bo ss</w>
appar ent</w>
en sured</w>
f th</w>
prom otes</w>
Sun day</w>
cred entials</w>
capit a</w>
wor thy</w>
ran ean</w>
es cal
sub sistence</w>
E d
diagno sis</w>
le ase</w>
ven ue</w>
sur plus</w>
Par agu
1 30</w>
0 4</w>
stra ight</w>
peti tion</w>
hosti lities</w>
laun ching</w>
dec l
c ited</w>
O C</w>
um ber</w>
ra il
d res
G ar
10 7</w>
G ab
sh op
en g</w>
an o</w>
on to</w>
y m
ne es</w>
Iran ian</w>
liter ature</w>
h an</w>
Adv anc
continu ity</w>
prec ise</w>
volun te
u a</w>
in dispens
d ress</w>
F ur
f ate</w>
min ors</w>
piec es</w>
Volun teers</w>
id ated</w>
Res olution</w>
mag az
typ ically</w>
ind ication</w>
found ations</w>
d an</w>
Con tracting</w>
a sur
Advanc ement</w>
er b
UNMI L</w>
WA S</w>
abor tion</w>
wit n
vis itors</w>
ograph y</w>
EC E</w>
ed y</w>
X i
Ac c
ac ity</w>
port fol
K ing</w>
ag eing</w>
in stability</w>
oblig ed</w>
Christ mas</w>
UN IT
N A</w>
un preced
Proper ty</w>
ha el</w>
et res</w>
G ra
set tled</w>
inter medi
econom ically</w>
radi o
2 .1</w>
inno cent</w>
Pr in
famili ar</w>
ten d
origin ally</w>
1 15</w>
g lo
tu s</w>
Hou sing</w>
retur ning</w>
th r
refer endum</w>
indispens able</w>
don t</w>
gar den</w>
pe tro
shar p</w>
C T</w>
on e
Bas ic</w>
affor dable</w>
Recom mend
newsp aper</w>
g ent
coura ge</w>
sk illed</w>
inv est</w>
w asn</w>
advanc ing</w>
en acted</w>
ad vised</w>
Med iter
exclu sively</w>
contrac tor</w>
bus y</w>
vir us</w>
dev ast
with draw</w>
Domin ican</w>
equip ped</w>
separ ated</w>
pled ges</w>
fulf illing</w>
Or der</w>
unpreced ented</w>
ceas efire</w>
manufac tur
in duc
philos oph
fi able</w>
IC A
tra in
por no
dim in
ev ac
UND CP</w>
I cel
smu ggling</w>
B ot
tem por
Ital ian</w>
car go</w>
Mediter ranean</w>
f aster</w>
prohi bit</w>
all ed</w>
ist er</w>
character istic</w>
it ch
in struction</w>
prom ised</w>
ag as
argu ed</w>
acc o</w>
substan ti
child hood</w>
a .
co des</w>
mis sile</w>
el low</w>
D om
H all</w>
ste in</w>
exten ding</w>
ig ned</w>
descri bes</w>
help ful</w>
su peri
resor t</w>
up dating</w>
stor ies</w>
Yugosla v</w>
fl ying</w>
hur t</w>
l ut
D ji
wel l
br and</w>
UNO CI</w>
En ter
ra w</w>
cl am
ob acco</w>
reven ues</w>
Docu ment</w>
L t
pill ars</w>
sol ely</w>
endeav our</w>
electr ical</w>
des k</w>
ill a</w>
Ku wa
prud ence</w>
fire arms</w>
formul ating</w>
pass ing</w>
m ates</w>
experi mental</w>
sust ain</w>
sub scri
1 14</w>
decl are</w>
gra v
For mer</w>
curricul a</w>
Wel fare</w>
nit ure</w>
prece ding</w>
I R</w>
ship ment</w>
dem ographic</w>
B on
B C</w>
policy makers</w>
poor est</w>
oper ated</w>
chron ic</w>
b ent</w>
stake holder</w>
perc eived</w>
in jec
ash ed</w>
1 16</w>
H ague</w>
arri val</w>
til ity</w>
organ isations</w>
ECO WAS</w>
ke y
feel ings</w>
S he
Hondur as</w>
rel atives</w>
fe eding</w>
def ec
un known</w>
addi tionally</w>
as sure</w>
an x
E th
un certainty</w>
or ph
fu n</w>
en rich
in tr
norm ative</w>
r ental</w>
design ing</w>
G S</w>
M AN</w>
G ul
confid ential</w>
sh ad
as sem
l isting</w>
ci a</w>
Kyrgy z
ff s</w>
l t;</w>
& lt;</w>
differ enti
audi ence</w>
al ties</w>
sp ati
k ok</w>
lo ved</w>
exac erb
w ouldn</w>
T ali
Je sus</w>
gu ard</w>
En voy</w>
advis e</w>
M ay
labor atory</w>
An nu
execu ted</w>
Kyrgyz stan</w>
Res ource</w>
resol ving</w>
Mon etary</w>
accid ents</w>
rob ust</w>
ess entially</w>
poin ting</w>
ic h
d ens
At lantic</w>
Ma ur
autonom y</w>
In dependence</w>
Par ti
log ical</w>
regi stry</w>
acc ru
Analy sis</w>
C P.
H ow</w>
Lat via</w>
Dji bou
alloc ate</w>
Indu stry</w>
remin ded</w>
om etres</w>
f issile</w>
u l</w>
adher ence</w>
compl icated</w>
recip ient</w>
l in</w>
Con tr
val idity</w>
dam aged</w>
c tu
D eg
res et
fe ed</w>
L i</w>
R ef
Tri al</w>
pu s</w>
we d
legitim acy</w>
Rec on
wor ry</w>
dec olonization</w>
autom atically</w>
N at
w a</w>
1. 5</w>
1 13</w>
kil ometres</w>
succ eed</w>
prof ound</w>
week ly</w>
mil es</w>
upgra ding</w>
g am
ac knowledge</w>
v a</w>
ad mission</w>
Ap pro
pun ished</w>
inter face</w>
ed ge</w>
ep ing</w>
g ro
fu sion</w>
shor e</w>
a po
e able</w>
high lights</w>
Bah rain</w>
Annu al</w>
cerem ony</w>
Elec tr
inf ant</w>
， </w>
ret ro
me at</w>
config uration</w>
geograph ic</w>
ter ly</w>
speci fy</w>
Sw iss</w>
OS CE</w>
p ush</w>
oc eans</w>
glob ally</w>
ph ases</w>
depar ture</w>
G EN
elabor ate</w>
far m</w>
per mission</w>
ear nings</w>
y st
nat ur
every body</w>
Paragu ay</w>
dam ages</w>
UNC CD</w>
A bu
es cape</w>
condem ned</w>
s ons</w>
p rou
di ff
ag en</w>
Cap ital</w>
mini ster</w>
pl astic</w>
propos es</w>
Tali ban</w>
Lu x
tra ffic
Mic hael</w>
cir cu
certif icates</w>
sol ar</w>
inher ent</w>
re mark
eth eless</w>
def icit</w>
C re
qual ifications</w>
bro ke</w>
L ist</w>
G E
En han
batt le</w>
Ha iti
non etheless</w>
apprais al</w>
sim ulation</w>
Con flic
de gre
formul a</w>
P at
perio dic
bu yer</w>
fur niture</w>
M S</w>
ut most</w>
Sat ur
L o
off enders</w>
col our</w>
k o</w>
effici ently</w>
g la
yi eld</w>
regul ate</w>
Appe al</w>
A t</w>
smil e</w>
e z</w>
nar row</w>
Bang kok</w>
continu ously</w>
mb ers</w>
epidem ic</w>
me th
Des er
acknowled ging</w>
pl ing</w>
har dly</w>
stereotyp es</w>
o zone</w>
stat utory</w>
h ate</w>
se iz
govern ed</w>
Nig er</w>
compar able</w>
TA R</w>
sec uring</w>
N i
li ft</w>
ari ties</w>
ali enable</w>
Presid ents</w>
C ru
priv acy</w>
X I</w>
thou ghts</w>
ini </w>
ad mitted</w>
is lands</w>
ben e
ati zation</w>
diversi fication</w>
bas eline</w>
aspir ations</w>
liveli hoods</w>
fore stry</w>
obvi ously</w>
re deployment</w>
Med ical</w>
P a
Kuwa iti</w>
cho ices</w>
fur n
wh el
pled ged</w>
sen ding</w>
net working</w>
environ ments</w>
collabor ative</w>
Res er
til ation</w>
en sures</w>
ste ad
ME s</w>
it ate</w>
tic es</w>
1 18</w>
MI S</w>
collec ting</w>
fulf illed</w>
L aw
suppor tive</w>
B h
B ag
um bered</w>
. 3</w>
man kind</w>
fall en</w>
ver ify</w>
bo l</w>
t une</w>
ó n</w>
2. 2</w>
r are</w>
br is</w>
ac </w>
J IU</w>
str ar</w>
consci ous</w>
degre es</w>
fi </w>
clo thing</w>
Fol low</w>
c as
resid ential</w>
b o</w>
sk ill</w>
sup posed</w>
exam ining</w>
dimen sional</w>
pay able</w>
it ement</w>
typ ical</w>
datab ases</w>
un employed</w>
execu tions</w>
Djibou ti</w>
veg e
assum ption</w>
Institu tions</w>
rou te</w>
pre fer</w>
comm only</w>
Est onia</w>
fin ish</w>
inter views</w>
jud gment</w>
Wh ite</w>
m ere</w>
succ ee
P i
T D</w>
are n</w>
OR D</w>
de pu
ill ness</w>
cul tivation</w>
argu ments</w>
survi v
wal ked</w>
therap y</w>
app ed</w>
M ary</w>
reinfor cing</w>
occur s</w>
N ote</w>
annex es</w>
proce eding</w>
post pon
abst en
cor respond
pr on
1 22</w>
holid ay</w>
au g
investig ating</w>
ho l</w>
gi ft</w>
dem ar
bir th
10 0,000</w>
sel s</w>
proc essed</w>
bir d</w>
ber y</w>
challeng ing</w>
Fi ji</w>
b ag
vis ual</w>
har v
b i</w>
k ids</w>
hor se</w>
e uro
prom ulg
f ron
Prin cip
associ ate</w>
def end</w>
ac tor</w>
R A</w>
spati al</w>
st ret
Rw and
in cum
reflec tion</w>
Lux emb
tow ns</w>
2. 5</w>
Parti cip
in al</w>
s si
plan et</w>
en sive</w>
d or
Wor kers</w>
run s</w>
qui ries</w>
fair ly</w>
a sts</w>
1 17</w>
control ling</w>
R a
di stor
n ine
Academ y</w>
set tings</w>
Re form</w>
il le</w>
P L
over whel
mat ure</w>
divor ce</w>
gain ing</w>
2 4
deb ates</w>
ha ble</w>
wal king</w>
t um
sla very</w>
eth ical</w>
EN T</w>
re verse</w>
phra se</w>
v ary</w>
Geor ge</w>
197 8</w>
vac ancies</w>
inter ven
C iti
harmon y</w>
interpre ted</w>
r al</w>
ann ed</w>
k no
Ac cor
p ast
adverti sing</w>
it ely</w>
pro ven</w>
uni fied</w>
tot ally</w>
ill iter
asur y</w>
pop ul
d og
ti ll</w>
obstac le</w>
deliver ing</w>
smo ke</w>
ne tic</w>
s ity</w>
low est</w>
in sur
T ogo</w>
thir ds</w>
Stu dies</w>
than ked</w>
b one</w>
Nar cotic</w>
Eng ine
S im
ang le</w>
au l</w>
B ase</w>
sh ed</w>
W G</w>
Equ al</w>
Luxemb ourg</w>
acknowled ges</w>
mic ro</w>
dis bur
z es</w>
l o</w>
re tention</w>
D ata</w>
G N
protec tive</w>
prer equ
commen ds</w>
Recor ds</w>
ol ic</w>
al k
F ree</w>
gen ital</w>
ton ight</w>
Cul ture</w>
k g</w>
ESC WA</w>
s a</w>
i str
mer cen
porno graphy</w>
mar king</w>
op posite</w>
bir ds</w>
b al</w>
po c
inequ alities</w>
won der</w>
shor tly</w>
mee ts</w>
cl ause</w>
c ils</w>
in admissible</w>
terre y</w>
Mon terrey</w>
H U
swe et</w>
Cypri ot</w>
we igh
zh ou</w>
out set</w>
k n
at ch</w>
respon sive</w>
Fre ed
Tok el
R em
Go al</w>
se es</w>
M A</w>
I d
wil d</w>
prom ising</w>
flu or
ship ping</w>
compe ten
v an
Ch r
accor ded</w>
wat ching</w>
tradi tions</w>
loc ally</w>
doc tr
am ed</w>
attribu ted</w>
ari ans</w>
verb ale</w>
iss ance</w>
play er</w>
foreig ners</w>
min d
fla g</w>
S MEs</w>
est er</w>
elabor ated</w>
cl ick</w>
G r
n ative</w>
lic ence</w>
D .
Volun tary</w>
s on
ox ide</w>
v ar
comfor table</w>
as ant</w>
Y our</w>
esti val</w>
boo st</w>
analy sed</w>
Pe ter</w>
land s
l ending</w>
inspec tions</w>
arri ve</w>
attemp ted</w>
pu pil
recor ding</w>
pen di
under took</w>
fif tieth</w>
stic k</w>
un acceptable</w>
ba g</w>
coun ty</w>
sym bol</w>
concentr ated</w>
aw ards</w>
1 60</w>
i ded</w>
pupil s</w>
friend ship</w>
bure au
divi sions</w>
wan a</w>
evel </w>
de ar</w>
Un der
li f
re alities</w>
Con tribu
atten ding</w>
in solvency</w>
f r
secret ari
struc k</w>
cor ner</w>
Mal awi</w>
I s</w>
Conflic t</w>
---- ----
D P
ch urch</w>
si les</w>
harmon ized</w>
mater i
elec t</w>
Icel and</w>
cu ts</w>
C B
lat er
wher ever</w>
col umn</w>
comm ission
sensi tiz
depos its</w>
be d
M un
Gol an</w>
frag ile</w>
as er</w>
res cue</w>
no tion</w>
mot or</w>
sti g
te or
Bo dy</w>
es sions</w>
decentr alization</w>
M oun
si ves</w>
applic ants</w>
L ao</w>
rele ases</w>
th re
1 19</w>
sil ence</w>
non governmental</w>
carri er</w>
hat red</w>
ch er</w>
pr ic
Rel ated</w>
sum mits</w>
the e</w>
er to</w>
Con gol
UNI TAR</w>
198 1</w>
install ed</w>
Deser tification</w>
religi ons</w>
Regi strar</w>
smo king</w>
at en</w>
evalu ated</w>
un likely</w>
stock pil
sol ved</w>
simultan eously</w>
D A</w>
re st
Q a
won der
em an</w>
s core</w>
1 40</w>
L ife</w>
\ </w>
M s</w>
R ot
sy mb
gen ts</w>
C I
dom ain</w>
evalu ating</w>
contin gency</w>
sam ples</w>
dil ig
Ap pl
M ater
Sam oa</w>
be at</w>
she et</w>
portfol io</w>
b atter
par k</w>
des cent</w>
justi fy</w>
te ach</w>
s wana</w>
Turk men
ad o</w>
ev il</w>
foot ball</w>
Pow ers</w>
destro y</w>
elev enth</w>
ad vers
tri bunals</w>
em an
Gul f</w>
over l
b ases</w>
P D</w>
pri me</w>
D E</w>
low s</w>
Congol ese</w>
deterior ation</w>
co o
bre aking</w>
t onn
oper ators</w>
L ORD</w>
enc umbered</w>
justi fication</w>
D on
parti ality</w>
1 25</w>
Tru ste
cen sus</w>
cro p</w>
MEN T</w>
nomin ated</w>
un paid</w>
min ed</w>
stabil ization</w>
in ner</w>
kill ings</w>
su e</w>
recur rent</w>
set tle</w>
Pro gram</w>
exerc ised</w>
discus sing</w>
there after</w>
expen se</w>
Ex ternal</w>
tox ic</w>
Con duct</w>
t elling</w>
rein forced</w>
ti red</w>
Ad ditional</w>
cal m</w>
pass age</w>
wis dom</w>
s now</w>
condi tional</w>
pa th
def ense</w>
institu tion
excep tions</w>
gr ound
de fe
vi br
radio active</w>
R IC
rel ess</w>
cel lan
appropri ately</w>
juris prudence</w>
sy mp
Vic ti
Haiti an</w>
Accoun ting</w>
. 6</w>
spir it
min eral</w>
ad just</w>
R en
ou ts</w>
Turkmen istan</w>
For ests</w>
Bar bad
kind ly</w>
fores een</w>
10 ,000</w>
Bot swana</w>
guid eline</w>
pendi x</w>
198 4</w>
rou gh</w>
evol ving</w>
break down</w>
sac rif
mobil izing</w>
every where</w>
Tokel au</w>
cros sing</w>
S TA
1. 3</w>
practi tioners</w>
bri d
C L
manifest ations</w>
alloc ations</w>
So vi
ten ure</w>
mod ule</w>
dis proportion
e de</w>
reli ance</w>
if ying</w>
offic ially</w>
t obacco</w>
Con ferences</w>
writ er</w>
in qu
ri ous</w>
in cen
introduc es</w>
alco hol</w>
expl icit</w>
n ia</w>
cellan eous</w>
th in</w>
Ro yal</w>
direc tors</w>
H en
ran k</w>
bon ds</w>
E T
s ors</w>
negoti ate</w>
as sured</w>
1 ,0
amoun ting</w>
S ir</w>
Br us
thres hold</w>
stor m</w>
congrat ulate</w>
Maur it
M B
happen s</w>
struc tured</w>
str </w>
sel ler</w>
hi p</w>
ten stein</w>
s y</w>
mat ri
bo ards</w>
fer tility</w>
ber cul
met res</w>
medic ines</w>
en tail
s ong</w>
boo k
allow ances</w>
l ever
e um</w>
exerc ising</w>
trans boundary</w>
Commer ce</w>
for ever</w>
spo ken</w>
ob </w>
C en
M E</w>
Li ech
pe er</w>
Stand ard</w>
et ter</w>
op tional</w>
tradi tionally</w>
Corpor ation</w>
Barbad os</w>
1 23</w>
ref usal</w>
flu ctu
qui et</w>
co ast</w>
exha us
inc ere</w>
witn essed</w>
prou d</w>
3 ,000</w>
f icial</w>
emp ty</w>
ap por
R am
Bh ut
Commun ication</w>
Brus sels</w>
R ound</w>
un like</w>
abol ition</w>
stri ve</w>
pre ferred</w>
less on</w>
Dec olonization</w>
R u
Liech tenstein</w>
ot al</w>
Syst ems</w>
Reg ulation</w>
t ling</w>
some what</w>
ur ban
stre ets</w>
rati fying</w>
li able</w>
mist ake</w>
c ements</w>
reli ability</w>
ta ught</w>
se ments</w>
manag erial</w>
id en
dem ocrati
PR ES
on ds</w>
Mad rid</w>
arran ged</w>
de bris</w>
P aul</w>
Comm on</w>
rec ycl
com mentary</w>
testimon y</w>
NA TO</w>
lin ear</w>
G E</w>
sh oes</w>
D a
us age</w>
mechan ical</w>
197 3</w>
restaur ant</w>
bu ying</w>
OA U</w>
pre m
particip ant</w>
Wor ks</w>
bench marks</w>
ar tic
pir acy</w>
Pro duction</w>
ur ship</w>
Di versity</w>
g le</w>
A mend
1 21</w>
virtu e</w>
L and
with drawn</w>
youn ger</w>
y .
t ap
pill ar</w>
poss ess</w>
A vi
quanti tative</w>
Un ity</w>
theore tical</w>
ma them
Chris tian</w>
Con sensus</w>
Me tho
ar tis
underscor ed</w>
k m</w>
pun ish</w>
th row</w>
cred itors</w>
b is</w>
Di str</w>
ex ual</w>
H .</w>
desi red</w>
vo ters</w>
Pr acti
maxim ize</w>
Sovi et</w>
fl at</w>
num er
answ ers</w>
den ial</w>
Prosecu tion</w>
Par k</w>
defin itely</w>
Add .2</w>
gu es</w>
cre ates</w>
mar ry</w>
advoc ate</w>
bercul osis</w>
scre ening</w>
clu b</w>
jo y</w>
mal nutrition</w>
y ah</w>
e i</w>
intensi fied</w>
A id</w>
A C</w>
Mad agas
arran ge</w>
r ational</w>
W ang</w>
motiv ated</w>
Op portun
jour ney</w>
im ported</w>
time table</w>
Comm ander</w>
ck y</w>
stipul ates</w>
pro lon
yan a</w>
aud its</w>
fel low</w>
passeng ers</w>
s incere</w>
modern ization</w>
distingu ished</w>
vess el</w>
tra ge
aff ili
pl as
wa i
no body</w>
ci ally</w>
MI T
person ality</w>
in k
ac tu
M ul
J .</w>
S an
Madagas car</w>
speci alists</w>
short age</w>
En sure</w>
Ac count</w>
ag grav
im partiality</w>
Work shop</w>
hum ans</w>
F M
f lights</w>
for estation</w>
IN F</w>
succ ession</w>
I r
Tr in
an ian</w>
exc use</w>
tur ns</w>
t ag
ol o
work force</w>
wor ding</w>
W al
es o
Con ven
Cap e</w>
rev olution</w>
Vir g
. 5</w>
econom ics</w>
appe aled</w>
co ol</w>
demonstr ation</w>
al ty</w>
ho sting</w>
im migrants</w>
F C</w>
w earing</w>
a x</w>
W ar
Joh ann
the ast</w>
exclud ing</w>
S il
Fur ther</w>
Ali </w>
ref use</w>
it ably</w>
Boli vari
sha re
announ cement</w>
po sted</w>
crow d</w>
Pl en
inten d</w>
inst al
sal t</w>
di ves</w>
satis fy</w>
n a</w>
ign ment</w>
a fore
gla d</w>
c ence</w>
resili ence</w>
dispar ities</w>
Tri bunals</w>
A B
20 20</w>
je op
di fication</w>
Gu ang
Bolivari an</w>
parlia ment</w>
mis siles</w>
Fin al</w>
hol istic</w>
sol ving</w>
ali ve</w>
L evel</w>
s pre
deci sive</w>
consi st</w>
ac com
speci ally</w>
enabl es</w>
mort g
avo iding</w>
ear ned</w>
id ad</w>
Tok yo</w>
uti lity</w>
bir ths</w>
Satur day</w>
q </w>
ak a</w>
UNMI S</w>
b el</w>
afore mentioned</w>
imag ine</w>
com ings</w>
ir respective</w>
confir mation</w>
patro l</w>
su gar</w>
our ism</w>
i res</w>
N umber</w>
bac ter
ou ses</w>
com </w>
sur prise</w>
Regi stry</w>
bl ind</w>
al tar</w>
valu ed</w>
I P</w>
syn thesis</w>
st ation
Elec tion</w>
Dis pu
re mind</w>
Cap acity</w>
cap ture</w>
Deg ra
M ine</w>
accompl ished</w>
R O
im position</w>
TH </w>
M aritime</w>
3 .1</w>
agre es</w>
s ad</w>
suppl ied</w>
symp t
l ady</w>
recei ves</w>
rem itt
18 0</w>
viol ate</w>
accom mo
ma th</w>
t oler
incorpor ating</w>
optim al</w>
prop ag
g ic</w>
appar ently</w>
ul ative</w>
St .</w>
or bit</w>
2. 3</w>
gu ess</w>
co tics</w>
J an
commun icated</w>
accommo date</w>
e pers</w>
Mic ro
Deci sion</w>
dec ree</w>
critic ism</w>
ti er</w>
ali en</w>
man ship</w>
utiliz e</w>
mon o
wonder ful</w>
no vel</w>
sil ver</w>
Z h
trans fer
tend ency</w>
19 49</w>
navi gation</w>
de ploy</w>
reset tlement</w>
com prehen
emo tional</w>
v oted</w>
tribu te</w>
el e
atic s</w>
broad ly</w>
acc eded</w>
Col onial</w>
spons oring</w>
e uro</w>
clari fied</w>
B T</w>
absten tions</w>
Mat ters</w>
lo sing</w>
Mo sco
G ren
contra dic
brief ed</w>
Mal dives</w>
conclud es</w>
C RI
sh ir
UN AIDS</w>
prosecu ted</w>
ph y
c tic</w>
0 ,
oper ation
Pers onal</w>
short comings</w>
W oods</w>
UN DA
beg ins</w>
rol ling</w>
clam ation</w>
circul ation</w>
arbitr al</w>
vir tually</w>
per su
jurisdic tions</w>
iden tical</w>
ga ther</w>
er ly</w>
rou tine</w>
surviv ors</w>
mi x</w>
d ust</w>
Reg ister</w>
Ab d
vis a</w>
independ ently</w>
ti s</w>
com prise</w>
1 24</w>
por ters</w>
15 5</w>
TA H</w>
Chair s</w>
absolu tely</w>
e tr
Sup pression</w>
ri sts</w>
star s</w>
UN U</w>
At tor
J ean</w>
ess ation</w>
he y</w>
intim idation</w>
Jud ge</w>
got ten</w>
ess ness</w>
15 3</w>
MINUS TAH</w>
C air
attr active</w>
Hol y</w>
free ze</w>
ter ing</w>
F er
tast e</w>
acceler ated</w>
ear n</w>
ell ation</w>
Respon sible</w>
cl er
197 9</w>
Pu erto</w>
Parlia mentary</w>
auth en
Jud icial</w>
es burg</w>
comp ound</w>
Mosco w</w>
EC LAC</w>
ace u
IN TER
pl ain
enh agen</w>
di et</w>
m ass
is hable</w>
dissemin ated</w>
Gre en</w>
e al</w>
201 6</w>
li gence</w>
et te</w>
T ob
Cop enhagen</w>
Man ual</w>
at tainment</w>
up coming</w>
s our
ic ating</w>
multi later
commen cement</w>
str ange</w>
att acked</w>
z ens</w>
n an
s and</w>
3. 2</w>
M ari
up dates</w>
pe ac
graph ic</w>
15 40</w>
t am
Gu yana</w>
detec t</w>
s al</w>
ici ans</w>
dri vers</w>
coordin ates</w>
Johann esburg</w>
Maurit ania</w>
pres enting</w>
s tic</w>
hon est</w>
W all</w>
recei vable</w>
ear ning</w>
threat en</w>
promin ent</w>
J ack</w>
re sumption</w>
S it
P P
ro tation</w>
un necessary</w>
ren ov
charac ters</w>
ash es</w>
isol ation</w>
expres s
G A</w>
13 2</w>
Per io
standardi zed</w>
i bid</w>
Ste ering</w>
counter parts</w>
lut ants</w>
bel ong</w>
al li
pe ace
poli tically</w>
shop ping</w>
investig ative</w>
Su per
Im migration</w>
li fe
diplom acy</w>
convers ation</w>
pe ak</w>
dis appeared</w>
ri gh
ph arm
n ear
1 28</w>
thor ou
incorpor ation</w>
es .
repu tation</w>
el i
sp ouse</w>
ex act</w>
altern ate</w>
domin ant</w>
J S
pul l</w>
P ress</w>
un ification</w>
CD M</w>
13 8</w>
dismis sed</w>
commen ced</w>
B ret
suppl ement</w>
pen al</w>
remark able</w>
Ar ticles</w>
sc op
Practi ce</w>
substitu te</w>
per tin
t ears</w>
prosecu tor</w>
R ic
ke epers</w>
an ch
fem ales</w>
d ay
at tain</w>
P rac
adap ted</w>
ast y</w>
S .
brief ly</w>
M is
cr yst
g ly</w>
acti v
fu els</w>
as a</w>
Ap plication</w>
Li a
Bag h
con ve
twel fth</w>
y ellow</w>
quanti ties</w>
volun teers</w>
divi de</w>
inv esting</w>
ag ers</w>
weak nesses</w>
re con
mis cellaneous</w>
hear ings</w>
vir tual</w>
o d</w>
assum ptions</w>
experi ments</w>
spokes man</w>
H ot
E D
politici ans</w>
st ating</w>
diam onds</w>
sh ut</w>
par ad
i on
13 4</w>
exha usted</w>
CER D</w>
elec tro
A MIS
tim ing</w>
reser ved</w>
P age</w>
emer gence</w>
c ry</w>
amb ular</w>
AMIS OM</w>
scenari o</w>
guarante eing</w>
an gry</w>
entreprene urs</w>
bur ning</w>
F A</w>
secretari ats</w>
un t</w>
hy per
direc tions</w>
enti ality</w>
rap porteurs</w>
cont ex
Con si
ti gh
pre ambular</w>
ap ers</w>
Cair o</w>
ha med</w>
prolon ged</w>
N O
re alizing</w>
coordin ators</w>
argu es</w>
Pr ince</w>
al igned</w>
spher es</w>
casu alties</w>
dele ted</w>
de fault</w>
ra h</w>
5 0,000</w>
ab str
chair man</w>
Govern or</w>
on i
prin ted</w>
mach ines</w>
Pers onnel</w>
reco ver</w>
hy gi
Il licit</w>
dre ams</w>
vic tory</w>
p esti
diam ond</w>
C ali
sev en
t ank</w>
int ent</w>
cha mp
le um</w>
l acking</w>
con vey</w>
week end</w>
militi a</w>
draw s</w>
U p
ush ing</w>
construc ted</w>
Mar ine</w>
cl arity</w>
b ond</w>
Z one</w>
C B</w>
Arbit ration</w>
trav el
c iliation</w>
broad cast</w>
The y</w>
institu tes</w>
In surance</w>
ne e</w>
hard ware</w>
ear marked</w>
ambi tious</w>
stan ts</w>
par ental</w>
for war
coun tr
lin king</w>
lim iting</w>
UNF CCC</w>
t our</w>
di r
tari ff</w>
fe els</w>
bi tions</w>
TE D</w>
mil it
Lt d</w>
IC C</w>
ra rely</w>
ph o
2 .</w>
won dered</w>
su icide</w>
dic t
x es</w>
ti liz
thu si
An ti
pre dec
here with</w>
ri de</w>
licen sing</w>
Sud anese</w>
under lines</w>
Add is</w>
advers ely</w>
dis man
K i
li </w>
pain ting</w>
S mi
terri ble</w>
mag nit
bre ast</w>
Degra ding</w>
pro active</w>
sud den</w>
sem i</w>
certi fied</w>
infec ted</w>
univers ality</w>
at orial</w>
si veness</w>
201 7</w>
in compatible</w>
at e
rec ession</w>
disc oura
Coordin ating</w>
beli efs</w>
1 26</w>
f an</w>
spectr um</w>
gra ph</w>
suppli er</w>
en thusi
clean ing</w>
extra judicial</w>
te en
dis pat
Organ isation</w>
ad ds</w>
explor ed</w>
claim ants</w>
Bagh dad</w>
l or</w>
s mart</w>
neighb ours</w>
Ad option</w>
car ries</w>
rel uc
S cot
entreprene urship</w>
Ab aba</w>
E U
questi oned</w>
regul ating</w>
discre tion</w>
fail ing</w>
assa ult</w>
profes sion</w>
Trin idad</w>
birth day</w>
issu ing</w>
develop mental</w>
Viol ations</w>
conven ient</w>
consul ted</w>
In human</w>
promulg ated</w>
counter ing</w>
EN </w>
isol ated</w>
neighb our
C abinet</w>
re memb
s oph
is ely</w>
igh t
b rom
Bret ton</w>
h ill</w>
bal lot</w>
Victi ms</w>
program matic</w>
na issance</w>
R ule</w>
rec re
s ounds</w>
lands cape</w>
An g
ci ting</w>
noti fy</w>
revit alization</w>
it ance</w>
expec ts</w>
circu it</w>
ro t
install ations</w>
neutr al</w>
inter sessional</w>
ell es</w>
T RA
um in
ir o</w>
pan els</w>
respond ents</w>
marri ages</w>
for d</w>
retur nees</w>
kid n
f oods</w>
W P.
stu ff</w>
re ments</w>
phot ograph
col onial</w>
t age</w>
thir teenth</w>
Qa ida</w>
rup ted</w>
pertin ent</w>
IC RC</w>
198 3</w>
mu tilation</w>
mod est</w>
monit ors</w>
accred itation</w>
recon naissance</w>
corpor al</w>
Ob jec
sp ouses</w>
crit er
co gn
vi g
magnit ude</w>
char t</w>
Rwand an</w>
sion ally</w>
mis t</w>
inter dependence</w>
Gran ting</w>
ash ing</w>
ar sen
sc ru
c at</w>
prohib its</w>
up hold</w>
per secu
m apping</w>
exam inations</w>
X V</w>
w ounded</w>
fol d</w>
aim ing</w>
me al</w>
dynam ics</w>
war rant</w>
ter y</w>
confid entiality</w>
cooper ating</w>
prohi biting</w>
P ur
olu tionary</w>
D o</w>
tra um
tin ational</w>
indirec tly</w>
cul tiv
pre ference</w>
de tri
tre mend
Ser ious</w>
far ming</w>
coun cil</w>
w alls</w>
schol ar
T able</w>
gu ys</w>
ess ence</w>
liveli hood</w>
inter ro
k itch
clear ing</w>
circl ed</w>
oc ked</w>
g an</w>
CE B</w>
revi sions</w>
G C.
1. 15</w>
Y P</w>
ment arians</w>
fail s</w>
Tw o</w>
L akes</w>
vari ed</w>
hand led</w>
NA TIONS</w>
im pres
F R
Wil li
mis conduct</w>
w are
up grade</w>
13 5</w>
p y</w>
Sem in
bu l</w>
18 2</w>
Cali for
tal ent</w>
sex ually</w>
correc tions</w>
set tl
appropri ations</w>
COM MIT
s in</w>
collec tively</w>
M T
lo d
qual itative</w>
express ly</w>
prom ises</w>
adj our
c a</w>
C are</w>
stimul ate</w>
HU MAN</w>
Th om
st atic</w>
ali ens</w>
mod ules</w>
ber g</w>
con science</w>
qual ification</w>
pic tures</w>
de ferred</w>
sil ent</w>
Tre asury</w>
prospec t</w>
ES A</w>
1 29</w>
deb tor</w>
prec isely</w>
IM O</w>
p ure</w>
gra vity</w>
restric t</w>
earli est</w>
CC W</w>
satell ites</w>
pen sions</w>
ann ot
affir med</w>
til l
tonn es</w>
Gu am</w>
twel ve</w>
big ger</w>
list ening</w>
criter ion</w>
c us</w>
objec tions</w>
gradu al</w>
1 27</w>
perc eption</w>
dis appearances</w>
Tob ago</w>
st am
L ab
su rely</w>
know ing</w>
a str
co he
Agricul tural</w>
revis e</w>
gen ic</w>
. I</w>
sa ved</w>
i qu
di ment</w>
we t</w>
r ence</w>
collap se</w>
H or
in ity</w>
re fin
en quiry</w>
3. 3</w>
ab duc
D am
O K</w>
discus ses</w>
newsp apers</w>
is tic
l am</w>
ens ic</w>
Ur ban</w>
Ab k
vari ance</w>
ex it</w>
h id
forec ast</w>
Gab on</w>
act ment</w>
bl ock
p ile</w>
dis closed</w>
dec or
Cru el</w>
bl ocks</w>
Attor ney</w>
ol l</w>
pe t</w>
expe dite</w>
aband oned</w>
Por t</w>
avo ided</w>
spirit ual</w>
pli fied</w>
endeav ours</w>
inten sity</w>
consult ant</w>
ch ick
T A</w>
. The</w>
lun ch</w>
13 3</w>
notic ed</w>
mo ves</w>
li br
ter ror</w>
li v
gra in</w>
analy sing</w>
shoul der</w>
rop ic</w>
p our</w>
lingu istic</w>
Pro ce
rec ourse</w>
mol ec
k in</w>
c ann
bound aries</w>
ver sions</w>
urban ization</w>
land mines</w>
defin es</w>
2. 4</w>
incen tive</w>
quot a</w>
tic ket</w>
conven i
T E</w>
allevi ate</w>
c essation</w>
Bhut an</w>
threat ening</w>
excee ding</w>
ad here</w>
ten s</w>
fre ight</w>
ir regular</w>
sen sing</w>
p in
in alienable</w>
ic ian</w>
K ab
expl oring</w>
system ic</w>
nine teenth</w>
haz ard</w>
cor ro
cred itor</w>
p ts</w>
dra matic</w>
cust om</w>
concentr ate</w>
dang ers</w>
tro p
em bo
projec tions</w>
re ci
a ven
t ancy</w>
unanim ously</w>
ban k
am in</w>
Dom estic</w>
s p</w>
f ast
chec ks</w>
bre ad</w>
it ated</w>
expend able</w>
dec lining</w>
ap pendix</w>
Gi br
thorou ghly</w>
S R</w>
pre clud
V I
n el</w>
br ac
soci ally</w>
O P</w>
pre cur
inten se</w>
al d</w>
correc tly</w>
S IL</w>
repar ation</w>
chair s</w>
acc ede</w>
ar ming</w>
an ded</w>
accred ited</w>
liqu idation</w>
in comes</w>
ator ium</w>
oper ates</w>
k er
X II</w>
re bel
rac ist</w>
r y
publ ish</w>
allevi ation</w>
pen etr
Tim e</w>
privileg es</w>
surg ery</w>
m it
Ag ainst</w>
4. 2</w>
proce eded</w>
pl or
in consistent</w>
influ enced</w>
p ac
C ir
accor d</w>
posi tively</w>
ick ness</w>
lik es</w>
cent red</w>
UNF IC
e h</w>
defici ency</w>
oun ced</w>
curr encies</w>
UNFIC YP</w>
on a</w>
magaz ine</w>
ab ide</w>
Liber ian</w>
mind ful</w>
ur an
patro ls</w>
do ors</w>
197 0</w>
renew al</w>
T em
invest ed</w>
nation wide</w>
reve al</w>
trans late</w>
su nam
sub programmes</w>
rom e</w>
ten der</w>
P .1</w>
ter dam</w>
att aches</w>
Ta x</w>
un k</w>
Rot terdam</w>
succee ded</w>
restric tion</w>
6 ,000</w>
soph istic
design ate</w>
wed ding</w>
introduc tory</w>
contribu tors</w>
reco sting</w>
c up</w>
commen d</w>
seg ments</w>
jeop ardi
co at</w>
reason ably</w>
dens ity</w>
Fran c
den y</w>
C S</w>
inc itement</w>
moun tains</w>
comfor t</w>
R ural</w>
hal t</w>
de d
modi fication</w>
S exual</w>
m ate</w>
accum ulation</w>
err ors</w>
C ent
stan bul</w>
b ills</w>
Smi th</w>
quar terly</w>
le g</w>
purch asing</w>
indic ative</w>
ne ed
mist akes</w>
f illing</w>
dum ping</w>
Avi ation</w>
Califor nia</w>
ther mal</w>
hi de</w>
Commer cial</w>
H ome</w>
s ake</w>
pharm aceu
incum bent</w>
bro thers</w>
matri x</w>
Stat ement</w>
C ur
eso th
annex ed</w>
Engine ering</w>
horiz on
depart mental</w>
spons or</w>
16 9</w>
perpetr ated</w>
la y
author ize</w>
CR P.
ev ic
endor ses</w>
4 ,000</w>
stead ily</w>
individu ally</w>
persist ence</w>
1. 4</w>
commun iqu
Establ ishment</w>
se ed</w>
philosoph y</w>
Liber ation</w>
I t
wa ves</w>
di al</w>
PA R
Out come</w>
Pap ua</w>
seg reg
mean time</w>
inven tories</w>
CM P</w>
speci alist</w>
T ourism</w>
ti ght</w>
rou tes</w>
re location</w>
L ight</w>
prerequ isite</w>
Sum mary</w>
Investig ation</w>
14 1</w>
Nat ural</w>
al ignment</w>
am az
respec ts</w>
produc es</w>
keep s</w>
Ti bet</w>
f lower</w>
n av
Chem icals</w>
R S</w>
ti e</w>
bul k</w>
20 ,000</w>
respec ting</w>
ra in
shad ow</w>
f rac
bl ow</w>
ro ster</w>
i di
sum m
log ic</w>
Multi lateral</w>
4 .1</w>
pres sures</w>
invo ked</w>
secret ary</w>
lo on</w>
Sen ate</w>
L I
sensi tivity</w>
rais es</w>
noti fied</w>
every day</w>
Presid ency</w>
dog s</w>
d ens</w>
ab ed</w>
ne sty</w>
ph oto</w>
cri tici
CA RIC
star ts</w>
read ily</w>
hel l</w>
ten ing</w>
illiter acy</w>
I stanbul</w>
fif teenth</w>
Mar tin</w>
explo sives</w>
ail s</w>
hosti le</w>
per ed</w>
in ability</w>
haz ards</w>
cha ins</w>
Har ry</w>
W C</w>
em atic</w>
comple ting</w>
TE E</w>
adoles cent</w>
S he</w>
stor ed</w>
remo ving</w>
Reser ve</w>
ver tical</w>
fil ing</w>
Respon se</w>
t ough</w>
Ex change</w>
ot echn
Americ as</w>
UNO MI
C ath
jo ining</w>
a be
exemp tion</w>
T ow
tempor arily</w>
cot ton</w>
Mo ham
defend ant</w>
Gen ocide</w>
rail way</w>
plan es</w>
fle w</w>
shel ters</w>
excee ded</w>
olo gi
explan ations</w>
trans form</w>
stor es</w>
pan dem
r he
dissemin ating</w>
197 5</w>
row s</w>
elimin ated</w>
E r
16 2</w>
li fting</w>
con serv
3 8
countr y
endor sement</w>
natur ally</w>
contin gents</w>
ber t</w>
h em
CARIC OM</w>
ji ang</w>
h ome
Govern ance</w>
periodic ally</w>
recover ed</w>
compar e</w>
demonstr ates</w>
infec tions</w>
ton gue</w>
rad ication</w>
lo ading</w>
read s</w>
en tail</w>
cir cle</w>
E radication</w>
1 31</w>
u ated</w>
Semin ar</w>
ren ew</w>
197 4</w>
ta bly</w>
M og
C. 4</w>
policy making</w>
K in
ti ble</w>
posi um</w>
Re sident</w>
war ned</w>
suspec t</w>
tion ment</w>
subsi di
contin ental</w>
att le</w>
H K</w>
te eth</w>
hy po
commen ce</w>
COMMIT TEE</w>
Amend ment</w>
instal ment</w>
Bon n</w>
up s</w>
f ears</w>
ti ed</w>
v an</w>
civil ization</w>
roc ket</w>
t ent
plat forms</w>
nec k</w>
er ated</w>
some body</w>
R equ
concep tual</w>
cam era</w>
Bl ue</w>
surpris ed</w>
kitch en</w>
chap ters</w>
barri er</w>
Swe dish</w>
hid den</w>
arre ars</w>
es cor
T el
wrong ful</w>
pun ishable</w>
13 6</w>
ignor ed</w>
eligi bility</w>
I G
h all</w>
Pro duc
highligh ting</w>
Dan ish</w>
di alo
ac o</w>
B e</w>
induc ed</w>
u ri
ar ray</w>
it ch</w>
soci o
wind ows</w>
ir s</w>
O s
Jo se
14 2</w>
A F
IT C</w>
Gibr altar</w>
Program mes</w>
vi sibility</w>
G oods</w>
o e</w>
tal ked</w>
tax ation</w>
att ach</w>
Ho sp
comple ment
ob ile</w>
u sion</w>
th inks</w>
lau gh
Pe aceful</w>
prof essor</w>
L E</w>
sh ock</w>
r at</w>
occurr ing</w>
Vi et
Rac ism</w>
Ba ham
tra gic</w>
rul ed</w>
W here</w>
web sites</w>
o di
he ight</w>
P res
14 5</w>
wi re</w>
s cour
ar gue</w>
man ip
suspec ts</w>
L etter</w>
appor tionment</w>
est y</w>
sin cer
M ON
mar ital</w>
Ex ecu
tion ality</w>
nar r
uni or</w>
u h</w>
I m</w>
à </w>
the at
impl ies</w>
bre aks</w>
uran ium</w>
u ous</w>
repe at</w>
N ews</w>
inher itance</w>
work plan</w>
her o
tremend ous</w>
al lo
est ock</w>
prec au
ell er</w>
un usual</w>
~ </w>
ot er</w>
es hip</w>
t emp
gener ous</w>
RE S</w>
Integr ation</w>
g ood
ti ously</w>
t oo
mil l
cl ou
C he
i er</w>
it ory</w>
Ex plo
cl a
st on</w>
industri alized</w>
em power</w>
Olymp ics</w>
us ting</w>
mil est
harmon ize</w>
prote in</w>
g ases</w>
re produced</w>
esoth o</w>
D D
j an</w>
T ake</w>
L ong</w>
low ship</w>
confisc ation</w>
ali ke</w>
3. 5</w>
c ks</w>
veri fied</w>
publ ishing</w>
compris ed</w>
Lia ison</w>
13 9</w>
war ran
categ or
audi o</w>
16 6</w>
super visory</w>
K .</w>
inf lic
L esotho</w>
accompl ishment</w>
tex t
mal es</w>
p ig
no se</w>
aggreg ate</w>
S EC
heav en</w>
canc ellation</w>
war s</w>
modi fy</w>
favor ite</w>
ind ex
Is lam</w>
pl ur
consolid ating</w>
leg ality</w>
198 0s</w>
Comm itted</w>
Cla im
F l
p .</w>
am ing</w>
qu ad
b all
tu tion</w>
B ased</w>
arti ficial</w>
PRES ID
5 9
j ump</w>
A M
defici encies</w>
consul ting</w>
oun ce</w>
Cha mbers</w>
nom ination</w>
li ver</w>
G rou
swit ch</w>
om on</w>
hard ship</w>
under stand
bl o
detec ted</w>
B ec
L ine</w>
swi m
person ally</w>
he ating</w>
^ </w>
Inspec tors</w>
MINUR SO</w>
UN S
Gre en
nomin ations</w>
im pression</w>
preci sion</w>
coun cils</w>
contex ts</w>
tar ily</w>
F ish
differ ential</w>
electr on
vac ant</w>
ul ty</w>
teor ological</w>
dra m
inter net</w>
ish u</w>
rejec tion</w>
deb ts</w>
col leg
mor atorium</w>
AC. 109</w>
floo d</w>
ati vity</w>
dar k
B y</w>
exclud e</w>
Main land</w>
occurr ence</w>
W M
pack ages</w>
um b
du pl
em ail</w>
S pe
2 35</w>
ti ary</w>
postpon ed</w>
Gr and</w>
tu berculosis</w>
bre a
aqu if
ati </w>
passeng er</w>
h ad
PRESID ENT</w>
Mar ket</w>
acceler ating</w>
14 3</w>
sympt oms</w>
devast ating</w>
lo aded</w>
is k</w>
Mog ad
3 3
preci ous</w>
demonstr ations</w>
viol ating</w>
Col lec
explain s</w>
method ological</w>
c ad
L O
G ambia</w>
l ler</w>
accur ately</w>
marg in</w>
lic ense</w>
do se</w>
impl y</w>
bl ame</w>
fro zen</w>
Mogad ishu</w>
ox y
commit ting</w>
Sit uation</w>
Re si
vari able</w>
decentr alized</w>
pic ked</w>
un ited</w>
ris en</w>
di version</w>
lo gy</w>
al ong
war ming</w>
UNC DF</w>
Regi stration</w>
ti a</w>
G al
corpor ation</w>
che ap</w>
K im
var ying</w>
r ations</w>
sunam i</w>
Rob ert</w>
Conven tional</w>
iz </w>
vend ors</w>
ang ular</w>
avo id
analy sts</w>
co very</w>
m ative</w>
tic ul
U L
pass port</w>
connec t</w>
UN IS
B A</w>
h at</w>
Con struction</w>
phenomen a</w>
Particip ation</w>
l aser</w>
ol en</w>
ra m
T ar
y an</w>
psy cho
neglec t</w>
Contribu tions</w>
CS T</w>
la ke</w>
Co alition</w>
m ad
UNIT A</w>
safegu arding</w>
bas ically</w>
Accoun ts</w>
Braz ilian</w>
G ood</w>
4. 5</w>
13 7</w>
Lan gu
15 7</w>
w n</w>
st em</w>
F o
preser ving</w>
for ensic</w>
challeng ed</w>
Im pro
ann a</w>
deliber ate</w>
E M
h es</w>
Jam es</w>
Jo hn
a waiting</w>
superi or</w>
ce iling</w>
restric tive</w>
Promo ting</w>
ph ones</w>
In tel
re tail</w>
op en
ail ed</w>
hygi ene</w>
trop ical</w>
Im p
A I</w>
w inning</w>
cros s
P ubl
b ic
J ew
pa ired</w>
Geor gi
Eth ics</w>
clin ics</w>
Dem ocracy</w>
197 7</w>
parlia mentarians</w>
oper ator</w>
Plen ary</w>
14 4</w>
T C</w>
Baham as</w>
ys ical</w>
entr ance</w>
re di
gi ant</w>
resi dual</w>
pow der</w>
cou ples</w>
n ants</w>
Lim ited</w>
CP R</w>
recip ients</w>
yp e</w>
k it</w>
in scri
Sol omon</w>
amen ding</w>
any where</w>
St ra
am big
co alition</w>
enn ess</w>
Com petition</w>
g al
sur ge</w>
educ ated</w>
un doub
at tracted</w>
deep er</w>
ari al</w>
7 0
met all
em a</w>
hon or</w>
Recommend ations</w>
analy ze</w>
V E</w>
I ts</w>
spher ic</w>
defin ite</w>
al ign</w>
accompl ish</w>
comb ine</w>
II .
I MIS</w>
f oun
19 61</w>
a j
C. 6</w>
horizon tal</w>
f ed</w>
cycl es</w>
sub total</w>
L .</w>
serv ant</w>
m aps</w>
dis count</w>
Portu gu
ha bit</w>
gradu ates</w>
near by</w>
il legally</w>
fi x
assi stant</w>
archi ves</w>
Enter prise</w>
bom b</w>
m om</w>
Le ad
claim ing</w>
cred its</w>
train ers</w>
tack ling</w>
Ref er
Opportun ities</w>
el essness</w>
eful ness</w>
counter measures</w>
wat ched</w>
Dispu te</w>
ph ased</w>
pul led</w>
ch er
cou pled</w>
197 1</w>
A T</w>
Ma h
lo s</w>
recycl ing</w>
UNDA F</w>
L in
l end</w>
design ation</w>
Me dia</w>
ten ded</w>
Cent res</w>
scho oling</w>
th ick</w>
Bud d
atin gs</w>
broad casting</w>
for tune</w>
F ar
tion er</w>
expres sions</w>
I vor
trage dy</w>
Ivor ian</w>
i ka</w>
di ffer</w>
accep ting</w>
port al</w>
m ud
c able</w>
contrac ep
success or</w>
ot a</w>
int on</w>
B run
sign als</w>
experi encing</w>
e tings</w>
ple dge</w>
im posing</w>
U ses</w>
ser vers</w>
arre sts</w>
Acc ess</w>
reci proc
chan ces</w>
miti g
along side</w>
Recon ciliation</w>
D ut
condem ns</w>
deple ting</w>
ex hibition</w>
lu ck</w>
construc t</w>
Portugu ese</w>
aud ited</w>
an tic</w>
14 7</w>
purch ased</w>
multilater alism</w>
nur sing</w>
pro pri
A U</w>
reiter ating</w>
over due</w>
Rad io</w>
le tin</w>
15 1</w>
deser ve</w>
contain er</w>
mo od</w>
impe tus</w>
t all</w>
leg s</w>
P V.
harmon ious</w>
De struction</w>
survi ve</w>
sol ic
fa thers</w>
U mo
bo w</w>
Jew ish</w>
Fam ilies</w>
six teenth</w>
contam inated</w>
abol ished</w>
overwhel ming</w>
Appro ach</w>
en actment</w>
human kind</w>
i p</w>
ast ro
M el
CRI C</w>
soldi er</w>
invest or</w>
fair ness</w>
doub ts</w>
Umo ja</w>
susp ici
l en</w>
cap tured</w>
Tre aties</w>
pro test</w>
PR ST</w>
O man</w>
Freed om</w>
communic able</w>
Provi sional</w>
15 6</w>
op tical</w>
14 6</w>
gent l
a partment</w>
ro bo
R ES
liv estock</w>
infr ing
Re ports</w>
fin alize</w>
fer tiliz
adequ acy</w>
pon ents</w>
under mined</w>
pre si
pip e</w>
tri gg
commen ted</w>
provi der</w>
F lor
ay a</w>
Egyp tian</w>
wa ited</w>
Mon t
inc eption</w>
K iv
manufactur ers</w>
bot tle</w>
part ments</w>
lu x
compil ed</w>
ad mit</w>
a bet
stream lining</w>
l est</w>
ti f
in spi
chi at
end o
ess ors</w>
B ay</w>
M aster</w>
tis sue</w>
ple asant</w>
over coming</w>
ra m</w>
I A</w>
r ating</w>
my ster
ch ose</w>
4. 3</w>
seven teenth</w>
peace keepers</w>
C IS
comp ounds</w>
Ch urch</w>
wi ves</w>
socio economic</w>
connec tions</w>
helicop ters</w>
ac ent</w>
Th ree</w>
T elecommun
und ant</w>
re tri
lu cky</w>
fa ith
i .</w>
W an</w>
15 .
ach ment</w>
T un
t .</w>
chair manship</w>
mag istr
dele te</w>
OI C</w>
As pec
Abu </w>
respon ds</w>
har der</w>
f at
dem ining</w>
G U
ul tra
c .</w>
Jose ph</w>
mul tinational</w>
dem anded</w>
spl it</w>
po t
hi er
un clear</w>
re bel</w>
shap ed</w>
li fted</w>
w s</w>
b in</w>
sh ocks</w>
dro ve</w>
S ha</w>
ot ropic</w>
sta ke</w>
institu te</w>
struc tive</w>
volun tarily</w>
lif est
ran king</w>
ac he</w>
L ou
con fined</w>
cop y
b ow
A TION</w>
stra in</w>
p um
meth yl</w>
Hot el</w>
undoub tedly</w>
h el</w>
bri d</w>
commen sur
bur n</w>
selec tive</w>
volati le</w>
3 6
rub ber</w>
compati bility</w>
or i</w>
gu ests</w>
is ure</w>
tre ating</w>
ric k</w>
re fri
e an
co stly</w>
t one</w>
see ds</w>
es cap
at ro
liqu idated</w>
ing redi
Com or
TI ES</w>
sym pa
fi ting</w>
eg gs</w>
heal th
dilig ence</w>
N ear</w>
tru ck</w>
tic kets</w>
phot o
c ali
SI ON</w>
N ew
st ones</w>
tour ist</w>
doctr ine</w>
y ard</w>
collabor ate</w>
E .
Le e</w>
remitt ances</w>
st o
2 51</w>
assign ments</w>
ar ose</w>
clust ers</w>
cl oud</w>
whe el</w>
Offic es</w>
bor row
c ast
correc ted</w>
cooper atives</w>
applic ability</w>
ass ass
liqu idity</w>
enti tlements</w>
il a</w>
Electr onic</w>
fru it
Abd ul
pat ent</w>
domin ated</w>
US A</w>
14 .
197 6</w>
ar ization</w>
vege tables</w>
Aspec ts</w>
ic ed</w>
Con servation</w>
a sive</w>
E T</w>
st om
form erly</w>
et al</w>
5 .2</w>
cre w</w>
micro finance</w>
fil ms</w>
P F
el ed</w>
cap tain</w>
19 60</w>
extr action</w>
perc ep
encoura gement</w>
char ging</w>
G C</w>
suppor ters</w>
er ian</w>
Bi o
attemp ting</w>
Hosp ital</w>
mag netic</w>
3 7
gol den</w>
L ic
im m
predec essor</w>
bre aches</w>
investig ators</w>
communiqu é</w>
Prac tices</w>
identi fies</w>
vac ation</w>
er als</w>
agend as</w>
facilit ates</w>
tak ings</w>
M iss</w>
ul a</w>
ke ys</w>
h es
not able</w>
gu ards</w>
prosecu tions</w>
artis tic</w>
helicop ter</w>
Ver de</w>
UN V</w>
AC C</w>
Chair men</w>
Mon aco</w>
k i
em ploy</w>
ban d
mer it</w>
ner v
mercen aries</w>
I FA
jud gements</w>
commensur ate</w>
acti vi
N eg
i ii</w>
rec eption</w>
a res</w>
E mbass
wor ried</w>
eigh teenth</w>
deci ding</w>
rejec t</w>
depos ited</w>
Mus lim
substanti ated</w>
leg acy</w>
empower ed</w>
Embass y</w>
p a</w>
end ang
der og
15 4</w>
de pression</w>
aggres sive</w>
fi x</w>
ap pointing</w>
univers ally</w>
am ong
tot alling</w>
n ic
ee ts</w>
determin es</w>
ain e</w>
o be
exemp tions</w>
17 0</w>
UN MO
Priv ate</w>
C IS</w>
ur a</w>
appreci ates</w>
po t</w>
petro leum</w>
parti te</w>
bre ath</w>
Min orities</w>
G B
sophistic ated</w>
restor ed</w>
ra ft</w>
Trans fer</w>
st ayed</w>
insul a</w>
fir stly</w>
l ap
p en</w>
b acks</w>
Char les</w>
margin alization</w>
coer cive</w>
anx i
on er</w>
appro ached</w>
ministr y</w>
celebr ate</w>
Chr ist</w>
3 4
t ells</w>
S D
Muslim s</w>
C red
ero sion</w>
correspond ence</w>
ol ly</w>
moder ate</w>
civ ic</w>
volunte er</w>
under ground</w>
un fair</w>
affir mative</w>
belon gs</w>
scho ol
Pre vent</w>
B lack</w>
immun ities</w>
de portation</w>
Mig rant</w>
libr aries</w>
A T
S D</w>
compe te</w>
Id enti
b acked</w>
ari ous</w>
ci des</w>
crimin als</w>
pandem ic</w>
Sub si
15 8</w>
5 .1</w>
w ash</w>
me tric</w>
among st</w>
15 2</w>
free zing</w>
ri gor
l ers</w>
assum ing</w>
z o
res ti
por tra
neg atively</w>
d ying</w>
ri gation</w>
SA DC</w>
comple mented</w>
depu ty</w>
interpre tative</w>
share holders</w>
ten ds</w>
indic t
dis covery</w>
ologi sts</w>
advoc ated</w>
after math</w>
rou ghly</w>
m ic</w>
dev ote</w>
ro of</w>
S hel
succ essive</w>
d rome</w>
UND OF</w>
w eg
el and</w>
B order</w>
priv atization</w>
In formal</w>
in vi
ar ching</w>
U C
CO UNC
sign atories</w>
regret ted</w>
busin ess
Qu ar
16 1</w>
nor m</w>
inspec tors</w>
COUNC IL</w>
establish ments</w>
edi tion</w>
i stry</w>
IA L</w>
four teenth</w>
Su n</w>
S har
settl ers</w>
benefici ary</w>
Y oun
wor n</w>
fres h
En forced</w>
susp end</w>
lea f</w>
ec ho
Sol id
bo y
B rown</w>
ic ked</w>
197 2</w>
gen e</w>
Ch en</w>
R ico</w>
hom o
ad ays</w>
Enhan ced</w>
ne ts</w>
Ac ts</w>
conver ted</w>
he igh
T al
5 7
consci ousness</w>
Sta bil
1. 6</w>
el iness</w>
acc essing</w>
reser vo
bu b
atic al</w>
A P</w>
is a</w>
Perio dic</w>
civil izations</w>
Z hang</w>
v ec
ran ks</w>
con secu
Ch er
8 0
ban ds</w>
P .</w>
affir ms</w>
In clud
sh ine</w>
ra dic
a o
Mo hamed</w>
ti les</w>
bor rowing</w>
3 9
dra g
di ments</w>
prefer ential</w>
fin ite</w>
s k</w>
De sign</w>
contrac ted</w>
in vention</w>
F il
13 .
T N
Intel ligence</w>
Dut ch</w>
H us
D r</w>
rel la</w>
pain t</w>
distingu ish</w>
be aten</w>
ou l</w>
14 8</w>
ye i</w>
emer ge</w>
pri de</w>
Qu ality</w>
w er
li b
scenari os</w>
whe at</w>
aut umn</w>
succ esses</w>
Grou ps</w>
br e</w>
Ab yei</w>
inter regional</w>
G oo
su ff
g over
as m</w>
des per
tu be</w>
sequ ence</w>
weak ness</w>
ti de</w>
fla v
P N
dem anding</w>
evac uation</w>
st airs</w>
sh eets</w>
hin dered</w>
inno vations</w>
} </w>
minim al</w>
en su
cla uses</w>
fav or</w>
chec ked</w>
restra int</w>
import antly</w>
g all
N .</w>
be ar
cr ude</w>
Pro gress</w>
pra g
bene fiting</w>
appro ves</w>
s light</w>
inser t</w>
expec tancy</w>
refer ral</w>
publ icity</w>
under takings</w>
aud itors</w>
Man ager</w>
resti tution</w>
V in
vend or</w>
o tic</w>
UNAM A</w>
inev itable</w>
O t
Nor weg
Cal edonia</w>
A sh
in cl
fi ber</w>
mortg age</w>
FA R
min ds</w>
ful ness</w>
M anu
E X
sup pose</w>
coo king</w>
us efulness</w>
explo ded</w>
in complete</w>
cha mber</w>
Def ense</w>
B DE</w>
stream line</w>
{ </w>
gener ic</w>
Virg in</w>
trav elling</w>
g ger</w>
com posite</w>
ignor e</w>
ol ate</w>
4 8
link age</w>
habil itation</w>
MD G</w>
t sunami</w>
per man
cam pus</w>
ad i</w>
Agre ements</w>
l ev
h ec
14 9</w>
life time</w>
evol ved</w>
R ole</w>
CT BT</w>
regi on
hier arch
Equ atorial</w>
C arri
In d
li ked</w>
S k
stop ping</w>
st y
t ful</w>
sh ells</w>
B re
sh ell</w>
fl ed</w>
met als</w>
otechn ology</w>
mis sed</w>
ga ret
dram atically</w>
Qu een</w>
2 20</w>
18 .
10 ,
pl enty</w>
lic ences</w>
comb ining</w>
susp icious</w>
g ear</w>
atter ed</w>
ex am</w>
st al
ste ering</w>
utiliz ing</w>
e ted</w>
lan ding</w>
compens ate</w>
contam ination</w>
T F</w>
phys ically</w>
parlia ments</w>
jour nal</w>
mu t
in hi
broad en</w>
pl ain</w>
impe de</w>
holid ays</w>
gradu ation</w>
R I</w>
flu id</w>
class room</w>
in appropriate</w>
be st
Presid ential</w>
propos ing</w>
p ays</w>
F el
sc ep
acqu iring</w>
Ex peri
out look</w>
activi sts</w>
O L</w>
3. 4</w>
ir rever
st olen</w>
me tr
am ble</w>
20 8</w>
volati lity</w>
pre trial</w>
it ating</w>
enti tlement</w>
tan ks</w>
par ity</w>
a ero
compe ting</w>
y ours</w>
sour cing</w>
scour ge</w>
W ast
ver ing</w>
s enti
it a</w>
Ser bian</w>
P sy
carri age</w>
bi om
A ward</w>
design s</w>
Stabil ization</w>
str ing</w>
pric ing</w>
chick en</w>
19 2</w>
cre am</w>
Ser b</w>
invi ting</w>
at tained</w>
US CO</w>
bad ly</w>
fo ssi
erad icating</w>
ci garet
no d
min ent</w>
P aper</w>
deleg ate</w>
20 1</w>
soci alist</w>
po is
l acked</w>
gi fts</w>
es sion
Pris on</w>
v ables</w>
accum ulated</w>
explo sion</w>
Norweg ian</w>
un changed</w>
tou ched</w>
now adays</w>
Cer tain</w>
glo be</w>
cle ans
ul i
consi sted</w>
2. 6</w>
tin a</w>
Com pens
remain der</w>
break fast</w>
Georgi an</w>
un encumbered</w>
loc ate</w>
con form</w>
MON USCO</w>
off ensive</w>
choo sing</w>
inspi red</w>
g az
accru ed</w>
escal ation</w>
ust er</w>
t less</w>
Coun ty</w>
reti red</w>
present ly</w>
oni alism</w>
wor sen
shar ply</w>
persecu tion</w>
cle ared</w>
step ped</w>
di oxide</w>
thir dly</w>
Bel ize</w>
vo ices</w>
par amount</w>
UN ME
Mex ican</w>
tr il
Provi de</w>
um e</w>
happen ing</w>
conveni ence</w>
vir al</w>
Po int</w>
f on
Im proved</w>
hi red</w>
democrati zation</w>
consecu tive</w>
sev enty</w>
rec k
S hen
B ali</w>
prev ail</w>
concentr ations</w>
pl ates</w>
Civ ilian</w>
thro po
pro tests</w>
Thom as</w>
spac es</w>
con cur
in aug
S ey
Ob serv
tor tured</w>
secon ds</w>
gover n</w>
dis position</w>
n ment</w>
cy ber
B ou
S wa
16 5</w>
illustr ated</w>
cop per</w>
car di
prison er</w>
por ter</w>
cor relation</w>
alleg ation</w>
advis er</w>
B Y</w>
termin al</w>
CO P.
for ci
aff aires</w>
dis played</w>
Au t
in quiries</w>
fe at
d evi
equ iv
eg o
coun ts</w>
2 26</w>
shel f</w>
advoc ates</w>
ap ple</w>
IT Y</w>
perpe tu
d é
CIS G</w>
inter viewed</w>
for gotten</w>
con fin
op enness</w>
n ance</w>
&apos; i</w>
har b
ab sent</w>
han dic
mix ture</w>
endor se</w>
mo tivation</w>
hear ts</w>
cum ulative</w>
sh ops</w>
mass ac
ak er</w>
Vi ews</w>
bench mark</w>
adop ts</w>
as certain</w>
im men
finan cially</w>
connec tivity</w>
F estival</w>
Air port</w>
cen ters</w>
Cath olic</w>
2 2
r on</w>
p ushed</w>
fail ures</w>
.. ..
Be ir
16 .
ran e</w>
de duc
ir rigation</w>
poc ket</w>
A ge
in tra
Del eg
injec tion</w>
expedi tiously</w>
direc tives</w>
Fri ends</w>
15 9</w>
sex u
re unification</w>
qu est</w>
stri kes</w>
sy l
prof iles</w>
Har mon
K hal
p ump</w>
out lines</w>
recru it</w>
execu ting</w>
contro versi
il li
confron tation</w>
Sci ences</w>
b ited</w>
syn chron
aliz es</w>
al tit
r ated</w>
gun s</w>
R isk</w>
sol em
convic tions</w>
f ounding</w>
st ag
li ti
Ex c
sk a</w>
Re porting</w>
st em
pow ering</w>
fle et</w>
W OR
T han
specif ications</w>
ethn icity</w>
En ti
C M</w>
the ories</w>
conver gence</w>
A S</w>
H im</w>
be side</w>
emo st</w>
cros sed</w>
floo ds</w>
Hen ry</w>
H an
An y</w>
manufac tured</w>
figh ters</w>
gri ev
stabil izing</w>
pharmaceu tical</w>
ro oted</w>
for emost</w>
cen tu
&apos; affaires</w>
forwar ded</w>
N ag
h iring</w>
ce ased</w>
tail ored</w>
sustain ing</w>
renov ation</w>
o gn
clean er</w>
Erit re
impe ded</w>
be ars</w>
sm ell</w>
h ire</w>
Subsi diary</w>
en z
Ric hard</w>
os ity</w>
rem nants</w>
authen tic
C lu
sci ences</w>
at u</w>
fab ric</w>
tr ace</w>
numer ical</w>
vulner abilities</w>
over crow
educ ate</w>
colleg es</w>
so ever</w>
modi fications</w>
i el</w>
termin ated</w>
chec king</w>
UN TA
expec tation</w>
exacerb ated</w>
4 7
Sur in
Compens ation</w>
su </w>
infec tious</w>
U D
un certain</w>
Argentin e</w>
sle eping</w>
fac tual</w>
a is</w>
Pa ul
till ery</w>
econom ists</w>
no ble</w>
under mining</w>
sim plified</w>
em bed
G O
s er</w>
psy chiat
p y
b rown</w>
ID Ps</w>
X III</w>
Cl inton</w>
Mac ao</w>
stockpil es</w>
mobil ized</w>
Cred entials</w>
c ation</w>
An tar
shoo ting</w>
Beir ut</w>
19 69</w>
10 th</w>
thre w</w>
A WG</w>
2 13</w>
correc tion</w>
amb ass
3 .</w>
ir a</w>
ex tin
quot as</w>
proc uring</w>
intermedi ate</w>
e ffic
f ans</w>
Age ing</w>
ex porting</w>
con fusion</w>
Oper ational</w>
st amp</w>
some where</w>
measu rable</w>
Del i
dis close</w>
over see</w>
c end
T ex
cohe sion</w>
asi </w>
shir t</w>
Execu tives</w>
stabil ize</w>
adj acent</w>
o ke</w>
tri bal</w>
ST RA
Comp act</w>
19 51</w>
traffic ked</w>
spre ading</w>
S ul
Re habilitation</w>
inter related</w>
FAR DC</w>
18 3</w>
gu est</w>
UND G</w>
ra p</w>
progres sively</w>
accompan ying</w>
requ isite</w>
ham pered</w>
PO L</w>
Econom y</w>
st up
Cour ts</w>
16 7</w>
pre domin
oc king</w>
Gu iding</w>
ght ful</w>
K har
2 11</w>
p ounds</w>
g as
P F</w>
Ch all
S H
im balances</w>
pack aging</w>
exten ds</w>
2 42</w>
e k
TION AL</w>
wil d
ur ging</w>
human e</w>
Micro soft</w>
Mun icip
M a</w>
selec ting</w>
cor ner
scar ce</w>
ha bits</w>
Kim ber
rest oring</w>
Y a
Di plom
S o</w>
s and
imm une</w>
R M
P ER
segreg ation</w>
perfec tly</w>
defe at</w>
Clu b</w>
impres sive</w>
Ethiop ian</w>
ra ge</w>
fil ter</w>
any way</w>
noti fications</w>
bure au</w>
fin alization</w>
centu ries</w>
m as
ch rom
acc us
Solid arity</w>
instru mental</w>
institu ted</w>
inform ing</w>
out break</w>
condem n</w>
pi one
deser t</w>
Willi am</w>
but ton</w>
compl ied</w>
par king</w>
lau gh</w>
inser ted</w>
embo died</w>
al be
r um
lever age</w>
cor rid
c us
vol tage</w>
competen cies</w>
Maj or</w>
swim ming</w>
S r
ri vers</w>
pl ight</w>
mo des</w>
Refuge e</w>
K ow
Swa z
termin ology</w>
A y
schol ars</w>
develop s</w>
congrat ulations</w>
UNOMI G</w>
D uring</w>
L OS</w>
SA T</w>
s om
Aud itor</w>
tou rists</w>
c and
form ance</w>
de forestation</w>
hop ing</w>
ac le</w>
it y
A ri
on es
batt ali
qui red</w>
op ti
4. 4</w>
M an</w>
persi st</w>
att or
strength s</w>
resi ding</w>
optim ization</w>
er o</w>
S us
harv est</w>
2 10</w>
sk i</w>
p raise</w>
UNME E</w>
elli sts</w>
vac u
pol lutants</w>
pil ing</w>
deb ted</w>
de structive</w>
al arm</w>
Al ex
Coun sel</w>
conf ront</w>
a es
i ological</w>
bel t</w>
ad or
ev enth</w>
ap h
5. 5</w>
inev itably</w>
un ci
distribu te</w>
N az
tr a</w>
k ong</w>
sustain ment</w>
oxy gen</w>
metall ic</w>
y cle</w>
pl u
High er</w>
fluctu ations</w>
De tention</w>
Alban ian</w>
Dis ability</w>
18 9</w>
su mes</w>
ration ale</w>
0. 7</w>
sc ales</w>
organ isms</w>
parame ter</w>
mir ror</w>
Med ic
K ur
inter actions</w>
fruit ful</w>
block ade</w>
5. 3</w>
seiz ure</w>
ti um</w>
li ps</w>
con g
at tracting</w>
sup er</w>
over arching</w>
M en</w>
ord nance</w>
c ture</w>
saf er</w>
r ounds</w>
reas ing</w>
prioriti ze</w>
a. i.</w>
ur y</w>
enrol led</w>
19 9</w>
w av
cir cular</w>
ro ad
phot os</w>
indic ations</w>
ar ises</w>
al ert</w>
i tive</w>
di stant</w>
se ize</w>
or derly</w>
high way</w>
pan ellists</w>
b anned</w>
vi an</w>
hol es</w>
T om
the ft</w>
contain ers</w>
2 1st</w>
dou bled</w>
are ly</w>
Kiv u</w>
O pen
ob struc
mis use</w>
St an
main land</w>
19 .
F OR
16 4</w>
us ha</w>
umb rella</w>
stimul us</w>
ele mentary</w>
Kow loon</w>
tap e</w>
N ation
U s</w>
polic ing</w>
12 ,
pain ful</w>
inter cultural</w>
16 3</w>
ul ating</w>
F S</w>
p in</w>
entail s</w>
Comor os</w>
n i</w>
interpre ters</w>
dead lines</w>
fru its</w>
ar tillery</w>
bl ack
Surin ame</w>
Li u</w>
recei vables</w>
hun gry</w>
vig il
rad ical</w>
supple mented</w>
complement arity</w>
IC SC</w>
2 70</w>
6. 5</w>
un equiv
un a</w>
vari ation</w>
fav oured</w>
Cam pa
ta bl
e ased</w>
ve to</w>
trans formed</w>
sup pression</w>
I OM</w>
5 8
ong a</w>
obser ves</w>
Rec over
fab ric
ESC R</w>
sing ing</w>
reduc es</w>
coun sel
bid ding</w>
tri gger</w>
ati m</w>
coun ted</w>
al thy</w>
stat eless</w>
R U
2 27</w>
en act</w>
abstr act</w>
li p
tim ber</w>
c s</w>
H and
audi ting</w>
R D</w>
Accor d</w>
IFA D</w>
g é</w>
em in
tec h</w>
op ium</w>
ex ter
dres sed</w>
sy nergy</w>
militi as</w>
for cement</w>
apo log
Contr act</w>
particip ates</w>
Min im
off shore</w>
gra des</w>
Prom ote</w>
Indone sian</w>
compu ting</w>
X in
labor atories</w>
Chris ti
17 3</w>
17 5</w>
mill ennium</w>
cataly st</w>
bu yers</w>
pu rely</w>
ain s</w>
ke en</w>
abet es</w>
spe edy</w>
copy right</w>
sear ching</w>
di str
Kab ul</w>
Goo gle</w>
shor ter</w>
es sively</w>
Youn g</w>
hol y</w>
V o
M issions</w>
Lu cia</w>
am i</w>
dis cover</w>
L ake</w>
W hole</w>
P ra
Langu age</w>
repor ters</w>
re forming</w>
sk ir
wor ship</w>
cap </w>
purch ases</w>
nav al</w>
yi el
dec reasing</w>
c ure</w>
affor ded</w>
lo ving</w>
interven e</w>
V EN
sign atory</w>
Pro tec
canc elled</w>
ad m
wh o
po ly</w>
be ach</w>
ad i
qu alities</w>
dialo gues</w>
ded ication</w>
co c
B ir
eg g</w>
re plen
pro claimed</w>
le isure</w>
M ot
val ve</w>
predic tability</w>
ME ET
Inspec tor</w>
L R</w>
lo ads</w>
al arming</w>
administr ations</w>
GH G</w>
Jo s
ent e</w>
fe deration</w>
par the
f arms</w>
UNAM SIL</w>
1, 500</w>
complain ants</w>
re ward</w>
Organ ic</w>
v oter</w>
parthe id</w>
n est</w>
b old</w>
P B
w oo
exten sively</w>
V e
pli ance</w>
Cri mes</w>
po lit
mo ther
2 48</w>
ra il</w>
un sustainable</w>
del icate</w>
R B
Fish eries</w>
pro voc
S ports</w>
Swaz iland</w>
vo l</w>
st aying</w>
sh ut
enjo ys</w>
concer t</w>
CO 2</w>
T O
euro s</w>
ak h</w>
wh is
om ed</w>
Recover y</w>
deterior ating</w>
op ens</w>
at us</w>
St ation</w>
produc er</w>
clou ds</w>
L .1</w>
inter ior</w>
Ap point
volum es</w>
vari ations</w>
ur in
6 7
17 2</w>
R .</w>
K h
4 9
pro vo
confron ted</w>
bag s</w>
2. 7</w>
olog ist</w>
inter f
industri alization</w>
celebr ation</w>
op t</w>
R Y</w>
tur ally</w>
me ta
lod ged</w>
child care</w>
chem istry</w>
sel f
enjo ying</w>
ch oc
narr ative</w>
o de</w>
C au
on el</w>
pro tracted</w>
dark ness</w>
guar di
text books</w>
bu ried</w>
short ages</w>
docu mentary</w>
commission ed</w>
For m</w>
sign atures</w>
c ab
eu tic</w>
ater ally</w>
O l
b n</w>
D ou
n is</w>
fru str
16 8</w>
1. 7</w>
re placing</w>
descri bing</w>
un authorized</w>
m ouse</w>
consult ancy</w>
Sal es</w>
read ers</w>
extr ater
20 3</w>
explo ited</w>
mis tic</w>
Ti bet
v ille</w>
tr ust
be er</w>
SA F</w>
pon ent</w>
Ser bs</w>
on able</w>
def er</w>
Mon ey</w>
un due</w>
p acking</w>
explo it</w>
Char gé</w>
l acks</w>
vari ables</w>
re sts</w>
deser ves</w>
1. 8</w>
olu tions</w>
B or
cur b</w>
Kimber ley</w>
rep airs</w>
Vin cent</w>
Jos é</w>
s ad
m am
Effec tive</w>
val idation</w>
academ ia</w>
UNAM I</w>
co ok</w>
cann ab
interf ere</w>
effic acy</w>
Com pu
fossi l</w>
d well
Incre ase</w>
excell ence</w>
V anu
vari es</w>
consul ar</w>
be dro
back log</w>
th al</w>
la ying</w>
cleans ing</w>
Pre ven
inter loc
emb rac
6 8
un equal</w>
demonstr ating</w>
at taining</w>
al isation</w>
she ep</w>
S p
ship ments</w>
even tual</w>
e te</w>
ra b
mot or
clo th</w>
cor rupt</w>
recru iting</w>
Ser ies</w>
IP O</w>
Sub .2</w>
initi ation</w>
ic its</w>
lik eli
Tra ffic</w>
Appl ications</w>
organ isation</w>
intelli gent</w>
not e
con gres
adjour nment</w>
al istic</w>
it ness</w>
in sec
Campa ign</w>
ge ared</w>
ch est</w>
dem ol
sh ouldn</w>
seiz ures</w>
ran dom</w>
confir ms</w>
bl an
engine ers</w>
diagno stic</w>
deep en</w>
ab duction</w>
S CO</w>
cri ed</w>
H ave</w>
tain able</w>
mer chan
bab ies</w>
acc eding</w>
ei ve</w>
bi enn
En forcement</w>
cul min
repe ti
p es
in mates</w>
ht m
3 50</w>
le an</w>
Po st
M ach
announ ce</w>
p o</w>
Per formance</w>
IP CC</w>
nutri tional</w>
cred ited</w>
prosper ous</w>
re vol
comp ile</w>
Sup ply</w>
M other</w>
i ons</w>
ell a</w>
up held</w>
on ym
j unior</w>
Ver ification</w>
sh ou
Eritre an</w>
far mer</w>
cooper ated</w>
S hu
ri ding</w>
protec ts</w>
actu arial</w>
Comb ating</w>
For est</w>
Vanu atu</w>
D on</w>
enter tainment</w>
affili ated</w>
absor bed</w>
D NA</w>
un accompanied</w>
announ cements</w>
Fe der
gu a</w>
mat ching</w>
dra ul
ome ter</w>
Ab original</w>
vis as</w>
Sou theast</w>
Ar usha</w>
6 .1</w>
wor th
min erals</w>
inter rupted</w>
il i</w>
disproportion ate</w>
bom bs</w>
zz y</w>
ter tiary</w>
Ex port</w>
nerv ous</w>
Bro ad
absor ption</w>
Fi ve</w>
al lies</w>
x i</w>
per mis
ca ke</w>
spo ts</w>
in discriminate</w>
Com pliance</w>
car ing</w>
centr alized</w>
&apos; clock</w>
ur u</w>
depend ency</w>
N av
H az
en acting</w>
em powering</w>
O f</w>
gr ace</w>
cre ativity</w>
G ir
suspici on</w>
K am
el o
í a</w>
au to</w>
schedul es</w>
an thropo
ID F</w>
tou m</w>
pho sph
ex changed</w>
pass es</w>
re sistant</w>
seri ousness</w>
ex ported</w>
calcul ate</w>
accep ts</w>
to il
fin gers</w>
dismis sal</w>
20 .
if f</w>
bo xes</w>
be am</w>
13 25</w>
l es
d d
co ach</w>
2 14</w>
verb atim</w>
son gs</w>
liber ation</w>
Sat ell
leng thy</w>
RE P
Bel grade</w>
mitig ating</w>
O w
V IC</w>
C as
19 63</w>
ket ball</w>
controversi al</w>
p ings</w>
www. un
t land</w>
commun al</w>
In stru
Imp act</w>
F alk
Add. 3</w>
gan g</w>
2 40</w>
immun ization</w>
gh ters</w>
ev ed</w>
vacu um</w>
don ations</w>
veg et
mag ic</w>
loo se</w>
organ ised</w>
bo ats</w>
pr en
bu ffer</w>
Ch ic
lo ves</w>
di stress</w>
Par ag
17 1</w>
deliber ately</w>
Ar ran
absor b</w>
F ront</w>
Effec ts</w>
fin ger</w>
ex porters</w>
R oman</w>
circul ate</w>
Ham as</w>
19 0</w>
def icits</w>
UNMI T</w>
me ters</w>
L a</w>
Col um
im balance</w>
ba th
Y e
stri king</w>
col ors</w>
6 .2</w>
re aches</w>
Contro ller</w>
t act</w>
arti sts</w>
Sey ch
im porting</w>
ex citing</w>
c rac
Ber lin</w>
9 0
abol ish</w>
ER AL</w>
sc aling</w>
k o
inten tions</w>
enem ies</w>
cont est</w>
scholar ships</w>
ra s
nar cotic</w>
likeli hood</w>
t ance</w>
S pr
L M</w>
bur st</w>
1, 7
rigor ous</w>
r atory</w>
hin der</w>
cannab is</w>
transfer ring</w>
perpetr ator</w>
sla ve</w>
har sh</w>
al ised</w>
vi ability</w>
C ase</w>
trac ing</w>
sp an</w>
f ic
equ ation</w>
enrich ment</w>
Ind ex</w>
M ines</w>
s c</w>
par am
reve als</w>
j ac
extrem ism</w>
infra structures</w>
at omic</w>
led ge</w>
gri d</w>
fem in
rememb ered</w>
y early</w>
stom ach</w>
fe t
E liz
gh ted</w>
al ter</w>
under going</w>
sor tium</w>
predic t</w>
col li
17 4</w>
Princip al</w>
Ar ctic</w>
extrater rit
Khar toum</w>
stu ck</w>
po e
K it
rol led</w>
Contr acts</w>
con sen
en za</w>
any body</w>
T otal</w>
Con solid
V .</w>
su ited</w>
er up
HK SAR</w>
18 1</w>
se wage</w>
en um
depen ded</w>
do zen</w>
standardi zation</w>
employ ing</w>
In no
sen sor</w>
confisc ated</w>
Mini stries</w>
Anti gua</w>
re actions</w>
dis order</w>
phy si
per or</w>
off ender</w>
G on
brom ide</w>
IT U</w>
au x</w>
ã o</w>
warran ted</w>
cau tion</w>
19 1</w>
reli ed</w>
rati os</w>
syn thetic</w>
re pris
Q U
ER P</w>
om ing</w>
ho stage</w>
indi si</w>
fran k</w>
co existence</w>
assi gn</w>
Tim or
0. 5</w>
A ge</w>
p tive</w>
syn drome</w>
Minim um</w>
asser ted</w>
K e
re classification</w>
overl ap</w>
P DF</w>
termin ate</w>
ti p</w>
T T</w>
Tw enty</w>
cur ve</w>
cor n</w>
shoo t</w>
ex em
Mar shall</w>
flag rant</w>
bl u
Br indisi</w>
ill ary</w>
percep tions</w>
ew ater</w>
II I.
cra zy</w>
L ar
Stock piling</w>
O U
Investig ations</w>
ego ing</w>
conc iliation</w>
rob bery</w>
le an
cl ashes</w>
6. 3</w>
or a</w>
differenti ated</w>
Con trac
par ticles</w>
A k
ne uro
health care</w>
se al</w>
in fer
sit uated</w>
for egoing</w>
Seych elles</w>
18 5</w>
4 .</w>
vacc ine</w>
K P</w>
Ah med</w>
2 18</w>
uni verse</w>
summ aries</w>
se is
UNMI SS</w>
13 ,
sincer ely</w>
res cent</w>
on ian</w>
sugg esting</w>
co inci
mag n
inst ant</w>
Off r</w>
iti s</w>
gir l
tari ffs</w>
qual ify</w>
photograph s</w>
in sp
estim ation</w>
abe th</w>
pre amble</w>
Republ ican</w>
differ ently</w>
Pro jec
fun ny</w>
deep ening</w>
therap eutic</w>
rou tin
le ep</w>
govern or
appro aching</w>
S la
wid th</w>
multi disciplinary</w>
Proce dures</w>
GEN ERAL</w>
comman der</w>
t oll</w>
fi er</w>
it er</w>
inst all</w>
d ent</w>
PRO FOR</w>
D yn
Equ ip
un liquidated</w>
di abetes</w>
short fall</w>
tra ders</w>
en counter</w>
dau ghters</w>
believ ing</w>
Sup ple
k iss</w>
Af ter</w>
embed ded</w>
z er</w>
Me etings</w>
Dec .
go d</w>
P ot
Em power
fac tories</w>
G lob
comprehen sively</w>
2 33</w>
17 7</w>
extre mist</w>
bur ned</w>
K im</w>
kn ife</w>
cra sh</w>
detri mental</w>
lea ther</w>
Land locked</w>
Jud ges</w>
vol can
f ought</w>
B et
18 4</w>
sensitiz ation</w>
over time</w>
m g</w>
influ ences</w>
M it
2 30</w>
insi sted</w>
Croati an</w>
Ad ap
wor e</w>
Truste es</w>
scru tiny</w>
is co</w>
it ude</w>
as cular</w>
si lic
in ge</w>
bo om</w>
an th
UN PROFOR</w>
thr ust</w>
enthusi asm</w>
L Y</w>
H ong
clo sures</w>
CN </w>
ones elf</w>
draul ic</w>
D. C.</w>
&apos; a</w>
hol dings</w>
Empower ment</w>
CP C</w>
B il
pri ze</w>
prag matic</w>
obser ving</w>
17 .
let es</w>
l ou
g oo
Y es</w>
val u</w>
Fun da
se y</w>
sacrif ice</w>
it ability</w>
re deployed</w>
n am</w>
a erial</w>
Commun ities</w>
un even</w>
by e</w>
multi sectoral</w>
fra mes</w>
tu </w>
t .
18 6</w>
ch e</w>
c ked</w>
as cer
L et</w>
resi st</w>
ware house</w>
posi tioning</w>
conc essions</w>
sub sid
al liance</w>
mat urity</w>
E L</w>
tent ative</w>
r ats</w>
gi </w>
20 2</w>
as y</w>
No t</w>
N ature</w>
sh an</w>
G ener
A re
fra ud
u sive</w>
w ound</w>
H ist
C. 12</w>
inval id</w>
ch ur
In come</w>
Develop </w>
perman ently</w>
lor d</w>
constra ined</w>
1, 4
M S
stro ke</w>
Sub commission</w>
J ane</w>
C anc
H S</w>
X IV</w>
3 5
v ested</w>
arma ments</w>
Val en
p assive</w>
C W</w>
oc ity</w>
acc essed</w>
pre ferences</w>
el eg
k id</w>
propag anda</w>
cy lin
comman ders</w>
as sed</w>
abduc ted</w>
Mus eum</w>
Ex am
20 6</w>
lo vely</w>
clu bs</w>
ex er
Oc eans</w>
vibr ation</w>
promp ted</w>
insi st</w>
fi res</w>
enfor cing</w>
ul ous</w>
preser ved</w>
ide ological</w>
oc rac
re organization</w>
M as
saf ely</w>
compli ant</w>
An dor
partic ul
theat re</w>
D ak
hel lo</w>
Cer tif
lux ury</w>
c king</w>
Dan iel</w>
tri angular</w>
dir ty</w>
arsen als</w>
am nesty</w>
1, 8
p an</w>
Ann an</w>
15 ,
under stands</w>
analy zing</w>
H IP
tit les</w>
continu ally</w>
C up</w>
me als</w>
execu te</w>
diff usion</w>
measu rements</w>
Tu valu</w>
ho se</w>
un conditional</w>
p ack</w>
FM CT</w>
char ter</w>
V ER
regret table</w>
V en
mak er</w>
il it
Wh ile</w>
Direc tors</w>
remedi al</w>
ge ological</w>
bas in</w>
ha th</w>
L ess
n ic</w>
18 7</w>
14 ,
n ight
al together</w>
illustr ate</w>
atmo spheric</w>
compl ications</w>
sex es</w>
arri ving</w>
r ush</w>
z i</w>
manufactur er</w>
bur dens</w>
traffic kers</w>
tion ist</w>
pro xim
b ons</w>
techn ically</w>
hor ri
Pl urin
20 5</w>
so far</w>
interpre t</w>
in sured</w>
x y</w>
O zone</w>
D S</w>
all ot
Qu estion</w>
re fined</w>
Falk land</w>
Plurin ational</w>
under lining</w>
execu tives</w>
U PR</w>
7. 5</w>
17 8</w>
re taining</w>
en ters</w>
calcul ating</w>
D ig
un expected</w>
gener ators</w>
supervis e</w>
preven ts</w>
ensu ing</w>
dis advantages</w>
del im
b anning</w>
aw a</w>
br ush</w>
at o
rad ar</w>
defec ts</w>
lec tures</w>
O x
tow er</w>
movi es</w>
H al
A z
roc ks</w>
pas sion</w>
ICA O</w>
assi sts</w>
up ward</w>
s ely</w>
res em
ri b
eman ating</w>
optim ize</w>
admini ster</w>
2. 8</w>
an tine</w>
UN LB</w>
sign ation</w>
l oud</w>
ob sol
M C</w>
Fu ture</w>
Abk haz
s an
new s
ath letes</w>
orph ans</w>
here in
Chic ago</w>
ligh ting</w>
sal am</w>
j et</w>
guid es</w>
dis advantage</w>
ra bility</w>
instruc ted</w>
hu an</w>
condem nation</w>
wid ening</w>
STRA W</w>
IN STRAW</w>
re building</w>
anxi ety</w>
2 60</w>
gl asses</w>
b age</w>
P M</w>
Kin sh
consum ing</w>
so oner</w>
fif teen</w>
hon ey</w>
b arre
T own</w>
Con cer
in sofar</w>
w ashing</w>
su its</w>
emb race</w>
spe aks</w>
mat y</w>
Kinsh asa</w>
it orial</w>
di o</w>
country side</w>
F rom</w>
stup id</w>
an ten
he tam
finan ces</w>
Cl assi
Al maty</w>
50 0,000</w>
contem pl
Wh o</w>
s word</w>
pen sion
confron ting</w>
L DC</w>
trav elled</w>
sanit ary</w>
2 25</w>
Val ley</w>
si tions</w>
Organiz ational</w>
under go</w>
id ate</w>
g au
de preci
exp elled</w>
8 ,000</w>
pre sumption</w>
Wh y</w>
aggrav ated</w>
te t</w>
rup t
al t</w>
manu als</w>
B ac
ordin ate</w>
j ust
er ec
Mor oc
ve ter
sam pling</w>
O ri
comp act</w>
Bar bud
fil tr
2. 30</w>
brid ges</w>
aband on</w>
F F</w>
2 43</w>
f ever</w>
dev o
conserv ative</w>
clear er</w>
Provi sions</w>
He av
h ep
ci on</w>
br illi
Observ atory</w>
legisl ature</w>
extraterrit orial</w>
contribu tor</w>
Nar cotics</w>
G IS</w>
cr a</w>
In dic
20 9</w>
ig ning</w>
pr one</w>
es a</w>
compl ain</w>
Recommend ation</w>
Pol y
ed itor</w>
R T</w>
olog ically</w>
ev o</w>
mus cle</w>
ini an</w>
de an</w>
prospec tive</w>
lo y
L RA</w>
me ter</w>
rebel s</w>
excee ds</w>
Sub stances</w>
multi dimensional</w>
ath le
arti st</w>
bel l</w>
after wards</w>
lic e</w>
O L
Gu ar
con scienti
under line</w>
I B
mi er</w>
Over seas</w>
Main tenance</w>
7 ,000</w>
herein after</w>
Barbud a</w>
ocrac ies</w>
encomp ass</w>
divi d
au t</w>
Moroc can</w>
C an</w>
mid term</w>
Brun ei</w>
6 9
tax i</w>
k its</w>
Rec ogn
H ur
C U
pip eline</w>
bas ketball</w>
engine er</w>
S ic
19 4</w>
irrever sible</w>
enc e
buil ds</w>
b es
17 6</w>
IC CD</w>
nar row
inter act</w>
foo ting</w>
w rap
strong est</w>
ik h</w>
bacter ia</w>
unfortun ate</w>
c attle</w>
inter dependent</w>
cryst al</w>
Sy m
sur render</w>
simultan eous</w>
circum stance</w>
19 8</w>
ti ps</w>
reluc tant</w>
es el</w>
dis appointed</w>
D D</w>
autom ation</w>
t ear</w>
fir ing</w>
Im mun
temper atures</w>
n our
prem ium</w>
check points</w>
J im</w>
writ ers</w>
ste am</w>
sexu ality</w>
Part nerships</w>
ol a</w>
mom ents</w>
dis orders</w>
Ta i</w>
perc us
exc ited</w>
bor row</w>
Commun ist</w>
batter y</w>
appear ing</w>
D V
c ant</w>
compu ter
air ports</w>
ad ors</w>
in coming</w>
defend ants</w>
liter ary</w>
in effective</w>
crimin alization</w>
b row
grow s</w>
le af
embar ked</w>
Con tact</w>
re production</w>
ol f</w>
conduc ts</w>
OA S</w>
Austri an</w>
2 22</w>
Ab id
histor ically</w>
us salam</w>
surpris ing</w>
ri gen
inten tional</w>
Armen ian</w>
20 7</w>
corner stone</w>
ret ali
occa sionally</w>
municip ality</w>
th ri
bi as</w>
sha ke</w>
poor ly</w>
plan ted</w>
L ove</w>
Appoint ment</w>
liti gation</w>
3 0,000</w>
ten ant</w>
ide als</w>
Cri sis</w>
A M</w>
un cle</w>
priv ately</w>
mem ories</w>
cr ack</w>
confin ement</w>
assem bl
3. 6</w>
c ous
A th
Ch an
nur ses</w>
in spir
str ang
l item</w>
Equip ment</w>
veri fiable</w>
d ancing</w>
win ner</w>
rou s</w>
neglec ted</w>
mo ist
incre mental</w>
Ar e</w>
deser ved</w>
audi ences</w>
r s</w>
K now
lec ture</w>
d ong</w>
IC CPR</w>
r hy
phys ics</w>
dis k</w>
por table</w>
n as
imp air
18 8</w>
facilit ator</w>
An ton
ici ary</w>
dev ise</w>
dec om
B ar</w>
sw ing</w>
Ac cra</w>
enrich ed</w>
A tl
20 th</w>
alter ed</w>
a f</w>
res pir
distur bing</w>
In quiry</w>
clin ic</w>
L us
pay roll</w>
Pol ish</w>
Funda mental</w>
t asked</w>
explain ing</w>
shi fting</w>
list ened</w>
re build</w>
prec arious</w>
bi ke</w>
op posing</w>
e ager</w>
journ alist</w>
uti lities</w>
discipl ines</w>
ic able</w>
bul letin</w>
at tainable</w>
Ham mar
Del hi</w>
bit ter</w>
ass ing</w>
sympa thy</w>
W i
rel ax</w>
min ded</w>
dead ly</w>
ab used</w>
R ab
wi reless</w>
w ings</w>
ligh t
im minent</w>
Int ellectual</w>
occup y</w>
d are</w>
restaur ants</w>
no ver</w>
el ing</w>
diplom ats</w>
dis rup
b idity</w>
au ction</w>
constitu ent</w>
P lease</w>
Ko fi</w>
milest one</w>
Ab use</w>
w anna</w>
summar izes</w>
is ual</w>
Psy ch
OD S</w>
T am
M emor
J enn
SO A</w>
17 ,
lu gg
hu b</w>
preced ent</w>
p ushing</w>
pre cip
Truste eship</w>
th rown</w>
lib eral</w>
pu p
optim um</w>
victi m
qu e
a a</w>
Tibet an</w>
Under standing</w>
refri ger
extr act</w>
em ic</w>
bene ath</w>
stru ggling</w>
questionn aires</w>
Citi zens</w>
bre ast
hy draulic</w>
gr and</w>
exhaus tion</w>
ain ed</w>
WM O</w>
M et
L it
ro gen</w>
p raised</w>
coun ties</w>
G RA
ta wa</w>
disproportion ately</w>
S ant
fores ee
vo id</w>
ven tures</w>
class ical</w>
ab outs</w>
wast ewater</w>
exp ir
Mor gan</w>
G row
D at
Me di
stri p</w>
prob ability</w>
impe diments</w>
ess ly</w>
T EC
pre mature</w>
im migrant</w>
tim eliness</w>
ar ena</w>
F ed</w>
qu o</w>
Str uc
imag ination</w>
recommen ding</w>
in duction</w>
J ab
fl ame</w>
deleg ated</w>
W ell</w>
Econom ics</w>
practic ally</w>
Eliz abeth</w>
tri ps</w>
l ot
jum ped</w>
L earning</w>
am id</w>
B est</w>
D I
ograph ical</w>
conc eption</w>
hun ting</w>
stream lined</w>
initi ating</w>
Re per
L C</w>
fulf ill</w>
choc olate</w>
n ish</w>
coc aine</w>
bus tion</w>
tox icity</w>
regul ators</w>
om y</w>
N on
G old
W S
e u</w>
19 48</w>
trans form
rhe tor
carri ers</w>
2 28</w>
immen se</w>
h asn</w>
S G
2 21</w>
with drew</w>
2 41</w>
sl um</w>
B oo
g est
d um</w>
4. 6</w>
i x</w>
a partheid</w>
c av
M ur
constitu ting</w>
slow down</w>
eigh ty</w>
Fi re
DE V
est e
coun ting</w>
bal ancing</w>
cor rigen
1, 5
what soever</w>
m ice</w>
200 ,000</w>
u el</w>
refu ge</w>
gram s</w>
ful lest</w>
subsid y</w>
ine es</w>
expir ation</w>
2 37</w>
trans ported</w>
l ung</w>
intr a</w>
complain ed</w>
predic ted</w>
out sourcing</w>
m o</w>
M AN
Abkhaz ia</w>
overcrow ding</w>
lo ver</w>
19 6</w>
16 ,
stat utes</w>
K at
C rescent</w>
hur ric
classi fications</w>
albe it</w>
W ind
Mi ke</w>
D O
fo ol
O il</w>
W atch</w>
dom es
c ub
Ar ch
Ot tawa</w>
hot els</w>
calcul ations</w>
ver sus</w>
mono poly</w>
fac tions</w>
Mal vin
dimin ished</w>
V ill
pe d
destin y</w>
critici zed</w>
f ati
D er
threat ens</w>
per mitting</w>
collabor ating</w>
Jud iciary</w>
Ang el
b arely</w>
vigor ous</w>
fran cs</w>
T IC
B ak
Moham med</w>
-------- --------
K is
Docu mentation</w>
pu ri
Malvin as</w>
k is
sil k</w>
Pro vin
Colom bian</w>
fri gh
Atl as</w>
ex ert</w>
Jo e</w>
Israel is</w>
quad r
peac efully</w>
impe ding</w>
fe der
John son</w>
m igh
hur ry</w>
J ac
Gren ada</w>
Ara bs</w>
wel ling</w>
invo ke</w>
vel ocity</w>
1, 9
kidn apping</w>
2. 45</w>
guil t</w>
19 3</w>
rupt cy</w>
form ats</w>
exha ust</w>
th west</w>
Budd h
u k
P E
s m</w>
multi pl
hero in</w>
b ars</w>
T L</w>
N an
I TA
origin ating</w>
han ging</w>
as leep</w>
tot alled</w>
reservo ir</w>
inf lows</w>
ba th</w>
B en</w>
ob ste
PR K</w>
Grow th</w>
hun g</w>
conve yed</w>
T ay
F Cs</w>
grou pings</w>
tur nover</w>
bi otechnology</w>
attribu tes</w>
appropri ated</w>
syn the
Are as</w>
mu d</w>
impl ied</w>
In fra
ten nis</w>
hetam ine</w>
analy zes</w>
amaz ing</w>
pre valent</w>
k ering</w>
C ay
pati ence</w>
class ic</w>
en vel
al og
C u
P ay
wh oles
Neg oti
occup ations</w>
gra ss
up set</w>
off s</w>
M L</w>
co oling</w>
under takes</w>
nar cotics</w>
Mr s</w>
5 .4</w>
17 9</w>
ow e</w>
lam p</w>
home work</w>
appro ving</w>
al um
In c</w>
meta bol
coer cion</w>
stam ps</w>
certain ties</w>
affir ming</w>
Ar ts</w>
qu eries</w>
harmon izing</w>
emp ir
N ev
surg ical</w>
quot ed</w>
ne ys</w>
indict ment</w>
hospit ality</w>
activ ated</w>
W IPO</w>
Gren ad
res our
de pic
De b
po lar
sul ph
conver t</w>
righ tly</w>
imprison ed</w>
ba i</w>
remin der</w>
parad ig
k ick</w>
bas ket</w>
Dyn asty</w>
inf ants</w>
de fam
chi p</w>
bor e</w>
ar ized</w>
J ones</w>
Enti ty</w>
mo tions</w>
Viet nam</w>
F a
spe ech
inflic ted</w>
for tieth</w>
d ence</w>
sel dom</w>
Bosn ian</w>
annot ations</w>
ground water</w>
dispu ted</w>
Contin ue</w>
20 4</w>
F ather</w>
nation alities</w>
appar atus</w>
Timor ese</w>
war fare</w>
shap ing</w>
effici encies</w>
19 66</w>
affir m</w>
mor ph
aquif er</w>
Hammar sk
mer ger</w>
tor ial</w>
5 .</w>
log ging</w>
speci fies</w>
pesti cides</w>
bri bery</w>
mathem atics</w>
by l</w>
po l</w>
UNIT ED</w>
u able</w>
l ag
comp ounded</w>
forec asting</w>
conc eived</w>
l ac
ab undant</w>
Pal au</w>
ar is
b is
N ord
dra g</w>
vi ć</w>
probl ematic</w>
precur sors</w>
alli ances</w>
abor tions</w>
Satell ite</w>
Provi ding</w>
vigor ously</w>
do zens</w>
K O</w>
197 0s</w>
1 ,</w>
Abid jan</w>
un resolved</w>
tr usted</w>
tem ple</w>
K a
v ine</w>
op pose</w>
for cing</w>
Te h
nur se</w>
down load</w>
E uro</w>
in age</w>
hy d
constra int</w>
connec ting</w>
destro ying</w>
comp elled</w>
regret tably</w>
dr inks</w>
dis posed</w>
chair persons</w>
Dis abled</w>
hand book</w>
co dification</w>
Comm issions</w>
2 ,0
de ter</w>
ch equ
supple menting</w>
Sa hel</w>
2 15</w>
f estival</w>
2 66</w>
val ley</w>
po p</w>
mud a</w>
lon ely</w>
inter c
ol ine</w>
j ure</w>
dis ruption</w>
bro ch
s wee
diversi fied</w>
az </w>
vo ys</w>
Dis cipl
re act</w>
S in
Ex erc
org .</w>
down ward</w>
CA S</w>
2 16</w>
exhaus tive</w>
e ter</w>
Open ing</w>
t ants</w>
moun ted</w>
hu a</w>
Na qu
Da g</w>
Carri e</w>
da wn</w>
pol ar</w>
no byl</w>
academ ics</w>
Mal aria</w>
2, 500</w>
here by</w>
dam aging</w>
view ing</w>
re consider</w>
j ö
comp elling</w>
practic able</w>
NA TIONAL</w>
trac ks</w>
spon tan
compar ing</w>
colle ague</w>
wh olly</w>
tal ents</w>
on ies</w>
Grenad ines</w>
gl ory</w>
com ment
where abouts</w>
expedi tious</w>
Ph ase</w>
L ad
reli es</w>
B ul
rati c</w>
bil lions</w>
2 69</w>
P y
K ash
some how</w>
l iness</w>
d .
It em</w>
at ter</w>
Naqu rah</w>
less er</w>
Tim es</w>
Qu e
K al
im peri
h o</w>
adap ting</w>
2 17</w>
def ending</w>
ang el</w>
Kar ab
traum a</w>
rel ying</w>
d ental</w>
ref res
opti mistic</w>
op ted</w>
elabor ating</w>
mus eum</w>
Dak ar</w>
tr act</w>
ub ric
schedul ing</w>
h ex
fresh water</w>
er ce</w>
demar cation</w>
advoc ating</w>
se em
psycho social</w>
E u
inval uable</w>
á </w>
es cence</w>
thir tieth</w>
mon u
keep er</w>
her o</w>
D ang
rig id</w>
Aut onom
wild life</w>
tril lion</w>
frag mentation</w>
any more</w>
Sa o</w>
M aria</w>
Consi deration</w>
Soci alist</w>
Andor ra</w>
tru cks</w>
di esel</w>
Ber muda</w>
ov en</w>
l en
heigh tened</w>
gen es</w>
circl es</w>
bre eding</w>
T y
Pe tro
1, 6
cul p
decla res</w>
Ben ef
sec rets</w>
M SP</w>
ren dering</w>
emo tions</w>
con tested</w>
stri ving</w>
L y
str ing
Cher nobyl</w>
favor able</w>
L. 2</w>
2 53</w>
evid enced</w>
tri ennial</w>
cri tics</w>
AC. 105</w>
vic inity</w>
c abinet</w>
D aily</w>
child birth</w>
Direc tive</w>
D PRK</w>
Adap tation</w>
2 58</w>
rever sed</w>
mor bidity</w>
ing .
mathem atical</w>
19 5</w>
f ric
remin ds</w>
CC PR</w>
restric ting</w>
reinfor cement</w>
dr illing</w>
Cl uster</w>
cor al</w>
construc ting</w>
e ag
I bid</w>
Ex plor
un certainties</w>
hydro gen</w>
Sch edul
g ged</w>
N ob
tem plate</w>
wor rying</w>
molec ular</w>
tr ic
manif est</w>
Ukra inian</w>
L ands</w>
Lus aka</w>
P act</w>
CT C</w>
gen s</w>
.. ..</w>
licen sed</w>
P re</w>
law fully</w>
L iter
li p</w>
tun nel</w>
en quiries</w>
R est
Bu en
oc ar
sup press</w>
bl ocked</w>
B un
5 6
se a
em ia</w>
Cypri ots</w>
fin alizing</w>
Re stric
re percus
rel a
Tran sit</w>
Int olerance</w>
bra ve</w>
ta res</w>
L D</w>
shi fts</w>
lifest yle</w>
neutr ality</w>
ad dic
hy brid</w>
gradu ated</w>
repar ations</w>
ran ges</w>
sli p</w>
der iv
promo tional</w>
hom eless</w>
5 3
pos ting</w>
H ass
Classi fication</w>
sli de</w>
flow ing</w>
f its</w>
inter vals</w>
atro cities</w>
iv </w>
der gar
19 7</w>
stig ma</w>
un exploded</w>
men u</w>
Se abed</w>
foresee able</w>
ac company</w>
Tru th</w>
pregn ancies</w>
ir regul
S anti
19 68</w>
trigg ered</w>
canc el</w>
aff air</w>
W .</w>
Ren ew
C ities</w>
g ay</w>
a rest</w>
psychiat ric</w>
cataly tic</w>
s au
forec asts</w>
econom ical</w>
dis solution</w>
defini tive</w>
DEV EL
2 54</w>
station ary</w>
ju ice</w>
i ghts</w>
Certif icate</w>
l ubric
f ence</w>
Teh ran</w>
roc kets</w>
rec ti
M ER
J ews</w>
is ph
J ul
4 6
tra demar
s now
em aking</w>
tre asure</w>
emp t</w>
privileg e</w>
mat ched</w>
Fif ty</w>
De partments</w>
T onga</w>
tac tics</w>
rom antic</w>
inv itations</w>
i ć</w>
g ade</w>
sist ers</w>
19 th</w>
fol k</w>
Supple mentary</w>
Streng then</w>
Har v
si eg
Mo ses</w>
DEVEL OP
pre text</w>
Memor andum</w>
Dar ussalam</w>
CE O</w>
imple ments</w>
up holding</w>
D al
b ones</w>
Cour se</w>
routin ely</w>
optim ism</w>
Ju ven
si ans</w>
set tling</w>
d .</w>
stig m
illustr ates</w>
corrigen dum</w>
We b
O ur</w>
appl i
viol ates</w>
vec tor</w>
infl am
suffici ency</w>
open ly</w>
ca sts</w>
Tha i</w>
wel ls</w>
we althy</w>
S ER
cl es</w>
T U
O sl
unanim ous</w>
surve yed</w>
Explo itation</w>
3. 7</w>
assi on
te er</w>
den ying</w>
commemor ation</w>
adj usting</w>
aff lic
19 ,
vege table</w>
b our
Quar tet</w>
seis mic</w>
ell ers</w>
char ity</w>
H ow
hec tares</w>
comm its</w>
ec raft</w>
mil e</w>
exp ired</w>
siz ing</w>
ner ve</w>
a er
1. 9</w>
ex es</w>
F ig
e tly</w>
4. 7</w>
jö ld</w>
for ef
ear l</w>
PA CE</w>
N y
quadr ennial</w>
dis e</w>
al p
She ikh</w>
interro gation</w>
mac ro</w>
fl esh</w>
P it
reason ing</w>
i stan
depos itary</w>
pen insula</w>
escap ed</w>
HIP C</w>
G or
alloc ating</w>
C el
jud ged</w>
incre di
back grounds</w>
Mar ino</w>
La undering</w>
repercus sions</w>
A I
wal ks</w>
ide ology</w>
. com</w>
la yers</w>
S or
eng ines</w>
dis appointment</w>
4. 8</w>
frac ture</w>
Som al
A ma
end a</w>
Karab akh</w>
od d</w>
Osl o</w>
Buen os</w>
ICT R</w>
woo den</w>
Ph ysical</w>
re signation</w>
bi ology</w>
Hammarsk jöld</w>
autom ated</w>
acc ess
IS U</w>
psych ology</w>
correc tive</w>
retro viral</w>
en lar
Dem ocr
ing ual</w>
gl u
e iro</w>
ag ro</w>
Tra vel</w>
proxim ity</w>
de ems</w>
C at
stem ming</w>
et own</w>
dro p
conc eal
Docu ments</w>
en closed</w>
clim b</w>
C R</w>
18 ,
for give</w>
develop ers</w>
bid den</w>
S anc
nomin al</w>
Her itage</w>
man n</w>
gent le</w>
For e
zh en</w>
h oo
tax pay
pre diction</w>
constitu encies</w>
WG .
symb ols</w>
marg ins</w>
interpre tations</w>
sou p</w>
or es</w>
mort ar</w>
Spr ing</w>
Lab or</w>
par aly
row ave</w>
impro ves</w>
Vic tor
S ab
trans lat
Fun ds</w>
Exerc ise</w>
st um
ome ters</w>
ev al</w>
scor es</w>
influ encing</w>
dis regard</w>
fac eted</w>
amp hetamine</w>
Chall eng
se in</w>
clari fying</w>
A ires</w>
A CA
per v
construc tively</w>
rel ax
lad ies</w>
bureau x</w>
tro op
re pos
or ious</w>
ab un
7 .1</w>
2 64</w>
p el
des cend
brilli ant</w>
obsol ete</w>
inter s</w>
com bustion</w>
che aper</w>
car cin
Sr p
2 55</w>
L os</w>
soci etal</w>
sever ity</w>
agre eing</w>
15 ,000</w>
trans cri
stimul ating</w>
ap y</w>
W u</w>
K ir
rec ep
in justice</w>
pu zz
mo s
F F
p acked</w>
fl our
s ickness</w>
it ure</w>
effec ted</w>
2 23</w>
sc r
pre judic
reconc ile</w>
p iv
gra y</w>
27 6</w>
for got</w>
del ine
sym posium</w>
read er</w>
hi ding</w>
he ter
ec o</w>
la sted</w>
bru tal</w>
evol ve</w>
exp iry</w>
contra vention</w>
bo o</w>
M ing</w>
juven iles</w>
influ ential</w>
swi ft</w>
be ds</w>
p m</w>
qu it</w>
men ded</w>
capit als</w>
MINUR CAT</w>
10 00</w>
sp ell</w>
floo ding</w>
aris en</w>
decre ases</w>
hon oured</w>
Srp ska</w>
S IDS</w>
ro g
en tries</w>
P an</w>
5. 6</w>
Reg ular</w>
O ld</w>
lab el</w>
bank ruptcy</w>
CO P
atten d
M y
Mar ri
ster il
Comm and</w>
Gaz ette</w>
Comm itment</w>
cor respond</w>
speci fication</w>
p ray</w>
H om
contracep tive</w>
aci ón</w>
Polic ies</w>
S W
depu ties</w>
hor ses</w>
conten ds</w>
IS O</w>
A R</w>
su scep
car to
ir re
direc tory</w>
15 th</w>
sub paragraphs</w>
S ES
B ut
2. 9</w>
des k
bom bing</w>
wel ding</w>
sp ra
mid st</w>
ICT s</w>
surr ounded</w>
fin es</w>
Know ledge</w>
prud ent</w>
ome try</w>
Projec ts</w>
ingredi ents</w>
con dol
an j
administr ators</w>
Con di
gra sp</w>
petro l</w>
objec tivity</w>
Infra structure</w>
An dre
extra dite</w>
12 67</w>
magaz ines</w>
ed a</w>
fe ared</w>
dec eased</w>
f itting</w>
euro zone</w>
Col labor
i fied</w>
30 5</w>
Santi ago</w>
cul turally</w>
broad ening</w>
UNID IR</w>
Mul ti</w>
sha me</w>
w as
less ly</w>
ch ant</w>
post al</w>
artic ulated</w>
fl ash</w>
dispar ity</w>
margin al</w>
des pair</w>
bus h</w>
Mar k</w>
I bra
Bo ards</w>
Contin ental</w>
la ys</w>
I U
predomin antly</w>
2 36</w>
R ati
W ith
Techn ological</w>
condi tioning</w>
ball istic</w>
Pro vision</w>
Pak istan
Nord ic</w>
cor d</w>
am bul
TI VE</w>
R um
Mic ron
E v
n ick
av ail</w>
compl ying</w>
ur ated</w>
Ex tra
Colum bia</w>
2 52</w>
tra p</w>
solem n</w>
ili bri
F ish</w>
Bar ack</w>
An gu
mon d</w>
swi m</w>
adap tive</w>
Medic ine</w>
un rest</w>
poor er</w>
N ow</w>
recre ational</w>
lay out</w>
hi d</w>
adverti sement</w>
Jan eiro</w>
11 th</w>
th read</w>
rev olutionary</w>
micro credit</w>
N in
consequ ent</w>
S cho
ar ded</w>
revis ing</w>
nin ety</w>
K i</w>
Col onel</w>
teen age</w>
cou p</w>
girl friend</w>
f ool</w>
v ague</w>
re vo
in ate</w>
col or
barre l</w>
sent encing</w>
sal es
b ron
D R</w>
migh ty</w>
fel lowship</w>
discoura ge</w>
Sic huan</w>
Franc isco</w>
war mly</w>
plan ting</w>
piv otal</w>
Sub Commission</w>
E arly</w>
sor row</w>
vit amin</w>
Republ ika</w>
2 65</w>
recur rence</w>
Mo der
sing er</w>
Nag or
celebr ated</w>
N oti
w ed</w>
perform ances</w>
tur n
Nic o
B Q</w>
pron ounced</w>
ignor ance</w>
accus ations</w>
á n</w>
ex changing</w>
Ste ph
H A
presi ding</w>
di re</w>
encomp asses</w>
tu ition</w>
fati gue</w>
f ant
dis pers
cler k</w>
Fac ulty</w>
your e</w>
tri partite</w>
pe as
D j
Ad vice</w>
treat ments</w>
inter fer
ari d</w>
ON S</w>
Dam as
uri al</w>
prioriti zed</w>
in take</w>
guar dian</w>
fl u</w>
Un its</w>
cu ri
ch in
Produc ts</w>
spec tac
ou tw
influ enza</w>
gh o
P la
ul gation</w>
we igh</w>
uti n</w>
pos al</w>
fu zzy</w>
S ome</w>
Na uru</w>
F O
ir rit
t ap</w>
sanc tion</w>
spac ecraft</w>
questi oning</w>
altit ude</w>
magistr ates</w>
UNMO VIC</w>
1, 3
fru stration</w>
Me dium</w>
avoid ance</w>
T enth</w>
pe p
kin dergar
inspir ation</w>
0 ,</w>
under score</w>
privileg ed</w>
associ ates</w>
abun dance</w>
Ar t</w>
precau tionary</w>
attribu te</w>
yi elds</w>
interro g
Wh ich</w>
4 50</w>
ni ghts</w>
air y</w>
Ombuds person</w>
bl ast</w>
ak en</w>
H A</w>
2 32</w>
funda mentally</w>
be ating</w>
7 .2</w>
re sur
indi ffer
Hong kong</w>
ap prehen
S and
INTER POL</w>
Associ ations</w>
empir ical</w>
declar ing</w>
c t</w>
ref oul
re ty</w>
i us</w>
exhi bit</w>
e sia</w>
T .</w>
20 ,
enfor ce
direc tive</w>
stret ch</w>
sponsor ship</w>
forci bly</w>
ain ing</w>
moun t</w>
wh il
brac kets</w>
S et</w>
2 47</w>
M P</w>
s me
hus bands</w>
fu gi
emo tion</w>
at oes</w>
Comm odi
y en</w>
add y</w>
ri val</w>
un reasonable</w>
m ou
sac red</w>
refoul ement</w>
re tail
Fr ente</w>
6 87</w>
larg ement</w>
el even</w>
e g</w>
2 31</w>
tin g
Damas cus</w>
uni qu
supple ments</w>
ho sts</w>
consum ed</w>
W at
Scot land</w>
w ay
trou bled</w>
rati one</w>
dem obil
bo arding</w>
under gone</w>
op ponents</w>
den omin
ann um</w>
F s</w>
fraud ul
communic ating</w>
H av
string ent</w>
prioriti zation</w>
pan cies</w>
conc ise</w>
REP OR
2 38</w>
ph ic</w>
h ob
co ol
S am</w>
2 44</w>
12 th</w>
confir ming</w>
ac clamation</w>
pursu ance</w>
ne um
evic tions</w>
UN SOA</w>
No s.</w>
MEN TS</w>
eg o</w>
weak ened</w>
vill agers</w>
pop ulated</w>
wor l
att achment</w>
arbitr arily</w>
Commission ers</w>
simpl ify</w>
flo ating</w>
ak i</w>
Re integration</w>
Ad voc
2 46</w>
negoti able</w>
m ill</w>
bienn i
R ail
Commodi ties</w>
hear t
defam ation</w>
cr ying</w>
staff ed</w>
col um
S ig
Mont ser
im aging</w>
edi ting</w>
Rel ation
MEN TA
1, 200</w>
equ ilibri
as se</w>
out going</w>
h man</w>
ti d
Assi stants</w>
prefer able</w>
dic tionary</w>
Nico sia</w>
Gu ard</w>
pesti cide</w>
disc ourse</w>
too th</w>
dis gu
ad ium</w>
depar ted</w>
brea thing</w>
ship ped</w>
im a</w>
down turn</w>
de z</w>
bri de</w>
Metho ds</w>
deploy ing</w>
Recon struction</w>
o o</w>
T ox
un safe</w>
Deleg ation</w>
u k</w>
tum or</w>
re double</w>
7. 3</w>
preclud e</w>
pan ic</w>
Car tag
t s
scienti st</w>
discre pancies</w>
vacc ines</w>
unci ation</w>
Dis appearance</w>
war planes</w>
Cartag ena</w>
st ew
un foreseen</w>
mic rowave</w>
ca regi
Pro bl
H an</w>
deri ve</w>
par ks</w>
n an</w>
Includ es</w>
tow n
neigh bor
gre y</w>
ge able</w>
fur b
entr en
stock pile</w>
key words</w>
distinc tive</w>
． </w>
Y ang</w>
pro ves</w>
cri tically</w>
p it
cali br
vide o
prefer ably</w>
mo vable</w>
an onym
pa tho
jeopardi ze</w>
invo ices</w>
conc ession</w>
swi f
2 24</w>
sist ent</w>
pain ted</w>
conscienti ous</w>
Law s</w>
3 ,</w>
prosecu ting</w>
acqu ain
M em
n ally</w>
E ver
ha ir
bl e
be hold</w>
Ir ish</w>
hom eland</w>
discrimin ated</w>
Azerbaij ani</w>
rap porteur</w>
gener ator</w>
H u</w>
collabor ated</w>
le thal</w>
repres sion</w>
re es</w>
f lies</w>
ach lor
B ook</w>
may or</w>
end anger</w>
Trans par
P utin</w>
I Z
Facil itation</w>
tel ep
stor ms</w>
sc and
re furb
plo t</w>
k ingdom</w>
PO PS</w>
ration alization</w>
r h
T wel
peti tioner</w>
dispat ch</w>
underscor es</w>
condem ning</w>
ome tric</w>
as sumes</w>
p ale</w>
di ame
autom obile</w>
plain ti
to ol
fortun ately</w>
co ating</w>
2 61</w>
con fer
4 4
or ange</w>
et c.</w>
dem ilit
clari fications</w>
Challeng es</w>
op ing</w>
Micron esia</w>
Le on
IP U</w>
17 th</w>
simpl ification</w>
prece ded</w>
dee ds</w>
custo dial</w>
alleg es</w>
W a
MO P</w>
3. 8</w>
verb al</w>
travel ing</w>
T s</w>
H er</w>
ACA BQ</w>
19 58</w>
ab ad</w>
Municip al</w>
repeti tion</w>
I V
sion ed</w>
sc ar</w>
contra ven
robo t</w>
over head</w>
X .</w>
P lan
win ds</w>
wid est</w>
pre condition</w>
pa ths</w>
non proliferation</w>
bub ble</w>
K an
C F</w>
educ ators</w>
crimin alize</w>
qui etly</w>
Tur ks</w>
Th ese</w>
re z</w>
cat astro
S port</w>
C ap</w>
r ance</w>
compens able</w>
pl un
t an</w>
con qu
char ts</w>
for ge</w>
crow ded</w>
J in
contra diction</w>
Guang dong</w>
detec ting</w>
P ho
war m
ro yal</w>
ham per</w>
asser ts</w>
arm oured</w>
tri tion</w>
exam ines</w>
battali on</w>
ar do</w>
U P</w>
J an</w>
n au
bus es</w>
2 ,</w>
princip ally</w>
om ag
ear book</w>
pri est</w>
interloc u
imp ul
distur bed</w>
am bition</w>
Associ ate</w>
repris als</w>
prom ulgation</w>
p es</w>
inher ited</w>
ic ans</w>
hierarch y</w>
hel pl
govern or</w>
dr unk</w>
Au di
2 34</w>
v y</w>
cogn itive</w>
bl oo
Transpar ency</w>
F ight</w>
k h
fas c
Harv ard</w>
incorpor ates</w>
acti vation</w>
exemp t</w>
le ak
dra in</w>
differ ing</w>
plan tation</w>
DP KO</w>
Cre dit</w>
. org.</w>
poten ti
ten se</w>
disman tling</w>
de em</w>
Establ ish</w>
ambig u
. 1.</w>
moun ting</w>
sti p
cha mbers</w>
Mu ham
persu ade</w>
m on</w>
rhy th
Volun teer</w>
ref using</w>
multi media</w>
further ing</w>
Autonom ous</w>
t ness</w>
Sanc tions</w>
K er
I SAF</w>
exp ire</w>
ab ul
Sant a</w>
tho do
peas ants</w>
CN. 15</w>
speech es</w>
mul ticul
in hal
T ang</w>
spec ulation</w>
il er</w>
endang ered</w>
col onialism</w>
S pi
Ex tension</w>
respir atory</w>
dis per
congrat ulated</w>
X VI</w>
D s</w>
scar city</w>
facilit ators</w>
Sur ve
H i
li fel
condol ences</w>
Cir cular</w>
18 th</w>
é s</w>
N otes</w>
B ack
descri ptions</w>
de plor
G l
pra yer</w>
or ship</w>
g on</w>
sol itary</w>
out lining</w>
L ev
upgra ded</w>
ann y</w>
CN. 7</w>
mus ical</w>
Cambo dian</w>
el der</w>
Ob servation</w>
NA P</w>
4 3
intr ins
Af ro</w>
shoul ders</w>
l ump</w>
invol un
h il
entreprene urial</w>
dev ised</w>
attor ney</w>
ov isual</w>
Institu tional</w>
Car los</w>
A G
su preme</w>
explo sions</w>
stret ched</w>
exten sions</w>
co efficient</w>
low ering</w>
Man date</w>
F air</w>
C IAL</w>
note worthy</w>
he dge</w>
Ab del
ba il</w>
tre m
dr y
cont acted</w>
g nee</w>
man ned</w>
Identi fication</w>
2 6.
me teorological</w>
encomp assing</w>
ro s</w>
pre fec
p ist
in debted</w>
Weap on</w>
ve in</w>
persi sted</w>
PR E
tis m</w>
Ap ple</w>
righ te
lit res</w>
paradig m</w>
mor ality</w>
inter nation
ari o</w>
3 38</w>
p it</w>
let ting</w>
did nt</w>
subjec tive</w>
pro stitu
dra ma</w>
astr onom
K FOR</w>
7 7
sc attered</w>
pul se</w>
ha be
19 64</w>
rhetor ic</w>
ra inf
neighbour hood</w>
k nee</w>
re formed</w>
Nob el</w>
ini on</w>
bre vi
b ite</w>
Sus an</w>
Rap porteurs</w>
9 ,000</w>
administr ator</w>
sh oe</w>
re ar</w>
competi tors</w>
bar gaining</w>
an try</w>
an ity</w>
F on
Ama z
un stable</w>
anx ious</w>
shi fted</w>
old est</w>
SO C</w>
Pr inc
minim izing</w>
8. 5</w>
s ab
oul try</w>
infring ement</w>
b um
Moun t</w>
d ment</w>
conf used</w>
Cam p</w>
B la
us able</w>
ber ry</w>
T an
J ack
2 57</w>
19 50</w>
om er</w>
mig ratory</w>
ev es</w>
allo y</w>
Po or</w>
Angu illa</w>
prof itable</w>
dis hes</w>
im pressed</w>
Rev olution</w>
man ages</w>
em ig
IC PD</w>
affec tion</w>
accommod ated</w>
2 19</w>
th ats</w>
s b</w>
reli eve</w>
lau ghter</w>
la g</w>
recre ation</w>
peri ph
neighb ors</w>
se af
expec ting</w>
ed itorial</w>
6 .4</w>
K w
G RO
per me
ad he
pol ling</w>
ha z</w>
ak an</w>
S qu
Mag istr
2 75</w>
psych otropic</w>
inten tionally</w>
equilibri um</w>
en vi
Pri ze</w>
K han</w>
D ow
Con c
remo vals</w>
Shen zhen</w>
Abu ja</w>
im paired</w>
diversi fy</w>
E vi
profession alism</w>
prin c
cau tious</w>
anc e
s ang</w>
co a</w>
who ever</w>
whil st</w>
seas onal</w>
re side</w>
emin ent</w>
plac ements</w>
Con federation</w>
k ar
e ter
s tin
fron tier</w>
as on</w>
Claim s</w>
28 3</w>
wav el
program med</w>
escor ted</w>
enz y
chlor o
Cay man</w>
tri um
u rities</w>
en largement</w>
electron ically</w>
qu ery</w>
dom s</w>
Di stribu
under represented</w>
in sight</w>
c ens
se aled</w>
replen ishment</w>
Consul tation</w>
EN CE</w>
squ ee
profes sions</w>
Pro cur
5 5
siz es</w>
ret reat</w>
in ding</w>
D I</w>
Antar ctic</w>
deliver ies</w>
s lower</w>
region ally</w>
med ication</w>
t elec
lan ded</w>
got ta</w>
fa ults</w>
Al ter
repe al</w>
foref ront</w>
trans forming</w>
er able</w>
Pal ais</w>
Govern ors</w>
vi vi
ann er</w>
an k
W I
p ity</w>
po sters</w>
asser tion</w>
bro kering</w>
K af
projec tion</w>
bre e
acknowled gement</w>
G oma</w>
preced ence</w>
a wa
gran tor</w>
g ments</w>
cigaret te</w>
chur ches</w>
Cen sus</w>
inspec ted</w>
faith ful</w>
best os</w>
16 th</w>
e aten</w>
Sy n
S mart</w>
T ome</w>
foot note</w>
sl ope</w>
p d
m ir</w>
S c
28 9</w>
str anger</w>
mer ged</w>
ep is
conflic ting</w>
Sym posium</w>
su ma
ran ked</w>
desper ate</w>
delim itation</w>
breast feeding</w>
j ail</w>
il itary</w>
advis ing</w>
Ah mad</w>
2 45</w>
feat ured</w>
b read
air line</w>
Manu fac
un ting</w>
par ticle</w>
b ings</w>
Hel ena</w>
end less</w>
Strateg ies</w>
ver dic
sor ts</w>
impe diment</w>
polit an</w>
distribu ting</w>
n ou
inspec t</w>
aqu atic</w>
thro at</w>
prer og
Dra fting</w>
Arbit r
shi eld</w>
sh ots</w>
regi sters</w>
jac ket</w>
con vince</w>
acceler ation</w>
13 th</w>
for bidden</w>
enhan ces</w>
Impro ving</w>
origin s</w>
ic king</w>
Tel evision</w>
low ing</w>
re war
h ills</w>
F N
pro tot
en ligh
Slov ak</w>
SP T</w>
v ou
land mark</w>
vacc ination</w>
w ounds</w>
plas ma</w>
jo ke</w>
fif ty
cer am
immun o
al er
GA D</w>
precur sor</w>
peac emaking</w>
irregul arities</w>
care ers</w>
TN Cs</w>
under mines</w>
ster ity</w>
k s
X enophobia</w>
DV D</w>
3 65</w>
av a</w>
R E</w>
M id
suppl ying</w>
ro pe</w>
mer cy</w>
in tru
destin ed</w>
Hass an</w>
vo iced</w>
sub regions</w>
broad band</w>
sear ches</w>
Se oul</w>
PO Ps</w>
tic a</w>
occ er</w>
materi el</w>
deterior ated</w>
control ler</w>
X X</w>
genu in
de t
E s
multi faceted</w>
inscri bed</w>
gra vely</w>
J on
CH A</w>
6 4
me tro
du es</w>
stic ks</w>
Telecommun ication</w>
M Y
H ill</w>
Fran k
rejec ts</w>
Moun tain</w>
scri pt</w>
an no
aband on
Montser rat</w>
vi </w>
memb rane</w>
sub national</w>
er as</w>
Instru ment</w>
enti rety</w>
cal ci
tw in</w>
ID ER</w>
Dat ab
su ms</w>
scop ic</w>
an gl
ak ers</w>
UN T
N H
LE G</w>
superi ority</w>
rainf all</w>
mat ches</w>
i que</w>
conc ession
advis able</w>
Pakistan i</w>
H as
worsen ing</w>
respond ent</w>
olog ic</w>
dis continued</w>
deploy ments</w>
mod al</w>
def ensive</w>
W ill</w>
re actor</w>
mod ality</w>
L am
Dis engagement</w>
14 th</w>
assembl ies</w>
U B
Princip e</w>
d ited</w>
ch i</w>
kind ness</w>
17 01</w>
id al</w>
FD LR</w>
F our</w>
ñ o</w>
ind a</w>
commen ding</w>
at ri
SU R</w>
sub ordinate</w>
m asses</w>
uni tive</w>
tra ded</w>
mag ne
electron ics</w>
cl an
Set tlement</w>
B ab
vari eties</w>
su al</w>
here in</w>
geograph y</w>
ak ar
pop py</w>
author izes</w>
toil et</w>
ation ary</w>
An dean</w>
se abed</w>
res in</w>
photo graph</w>
y ar
Ken ne
au x
regul ates</w>
poe try</w>
m i</w>
j e</w>
int an
bedro om</w>
Freed oms</w>
DP I</w>
don ation</w>
K ig
dupl icate</w>
cha os</w>
L ay
Belgi an</w>
co sting</w>
war nings</w>
ak o</w>
univers alization</w>
I O
gar bage</w>
r yp
r ings</w>
good will</w>
con ferred</w>
as ym
W P</w>
heter o
design er</w>
commen dable</w>
Mater ial</w>
dis charged</w>
che er
P as
Fel lowship</w>
° </w>
propor tional</w>
overl apping</w>
anti retroviral</w>
umin um</w>
ac ies</w>
vic ious</w>
lo op</w>
cop ing</w>
M ess
recogn ised</w>
Ge ographical</w>
D ev
4 ,</w>
sm en</w>
s porting</w>
mercen ary</w>
W ol
W ales</w>
Compu ter</w>
ra ys</w>
pi ano</w>
econom ist</w>
gi ers</w>
IC M</w>
cat alogue</w>
fish ery</w>
dra inage</w>
dis plays</w>
unequiv ocal</w>
maxim izing</w>
ad ic</w>
Kyrgy z</w>
ICT Y</w>
champ ion</w>
biom ass</w>
impro per</w>
dem ocracies</w>
aven ues</w>
a ment</w>
T hose</w>
p neum
abandon ment</w>
Wast e</w>
exp ires</w>
ab brevi
CR P.1</w>
Alg erian</w>
tex tile</w>
recei pts</w>
pr ince</w>
model ing</w>
in car
dis pose</w>
ati tis</w>
Pi er
I V.
u gly</w>
tra ins</w>
prescri ption</w>
pre conditions</w>
S ME</w>
sol vent</w>
had n</w>
funda ment
bow l</w>
T it
T in</w>
D rought</w>
Cor rec
z in
r ho
b acking</w>
B am
recur ring</w>
assi stants</w>
super vised</w>
nit rogen</w>
m our
it enti
fi erce</w>
telep hon
Mater ials</w>
param ilitary</w>
ph ar
mil d</w>
break through</w>
W u
Techn ologies</w>
A wards</w>
Y earbook</w>
P S
ne arest</w>
m ess</w>
ke ting</w>
dispat ched</w>
Sar aj
A A
th at
2 59</w>
ste al</w>
r is</w>
j er
de pl
quar antine</w>
it arian</w>
Tay lor</w>
6 6
vers y</w>
Q ing
E li
30 0,000</w>
on ers</w>
ad ul
Co ast</w>
out lets</w>
he ed</w>
ang a</w>
Ter m</w>
Don ald</w>
troop -</w>
in dem
exc av
Evi dence</w>
28 8</w>
lo v
ha st
coll ateral</w>
an alog
Saraj evo</w>
Contrac tor</w>
sen ds</w>
tur b
ge ous</w>
fluor ocar
Guang zhou</w>
15 14</w>
ig ious</w>
Hand book</w>
fraudul ent</w>
R ou
Pal ace</w>
29 6</w>
ch ina</w>
PA s</w>
mo il</w>
gentl eman</w>
withdraw ing</w>
re fine</w>
pass ports</w>
institution alized</w>
gen dar
C ases</w>
poss essed</w>
kno ck</w>
im pover
foun der</w>
PR C</w>
unil aterally</w>
trans mit
ffer ings</w>
m p</w>
cl ever</w>
IN GS</w>
Diplom atic</w>
C ard</w>
du s</w>
dis agreement</w>
2 49</w>
merchan dise</w>
model ling</w>
commer ci
un happy</w>
acqui sitions</w>
a to</w>
DEVELOP MENT</w>
th rowing</w>
Rel igious</w>
stream s</w>
nu cle
rel s</w>
n asty</w>
ic os</w>
19 65</w>
bl essed</w>
P IC</w>
el ly</w>
Tun is</w>
t es
explan atory</w>
2 80</w>
de ton
T P</w>
understand ings</w>
Maj esty</w>
aes thetic</w>
25 ,000</w>
ell o</w>
deple tion</w>
bic ycle</w>
DA C</w>
bl ank</w>
Mo on</w>
B WC</w>
p one</w>
medi ate</w>
end uring</w>
Muham mad</w>
yiel ded</w>
wai ver</w>
sha ft</w>
p unitive</w>
ow er</w>
log istic</w>
R s</w>
B ad
po le</w>
Consolid ated</w>
Ch ung</w>
imp asse</w>
contro versy</w>
pap er
ow ns</w>
genuin ely</w>
eas ing</w>
and ums</w>
G I
mid night</w>
ma ster
Su ch</w>
ins tin
Al giers</w>
Add .4</w>
so dium</w>
horiz on</w>
anthropo genic</w>
Respon sibility</w>
Bal tic</w>
perform s</w>
is ons</w>
char itable</w>
ag o
E ight</w>
tur moil</w>
disbur sements</w>
En suring</w>
19 45</w>
pec uli
avi er</w>
Y ang
L CA</w>
num bered</w>
w oods</w>
p ound</w>
che ese</w>
Guar ante
Deci sions</w>
furn ished</w>
ex agg
brid ging</w>
veget ation</w>
este em</w>
ast on
Enhan cing</w>
than e</w>
par </w>
hosti lity</w>
cont empt</w>
li ed</w>
PF OS</w>
Cau ca
j a
smoo thly</w>
rati fications</w>
fin ger
discre tionary</w>
b ital</w>
Metho d</w>
rap ed</w>
fam ine</w>
spir its</w>
identi ties</w>
dro pping</w>
ECO SOC</w>
prem ise</w>
draw down</w>
author itative</w>
s por
reg ener
pi g</w>
N ation</w>
Hus sein</w>
fle e</w>
F em
wer en</w>
pre sumed</w>
check list</w>
M I</w>
yl ene</w>
Pro hi
N ou
Fire arms</w>
Elec tions</w>
oc y
ic le</w>
as bestos</w>
P o</w>
M .
20 30</w>
manif estation</w>
ini um</w>
Marri age</w>
L S</w>
post pone</w>
popul arity</w>
desk top</w>
contrac eption</w>
V lad
C ot
Angel es</w>
commemor ate</w>
Lu is</w>
smil ed</w>
moist ure</w>
argu ing</w>
Ibra him</w>
CR P
retali ation</w>
y i</w>
repor ter</w>
ther ine</w>
sty les</w>
g ou</w>
far m
sc al
origin ated</w>
in filtr
ar cha
No .
-- -
dimin ish</w>
se diment</w>
Ben j
inno cence</w>
bil ingual</w>
ax is</w>
Sec on
tran et</w>
casu al</w>
V oc
B ob</w>
p oultry</w>
clan destin
be ef</w>
V ol</w>
Tex as</w>
2 56</w>
war rants</w>
ud ge</w>
protec tions</w>
pro ving</w>
o ting</w>
in definite</w>
Vi sion</w>
NA M</w>
Cen tury</w>
tr ick</w>
tr ans</w>
int ellec
Pl ant</w>
poly metallic</w>
po ll</w>
for ging</w>
dele tion</w>
C ra
revit alize</w>
T su
Paul o</w>
res cu
rec y</w>
mem orial</w>
lab </w>
asser t</w>
Z e
Refer ence</w>
Ann exes</w>
tri bes</w>
ta BDE</w>
ascer tained</w>
T C
Sub stan
SEC UR
imp acted</w>
ambig uous</w>
.m .
p ink</w>
or ia</w>
Com ple
Anton io</w>
s th</w>
o h</w>
bi ased</w>
belon ged</w>
assem bled</w>
swif tly</w>
Gon z
Com par
Ber n
Provin cial</w>
L en
P E</w>
hand some</w>
es ity</w>
eleg ant</w>
Me teorological</w>
C lar
2 39</w>
ht m</w>
happ ily</w>
th ickness</w>
on set</w>
obste tric</w>
show er</w>
depreci ation</w>
Re sul
8. 3</w>
2 29</w>
s an</w>
dis appear</w>
al ec
mer ie</w>
ment oring</w>
O CHA</w>
Lou is</w>
vic al</w>
ti te</w>
res on
cl ay</w>
SECUR ITY</w>
A GEN
un ite</w>
th es
S OM</w>
th um
an ship</w>
a ked</w>
Haz ardous</w>
Abk haz</w>
abul ary</w>
S po
diver ted</w>
Sh ari
N ames</w>
2 3.
19 62</w>
dro ps</w>
counter part</w>
P P</w>
Mu tual</w>
IN F
Ju ba</w>
E EC</w>
Civ il
no where</w>
memor andums</w>
spo t
dom ination</w>
posi tioned</w>
ff ed</w>
diame ter</w>
f atal</w>
dil em
al lah</w>
Pop ulations</w>
Hor n</w>
Agen cies</w>
un willing</w>
isph ere</w>
impl icit</w>
Pri mary</w>
L abor
dis cer
over flew</w>
defec t</w>
ass ation</w>
Ge o
2 62</w>
or ous</w>
notic es</w>
corro sion</w>
Ca icos</w>
Afric ans</w>
pl um
e ums</w>
differenti ation</w>
3 60</w>
li on
UNA 0
E mp
Twel fth</w>
congres ses</w>
assass ination</w>
step ping</w>
dri ves</w>
W ater
inv ari
fast est</w>
def ences</w>
chi efs</w>
b bed</w>
non linear</w>
ener ge
b are</w>
aver t</w>
Flor ida</w>
4. 30</w>
v ain</w>
th y
dis charging</w>
bi ds</w>
Objec tives</w>
INTER NATIONAL</w>
gr en
b at
UN P
w ich</w>
w ear
telecommun ication</w>
Mon ro
Pre mier</w>
F ER
5. 7</w>
29 2</w>
tru sts</w>
plu g</w>
fric tion</w>
ris ky</w>
disbur sement</w>
batter ies</w>
air ing</w>
D um
4. 9</w>
re consideration</w>
b agg
G a
27 2</w>
terre strial</w>
omag netic</w>
n es
weak er</w>
an o
Te aching</w>
j eal
ex pose</w>
ch ase</w>
Enter prises</w>
practi sed</w>
in land</w>
compli ments</w>
b oring</w>
R og
N eigh
Mig rants</w>
assion ate</w>
Explor ation</w>
D e</w>
l it</w>
ing er</w>
de stabilizing</w>
m ask</w>
ta ke
st ops</w>
el ite</w>
2 63</w>
tor n</w>
pri m
in ous</w>
gener ational</w>
ac ious</w>
L L</w>
grand father</w>
Ve hic
D G
de formation</w>
ai ds</w>
si de
convin cing</w>
M obile</w>
Domin ica</w>
in door</w>
bran ds</w>
8 5
rid ical</w>
occa sional</w>
Facil ities</w>
te b
Relation ship</w>
Y un
Sha ba
k ings</w>
je wel
detain ee</w>
ar ize</w>
un just</w>
power ed</w>
back drop</w>
app ell
Pol lutants</w>
smil ing</w>
prev ailed</w>
pat er
consi gn
provi sionally</w>
overn ight</w>
op a
detri ment</w>
Parag raph</w>
AS SE
propor tions</w>
28 5</w>
outw ard</w>
o x</w>
eigh teen</w>
N et</w>
int estin
oura bly</w>
in visible</w>
te es</w>
sen sors</w>
gu ez</w>
X VII</w>
y ear
MA R
subsidi zed</w>
slow ed</w>
s occer</w>
compil ing</w>
CH A
scre w</w>
Shel f</w>
R equi
D M</w>
correc tional</w>
s mar
indic es</w>
fl our</w>
Victor ia</w>
Green land</w>
Dig ital</w>
scen es</w>
rac es</w>
j ar</w>
am ple</w>
3 16</w>
vide os</w>
do or
Ste ve</w>
L. 3</w>
Ex pend
B ol
Ath ens</w>
Add. 1.</w>
voc ation</w>
tra pped</w>
speci fying</w>
p se</w>
c it
Po s
M e</w>
Hel en</w>
Feder ated</w>
practi se</w>
ma sters</w>
adher ed</w>
Scho ols</w>
R .
Jord anian</w>
,0 0
pass word</w>
Cer tification</w>
testi fy</w>
prepa res</w>
har ness</w>
en ec
aci onal</w>
Indi vi
HR I</w>
B O
stric ken</w>
e ases</w>
Sing le</w>
OP CW</w>
sc ared</w>
contempl ated</w>
con gress</w>
Y ou
princ ess</w>
back ward</w>
Super vision</w>
Am man</w>
wh ist
an om
an ed</w>
tra des</w>
insi ghts</w>
hel or</w>
im poses</w>
el le</w>
Saf egu
rem ot
alter ation</w>
Datab ase</w>
Ar t.</w>
ub s</w>
selec tivity</w>
O k
F PA</w>
sn ake</w>
permis sible</w>
lo dge</w>
ess ay</w>
con stru
St ocks</w>
short falls</w>
am ine</w>
ad diction</w>
Secret aries</w>
Cl ass</w>
Arbitr ary</w>
or dering</w>
for ged</w>
el ders</w>
Inter pol</w>
cast le</w>
ad mi
sec recy</w>
hot line</w>
sh ook</w>
Y u</w>
tac tical</w>
senti ment</w>
po ols</w>
htm l</w>
Coun cils</w>
Consi der</w>
Ab ra
ener y</w>
calci um</w>
Ju an</w>
thodo x</w>
med al</w>
con sume</w>
c af
bl ade</w>
re y</w>
resear ches</w>
de pressed</w>
co ok
COM MIS
pres ti
T ony</w>
t wi
repos itory</w>
Gen e
influ x</w>
in correct</w>
4 5
t ours</w>
gl ance</w>
Chair persons</w>
summar ize</w>
gri ef</w>
UNO SOM</w>
Lim a</w>
ri ght
IC AL</w>
10. 30</w>
• </w>
sp in</w>
prin ts</w>
os s
ad ou
to po
co ding</w>
Si x</w>
S NA</w>
Sec urities</w>
ser ial</w>
s ink</w>
in ha
dea f</w>
Tem porary</w>
MA L</w>
Coun sel
kil o
intim ate</w>
collec tions</w>
b as</w>
O .</w>
low ships</w>
depend ants</w>
bienni ums</w>
an ism</w>
Bar cel
Al ma</w>
weak ening</w>
itenti ary</w>
ar ch</w>
Telecommun ications</w>
Ab du
th ood</w>
jurisdic tional</w>
dwell ers</w>
del icious</w>
19 46</w>
d ull</w>
aff iliation</w>
V A</w>
dev il</w>
d ys
crimin alized</w>
man power</w>
Kash mir</w>
Kig ali</w>
I OC</w>
transl ating</w>
heal ing</w>
entail ed</w>
to ys</w>
in clu
Ad oles
phar mac
om ission</w>
enforce able</w>
bagg age</w>
Tran sition</w>
re forestation</w>
cre atures</w>
Arran gements</w>
scholar ship</w>
re l</w>
dres sing</w>
pre mi
f itness</w>
Benj amin</w>
ro d</w>
l ens</w>
envis ages</w>
Tow ards</w>
D ate</w>
en closure</w>
d un
be i</w>
win ners</w>
stand point</w>
deter rent</w>
WOR K</w>
tex tiles</w>
sh it</w>
poly gam
ov ed</w>
nu t</w>
8 8
educ ating</w>
co ven
al uminum</w>
po et</w>
multi pli
ph a</w>
leak age</w>
be ans</w>
Pun ish</w>
M IC
Ho st</w>
GN P</w>
es si
wid ows</w>
real m</w>
bo s
suff ers</w>
fish er
Requ est</w>
CR PD</w>
w ashed</w>
kno cked</w>
intan gible</w>
ill nesses</w>
boy friend</w>
Co operative</w>
Barcel ona</w>
sul fan</w>
intensi fying</w>
Per sistent</w>
Bal k
ob esity</w>
ish op</w>
ai th</w>
Off enders</w>
H D</w>
sion ary</w>
b um</w>
s culp
s ali
decre es</w>
commen cing</w>
Shaba ab</w>
poss esses</w>
E G
un satisfactory</w>
te dness</w>
t ops</w>
pur view</w>
end ure</w>
SA ICM</w>
par c
ound ly</w>
involun tary</w>
end emic</w>
Sen ator</w>
exem pl
O DP</w>
op es</w>
crimin ality</w>
con spir
P ing</w>
7 8
ob sc
Fore stry</w>
eu tenant</w>
coun tless</w>
K amp
recru its</w>
ep r
Ma ke</w>
techn icians</w>
f led
but ter</w>
ack ers</w>
A ffec
resili ent</w>
col ored</w>
á n
sear ched</w>
it é</w>
Pier re</w>
sun shine</w>
sla u
mus cles</w>
as por
manip ulation</w>
corro bor
Schedul e</w>
sun light</w>
Pro posed</w>
P har
sp ray</w>
gu i</w>
direc ting</w>
dec lines</w>
A v
jun cture</w>
grand mother</w>
g ates</w>
fu </w>
nomin ate</w>
communic ado</w>
D C
jud gments</w>
sle ep
part ner
d ining</w>
CS CE</w>
prop he
ad mir
N ile</w>
Guid ance</w>
ra k
Inno vation</w>
infer ior</w>
crow n</w>
Deli vering</w>
myster y</w>
mur dered</w>
incl ined</w>
P el
su ses</w>
peti tioners</w>
in communicado</w>
cat ering</w>
bot tl
ban kers</w>
au sterity</w>
ass y</w>
D ay
embar ras
uni tions</w>
substanti ate</w>
seem ingly</w>
di ar
l an</w>
hon esty</w>
embar k</w>
cre ature</w>
colum ns</w>
br a</w>
Off ences</w>
Ed ward</w>
interlocu tors</w>
bon us</w>
Pol lu
pain tings</w>
gau ge</w>
T ES</w>
4 0,000</w>
e ball</w>
Claim ant</w>
Al bert</w>
neighb or</w>
ic on</w>
fav ourably</w>
akar ta</w>
ab normal</w>
tur bul
intensi fication</w>
acti vis
29 0</w>
d ried</w>
bl og
Abdul lah</w>
presid ents</w>
Kit ts</w>
ri dic
institution alization</w>
func tionality</w>
d row
bul let</w>
ab o
Hist ory</w>
B U
other apy</w>
har n
ev identi
der ness</w>
W ong</w>
man s</w>
ast rop
in ia</w>
geo spatial</w>
concur red</w>
Bi g</w>
r atings</w>
30 4</w>
El eventh</w>
back up</w>
tu ri</w>
O rig
CER s</w>
or bital</w>
mo tives</w>
6. 7</w>
tra inees</w>
re wards</w>
q ing</w>
proc ur
bl ind
Soci eties</w>
ca ve</w>
c air
adverti sements</w>
tion ism</w>
corrid or</w>
UNIS FA</w>
5. 8</w>
sl ept</w>
un wanted</w>
[...]
