the 39807010
of 22990395
, 22862941
. 21273530
and 17716385
to 14867690
in 11578125
a 7515169
for 5793564
@-@ 5185231
on 4971124
that 4871468
) 4002331
( 3967549
is 3659225
with 3327495
by 3146232
as 3037363
be 2804766
/ 2575730
it 2360620
was 2067592
at 2056633
are 2004683
&quot; 1942267
&apos;s 1841597
its 1839943
: 1781574
from 1732799
; 1732236
or 1718369
this 1674535
an 1550016
have 1537312
not 1506471
United 1503983
I 1483636
has 1337878
their 1321449
which 1275037
all 1260194
Nations 1258268
you 1226795
will 1156893
Committee 1062406
also 1055694
had 1044808
been 1024900
General 980923
were 972248
he 968205
international 953037
other 946609
States 925426
we 892538
should 867210
development 846278
would 816126
they 795925
his 773313
countries 768726
but 734019
rights 727618
report 727180
such 716733
- 696517
one 695994
Council 694403
more 679905
under 677792
can 674419
work 644537
women 643719
1 625133
human 624278
there 620875
including 610048
information 603212
support 584256
national 580398
resolution 577176
into 560454
State 556944
? 549923
out 544023
up 539468
new 533246
these 529401
made 527709
if 508188
Assembly 505687
no 500602
2 492215
through 490974
implementation 490651
time 490205
people 487420
some 485992
those 482064
system 478915
between 478187
well 475068
any 474764
Government 472701
session 472136
activities 469843
so 465482
Secretary 455840
who 450900
may 448740
against 444255
Convention 437450
about 436821
two 433516
per 432596
when 432548
my 432049
country 431079
Commission 431011
3 429846
law 423141
A 416134
our 413393
your 413391
than 412468
article 405675
could 400740
only 398798
meeting 393748
them 393698
security 392138
economic 391769
measures 391042
do 389513
use 387957
her 387776
first 381968
said 377631
shall 377497
children 377337
cooperation 376383
she 371198
number 370133
during 368093
$ 366202
International 365792
efforts 361946
programme 360654
organizations 360631
level 356977
&apos; 356572
resources 354080
over 353342
draft 348840
financial 348141
need 347459
year 346001
Conference 344059
Mr. 343499
what 341515
right 340191
cent 340163
take 338884
process 338521
years 338322
non 338088
must 336617
regional 334532
4 334303
social 332471
provide 331778
further 331141
order 328498
most 328350
many 326974
5 326587
public 321684
services 321314
&apos;t 317844
issues 316797
management 314529
ensure 314205
The 313160
Republic 312952
members 311921
Development 310729
assistance 309808
within 308007
based 306029
Security 303152
party 301773
10 300388
after 300299
make 299864
being 297307
me 295804
world 295345
provided 294839
Rights 292967
paragraph 291792
Group 291077
health 290654
while 289312
developing 287613
areas 285694
like 284995
education 282048
6 280192
decision 278117
staff 277228
b 275972
important 274561
period 274026
China 273527
Office 273342
programmes 272956
related 272393
Special 270662
relevant 269890
where 268832
agenda 268617
before 268340
both 267331
part 266093
however 262364
particular 260930
training 260548
see 259696
political 258770
policy 258726
following 258359
since 258346
held 257393
how 256296
action 255744
now 254715
review 250912
persons 250018
legal 249341
among 244527
protection 244039
three 242118
adopted 241269
Human 239735
7 239287
him 238127
high 237766
effective 237351
situation 237048
parties 236461
community 235482
taken 234613
President 233802
item 232732
capacity 232248
continue 231669
December 230632
very 229175
each 228885
peace 228513
same 228340
global 227330
access 225766
used 225257
regard 224245
without 221755
role 221183
working 221022
special 219169
recommendations 219037
established 217145
reports 216333
good 215830
set 215204
progress 214813
15 214315
data 213118
way 212891
12 212704
8 212681
accordance 212135
respect 210019
Organization 209722
life 209562
present 208328
technical 207041
2008 204555
nuclear 204414
2005 202840
because 202279
Member 202109
case 202092
local 200317
C 198835
view 198121
2006 197985
full 197345
9 197004
Programme 196029
million 196003
long 195768
Africa 195607
June 195313
violence 195294
gender 194951
30 194476
11 194452
cases 194161
just 193734
budget 193543
necessary 192909
trade 191845
place 191622
basis 191099
Board 189833
possible 189129
end 188968
did 188702
&#91; 188400
2010 187825
2007 187425
area 187254
2009 186350
institutions 186079
20 185854
groups 184874
building 184192
increase 183661
policies 183571
general 182897
appropriate 182856
control 182660
needs 182191
even 181782
14 181380
2004 181087
then 179486
! 178896
upon 178151
specific 178138
meetings 177349
available 176951
&#93; 175123
consideration 175095
proposed 174783
second 174057
developed 174023
region 173602
include 173423
day 172727
group 172571
given 172334
13 172249
Parties 172041
government 171907
July 171515
project 171267
African 170983
still 170719
us 170166
concerned 170105
provisions 169783
current 169752
field 169593
issue 169250
2011 169164
World 169033
E 169003
society 168917
water 168866
South 168806
total 168652
note 167335
National 166601
-- 166555
military 165853
continued 165746
d 165610
18 165442
term 164692
future 164346
change 164029
various 162493
16 161900
child 161702
plan 161662
2003 161198
know 161195
account 160552
framework 160308
address 160090
different 160058
noted 160005
promote 159876
much 159277
considered 159127
sector 159112
levels 159030
Social 158748
required 158024
2000 157333
European 157093
sustainable 156976
particularly 156548
therefore 156259
importance 156064
2002 155894
last 155472
help 155377
technology 154718
Court 154471
delegation 154165
Economic 153976
October 153136
major 153090
civil 152508
requirements 152402
conflict 152254
September 152115
Fund 151938
above 151657
participation 151628
Department 151333
several 150592
own 150448
2012 150148
addition 149933
operations 149874
does 149789
family 149393
service 149111
additional 148830
results 148680
conditions 148605
projects 148470
poverty 148382
population 148329
November 147894
authorities 147339
another 147133
means 146982
humanitarian 146384
Secretariat 145873
II 145872
2001 145865
submitted 145786
small 145770
private 145213
17 145002
police 144178
business 143563
go 142882
get 142711
impact 142616
bodies 142229
according 141943
19 141525
May 141455
21 140972
New 140716
agencies 140611
result 139963
31 139962
every 139924
Law 139628
making 139366
towards 139257
market 139239
men 138951
food 138855
March 138722
document 138664
approach 138414
Working 138366
attention 138165
whether 137805
research 136730
weapons 136576
environment 135560
third 135238
personnel 134671
question 134559
status 134484
systems 134128
better 134016
organization 133970
representatives 133618
Union 133542
key 133069
application 132982
risk 132949
man 132917
increased 132665
Mission 132381
25 132159
concern 131778
member 131490
discrimination 131393
agreed 131271
Governments 131158
growth 131128
care 130890
received 130115
force 129941
Women 129886
1999 129764
establishment 129680
especially 129582
domestic 129530
improve 129495
context 129089
22 129075
cost 129059
taking 129053
person 128616
down 128553
give 128370
statement 128366
rule 128355
costs 128324
resolutions 127542
January 127496
2013 127471
April 127465
study 127262
monitoring 126761
mandate 126648
24 126408
provision 125739
might 125719
requests 125597
request 125168
called 125029
rules 124781
requested 124700
concerning 124675
next 124400
don 124369
problems 124366
best 124312
reporting 123865
quality 123679
land 123503
existing 123351
five 123182
consider 122548
Chinese 122484
representative 122437
adoption 122291
23 122088
comprehensive 121987
environmental 121655
main 121639
recent 121607
four 121590
legislation 121420
great 121152
coordination 120448
come 120369
free 120359
1998 120035
Action 120032
contained 119799
production 119703
terms 119701
responsibility 119661
Protocol 119474
Rapporteur 119089
% 118888
due 118874
large 118823
common 118821
foreign 118717
regarding 118347
standards 118135
put 118032
rate 118019
strengthen 118001
justice 117762
subject 117741
become 117610
back 117354
fact 117208
found 116736
often 116711
procedures 116561
expressed 116280
fully 116246
example 115759
Affairs 115696
included 115683
funds 115492
criminal 115373
energy 115138
governmental 115028
Executive 115025
treatment 114816
already 114136
off 113900
relating 113806
implement 113664
least 113650
S 113636
administrative 113554
response 113504
mechanisms 113211
together 112718
principles 112512
challenges 112458
amount 112418
follow 112332
post 111655
Declaration 111017
agreement 110964
practices 110615
income 110592
develop 110556
able 110365
provides 110174
significant 110076
High 109995
26 109896
thus 109861
reported 109721
analysis 109474
America 109119
think 108847
problem 108841
investment 108783
space 108764
performance 108558
form 108481
here 108040
school 107670
took 107562
strengthening 107504
days 107435
providing 107416
armed 107356
Act 107341
yet 107185
table 107143
27 107131
UNDP 107104
too 107012
Ministry 106726
state 106393
contributions 106337
addressed 106190
assessment 105796
planning 105763
decisions 105733
obligations 105682
No. 105335
past 105282
28 104934
early 104660
age 104268
strategy 104165
entitled 104158
lack 103870
indigenous 103458
annex 103190
decided 103156
practice 103149
today 103086
February 103061
having 102929
date 102560
paper 102237
August 102111
equipment 101957
matter 101944
Advisory 101888
power 101874
employment 101695
cultural 101684
regular 101406
meet 101355
line 100957
section 100766
less 100750
want 100715
consultations 100704
effect 100649
value 100417
reform 100306
always 100238
interest 100237
Palestinian 100107
establish 99575
office 99570
around 99548
notes 99512
although 99508
documents 99410
needed 99099
victims 99071
mission 99035
light 99018
others 98994
actions 98598
annual 98566
economy 98426
East 98181
prevention 97837
matters 97700
secretariat 97586
position 97568
focus 97483
terrorism 97157
open 97147
Arab 97106
disarmament 97048
certain 96964
knowledge 96765
commitment 96724
objective 96608
self 96486
equality 96482
initiatives 96400
inter 96348
little 96220
say 96032
29 95870
company 95869
using 95687
basic 95652
Asia 95335
individual 95152
property 94646
peacekeeping 94478
statements 94373
again 94368
body 94309
forces 94171
joint 94144
living 93777
point 93604
old 93313
author 93223
funding 93190
experience 93167
promotion 93146
never 93145
few 93126
clear 93124
young 92870
dialogue 92797
Israel 92751
Service 92686
missions 92651
laws 92351
Centre 92072
expected 92018
please 91819
crime 91704
serious 91568
responsible 91481
priority 91424
letter 91283
official 91078
list 91062
low 91025
far 90906
plans 90817
prevent 90606
home 90570
organized 90346
operational 89929
trafficking 89614
communication 89481
greater 89437
until 89344
para 89312
arms 89255
money 89227
III 89087
months 88541
achieve 88535
strategic 88466
reduction 88433
once 88424
50 88315
let 88295
To 88073
evaluation 87982
peoples 87956
discussion 87869
promoting 87862
potential 87816
delegations 87795
i 87629
principle 87605
am 87541
workers 87530
Iraq 87525
procedure 87499
course 87426
recommendation 87360
supported 87155
Representative 87107
natural 87051
partners 86956
involved 86897
higher 86755
* 86706
financing 86534
changes 86475
exchange 86428
previous 86246
Central 86164
recommended 86019
HIV 85591
sexual 85535
Ms. 85511
nature 85478
carried 85419
steps 85351
biennium 85347
crisis 85243
cannot 85166
violations 85156
find 85154
awareness 85129
1997 85096
affected 84904
strategies 84865
purpose 84701
Director 84697
1996 84517
rural 84477
girls 84440
approved 84098
&apos;m 84018
officials 83786
treaty 83652
currently 83402
facilities 83364
six 83357
essential 83314
agreements 83152
overall 83125
implemented 82963
products 82947
call 82946
climate 82932
mechanism 82900
enhance 82863
limited 82822
American 82775
forms 82701
60 82693
forward 82507
implementing 82265
issued 82178
Bank 81869
acts 81834
increasing 81766
experts 81604
2014 81436
done 81425
operation 81294
opportunities 81260
objectives 81244
understanding 81241
why 81237
e 80908
look 80849
Article 80576
whole 80327
pursuant 80290
going 80265
aimed 80163
offices 80121
communities 79894
committed 79856
Division 79762
behalf 79704
informal 79661
&apos;re 79586
1994 79540
adequate 79488
medical 79156
air 79016
instruments 78985
prepared 78830
facilitate 78544
conduct 78540
proposals 78234
benefits 78198
strong 78180
evidence 78137
P 77955
arrangements 77872
play 77817
below 77627
hand 77612
safety 77461
Chairman 77372
media 77142
pay 77135
protect 76917
40 76676
English 76628
posts 76436
hours 76418
Europe 76280
presented 76188
opportunity 76171
independent 76148
informed 76144
equal 76119
1995 76062
war 75950
material 75940
questions 75911
court 75895
Minister 75827
Commissioner 75703
Covenant 75661
proposal 75640
functions 75593
individuals 75528
de 75408
processes 75300
ensuring 75263
love 75237
stated 75087
AIDS 75007
resource 74918
goals 74886
capital 74864
guidelines 74854
assist 74733
design 74651
Treaty 74643
face 74634
administration 74583
conducted 74512
Panel 74502
labour 74426
remain 74371
bring 74222
students 74168
US 74130
Japan 74112
Permanent 74032
reduce 73929
items 73878
Tribunal 73781
wish 73718
effects 73688
close 73588
positive 73578
exercise 73529
poor 73514
recommends 73471
transfer 73423
Democratic 73407
People 73376
team 73357
aspects 73201
methods 73163
provisional 72960
Millennium 72852
primary 72782
internal 72735
authority 72669
real 72646
method 72600
freedom 72545
York 72441
remains 72417
communications 72401
reference 72376
negotiations 72242
Russian 72182
contribute 72126
away 72093
undertaken 72082
Management 71981
death 71975
concerns 71922
rather 71875
articles 71843
&apos;ll 71663
direct 71498
manner 71416
integrated 71265
led 71111
lead 70860
return 70770
calls 70346
Geneva 70303
contribution 70227
rates 70096
fundamental 70049
structure 70039
Information 70027
final 70021
language 69767
participants 69752
things 69567
industry 69513
ways 69460
regions 69438
wide 69355
compliance 69332
infrastructure 69200
Plan 69085
recognized 69078
1993 69035
materials 69018
share 69003
act 68975
drug 68955
officers 68924
allow 68837
companies 68738
believe 68643
dated 68507
active 68505
keep 68496
s 68384
difficult 68026
throughout 67891
regulations 67810
former 67731
Agency 67378
Israeli 67336
connection 67313
model 67310
itself 67201
construction 67194
asked 67192
fifty 67085
views 67077
preparation 67069
p.m. 66781
refugees 66733
identified 66633
text 66510
hope 66414
achieved 66393
F 66389
Charter 66321
despite 66309
UN 66231
kind 66162
Trade 66098
fourth 66028
multilateral 65860
improving 65772
crimes 65760
UNICEF 65710
times 65328
detention 65230
Criminal 65171
enforcement 65144
range 65128
came 65128
effectively 65123
Federation 65116
un@@ 64994
conference 64976
judicial 64912
says 64777
leave 64639
commitments 64622
institutional 64608
job 64561
vote 64545
introduced 64530
benefit 64464
goods 64441
effort 64212
left 64202
across 64189
schools 64189
outside 64104
half 64102
Forum 64089
critical 64030
paragraphs 64000
live 63944
claims 63944
integration 63938
substantive 63854
A. 63778
families 63717
Global 63650
name 63611
referred 63575
activity 63524
outcome 63391
create 63283
similar 63248
Hong 63172
short 63058
source 63037
words 63021
Code 62996
Justice 62970
purposes 62823
interests 62820
indicated 62791
Unit 62721
debt 62714
B 62677
UNCTAD 62529
Pacific 62529
Sudan 62513
entities 62463
travel 62342
governance 62297
demand 62252
participate 62175
room 62154
Kong 62007
themselves 61964
got 61945
India 61936
circumstances 61930
assets 61862
ongoing 61775
later 61657
summary 61630
house 61595
require 61533
relations 61524
along 61524
traditional 61418
scale 61394
month 61359
sessions 61213
side 61211
oil 61177
elements 61177
directly 61165
apply 61160
mind 61133
submit 60992
week 60851
improved 60846
brought 60797
culture 60775
territory 60656
soon 60570
ability 60480
Kingdom 60336
Institute 60333
effectiveness 60266
estimated 60211
central 60090
factors 60047
contract 60019
discussions 60011
price 59987
signed 59825
whose 59817
show 59764
revised 59741
enable 59727
sources 59578
centres 59511
maintenance 59469
build 59433
standard 59300
Services 59288
civilian 59275
includes 59249
guidance 59232
supply 59142
scope 59141
balance 59137
network 59037
disabilities 59010
Agreement 58983
applied 58906
transport 58774
c 58696
really 58687
Review 58524
Summit 58500
met 58409
Constitution 58325
Canada 58322
prior 58222
something 58218
mentioned 58215
sixty 58214
IV 58189
average 58160
points 58117
parts 58078
57 58051
core 58008
55 57968
takes 57900
physical 57885
step 57866
either 57855
expert 57838
complete 57767
sectors 57719
B. 57605
welcomed 57571
efficiency 57539
distribution 57508
indicators 57433
Meeting 57417
deal 57396
situations 57389
Health 57348
stability 57300
proceedings 57169
furthermore 57151
delivery 57104
fund 57084
head 56916
technologies 56903
events 56881
billion 56810
seen 56693
known 56688
legislative 56615
paid 56596
65 56549
aid 56518
city 56505
developments 56483
Cooperation 56477
stakeholders 56279
continues 56276
Party 56213
type 56159
combat 56060
comments 55958
35 55936
investigation 55910
universal 55907
markets 55895
S@@ 55850
initiative 55830
Korea 55745
University 55648
58 55617
single 55556
urban 55516
ever 55495
claim 55452
studies 55417
peaceful 55318
relationship 55306
hold 55266
twenty 55207
collaboration 55187
thought 55163
cause 55061
start 55021
elections 54935
citizens 54918
target 54866
o 54833
went 54781
Support 54780
associated 54750
goal 54689
priorities 54651
responsibilities 54608
anti 54600
almost 54544
59 54530
leaders 54527
torture 54523
UNEP 54410
discussed 54395
encourage 54377
achieving 54314
Public 54301
intergovernmental 54269
emergency 54249
carry 54214
ground 54130
Protection 54109
61 54081
abuse 54077
UNHCR 54023
Force 53997
fifth 53988
32 53832
success 53730
longer 53656
relation 53616
receive 53613
addressing 53604
2015 53593
100 53555
likely 53538
voluntary 53532
practical 53526
62 53478
growing 53450
scientific 53363
alia 53357
identify 53294
loss 53263
&apos;ve 53238
lower 53058
conclusion 53046
extent 52948
completed 52918
recently 52909
reached 52852
supporting 52727
64 52715
border 52704
&apos;@@ 52651
ethnic 52588
recalling 52564
though 52542
Goals 52539
continuing 52516
debate 52464
personal 52379
53 52357
Report 52356
hard 52331
states 52274
external 52265
beyond 52256
re@@ 52250
34 52200
housing 52140
vulnerable 52105
successful 52089
compensation 51926
maintain 51890
units 51866
designed 51792
prices 51757
transition 51731
33 51727
chapter 51725
makes 51702
stage 51655
religious 51602
woman 51589
52 51583
election 51563
permanent 51506
invited 51494
advice 51439
initial 51397
Regional 51314
A@@ 51271
threat 51256
welcomes 51249
establishing 51214
partnership 51203
economies 51155
specialized 51123
France 51054
48 50935
reasons 50915
opinion 50904
enough 50901
63 50890
36 50877
al 50846
encouraged 50846
adopt 50816
G 50756
OF 50737
moreover 50580
periodic 50510
Headquarters 50506
proliferation 50468
Afghanistan 50404
task 50398
visit 50390
54 50360
determination 50358
expenditure 50209
positions 50143
Caribbean 50047
THE 49972
reason 49913
co 49842
56 49799
agency 49744
Congo 49715
tell 49673
female 49622
appreciation 49507
feel 49453
function 49421
educational 49365
Crime 49348
solution 49313
commercial 49287
compared 49247
... 49230
raised 49116
recovery 49098
consensus 49094
creation 49085
Foreign 49047
export 49020
clearly 48977
finally 48958
majority 48958
requires 48947
remained 48925
event 48907
consultation 48905
night 48847
66 48797
G@@ 48773
youth 48766
big 48623
professional 48612
Political 48611
mother 48598
approval 48597
seek 48545
follows 48519
detailed 48516
West 48507
French 48506
obligation 48504
Beijing 48503
statistics 48488
serve 48415
violation 48406
Room 48405
created 48395
B@@ 48253
phase 48180
Environment 48159
Non 48149
bilateral 48110
challenge 47998
site 47985
road 47953
37 47916
45 47880
net 47847
read 47759
North 47758
concluded 47742
Chair 47737
leadership 47623
heart 47506
doing 47482
cover 47461
Administrative 47411
encourages 47380
test 47361
Implementation 47315
skills 47222
sent 47220
move 47169
terrorist 47135
Iran 47027
disaster 47009
courts 46901
.@@ 46885
applications 46861
applicable 46841
39 46823
nothing 46808
caused 46747
covered 46734
Islamic 46677
art 46608
history 46607
P@@ 46528
procurement 46499
sharing 46461
product 46457
agricultural 46419
displaced 46375
improvement 46372
run 46354
Latin 46349
Disarmament 46344
thing 46301
Germany 46297
sufficient 46266
jurisdiction 46211
treaties 46207
suggested 46180
offer 46170
1992 46139
achievement 46137
accountability 46130
science 46124
51 46109
enterprises 46079
audit 46037
parents 46026
avoid 45995
Civil 45943
original 45935
Cuba 45901
lives 45878
generally 45842
temporary 45734
beginning 45680
UNFPA 45662
trust 45660
settlement 45582
Peace 45581
aim 45574
plenary 45494
duty 45394
reflected 45385
focused 45314
Education 45287
regime 45243
insurance 45226
began 45217
67 45198
destruction 45138
mainly 45123
operating 45083
leading 45076
turn 45037
consistent 45031
confidence 45018
Syrian 44923
49 44910
reach 44862
noting 44833
cash 44787
conclusions 44746
illegal 44686
movement 44672
Section 44668
sea 44653
submission 44637
Australia 44628
written 44589
T@@ 44583
partnerships 44580
respective 44578
Administration 44549
Middle 44412
actors 44392
record 44385
Mexico 44372
38 44341
In 44318
tools 44260
cross 44253
told 44228
weapon 44211
payment 44050
efficient 44005
formal 43990
heard 43978
judges 43945
Children 43945
D@@ 43913
trial 43885
sound 43831
Optional 43812
learning 43805
concept 43789
monitor 43776
C. 43719
introduction 43702
mass 43614
presence 43562
approaches 43537
M@@ 43530
added 43519
credit 43490
observations 43467
bank 43417
industrial 43292
finance 43207
measure 43120
resulting 43081
criteria 43063
entry 43038
class 43030
47 43017
implications 42978
seven 42961
senior 42926
urges 42891
contact 42878
negative 42839
try 42831
ago 42806
D 42804
Federal 42801
41 42766
K@@ 42754
series 42720
sixth 42704
conferences 42696
committee 42584
types 42573
Vienna 42570
tax 42524
System 42513
useful 42494
appeal 42472
t 42464
closely 42451
re 42440
All 42385
independence 42371
involving 42340
raising 42254
Discrimination 42245
Joint 42231
safe 42230
God 42198
content 42175
round 42174
conflicts 42168
Association 42155
launched 42145
owing 42142
Asian 42081
decides 42047
damage 42029
actual 41968
Child 41896
44 41822
reduced 41809
sanctions 41778
host 41773
1990 41755
68 41753
consequences 41733
Pakistan 41706
registration 41701
Internet 41700
transparency 41669
instrument 41637
understand 41558
nor 41545
near 41487
component 41402
sex 41398
risks 41370
42 41351
father 41345
fight 41341
complex 41324
electronic 41323
broad 41298
minimum 41280
described 41273
welcome 41238
a.m. 41234
shown 41230
E@@ 41191
sub 41138
top 41122
46 41005
lot 41004
difficulties 40984
planned 40963
competition 40955
advance 40947
collection 40935
indeed 40925
timely 40914
Brazil 40821
capacities 40784
unit 40782
forest 40745
followed 40649
Sustainable 40609
concrete 40597
exploitation 40592
Lebanon 40560
elected 40504
stressed 40435
alternative 40429
waste 40425
late 40409
pressure 40402
base 40353
reflect 40335
Persons 40280
in@@ 40241
actively 40236
relief 40172
true 40122
coming 40064
gave 40015
N@@ 40004
opening 39998
looking 39963
determined 39954
subregional 39943
illicit 39908
causes 39904
donors 39893
enhancing 39849
dollars 39767
UNIDO 39754
fire 39731
ended 39695
banks 39668
published 39635
survey 39588
enhanced 39561
Western 39548
Countries 39528
Bureau 39528
1991 39480
increasingly 39436
sure 39433
recognition 39366
urgent 39352
determine 39352
aircraft 39307
absence 39284
Authority 39205
43 39204
corruption 39172
accounts 39148
rise 39139
Al 39106
governments 39092
O@@ 39002
raise 38949
intended 38928
defined 38899
NGOs 38897
Somalia 38881
island 38839
medium 38811
democratic 38793
word 38745
prepare 38636
departments 38622
membership 38576
mutual 38546
immediately 38493
failure 38442
reducing 38428
languages 38392
contributing 38364
son 38347
deployment 38335
placed 38312
saw 38305
Chief 38287
lost 38257
seventh 38243
fair 38236
accepted 38215
Governing 38188
shared 38098
organizational 38093
70 38004
computer 37990
k@@ 37984
modern 37980
Prevention 37964
extended 37954
Elimination 37890
possibility 37794
allowed 37777
deep 37776
thank 37726
enterprise 37696
immediate 37680
car 37671
instead 37642
mean 37615
documentation 37590
usually 37580
attacks 37547
shows 37493
idea 37461
discuss 37440
gas 37420
respond 37418
forced 37416
sometimes 37404
keeping 37380
fields 37348
L@@ 37337
emerging 37310
definition 37298
Police 37294
prison 37273
assessments 37227
Technology 37172
reviewed 37152
workshops 37135
accordingly 37129
migration 37112
estimates 37078
H@@ 37071
marriage 37051
multi 37051
approximately 37041
works 37026
m 37009
civilians 36970
Officer 36928
sense 36919
involvement 36868
charge 36820
consumption 36788
solutions 36781
Operations 36744
pre 36727
produced 36725
expertise 36716
highest 36663
77 36662
&apos;d 36628
Annex 36624
strengthened 36589
rehabilitation 36572
Territory 36552
started 36547
mandates 36471
percent 36463
democracy 36434
centre 36412
ask 36401
Labour 36368
book 36331
F@@ 36330
earlier 36264
percentage 36237
accounting 36211
Mr 36167
Community 36166
counter 36143
represented 36114
Nuclear 36086
press 36066
ad 36046
80 36023
l 36013
recognizing 36002
engaged 35972
places 35953
setting 35944
options 35942
workshop 35920
Coordination 35898
eight 35781
friends 35779
values 35740
category 35719
express 35708
ready 35704
participated 35704
recruitment 35689
became 35587
unless 35550
size 35547
undertake 35525
guarantee 35524
affairs 35516
entire 35481
Egypt 35479
rest 35429
Guinea 35370
stop 35360
alone 35350
processing 35331
donor 35320
direction 35312
morning 35292
eighth 35270
separate 35224
I. 35214
remaining 35167
mine 35163
specifically 35130
Strategy 35126
crucial 35046
urged 35034
racial 34994
h 34941
expression 34876
occupied 34876
Rwanda 34864
forty 34835
coordinated 34812
emphasized 34811
R@@ 34800
organs 34761
affect 34753
V 34746
speaking 34745
representation 34694
considering 34685
himself 34646
highly 34615
records 34611
ninth 34598
defence 34597
Vice 34594
learned 34587
didn 34549
behind 34525
Kuwait 34523
inclusion 34481
everyone 34428
dealing 34300
refugee 34230
imposed 34178
resulted 34176
targets 34171
figure 34148
C@@ 34109
users 34079
subprogramme 34011
produce 33993
chemical 33989
Palestine 33973
networks 33960
Legal 33932
&amp; 33908
holding 33847
W@@ 33841
origin 33834
agriculture 33806
findings 33759
influence 33714
won 33709
easy 33680
observers 33663
emphasis 33606
headquarters 33589
enjoy 33578
quite 33562
eyes 33553
examination 33532
Kosovo 33501
executive 33495
respectively 33485
closed 33483
learn 33478
occupation 33409
conventions 33407
combating 33403
details 33390
felt 33366
69 33348
cooperate 33326
listed 33302
Policy 33269
cut 33263
regulation 33255
Rules 33240
Add.1 33206
looked 33190
Second 33162
structures 33156
fall 33137
assess 33110
Other 33102
disease 33085
constitute 33073
daily 33036
participating 33034
statistical 33027
limit 32974
appointed 32974
weeks 32927
uses 32906
creating 32891
wife 32880
threats 32872
aware 32849
perspective 32841
components 32824
collective 32809
OHCHR 32781
v. 32767
subsequent 32752
interested 32721
girl 32721
worked 32709
contributed 32701
ratification 32663
requirement 32613
contracts 32608
spirit 32601
Indonesia 32589
responses 32583
degree 32555
tool 32545
faced 32544
indicate 32542
page 32526
website 32515
speak 32494
offences 32459
registered 32435
s@@ 32418
fuel 32406
secondary 32353
integrity 32345
background 32295
contains 32277
grounds 32263
floor 32258
observed 32196
factor 32191
reforms 32153
Islands 32130
authorized 32118
Turkey 32107
e@@ 32096
bad 32083
tasks 32082
Liberia 32066
trying 32025
offered 32025
eliminate 31991
candidates 31925
90 31893
otherwise 31862
trends 31854
internationally 31816
recorded 31769
software 31746
freedoms 31739
campaign 31699
actually 31662
whom 31650
Ireland 31647
highlighted 31647
giving 31596
Italy 31593
drugs 31583
employees 31582
entered 31580
accept 31531
played 31470
honour 31469
zone 31442
significantly 31431
institution 31352
interpretation 31288
investigations 31276
courses 31248
except 31230
Territories 31212
visits 31204
gross 31197
declaration 31188
appointment 31182
sought 31132
owned 31118
AND 31118
department 31114
nations 31097
VI 31086
rapid 31077
punishment 31059
lessons 31006
y@@ 30985
Agenda 30981
er 30925
expenditures 30919
sites 30918
Research 30911
condition 30892
century 30867
outcomes 30856
EU 30845
Weapons 30842
recognize 30828
existence 30798
engage 30771
Ambassador 30760
Sierra 30756
vehicles 30740
completion 30738
widely 30733
ill 30731
anything 30725
Framework 30720
agree 30714
comes 30663
secure 30651
stock 30641
seems 30606
identification 30599
namely 30595
substantial 30587
Experts 30586
alleged 30538
diseases 30502
hear 30488
minorities 30468
First 30452
obtained 30444
Spain 30438
hands 30432
competent 30426
inform 30373
etc 30372
supports 30360
outstanding 30355
failed 30350
experiences 30343
3@@ 30335
considers 30328
spoke 30318
Congress 30303
migrants 30297
categories 30289
Assistance 30243
allegations 30220
cities 30169
proper 30161
moment 30160
Switzerland 30147
marine 30141
thematic 30135
everything 30120
seeking 30110
strength 30109
4@@ 30106
granted 30095
talk 30061
complaints 30050
door 30030
o@@ 30030
stay 30019
obtain 30017
_ 30001
cycle 29996
Space 29953
strongly 29931
element 29917
D. 29906
release 29904
teaching 29892
stand 29859
extend 29854
Chamber 29804
begin 29803
largest 29785
y 29763
religion 29749
traffic 29742
considerable 29697
Peacekeeping 29694
news 29637
COP 29629
funded 29627
teachers 29617
flow 29549
simple 29523
vital 29507
losses 29491
consent 29467
Zealand 29465
facing 29463
database 29447
forum 29427
availability 29412
thirty 29400
Cultural 29312
IAEA 29309
decide 29252
inclusive 29241
5@@ 29217
delay 29200
presentation 29151
previously 29137
selected 29119
Leone 29110
regulatory 29017
advisory 29015
someone 29011
opened 28994
jobs 28994
Netherlands 28976
Financial 28959
minority 28942
mail 28935
supplies 28920
payments 28910
killed 28882
preventing 28881
territorial 28870
red 28838
Argentina 28830
territories 28812
V@@ 28811
nearly 28809
numbers 28805
attack 28802
electoral 28802
writing 28778
emissions 28778
yes 28774
Chairperson 28762
75 28758
front 28758
Great 28748
Haiti 28740
topic 28728
theme 28723
Control 28710
Deputy 28698
norms 28697
Gaza 28671
maintained 28665
enter 28648
board 28620
Ministers 28601
globalization 28589
functioning 28587
standing 28549
teams 28538
Parliament 28516
Norway 28461
speakers 28449
instance 28436
trend 28423
specified 28400
expansion 28393
sovereignty 28373
exist 28365
linked 28341
differences 28314
populations 28300
amendments 28299
Bosnia 28293
diplomatic 28292
investments 28290
ten 28273
inside 28229
firm 28219
dissemination 28186
concluding 28180
nation 28176
unable 28165
pointed 28161
expenses 28137
British 28137
Fifth 28108
carrying 28090
built 28085
00 28084
reproductive 28079
victim 28037
code 28033
decrease 27992
announced 27990
numerous 27976
J@@ 27949
search 27918
showed 27910
amounts 27907
nationality 27895
I@@ 27849
coverage 27820
subsequently 27802
a@@ 27795
engagement 27787
bearing 27787
characteristics 27787
t@@ 27778
It 27769
O 27754
advanced 27731
containing 27721
restrictions 27719
happy 27703
draw 27576
en 27550
Burundi 27525
realization 27515
subsidiary 27511
located 27511
duties 27496
targeted 27478
theory 27467
Cyprus 27460
latest 27458
Field 27448
identity 27447
buy 27442
sign 27423
heavy 27418
oversight 27374
examples 27336
add 27271
convened 27253
white 27251
Year 27230
advantage 27229
contents 27213
sales 27195
maximum 27186
maintaining 27176
n 27173
friend 27141
Yugoslavia 27098
minutes 27093
sustained 27089
nevertheless 27064
flows 27060
formulation 27038
sentence 27038
combined 27021
reintegration 27000
aims 26997
rich 26982
constitutional 26968
ideas 26956
technological 26937
simply 26936
online 26926
Gender 26907
comply 26866
ownership 26857
disability 26849
delivered 26834
unemployment 26823
Darfur 26805
Assistant 26801
Habitat 26788
birth 26755
nine 26747
older 26735
complainant 26727
judge 26721
reasonable 26683
getting 26683
program 26674
confirmed 26650
Lebanese 26624
reconciliation 26623
sale 26600
Prosecutor 26593
encouraging 26563
elimination 26540
quickly 26537
satisfaction 26534
surface 26522
troops 26519
answer 26517
mortality 26496
cold 26487
recognizes 26483
Technical 26463
enjoyment 26460
guide 26454
Prime 26447
Supreme 26424
fulfil 26423
perhaps 26422
Day 26415
worldwide 26410
choice 26404
wanted 26395
updated 26394
reservations 26392
receiving 26386
mental 26362
i@@ 26360
blood 26336
stress 26330
Herzegovina 26320
disasters 26312
wishes 26310
endorsed 26297
heads 26293
green 26268
Decade 26265
Nigeria 26258
offence 26220
designated 26209
governing 26204
stations 26194
transportation 26185
achievements 26181
object 26179
tried 26176
allocation 26162
expresses 26145
arising 26140
Third 26124
protected 26103
middle 26093
&apos;Ivoire 26086
preliminary 26081
budgetary 26048
Regulations 26031
internally 26012
normal 26005
trading 26002
Food 25984
Colombia 25963
generation 25960
attend 25959
Britain 25957
enabling 25950
ate 25948
Sea 25928
sensitive 25920
Population 25920
names 25913
appear 25871
fixed 25867
initiated 25832
link 25824
character 25815
changed 25806
assessed 25785
fine 25779
proportion 25777
Ukraine 25774
al@@ 25759
Monday 25758
lines 25750
ratified 25747
kept 25745
k 25742
paras 25729
g@@ 25713
returned 25708
equitable 25707
principal 25691
latter 25690
sides 25683
Training 25668
primarily 25631
frameworks 25630
thousands 25612
outer 25608
convention 25586
location 25570
Northern 25569
changing 25558
Ethiopia 25543
amended 25543
systematic 25526
protecting 25520
ones 25502
estimate 25489
verification 25487
diversity 25454
investigate 25431
corporate 25422
unique 25403
attended 25400
helped 25396
UNODC 25393
mainstreaming 25364
penalty 25347
Sweden 25343
figures 25341
saying 25340
option 25332
amendment 25323
ILO 25308
And 25304
partner 25300
station 25299
favour 25270
hour 25269
Côte 25266
asylum 25261
productive 25257
seem 25249
believes 25207
resolve 25204
selection 25194
managers 25191
difference 25178
d@@ 25154
contain 25139
accused 25134
eradication 25134
preparing 25125
publications 25067
U@@ 25043
exports 25021
relatively 25019
Inter 25004
race 24985
occurred 24962
Friday 24944
gap 24936
clean 24906
publication 24904
send 24870
pending 24869
6@@ 24850
prosecution 24825
Trust 24823
fear 24777
boy 24730
incidents 24722
Spanish 24690
becoming 24672
Humanitarian 24659
finding 24654
invites 24645
voice 24644
FAO 24640
forth 24639
entity 24619
commissions 24618
thereby 24611
speed 24605
examine 24600
chemicals 24566
multiple 24552
commission 24544
Internal 24540
Morocco 24537
jointly 24536
sustainability 24531
pursue 24526
committees 24516
passed 24490
variety 24484
spread 24479
gives 24457
empowerment 24455
impacts 24428
acting 24428
drafting 24421
user 24408
liability 24396
binding 24394
Fourth 24388
structural 24368
join 24360
represent 24334
hoped 24319
manage 24316
formed 24299
racism 24256
geographical 24241
Staff 24234
released 24229
transparent 24224
Eastern 24216
dispute 24205
allocated 24188
patients 24173
neither 24167
observer 24153
fish 24144
increases 24137
improvements 24132
facilitating 24130
u 24120
Thailand 24112
UNESCO 24085
refer 24073
turned 24047
arrest 24034
drawn 24012
controls 24007
es 23995
believed 23980
innovative 23967
regularly 23964
tourism 23957
9@@ 23948
born 23944
extensive 23929
de@@ 23899
game 23880
obstacles 23854
town 23826
ICT 23823
adaptation 23763
charges 23750
investors 23703
fell 23684
Questions 23676
rose 23674
Initiative 23670
Kenya 23657
powers 23643
expand 23628
inspection 23625
g 23617
R 23611
reconstruction 23599
radio 23598
savings 23596
socio 23570
Azerbaijan 23558
yourself 23551
leaving 23542
an@@ 23537
coordinate 23520
examined 23513
intention 23511
beautiful 23503
boys 23497
write 23493
scheduled 23481
conformity 23466
stable 23436
perform 23436
legitimate 23431
attempt 23426
vision 23422
vehicle 23421
preparatory 23420
message 23418
Indigenous 23412
pollution 23393
plant 23378
pilot 23364
reviews 23354
Members 23331
Uganda 23331
books 23309
10@@ 23303
extension 23292
notice 23292
Principles 23257
suffering 23247
attached 23247
El 23244
affecting 23221
declared 23220
remember 23209
2@@ 23195
web 23162
reservation 23161
check 23142
200 23134
choose 23111
identifying 23065
testing 23062
73 23061
male 23043
Myanmar 23034
king 23032
disputes 23023
transactions 23020
London 23019
CEDAW 23017
image 23017
Paris 23015
expanded 23011
burden 23010
husband 22992
prisoners 22980
demands 22978
version 22977
Iraqi 22961
doesn 22961
transit 22944
n@@ 22924
thinking 22921
mines 22914
bringing 22878
Resources 22866
Subcommittee 22825
satellite 22819
= 22808
abroad 22796
Terrorism 22796
currency 22795
substances 22794
severe 22792
interim 22771
fast 22768
thanks 22764
black 22763
constructive 22761
constraints 22731
Under 22723
employed 22697
violated 22663
managed 22653
schedule 22640
teacher 22638
Chile 22624
Philippines 22620
bear 22613
preventive 22600
capabilities 22597
Russia 22590
e.g. 22578
Energy 22574
ship 22574
links 22553
customs 22549
meaning 22548
City 22541
train 22537
letters 22533
grave 22520
Lord 22500
served 22498
migrant 22489
Jerusalem 22453
grant 22441
Oh 22440
u@@ 22415
72 22412
joined 22399
music 22394
welfare 22394
Status 22392
VII 22391
soldiers 22387
sanitation 22375
You 22359
Georgia 22357
probably 22337
sets 22336
monthly 22331
reading 22311
Y@@ 22306
innovation 22297
remedies 22296
His 22280
worth 22278
arrested 22275
discriminatory 22260
spent 22248
Power 22242
eat 22239
reality 22225
extreme 22220
p 22219
U.S. 22187
ahead 22182
master 22172
safeguards 22168
appears 22159
import 22158
troop 22156
reiterates 22153
extremely 22152
launch 22138
reiterated 22135
covering 22134
running 22132
valuable 22123
advocacy 22120
consultative 22118
facts 22118
Refugees 22112
+ 22100
truth 22079
Algeria 22078
trained 22057
Project 22052
moving 22052
guarantees 22023
largely 22023
recalled 22018
looks 21986
asset 21967
earth 21964
explore 21946
Drugs 21930
represents 21896
gold 21896
volume 21891
71 21882
decade 21880
C.2 21875
wall 21867
equity 21846
scheme 21831
starting 21827
Timor 21826
offers 21821
adjustment 21814
explained 21813
NPT 21811
Z@@ 21803
easily 21799
break 21793
dis@@ 21777
reply 21756
focal 21753
OIOS 21752
larger 21708
ing 21703
en@@ 21695
Family 21688
map 21686
composition 21681
Tuesday 21681
reaching 21675
reaffirming 21657
roles 21653
television 21650
story 21647
comment 21630
treated 21627
file 21625
limits 21624
Austria 21622
president 21596
z@@ 21580
staffing 21545
perpetrators 21541
wrong 21534
Network 21522
academic 21509
Forces 21504
distributed 21481
machine 21476
south 21463
indicates 21437
settlements 21430
panel 21426
update 21424
decline 21421
Forms 21410
knew 21402
permit 21398
7@@ 21388
programming 21376
ar@@ 21375
authors 21368
dignity 21367
helping 21358
Saudi 21347
Malaysia 21299
decades 21297
campaigns 21282
seriously 21267
Thursday 21267
fiscal 21264
experienced 21264
district 21258
John 21258
weight 21250
methodology 21221
acceptance 21221
utilization 21207
contrary 21197
features 21173
remote 21164
WTO 21163
Scientific 21153
village 21139
Partnership 21117
Bangladesh 21087
judiciary 21083
storage 21059
introduce 21057
mobile 21035
Foundation 21015
j@@ 21015
suffered 21006
stresses 21004
Jordan 20994
dangerous 20983
Wednesday 20967
bit 20957
broader 20948
Monitoring 20945
76 20944
belief 20941
talks 20929
officer 20901
techniques 20892
Coordinator 20887
overcome 20881
mining 20863
reaffirms 20824
humanity 20806
seminars 20796
anyone 20795
er@@ 20793
Task 20784
seemed 20773
di@@ 20771
mandated 20763
north 20748
Budgetary 20746
chance 20740
periods 20739
transmitted 20738
locations 20734
double 20711
goes 20665
supervision 20658
Nairobi 20641
Belarus 20639
bed 20638
track 20636
quarter 20630
x 20624
deeply 20619
E. 20600
welcoming 20581
et 20579
On 20571
output 20555
carbon 20553
demonstrated 20538
warning 20532
He 20522
historical 20512
reflects 20509
imprisonment 20506
assigned 20500
74 20495
weather 20491
fighting 20491
continuous 20480
cutting 20478
greatly 20477
association 20477
85 20474
1.@@ 20470
bill 20436
career 20431
salary 20427
depth 20427
performed 20417
ed 20400
engineering 20396
p@@ 20376
impunity 20376
transferred 20364
coordinating 20360
involve 20360
consequently 20335
studied 20325
hot 20323
buildings 20318
assisting 20307
rising 20293
controlled 20287
friendly 20285
associations 20284
serving 20270
enemy 20262
hoc 20247
Earth 20241
acquisition 20218
complaint 20210
outlined 20173
gaps 20168
else 20157
none 20152
78 20144
b@@ 20134
LDCs 20128
yesterday 20120
papers 20105
biological 20103
Peoples 20098
budgets 20094
Movement 20093
Planning 20069
Statute 20068
vulnerability 20067
foundation 20062
oriented 20058
focusing 20053
deliver 20046
resumed 20043
Safety 20037
corresponding 20030
gone 20012
mid 19997
sections 19997
aged 19994
topics 19976
relative 19953
popular 19951
subjected 19936
Re@@ 19927
directed 19912
C.3 19900
arbitrary 19879
pleased 19831
similarly 19827
UNOPS 19826
dead 19824
Mechanism 19823
95 19822
suitable 19807
WHO 19796
grow 19794
southern 19791
M 19780
Southern 19774
competitive 19751
Croatia 19750
recommend 19743
inflation 19727
farmers 19726
platform 19722
street 19722
models 19710
disabled 19703
hospital 19687
purchase 19682
Peru 19679
In@@ 19675
equally 19671
operate 19662
mobilization 19643
Japanese 19634
commodity 19634
briefing 19631
modalities 19626
Finland 19622
detained 19607
la 19593
Expert 19587
balanced 19576
army 19569
speech 19554
widespread 19543
deliberations 19543
Science 19539
certainly 19531
hearing 19529
8@@ 19519
appeals 19509
2.@@ 19506
L 19494
pattern 19489
charged 19488
spending 19478
X 19476
on@@ 19449
loans 19412
insufficient 19403
federal 19386
legally 19385
allows 19377
student 19368
societies 19355
constitutes 19354
regards 19354
soil 19350
orders 19347
Eritrea 19342
stocks 19341
premises 19340
completely 19338
coherence 19327
temperature 19321
opposition 19321
household 19317
hit 19317
prohibited 19305
conservation 19304
bound 19300
preparations 19295
1@@ 19289
f@@ 19288
Professional 19277
slow 19274
intellectual 19273
Universal 19250
card 19249
solidarity 19244
invitation 19242
doubt 19236
evaluate 19209
seminar 19208
died 19204
deployed 19192
execution 19176
box 19174
prostitution 19174
dealt 19164
replace 19155
intervention 19149
industries 19141
maternal 19134
Strategic 19107
i.e. 19101
gain 19091
healthy 19088
pass 19077
calling 19076
digital 19052
98 19049
segment 19032
save 19027
Statistics 19017
lasting 19002
Cambodia 18973
Sri 18971
substance 18966
path 18958
reaffirmed 18957
danger 18949
successfully 18947
foster 18941
suggestions 18939
GDP 18938
Independent 18937
wished 18935
witnesses 18932
relevance 18931
resident 18926
ers 18919
anniversary 18894
promoted 18892
greatest 18890
wind 18881
summer 18879
鈥 18878
German 18878
homes 18861
Preparatory 18848
CN.4 18847
newly 18844
disposal 18837
conventional 18834
properly 18830
vocational 18801
university 18791
moved 18790
Torture 18788
convinced 18786
interventions 18784
input 18784
visited 18774
Angola 18761
posed 18761
airspace 18757
harm 18748
c@@ 18747
UNRWA 18741
functional 18740
&gt; 18732
Singapore 18708
voting 18702
productivity 18694
Nepal 18693
rapidly 18684
overview 18681
oral 18679
huge 18668
chief 18659
drawing 18657
faith 18656
Society 18653
Poland 18645
picture 18630
No 18627
dynamic 18619
inventory 18617
playing 18604
objects 18600
competence 18594
Ministerial 18592
reliable 18585
Shanghai 18581
81 18572
sponsors 18559
recalls 18553
w@@ 18544
nationals 18544
cluster 18540
drive 18520
Guatemala 18511
Turkish 18506
79 18503
fishing 18495
advancement 18492
businesses 18490
conducting 18489
explain 18483
m@@ 18479
copies 18474
Comprehensive 18472
phone 18471
realize 18464
Platform 18462
barriers 18457
firms 18444
film 18418
laid 18409
counsel 18409
becomes 18404
ting 18373
sports 18363
l@@ 18361
pension 18350
wider 18320
T 18313
married 18302
Financing 18299
kinds 18267
82 18263
f 18250
accessible 18233
telephone 18230
customers 18226
embargo 18218
unilateral 18205
emphasizes 18196
camps 18193
patterns 18174
consumer 18158
Red 18139
liberty 18132
envisaged 18132
NGO 18131
acknowledged 18130
Finance 18116
dedicated 18096
revenue 18089
toward 18086
expect 18079
Excellency 18066
tomorrow 18048
Region 18047
Peacebuilding 18036
doctor 18013
crises 18010
residents 18007
inadequate 18002
Czech 18002
residence 17983
reserve 17975
appeared 17974
transnational 17973
rape 17970
length 17966
withdrawal 17961
video 17955
package 17907
ministerial 17884
organize 17883
Hoc 17848
dollar 17842
manufacturing 17841
covers 17839
83 17827
via 17811
myself 17799
formulated 17797
wait 17784
facility 17780
phenomenon 17753
CD 17751
title 17750
interaction 17747
adopting 17745
stood 17744
applying 17743
zones 17735
frequently 17731
representing 17725
Belgium 17725
walk 17697
allowing 17692
undertaking 17691
ch@@ 17687
qualified 17684
contingent 17684
households 17683
incorporated 17679
212 17676
fees 17657
detail 17639
adverse 17635
circulated 17625
conclude 17619
plants 17616
mercury 17613
outreach 17611
ar 17611
Kyoto 17610
die 17599
species 17596
Ad 17592
1989 17589
it@@ 17589
stages 17570
Auditors 17566
financed 17562
significance 17546
weak 17532
format 17531
Ecuador 17528
integrate 17524
sun 17522
300 17509
occur 17500
explanation 17474
rejected 17473
eye 17459
movements 17448
gains 17435
Model 17431
degradation 17424
Observer 17402
h@@ 17400
87 17398
wealth 17393
or@@ 17391
99 17382
Developing 17379
considerations 17364
allowance 17363
composed 17361
exception 17357
tree 17345
Serbia 17331
flexible 17331
duration 17328
relationships 17323
integral 17310
millions 17309
K 17304
claimed 17295
watch 17293
carefully 17284
Lanka 17263
desire 17253
arts 17236
copy 17236
is@@ 17230
outputs 17226
programs 17221
assisted 17219
Co 17202
win 17200
feeling 17194
flexibility 17194
suggest 17183
determining 17179
demonstrate 17179
Greece 17167
Equality 17163
whatever 17163
devoted 17154
Self 17139
projected 17138
proved 17122
forums 17117
C.5 17111
If 17108
14@@ 17097
dependent 17074
0@@ 17068
cancer 17061
equivalent 17051
Olympic 17048
moral 17041
style 17035
guaranteed 17032
92 17029
devices 17028
sleep 17023
drew 17021
CRC 17021
fill 17015
urge 17013
86 17005
Venezuela 16996
refers 16990
at@@ 16983
solid 16982
leader 16970
window 16967
skin 16959
War 16957
begun 16952
500 16951
Denmark 16946
managing 16941
professionals 16921
Afghan 16910
agents 16907
ation 16901
acceptable 16894
Indian 16893
3.@@ 16872
Costa 16867
spend 16850
strict 16844
deaths 16844
es@@ 16822
ordinary 16822
manager 16810
lose 16808
borders 16808
psychological 16807
lawyers 16799
behaviour 16792
organ 16785
willing 16785
injury 16779
Small 16779
Change 16777
ministries 16768
ts 16762
Island 16761
cell 16758
Taiwan 16755
remove 16749
Climate 16742
negotiation 16740
maybe 16733
tenth 16724
revision 16723
84 16722
ratio 16717
translation 16712
District 16708
powerful 16700
drop 16698
Oversight 16695
presidential 16689
over@@ 16687
lay 16675
happened 16669
understood 16663
Rome 16658
arbitration 16656
hair 16651
memory 16638
Team 16636
accession 16636
12@@ 16632
si@@ 16632
88 16628
@ 16615
sell 16609
heat 16597
wants 16592
mitigation 16590
scientists 16582
arrangement 16578
flight 16563
profit 16542
adjustments 16540
ban 16511
formation 16497
impossible 16482
Palestinians 16476
Al@@ 16457
SBI 16454
submissions 16449
97 16441
expanding 16440
forests 16436
northern 16431
index 16419
properties 16418
House 16409
prohibition 16402
extradition 16382
ating 16380
96 16367
Violence 16367
command 16365
machinery 16347
School 16344
grateful 16339
excellent 16321
presents 16312
commended 16312
mostly 16306
91 16304
procedural 16296
lies 16293
transfers 16285
remedy 16264
intelligence 16251
ti@@ 16214
violent 16213
Promotion 16210
13@@ 16205
expressing 16198
regardless 16151
93 16149
co@@ 16127
Military 16124
talking 16115
Part 16113
accurate 16104
transmission 16102
Washington 16100
researchers 16099
be@@ 16091
brother 16091
Agriculture 16076
Integrated 16072
requiring 16058
cells 16054
hundred 16043
adequately 16043
finds 16043
consultants 16040
tests 16034
incident 16034
lived 16023
secret 16009
reserves 16005
Kazakhstan 16004
proceed 15994
lists 15987
consolidated 15979
correct 15969
UNCITRAL 15966
Roma 15963
sorry 15961
separation 15961
pain 15958
Arabia 15952
occasion 15951
capable 15930
Operation 15924
sectoral 15921
aspect 15920
signature 15907
1988 15890
marked 15889
notification 15885
seeks 15879
tolerance 15867
requesting 15865
collected 15858
custody 15854
entering 15832
producing 15824
Tanzania 15821
peacebuilding 15820
One 15817
Business 15809
subjects 15807
wage 15803
electricity 15800
isn 15800
89 15781
root 15777
Senegal 15755
TV 15753
define 15753
quick 15749
j 15747
coastal 15734
provinces 15731
Standing 15727
driven 15726
reportedly 15717
intolerance 15716
C.1 15712
shares 15711
college 15708
missing 15699
aggression 15697
Mrs. 15693
closer 15688
color 15687
reviewing 15686
banking 15680
maritime 15679
Ghana 15670
journalists 15667
denied 15652
detainees 15646
arrived 15644
Increased 15626
generated 15626
Tunisia 15620
We 15619
combination 15615
belonging 15599
award 15598
consolidation 15596
surveys 15593
removal 15583
im@@ 15579
Uruguay 15579
Rev.1 15572
Portugal 15569
se@@ 15567
medicine 15564
brief 15560
meanwhile 15559
handling 15547
eastern 15519
ra@@ 15515
commit 15510
employers 15509
Armenia 15493
ending 15481
shift 15475
ex 15468
Defence 15462
dark 15452
www.un.org 15450
distance 15446
schemes 15438
sovereign 15435
protocol 15435
94 15391
applies 15382
18@@ 15377
ESCAP 15366
-@@ 15358
Procedure 15350
delays 15346
17@@ 15342
Treatment 15339
meant 15333
biggest 15327
stronger 15324
attempts 15318
cooperative 15309
exposure 15307
receipt 15306
SBSTA 15303
Doha 15298
hopes 15294
chain 15277
120 15275
observation 15267
feet 15247
hunger 15238
gradually 15236
offering 15235
investigated 15233
customer 15231
waiting 15228
filed 15225
steel 15220
hazardous 15217
evaluations 15204
Rica 15153
generate 15145
capability 15143
houses 15141
marketing 15135
animals 15128
el@@ 15109
biodiversity 15107
Process 15105
frame 15098
valid 15095
N 15094
displacement 15089
responding 15077
municipal 15073
river 15073
Mali 15071
baby 15070
derived 15068
exists 15068
instances 15065
exploration 15065
trees 15058
resolved 15051
signing 15048
dream 15021
accountable 15011
square 14997
responded 14993
1,000 14984
Open 14981
Web 14979
universities 14974
fresh 14966
bottom 14958
extrabudgetary 14951
constant 14951
Rio 14949
relate 14948
renewed 14935
mothers 14924
annually 14913
liabilities 14907
WFP 14906
depends 14905
brain 14903
ah 14899
grants 14897
port 14896
repatriation 14885
demobilization 14883
exchanges 14882
balances 14878
1,@@ 14875
15@@ 14869
blue 14860
ic 14859
depend 14856
HRC 14843
destroyed 14843
suggests 14835
customary 14835
conjunction 14833
assessing 14826
v@@ 14819
alternatives 14789
drinking 14788
vast 14788
invite 14786
Use 14784
biennial 14784
piece 14777
.. 14776
smaller 14770
vacancy 14764
consists 14761
filled 14758
am@@ 14758
MDGs 14755
administering 14754
listen 14743
Committees 14741
laundering 14735
regarded 14735
ted 14734
tables 14733
transitional 14729
replaced 14728
transmitting 14726
commodities 14714
suffer 14706
transaction 14703
explosive 14699
forthcoming 14693
allegedly 14684
Occupied 14682
store 14676
frequency 14666
Conventions 14663
ice 14656
Budget 14644
comparison 14636
device 14628
non@@ 14626
struggle 14626
mention 14620
enforced 14617
transmit 14617
judgement 14617
harmful 14609
thousand 14606
GEF 14603
western 14602
fisheries 14599
division 14598
atmosphere 14593
facilitated 14589
gonna 14586
Environmental 14584
animal 14580
branch 14572
prospects 14542
Libyan 14534
seized 14534
League 14533
For 14530
restricted 14526
As 14521
Reduction 14520
collect 14518
realized 14515
season 14515
plays 14513
le 14512
harassment 14510
shape 14501
neighbouring 14499
amounted 14498
Armed 14489
province 14484
reflecting 14482
wastes 14475
Water 14473
dog 14473
solve 14471
analytical 14470
parameters 14467
description 14466
heading 14464
advances 14443
ates 14430
environmentally 14425
spring 14423
contractual 14423
monetary 14423
16@@ 14422
Introduction 14420
anticipated 14419
instructions 14413
pertaining 14411
eligible 14410
linkages 14405
agent 14405
mark 14400
advantages 14390
This 14372
Chad 14371
ro@@ 14366
um 14364
Center 14350
falling 14341
expectations 14340
963 14335
renewable 14333
underlying 14331
Romania 14326
Youth 14317
union 14301
accompanied 14297
summit 14295
sold 14292
driving 14282
th@@ 14270
Intergovernmental 14265
afternoon 14256
terrorists 14254
negotiating 14254
Proliferation 14250
incurred 14246
guided 14244
concepts 14238
Obama 14238
daughter 14236
certificate 14232
necessity 14221
genuine 14219
pursued 14206
contacts 14199
proof 14198
consumers 14187
accident 14179
divided 14171
wood 14166
merely 14161
normally 14142
evening 14138
dimensions 14138
distinction 14137
Heads 14134
motion 14132
continent 14131
assembly 14130
Adviser 14129
camp 14128
Bolivia 14126
facilitation 14118
des 14116
ON 14112
parallel 14103
VIII 14091
supplementary 14088
providers 14083
perfect 14082
parliamentary 14077
register 14076
Salvador 14074
dry 14065
sky 14064
limitations 14062
putting 14057
citizen 14047
constituted 14046
restructuring 14031
ine 14028
incentives 14024
hence 14016
Qatar 14014
What 14012
da 14007
Racial 13992
discharge 13992
whenever 13992
inputs 13979
notably 13977
injured 13971
unfortunately 13969
refused 13965
Assessment 13963
removed 13960
organizing 13951
difficulty 13940
Sub 13939
headed 13936
introducing 13931
prove 13930
compulsory 13926
lawyer 13925
accelerate 13923
respected 13919
opinions 13917
ordered 13909
closing 13909
subparagraph 13888
r@@ 13888
dimension 13881
east 13881
Sixth 13881
couple 13872
Nam 13866
--@@ 13863
OECD 13840
adults 13837
150 13837
Mauritius 13833
rain 13821
twice 13816
to@@ 13812
objection 13803
labor 13795
issuance 13785
happen 13784
bus 13780
defenders 13779
coherent 13777
clothes 13758
witness 13755
pre@@ 13751
ratify 13748
ancient 13731
bridge 13726
inequality 13723
ag@@ 13722
gained 13717
Communications 13712
Road 13710
incorporate 13702
Cameroon 13692
pace 13685
liaison 13683
involves 13678
Constitutional 13673
transformation 13671
observe 13665
Acting 13660
unto 13649
accommodation 13641
overseas 13639
elderly 13636
mandatory 13634
excessive 13633
coal 13632
acquired 13630
director 13625
apart 13622
Mar@@ 13611
Inspection 13611
sort 13606
replies 13598
Army 13593
ammunition 13590
connected 13587
le@@ 13582
votes 13566
eventually 13565
Employment 13558
Bissau 13556
mutually 13555
harmonization 13552
formulate 13549
attributable 13534
fit 13530
Counter 13530
S. 13522
Trafficking 13502
truly 13497
sit 13476
ran 13476
FCCC 13475
famous 13473
2,@@ 13466
IPSAS 13466
macroeconomic 13463
ated 13459
immigration 13452
mode 13441
provincial 13441
deemed 13436
whereas 13430
Greek 13427
emphasize 13425
F. 13424
nutrition 13421
references 13421
detection 13410
clinical 13409
drink 13408
continuation 13401
indicator 13398
feature 13395
Building 13389
era 13386
ad@@ 13382
San 13371
Hungary 13368
glass 13363
tend 13356
unity 13356
broken 13354
pregnancy 13354
ia 13351
securities 13348
resistance 13345
beings 13334
clients 13329
Guidelines 13303
texts 13298
meaningful 13298
U 13297
knows 13293
Transitional 13292
careful 13291
measurement 13288
killing 13283
Yemen 13282
Americans 13281
loan 13281
remarks 13274
strictly 13272
warm 13271
trouble 13266
as@@ 13265
operative 13260
prescribed 13258
closure 13251
Guide 13250
match 13250
Ordinance 13248
clearance 13247
quantity 13244
relates 13243
extra 13233
autonomous 13225
pregnant 13216
showing 13209
freely 13208
Nicaragua 13208
helps 13206
Ar@@ 13198
Ombudsman 13198
commerce 13197
speaker 13195
exclusion 13193
center 13184
desertification 13182
client 13179
http 13176
signs 13175
Transport 13171
TO 13170
permitted 13170
dates 13161
literacy 13149
Mongolia 13145
hundreds 13142
comprising 13140
attitude 13140
cultures 13139
heritage 13137
Bill 13129
deprived 13127
interference 13125
Chapter 13123
replacement 13120
Corr.1 13116
hospitals 13115
Jamaica 13109
arise 13099
fraud 13094
mobilize 13089
invasion 13088
Cross 13085
assume 13068
handle 13064
forget 13062
servicing 13051
thereof 13048
reductions 13047
sum 13045
afraid 13031
mobility 13030
turning 13028
grade 13025
Investment 13022
Saint 13019
hotel 13011
west 13010
xenophobia 13010
ac@@ 13006
propose 13000
Viet 12990
Local 12989
persistent 12985
gets 12977
fail 12971
depending 12970
seat 12963
declarations 12953
Uzbekistan 12927
Head 12921
Penal 12916
ic@@ 12908
diverse 12895
Ban 12894
NLB 12884
ab@@ 12875
Session 12861
logistics 12860
z 12860
David 12853
landlocked 12849
themes 12849
Disabilities 12848
necessarily 12841
conducive 12836
villages 12835
briefings 12835
happiness 12825
ri@@ 12824
orientation 12818
manufacture 12818
minute 12808
politics 12800
lie 12780
intensive 12768
sponsored 12765
disseminate 12758
That 12758
Dr. 12752
ultimately 12747
minor 12736
imports 12733
Montreal 12732
technique 12715
wear 12714
Province 12700
sentenced 12694
occupying 12682
IMF 12673
makers 12672
interactive 12672
ly 12670
Industrial 12668
breach 12665
seats 12664
consistently 12641
prosperity 12641
elsewhere 12629
beneficiaries 12628
nice 12627
lands 12625
Anti 12619
paying 12612
An@@ 12607
An 12593
mouth 12591
leaves 12582
lastly 12575
citizenship 12572
Outer 12570
decreased 12563
IT 12562
s.@@ 12551
massive 12550
ya 12547
yuan 12545
waters 12535
Customs 12533
consequence 12531
abuses 12529
6.@@ 12524
Street 12523
signal 12520
airport 12516
appreciate 12512
entirely 12512
causing 12511
delegates 12510
metal 12499
attitudes 12496
20@@ 12489
prisons 12486
preserve 12482
possession 12471
FDI 12468
mountain 12468
clarification 12464
accomplishments 12457
adult 12452
Korean 12450
inter@@ 12445
tel 12441
assumed 12441
ourselves 12439
genocide 12437
hosted 12435
Zambia 12434
electric 12423
salaries 12413
orally 12409
candidate 12408
stone 12403
targeting 12402
Protocols 12395
ocean 12390
Basel 12377
absolute 12374
ships 12361
Company 12354
1990s 12351
suspected 12342
treat 12342
trials 12335
stands 12332
revealed 12330
competitiveness 12328
holders 12325
interesting 12322
describe 12321
conviction 12318
Drug 12311
ter 12307
patient 12305
juvenile 12302
sub@@ 12302
contrast 12285
obvious 12285
focuses 12282
ties 12281
Issues 12279
pages 12273
chosen 12272
tons 12269
channels 12269
shot 12267
Q 12267
ODA 12255
Burkina 12243
repeated 12235
ages 12226
ball 12216
1986 12214
soft 12214
earthquake 12205
classes 12200
Faso 12199
sister 12198
105 12193
analyses 12192
kill 12191
UNIFIL 12190
sir 12189
addendum 12187
wages 12181
prejudice 12179
behavior 12172
employee 12170
eliminating 12169
River 12167
library 12158
besides 12155
unions 12153
generations 12149
0 12147
r 12140
measured 12139
declined 12136
complement 12127
secured 12115
drought 12111
intensify 12100
count 12089
servants 12084
favourable 12080
logistical 12068
Main 12062
Procurement 12059
grown 12057
stopped 12055
fulfilment 12055
fax 12053
enhancement 12044
subsidies 12039
www.@@ 12027
survival 12021
error 12021
roads 12020
players 12019
H 12012
impose 11999
Relations 11991
rely 11987
easier 11985
consult 11984
credibility 11975
elaboration 11970
taxes 11962
herself 11962
proceeds 11956
Tajikistan 11955
appointments 11951
firmly 11942
addresses 11940
Corruption 11936
liberalization 11933
ol@@ 11923
shelter 11922
Developed 11921
recall 11916
Arms 11913
applicant 11903
Land 11901
faces 11896
Area 11884
calculated 11875
retirement 11874
comparative 11873
sentences 11865
repair 11859
surveillance 11858
Decree 11855
Evaluation 11854
penalties 11844
memorandum 11842
threatened 11841
L.@@ 11841
combatants 11830
foot 11829
mediation 11826
winter 11825
leads 11825
When 11820
convening 11816
disaggregated 11807
Bush 11806
Appeals 11803
Emergency 11801
th 11797
Closed 11797
counselling 11790
pool 11787
prosecutors 11786
enabled 11786
cruel 11784
UK 11781
catch 11776
stipulated 11772
reinforce 11762
clarify 11761
el 11752
Games 11751
Standards 11747
Migration 11744
trip 11743
400 11742
merits 11741
chaired 11724
indicating 11721
obtaining 11721
li@@ 11716
IN 11713
safeguard 11712
expulsion 11712
appropriation 11710
argument 11697
saving 11692
See 11692
fruit 11692
approve 11686
profile 11684
exposed 11683
Bulgaria 11681
regimes 11678
ing@@ 11669
Slovenia 11665
sat 11663
referring 11659
UNIFEM 11656
systematically 11646
reaction 11646
presidency 11635
emergencies 11635
Montenegro 11628
occasions 11627
vessels 11620
ministers 11615
prompt 11614
per@@ 11608
manual 11608
0.@@ 11607
Least 11606
suggestion 11600
shop 11594
Directorate 11578
restore 11575
ant 11565
stressing 11564
Sahara 11563
Mozambique 11563
concerted 11562
plus 11560
offset 11559
emphasizing 11559
progressive 11556
dropped 11548
budgeting 11548
historic 11544
convicted 11540
malaria 11533
wrote 11528
adolescents 11524
Branch 11520
disclosure 11515
Leste 11515
disadvantaged 11514
radiation 11510
momentum 11506
110 11506
inquiry 11504
st@@ 11498
named 11489
Settlements 11476
interview 11475
therein 11474
complexity 11471
09 11468
exceed 11467
USD 11467
deadline 11464
MONUC 11462
Interim 11462
holds 11461
W 11459
bar 11456
101 11454
couldn 11448
touch 11445
Arabic 11442
Facility 11441
exactly 11439
classification 11435
Zimbabwe 11429
underlined 11419
durable 11416
thereto 11414
contemporary 11414
architecture 11414
der 11410
Work 11408
boat 11408
chap 11403
undermine 11403
Strip 11402
seeing 11401
initially 11398
tangible 11394
claimant 11393
delayed 11389
ha@@ 11384
likewise 11376
twentieth 11375
sight 11374
imperative 11368
spare 11362
entrusted 11357
De@@ 11353
municipalities 11349
organic 11346
promise 11345
5.@@ 11344
strike 11336
replied 11335
evolution 11335
acquire 11334
grass 11327
pose 11327
enormous 11326
fired 11325
Audit 11325
doctors 11325
Activities 11322
movie 11317
deposit 11316
estate 11312
employer 11310
Alliance 11307
brings 11305
mainstream 11303
integrating 11280
suddenly 11276
complementary 11275
reiterate 11270
4.@@ 11270
3,@@ 11267
Sector 11263
1980 11262
characterized 11258
fewer 11255
promptly 11246
Australian 11239
selling 11236
slightly 11234
inhuman 11231
willingness 11230
calendar 11226
Organized 11225
administered 11225
certification 11225
suppliers 11221
serves 11219
monitored 11212
Euro@@ 11211
102 11210
potentially 11209
zero 11201
te@@ 11200
Representatives 11200
dinner 11197
satisfied 11195
suspended 11192
coffee 11189
ter@@ 11188
methodologies 11185
caught 11185
cars 11183
block 11179
returns 11176
recruited 11173
deals 11170
NEPAD 11167
2nd 11163
worse 11157
feasible 11155
flowers 11153
corporations 11148
Strengthening 11146
sick 11134
outline 11134
authorization 11130
ations 11127
1st 11120
facto 11115
prevented 11112
contractors 11106
H.E. 11106
cease 11091
IN@@ 11091
decent 11090
messages 11085
heavily 11084
Benin 11078
600 11077
Chemical 11074
feedback 11073
seekers 11070
Combat 11067
insecurity 11065
granting 11061
Syria 11060
presentations 11059
analyzed 11055
1987 11054
Library 11052
sitting 11050
Con@@ 11048
Atomic 11048
enshrined 11046
thereon 11037
worst 11036
mixed 11035
emerged 11034
admissibility 11033
os 11030
noise 11024
tribunal 11018
occupational 11015
consolidate 11005
false 11002
cards 11000
sport 10996
files 10995
exceptional 10993
yeah 10987
Survey 10987
moon 10986
possibly 10984
sufficiently 10981
bought 10978
om@@ 10978
Educational 10975
scene 10973
adjusted 10969
unlawful 10968
engaging 10966
suspension 10963
profits 10962
concentration 10962
1967 10957
DP 10952
partly 10947
acute 10943
Ocean 10941
M. 10939
Interior 10937
computers 10937
enjoyed 10936
limitation 10934
protocols 10932
thou 10929
res 10927
Official 10919
generating 10919
adding 10915
curriculum 10908
degrading 10902
highlight 10901
pretty 10900
wave 10899
reimbursement 10897
mo@@ 10897
analyse 10895
modified 10886
greenhouse 10885
tackle 10879
performing 10877
expensive 10876
milk 10873
con@@ 10868
Right 10866
attract 10866
inhabitants 10866
thy 10865
Air 10863
retain 10860
chair 10859
maintains 10859
Test 10856
Mo@@ 10853
Measures 10851
acid 10843
Libya 10842
subregion 10842
algorithm 10839
accounted 10838
Commonwealth 10835
reaffirm 10833
satisfactory 10815
Legislative 10814
suit 10807
tensions 10805
engine 10804
substantially 10803
fee 10800
discovered 10799
regrets 10794
intends 10791
sole 10791
smooth 10782
IX 10782
aviation 10780
haven 10778
credible 10778
severely 10777
emission 10777
&#124; 10775
eradicate 10774
deprivation 10774
sing 10773
attendance 10769
slowly 10754
Panama 10751
restoration 10749
termination 10746
Q@@ 10745
aside 10744
250 10741
separately 10740
Their 10740
1985 10730
submits 10729
iron 10726
studying 10721
pursuit 10721
experiment 10721
prevalence 10718
fashion 10716
se 10705
01 10705
Consultative 10701
parent 10700
4,@@ 10699
tea 10694
RIGHTS 10687
destination 10687
measuring 10686
portion 10679
Professor 10678
x@@ 10671
arm 10662
disciplinary 10661
retained 10657
# 10655
display 10651
communicate 10651
auspices 10648
images 10647
Slovakia 10646
sample 10645
103 10643
Canadian 10639
initiate 10637
finished 10635
participatory 10623
rock 10618
conversion 10608
spite 10603
Biological 10601
genetic 10597
murder 10592
discipline 10591
ASEAN 10591
Durban 10589
awarded 10587
owners 10583
thorough 10577
exercises 10573
encountered 10572
appoint 10569
appearance 10558
Officers 10557
maternity 10556
possibilities 10552
excess 10543
ul@@ 10541
producers 10537
CN.9 10530
wishing 10530
games 10529
gratitude 10520
111 10520
existed 10517
pick 10510
regret 10507
telecommunications 10504
districts 10493
immunity 10490
UNMIK 10489
em@@ 10482
uniform 10475
pursuing 10475
prevailing 10474
beauty 10474
me@@ 10472
handed 10472
Journal 10461
excluded 10455
tension 10450
Tom 10447
establishes 10446
visiting 10444
eating 10443
ruling 10436
questionnaire 10430
plane 10420
rice 10417
grew 10415
viewed 10414
secondly 10414
indirect 10413
confirm 10412
Albania 10410
Organizations 10410
beneficial 10407
confident 10407
branches 10405
contracting 10403
translated 10399
Prohibition 10397
explicitly 10396
owner 10395
infection 10394
advisers 10393
ecosystem 10392
opposed 10390
county 10390
affects 10388
Cuban 10384
Pension 10384
Scheme 10378
mitigate 10376
benefited 10375
vis 10371
ecosystems 10367
UNAMID 10359
injuries 10357
repeatedly 10348
Sunday 10344
statute 10337
ve 10329
channel 10326
frequent 10325
worker 10324
notwithstanding 10323
layer 10320
College 10316
viable 10313
appreciated 10312
Poverty 10312
England 10310
star 10309
104 10308
factory 10306
formally 10305
Electoral 10301
upper 10301
he@@ 10299
Tibet 10297
sized 10291
urgently 10289
gathering 10283
assurances 10281
invest 10275
capita 10275
constantly 10274
pro@@ 10273
tested 10272
prosecute 10270
ka 10269
There 10267
soul 10266
consisting 10250
asking 10247
sect 10239
te 10234
colleagues 10225
exclusive 10223
wing 10222
With 10222
Stockholm 10219
08 10219
creative 10219
spot 10217
29@@ 10215
000 10213
surplus 10211
compilation 10211
Muslim 10204
perspectives 10203
Country 10201
workload 10198
108 10195
enrolment 10192
duplication 10192
definitions 10191
preservation 10187
assignment 10187
incidence 10184
workplace 10183
select 10182
adapt 10178
readiness 10176
Post 10175
Statistical 10173
permits 10167
submitting 10165
screen 10157
finalized 10156
preparedness 10156
feasibility 10147
ideal 10146
preceding 10144
ethics 10143
answered 10138
gathered 10137
tracking 10135
whereby 10134
automatic 10130
resume 10128
garden 10124
dual 10123
observance 10118
crops 10117
Transnational 10117
Punishment 10116
pleasure 10115
un.org 10114
enforce 10113
Senior 10109
publicly 10101
partial 10098
Logistics 10096
remuneration 10083
afford 10079
certificates 10079
ii 10076
coordinator 10070
comprises 10070
Draft 10070
Le@@ 10060
ranging 10056
ultimate 10054
1982 10054
the@@ 10054
usual 10052
guiding 10051
ecological 10049
guilty 10045
Saharan 10042
straight 10038
sixtieth 10037
brand 10035
cast 10034
distinct 10034
surrounding 10034
minimize 10029
Somali 10028
wine 10027
summarized 10024
dress 10018
promotes 10015
Bo@@ 10014
Iranian 10010
extraordinary 10009
ge@@ 10002
disappearance 9997
bright 9992
wasn 9989
ring 9986
urgency 9986
okay 9984
loved 9982
considerably 9980
sh@@ 9979
calculation 9977
est 9976
v 9976
organisations 9973
mm 9972
Disaster 9966
Di@@ 9965
newspaper 9962
pro 9956
launching 9953
compromise 9952
Lithuania 9946
visitors 9945
sharp 9941
cited 9934
Jamahiriya 9932
marginalized 9926
ex@@ 9926
literature 9925
RE@@ 9922
ye 9918
refrain 9915
mis@@ 9915
ke@@ 9911
assurance 9910
amend 9904
Administrator 9902
sphere 9898
Supplement 9894
Christmas 9891
guy 9889
Relief 9888
wouldn 9883
boss 9881
steady 9880
revenues 9877
accessibility 9875
faster 9874
Moldova 9874
Macedonia 9872
typically 9871
negotiated 9866
impartial 9865
minors 9863
apparent 9862
SecretaryGeneral 9861
subsistence 9861
enacted 9860
Study 9856
112 9853
raw 9851
Governmental 9848
evident 9843
1373 9842
busy 9839
missile 9835
Basic 9834
earnings 9833
Dialogue 9831
U. 9829
contributes 9827
Emirates 9824
Malta 9823
ensured 9823
minister 9821
Property 9821
Resolution 9820
il@@ 9816
printing 9812
King 9812
installation 9811
consistency 9809
fostering 9807
falls 9806
Co@@ 9804
smuggling 9802
hurt 9799
op@@ 9784
synergies 9784
convene 9781
106 9778
cargo 9769
G. 9769
push 9768
diagnosis 9764
ageing 9759
credentials 9756
autonomy 9754
withdraw 9749
Namibia 9744
foundations 9735
Italian 9734
redress 9734
unprecedented 9733
defense 9727
originally 9724
IC@@ 9724
107 9723
defining 9709
obliged 9706
driver 9705
accuracy 9702
economically 9701
hostilities 9701
Contracting 9699
liquid 9696
accidents 9686
returning 9684
instability 9681
advised 9674
miss 9668
flying 9667
pe@@ 9662
constitution 9660
pieces 9657
fulfilling 9654
innocent 9654
ec@@ 9652
My 9645
Advancement 9645
exclusively 9645
abortion 9641
bi@@ 9639
realistic 9639
130 9637
rendered 9636
advancing 9636
stories 9633
Volunteers 9632
feelings 9626
separated 9617
115 9611
miles 9606
argued 9603
UNMIL 9598
Housing 9590
Aligned 9577
referendum 9576
founded 9567
ou@@ 9566
Welfare 9564
indispensable 9562
drafted 9561
equipped 9553
05 9544
declare 9544
fly 9544
electrical 9541
budgeted 9538
formulating 9538
arrival 9526
ceremony 9524
indication 9517
extending 9516
Li 9515
Order 9514
ap@@ 9514
relatives 9513
instruction 9512
characteristic 9511
pledges 9507
desk 9507
worry 9507
resort 9505
dont 9503
rooms 9497
farm 9485
uncertainty 9483
codes 9478
solely 9472
ch 9466
ans 9466
operated 9464
sustain 9464
prohibit 9461
Hall 9457
ceasefire 9457
childhood 9456
policymakers 9453
unknown 9451
Industry 9448
Dominican 9448
Mediterranean 9443
describes 9443
experimental 9438
epidemic 9436
executed 9425
fun 9424
continuity 9419
man@@ 9418
UNDCP 9417
justified 9407
meat 9407
Document 9406
endeavour 9405
firearms 9404
resolving 9401
audience 9399
pillars 9398
validity 9397
114 9397
poorest 9396
updating 9387
Monetary 9386
perceived 9386
rent 9385
settled 9384
complicated 9382
damaged 9382
5,@@ 9382
EC 9382
116 9365
permission 9363
damages 9361
utilized 9359
Yugoslav 9355
assure 9353
demographic 9351
laboratory 9349
chronic 9346
UNOCI 9342
ber@@ 9337
Jesus 9336
curricula 9335
us@@ 9332
Kyrgyzstan 9329
qualifications 9324
battle 9324
succeed 9322
deficit 9316
sons 9316
confidential 9313
06 9309
advise 9309
profound 9306
Former 9305
edge 9299
rental 9296
Hague 9294
Michael 9283
Atlantic 9281
feed 9281
robust 9280
additionally 9269
reminded 9268
men@@ 9266
essentially 9265
ECOWAS 9263
judgment 9262
walked 9261
infant 9259
automatically 9252
lending 9251
Honduras 9251
continuously 9249
recipient 9246
contractor 9246
Resource 9245
ECA 9241
affordable 9240
load 9240
normative 9234
109 9227
Capital 9225
&lt; 9225
mankind 9225
yield 9224
solar 9218
virus 9216
Swiss 9216
broke 9214
27@@ 9210
degrees 9209
But 9204
ends 9204
towns 9202
escape 9200
upgrading 9197
departure 9197
acknowledge 9195
tradition 9195
Envoy 9190
28@@ 9186
registry 9184
adherence 9181
Independence 9176
oceans 9176
helpful 9175
admission 9167
Analysis 9162
precise 9157
fault 9154
globally 9143
als 9141
passing 9140
regulate 9139
highlights 9139
White 9131
advertising 9129
Latvia 9128
fissile 9127
listing 9127
specify 9122
legitimacy 9122
roots 9121
kilometres 9120
fallen 9119
ks 9116
admitted 9114
113 9114
everybody 9112
residential 9111
ta@@ 9110
interface 9110
Trial 9105
hardly 9105
thoughts 9104
statutory 9103
Medical 9099
appraisal 9095
X@@ 9094
buyer 9094
geographic 9093
plastic 9093
Annual 9083
duly 9080
rare 9079
bird 9079
List 9076
designing 9072
choices 9071
familiar 9068
pledged 9063
decolonization 9061
boost 9060
formula 9059
smile 9059
07 9057
furniture 9057
governed 9053
qu@@ 9049
rescue 9048
clothing 9043
Ro@@ 9042
narrow 9041
munitions 9039
di 9036
lots 9034
ked 9032
route 9032
condemned 9032
fate 9031
Appeal 9030
Bahrain 9029
elaborate 9028
sending 9026
examining 9022
pressing 9020
roll 9017
Taliban 9017
inherent 9014
out@@ 9010
networking 9007
guard 9004
， 8996
hate 8994
utmost 8992
micro@@ 8991
proposes 8990
OSCE 8990
nonetheless 8989
offenders 8987
horse 8985
Bangkok 8985
colour 8978
Paraguay 8977
skill 8973
efficiently 8968
UNCCD 8966
obviously 8962
stakeholder 8962
aspirations 8958
collecting 8955
supposed 8953
islands 8952
5,000 8951
lowest 8947
acted 8942
holiday 8941
lo@@ 8935
borne 8934
tic 8930
30@@ 8929
unemployed 8924
How 8923
securing 8921
privacy 8921
simulation 8920
friendship 8916
controlling 8910
walking 8908
ozone 8904
environments 8902
regulated 8898
unified 8896
directors 8895
prefer 8895
100,000 8891
boundary 8887
Institutions 8885
visible 8884
FOR 8883
finish 8883
predictable 8882
acknowledging 8882
diversification 8882
ensures 8882
fat 8878
defend 8876
desirable 8875
birds 8874
illness 8873
kids 8872
allocate 8864
At 8861
stereotypes 8860
verify 8860
payable 8856
gift 8853
Presidents 8852
do@@ 8852
watching 8851
supportive 8850
George 8850
typical 8850
interviews 8848
documented 8847
commonly 8846
Academy 8846
Niger 8843
ed@@ 8833
livelihoods 8831
baseline 8831
investigating 8830
ease 8830
ong 8829
deposits 8826
collaborative 8824
no@@ 8822
proceeding 8822
Mary 8816
divorce 8814
processed 8813
Reform 8810
cultivation 8809
challenging 8809
redeployment 8808
Kuwaiti 8802
su@@ 8798
occurs 8791
Follow 8791
Y 8790
Bar@@ 8787
phases 8783
thirds 8780
yang 8779
associate 8778
1978 8770
assumption 8763
arguments 8752
databases 8750
ur@@ 8745
mineral 8741
JIU 8740
meets 8739
wild 8732
En@@ 8731
smoke 8728
shipment 8728
executions 8725
planet 8723
classified 8720
weekly 8719
Djibouti 8714
bonds 8713
ot@@ 8711
reinforcing 8710
Estonia 8709
visual 8708
122 8706
foreigners 8703
ECE 8694
reverse 8694
800 8693
ba 8692
ma@@ 8692
vary 8688
reflection 8687
partially 8686
Note 8686
opposite 8685
so@@ 8685
Workers 8684
harmony 8680
kg 8676
Man@@ 8672
annexes 8667
wonder 8661
117 8661
Fiji 8660
锛 8659
operators 8657
2,000 8656
buying 8651
shipping 8641
la@@ 8640
proven 8637
thanked 8624
GM 8618
totally 8611
Studies 8606
dear 8605
settings 8605
debates 8603
tobacco 8603
delivering 8603
traditions 8602
licence 8600
118 8600
1.2 8598
26@@ 8597
comparable 8594
obstacle 8590
CO 8586
ma 8581
Free 8575
tonight 8574
phrase 8574
struck 8572
Ma@@ 8570
Culture 8570
3rd 8569
shortly 8563
ist 8562
slavery 8557
sweet 8553
Peter 8548
1.5 8543
Pro@@ 8542
concentrated 8540
player 8537
flag 8535
vacancies 8534
Program 8533
par@@ 8533
forestry 8532
protective 8528
CAT 8526
02 8526
Data 8523
clause 8521
till 8519
attending 8516
awards 8515
ator 8515
carrier 8514
bid 8514
.1 8512
corner 8512
mere 8508
smoking 8507
.The 8502
applicants 8500
acknowledges 8500
micro 8499
inspections 8498
onto 8489
bo@@ 8488
ton 8483
locally 8482
church 8480
ve@@ 8479
A.@@ 8478
arrive 8477
Luxembourg 8476
Narcotic 8473
retention 8468
portfolio 8465
Base 8462
Togo 8461
160 8460
ho@@ 8459
Equal 8455
teach 8451
Records 8449
attempted 8445
print 8440
motor 8438
commends 8435
venture 8435
modernization 8434
accorded 8431
pornography 8428
dance 8427
attributed 8416
destroy 8412
ds 8411
thee 8410
recording 8409
cuts 8407
symbol 8407
Monterrey 8405
inequalities 8404
outset 8402
id 8402
Your 8400
unlikely 8397
hole 8392
therapy 8392
inadmissible 8386
skilled 8385
simultaneously 8385
pupils 8384
Life 8384
Cypriot 8380
Commerce 8379
XI 8378
click 8372
ir@@ 8369
LORD 8369
Goal 8365
samples 8365
ESCWA 8358
silence 8355
CA@@ 8355
fragile 8354
undertook 8346
bases 8346
exercising 8340
runs 8335
ought 8330
punished 8329
verbale 8329
po@@ 8327
realities 8323
installed 8322
fiftieth 8321
elaborated 8321
Gulf 8321
Voluntary 8320
toxic 8317
wherever 8315
analysed 8315
Iceland 8313
settle 8313
Se@@ 8307
notion 8305
adjust 8302
calm 8301
ST 8295
chairman 8295
unacceptable 8293
placement 8292
expense 8287
1981 8286
plate 8285
tu@@ 8281
snow 8280
religions 8272
25@@ 8269
liable 8268
119 8268
football 8267
wise 8264
140 8258
Related 8258
column 8258
03 8257
Malawi 8255
insolvency 8254
imported 8254
2.5 8252
exercised 8245
Conflict 8243
domain 8242
tired 8242
ker 8241
w 8235
seas 8229
harmonized 8229
lift 8229
strive 8228
summits 8224
quiet 8223
wisdom 8222
crop 8222
hatred 8221
nominated 8219
1984 8214
Body 8202
happens 8201
interpreted 8200
nongovernmental 8199
Golan 8199
justify 8198
discussing 8198
Registrar 8197
125 8197
SA@@ 8197
evaluated 8195
officially 8194
passage 8188
ang 8187
deterioration 8187
alcohol 8186
creditors 8184
park 8184
decentralization 8183
Lao 8183
radioactive 8180
é 8180
Desertification 8169
UNITAR 8160
evaluating 8160
reliance 8157
census 8151
contingency 8150
ie 8149
ous 8148
coast 8148
Su@@ 8148
Standard 8145
responsive 8143
Samoa 8143
Wang 8141
arranged 8139
6,@@ 8137
\ 8136
fairly 8133
Mu@@ 8130
unlike 8128
empty 8124
song 8122
telling 8121
announcement 8121
ke 8121
streets 8112
medicines 8109
ci@@ 8102
seller 8101
wake 8097
eleventh 8094
Powers 8094
reinforced 8094
taught 8092
negotiate 8092
gate 8090
Royal 8088
recurrent 8087
passengers 8086
justification 8086
tribunals 8085
ha 8083
forever 8083
Additional 8082
Corporation 8079
restaurant 8079
thereafter 8076
witnessed 8074
voters 8074
Sir 8073
younger 8071
Conduct 8069
Congolese 8069
unpaid 8066
vi@@ 8064
divisions 8064
jurisprudence 8060
everywhere 8060
gun 8054
External 8052
exceptions 8051
Organisation 8051
shoes 8050
Accounting 8047
mobilizing 8047
killings 8046
crossing 8046
fulfilled 8044
releases 8043
traditionally 8042
Paul 8041
fellow 8039
lesson 8038
Round 8034
sincere 8034
ethical 8031
preferred 8031
kindly 8030
allowances 8030
practitioners 8028
breakdown 8019
km 8018
SMEs 8017
guideline 8008
04 8004
tenure 8000
refuse 8000
somewhat 7996
assured 7993
mistake 7992
RC 7990
ding 7990
Haitian 7987
Turkmenistan 7986
threshold 7983
proud 7983
refusal 7981
evolving 7980
flat 7977
explicit 7974
manifestations 7972
possess 7971
Forests 7970
Botswana 7969
amounting 7966
congratulate 7965
sa@@ 7965
allocations 7965
Regulation 7965
withdrawn 7965
answers 7963
managerial 7962
silver 7961
ism 7956
module 7949
Soviet 7947
Tokelau 7946
prime 7942
Conferences 7942
Tokyo 7941
Systems 7939
NATO 7938
marks 7936
ite 7935
id@@ 7927
ak@@ 7926
introduces 7925
hi@@ 7925
mechanical 7924
Park 7923
SC 7920
Brussels 7919
Wall 7917
ai 7916
descent 7915
transboundary 7912
Car@@ 7911
Saturday 7908
elect 7906
123 7904
thin 7901
peer 7900
ver@@ 7900
vessel 7896
valuation 7894
CO@@ 7893
demonstration 7884
stipulates 7882
Works 7877
Madrid 7876
Communication 7875
optional 7873
spokesman 7872
breaking 7872
Christian 7865
abolition 7861
piracy 7860
creates 7860
Barbados 7857
reliability 7857
debris 7856
journey 7855
testimony 7854
ons 7852
punish 7852
Common 7851
ana 7851
sheet 7848
virtue 7846
nobody 7845
Production 7839
row 7838
participant 7836
1973 7835
revolution 7831
crowd 7829
immigrants 7829
wearing 7829
ratifying 7827
shortage 7826
intensified 7822
commentary 7821
Decolonization 7819
Liechtenstein 7818
advocate 7813
personality 7813
humans 7809
theoretical 7808
metres 7808
121 7807
AN@@ 7805
salt 7805
spoken 7799
ore 7799
Moscow 7799
cool 7795
distinguished 7793
specialists 7792
under@@ 7787
1949 7787
quantitative 7785
2.1 7785
ling 7784
benchmarks 7784
satisfy 7783
St@@ 7780
missiles 7779
excluding 7773
independently 7771
Aid 7771
Consensus 7768
1.1 7768
Diversity 7766
losing 7766
alive 7764
glad 7760
OAU 7759
excuse 7756
underscored 7754
succession 7754
workforce 7751
parliament 7748
euro 7746
surprise 7745
marry 7745
structured 7742
Unity 7742
maximize 7740
bis 7740
.2 7737
Ad@@ 7736
denial 7735
Election 7734
blind 7733
gu@@ 7732
screening 7729
H. 7729
ir 7724
timetable 7723
hosting 7723
arrange 7718
evil 7718
promulgated 7711
motivated 7709
render 7707
for@@ 7706
As@@ 7705
malnutrition 7705
Distr 7705
Ex@@ 7701
Prosecution 7698
violate 7697
lady 7695
criticism 7695
impartiality 7695
2020 7693
Add.2 7690
appropriately 7689
audits 7686
Me@@ 7682
700 7678
Account 7678
circulation 7677
um@@ 7676
imagine 7675
forming 7675
navigation 7674
aren 7670
vice 7662
intend 7661
Commander 7660
appealed 7658
bag 7658
joy 7655
placing 7654
Further 7650
utility 7650
Final 7646
10,000 7642
configuration 7641
sugar 7636
wording 7634
Where 7632
Treasury 7630
confirmation 7627
les 7626
Ali 7626
Workshop 7622
receives 7622
decisive 7622
begins 7621
supplied 7621
Madagascar 7620
enables 7620
Ensure 7619
consist 7610
stars 7605
acceded 7602
avoiding 7601
Level 7598
3,000 7597
ne@@ 7597
writer 7596
Maritime 7594
Cape 7593
ta 7592
INF 7591
births 7584
capture 7583
apparently 7583
pillar 7583
resilience 7578
Ab@@ 7573
remind 7570
accomplished 7569
stick 7569
wonderful 7568
puts 7560
desired 7556
guess 7553
disparities 7552
prosecuted 7551
Prince 7551
voted 7551
economics 7547
7.@@ 7547
holistic 7547
accommodate 7546
orbit 7545
180 7545
mix 7544
emotional 7544
Be@@ 7543
server 7543
visa 7541
aforementioned 7540
patrol 7539
J 7538
utilize 7536
diet 7534
Tribunals 7533
fails 7531
2.2 7530
accelerated 7530
Is 7528
imposition 7526
decree 7525
Registry 7525
irrespective 7523
Bolivarian 7523
Decision 7522
TD 7517
absolutely 7516
posted 7515
bl@@ 7514
shut 7512
7,@@ 7508
Number 7505
club 7503
UN@@ 7501
1979 7501
ba@@ 7496
St. 7495
UNMIS 7492
alien 7489
ra 7487
broadly 7487
4th 7486
ou 7485
Mine 7484
tendency 7484
Capacity 7483
Green 7481
ty 7481
conversation 7481
investing 7476
incorporating 7473
virtually 7471
belong 7468
resettlement 7461
Articles 7460
hey 7459
remarkable 7458
oc@@ 7456
23@@ 7453
reputation 7444
briefed 7444
gather 7444
beat 7443
novel 7442
communicated 7442
jurisdictions 7441
counterparts 7438
optimal 7438
identical 7435
weekend 7432
dust 7424
prominent 7424
routine 7424
sponsoring 7418
ings 7416
freeze 7416
Matters 7416
thesis 7413
Personal 7412
Un@@ 7411
survivors 7408
shopping 7408
courage 7407
sad 7407
tribute 7405
arbitral 7402
grain 7398
Jean 7397
clarified 7396
pair 7394
concludes 7393
comprise 7391
taste 7390
der@@ 7389
usage 7386
tears 7386
and@@ 7383
Woods 7382
bond 7382
strange 7378
Ch@@ 7375
shortcomings 7374
yellow 7370
Colonial 7366
abstentions 7364
notify 7362
pull 7358
SCO 7358
ish 7358
Maldives 7357
Register 7355
drivers 7355
threaten 7353
124 7353
155 7352
UNAIDS 7348
attacked 7343
politically 7338
diplomacy 7335
Press 7333
Judge 7332
Holy 7329
ology 7329
upcoming 7328
victory 7323
e.@@ 7320
intimidation 7318
PC 7315
handled 7313
commencement 7313
characters 7313
politicians 7312
recession 7307
standardized 7306
ph@@ 7306
Judicial 7305
Suppression 7305
Jack 7303
Application 7302
attainment 7300
Chairs 7299
angry 7297
detect 7297
issuing 7294
nationally 7294
J. 7293
solving 7292
ps 7289
UNU 7289
ally 7288
Copenhagen 7288
ID 7287
installations 7286
realizing 7284
divide 7284
dreams 7284
anti@@ 7282
dismissed 7281
MINUSTAH 7281
exact 7278
default 7278
disappeared 7277
presenting 7275
resumption 7275
compound 7274
disseminated 7274
boards 7272
Parliamentary 7270
flights 7267
entrepreneurs 7266
2016 7265
machines 7262
1540 7257
Responsible 7257
9.@@ 7255
promised 7255
fertility 7254
Puerto 7251
isolation 7251
guaranteeing 7250
burning 7250
unnecessary 7249
supplement 7246
directions 7246
volunteers 7246
spouse 7245
Manual 7240
tin@@ 7239
attain 7237
tariff 7233
ECLAC 7230
coordinates 7230
Steering 7229
updates 7229
Johannesburg 7228
virtual 7226
cope 7226
we@@ 7224
128 7222
quantities 7222
substitute 7221
Inter@@ 7220
sand 7219
ten@@ 7219
genital 7219
females 7213
Olympics 7213
rotation 7212
experiments 7211
broadcast 7207
adds 7206
Insurance 7204
prosecutor 7204
commenced 7202
Guyana 7201
licensing 7199
forecast 7199
institutes 7196
bigger 7196
exhausted 7195
Mauritania 7193
recover 7191
receivable 7191
incorporation 7189
tions 7187
investigative 7186
timing 7182
Immigration 7180
Practice 7179
expects 7179
alternate 7176
Arbitration 7167
ibid 7166
rational 7166
adapted 7163
ent 7161
.4 7160
138 7158
spheres 7156
du@@ 7155
weaknesses 7146
diamond 7146
emergence 7140
casualties 7138
briefly 7138
penal 7138
breast 7137
feels 7136
sudden 7136
CDM 7136
diamonds 7135
argues 7133
Personnel 7131
stating 7130
hearings 7126
multi@@ 7125
scenario 7123
Zone 7122
prolonged 7122
Governor 7116
ambitious 7113
suicide 7108
terrible 7107
painting 7106
Marine 7105
semi 7105
storm 7104
synthesis 7104
assumptions 7098
Com@@ 7097
certified 7096
carries 7096
convey 7095
tank 7092
miscellaneous 7092
ports 7090
8,@@ 7089
hardware 7089
attractive 7088
twelfth 7082
abide 7078
134 7077
wondered 7074
Ltd 7068
agrees 7065
ley 7065
lacking 7065
intent 7064
ters 7064
aligned 7057
militia 7056
stabilization 7055
153 7054
foods 7052
infected 7052
coordinators 7049
Page 7045
limiting 7045
linking 7045
CERD 7042
draws 7040
ES 7040
UNFCCC 7039
Cairo 7038
beliefs 7037
AMISOM 7035
secretariats 7033
regulating 7032
rarely 7029
birthday 7028
rapporteurs 7022
Baghdad 7021
Illicit 7021
license 7017
3.1 7017
preambular 7016
profession 7015
band 7012
peak 7006
deleted 7005
smart 7002
supplier 6990
clarity 6987
spectrum 6985
sounds 6985
parental 6980
cleaning 6980
Sudanese 6977
Bu@@ 6977
valued 6975
questioned 6974
livelihood 6972
analysts 6970
pictures 6969
uphold 6968
collapse 6968
exit 6960
ge 6955
.I 6951
go@@ 6951
examinations 6949
underlines 6947
talent 6947
neighbours 6944
ment 6944
adversely 6943
universality 6942
herewith 6940
earned 6935
proactive 6934
discretion 6929
126 6921
P.@@ 6920
incompatible 6915
wounded 6913
isolated 6913
consulted 6908
landscape 6908
2017 6906
magnitude 6906
Addis 6905
marriages 6904
ballot 6903
newspapers 6903
assault 6899
entrepreneurship 6898
Degrading 6896
inner 6895
1983 6893
modest 6889
Coordinating 6885
warned 6885
Per@@ 6883
colonial 6880
claimants 6879
moves 6877
clearing 6876
aiming 6873
circuit 6873
Adoption 6872
native 6871
farming 6870
reserved 6870
Cabinet 6863
extrajudicial 6859
aliens 6857
ies 6855
incomes 6855
developmental 6853
surely 6853
Rule 6852
liquidation 6852
pertinent 6851
panels 6850
essence 6850
Two 6849
holder 6846
satellites 6845
compatible 6845
adhere 6844
mapping 6842
Ababa 6842
anger 6841
upgrade 6839
Bretton 6839
collectively 6837
Inhuman 6837
corrections 6837
Violations 6835
neutral 6835
prospect 6834
turns 6834
listening 6833
Trinidad 6833
鈥@@ 6832
knowing 6832
guys 6832
saved 6831
countering 6830
council 6830
preference 6825
spouses 6819
Ba@@ 6819
monitors 6816
shoulder 6816
Victims 6815
conscious 6814
attaches 6812
revitalization 6811
programmatic 6810
warrant 6808
nationwide 6807
cat 6806
stimulate 6804
fi@@ 6803
SR.@@ 6802
twelve 6796
prohibits 6796
Table 6795
accreditation 6793
reconnaissance 6790
rough 6789
abandoned 6786
bone 6785
Sh@@ 6785
interdependence 6784
2.3 6784
indirectly 6782
restrict 6782
thirteenth 6781
intersessional 6778
failing 6777
tour 6777
dynamics 6776
returnees 6776
varied 6774
invested 6773
cooperating 6772
printed 6770
ticket 6769
mutilation 6767
prohibiting 6766
corporal 6764
ICRC 6758
confidentiality 6758
earliest 6758
135 6757
gradual 6757
pure 6750
bills 6750
cry 6749
Rwandan 6748
Serious 6747
revisions 6745
Granting 6743
hi 6736
Care 6733
railway 6732
sees 6727
debtor 6726
gi@@ 6726
Ac@@ 6721
conscience 6721
publish 6721
precisely 6716
pensions 6715
Tax 6710
ators 6709
honest 6709
perception 6706
circled 6704
dramatic 6703
consultant 6703
exceeding 6702
silent 6701
129 6700
CEB 6700
1.15 6698
ina 6697
dependence 6697
wet 6693
Do 6690
PA@@ 6689
currencies 6687
appropriations 6687
182 6687
Lakes 6686
st 6685
secretary 6683
Urban 6679
Th@@ 6678
magazine 6677
explored 6677
expressly 6677
Agricultural 6676
NATIONS 6675
spiritual 6675
misconduct 6674
comfortable 6671
objections 6670
Reserve 6668
quota 6663
criterion 6660
sexually 6660
boundaries 6656
threatening 6653
IS@@ 6653
respondents 6652
creditor 6652
ren@@ 6651
affirmed 6651
walls 6651
stuff 6647
California 6647
Time 6646
Exchange 6646
8.@@ 6645
é@@ 6644
stream 6644
deferred 6643
declining 6642
checks 6641
purchasing 6640
lunch 6638
ian 6638
versions 6637
qualitative 6636
intensity 6635
terror 6633
meal 6631
revise 6631
modules 6630
ay@@ 6630
lawful 6626
HUMAN 6626
Am@@ 6625
steadily 6624
Guam 6623
freight 6618
132 6617
avoided 6617
intense 6613
tion 6606
concentrate 6603
enquiry 6601
24@@ 6601
alleviate 6600
exploring 6599
3.2 6595
MA@@ 6594
chart 6592
Port 6592
mountains 6586
urbanization 6584
Tobago 6583
disappearances 6581
Martin 6578
dangers 6578
feeding 6572
em 6570
earn 6569
pressures 6569
Attorney 6568
GA 6564
133 6563
patent 6561
discusses 6558
expedite 6555
dan 6555
ll 6554
linguistic 6553
variance 6553
retail 6552
endeavours 6552
19@@ 6551
brothers 6550
up@@ 6548
HR 6547
waves 6544
lying 6543
Cruel 6543
OK 6539
recourse 6537
defines 6537
Gabon 6536
dumping 6535
respects 6535
Tourism 6534
thoroughly 6534
Against 6528
sensing 6528
tonnes 6527
analysing 6526
alleviation 6525
flood 6525
trans@@ 6525
tight 6524
mistakes 6521
pour 6521
Sa@@ 6521
1.3 6521
systemic 6519
surgery 6517
custom 6517
landmines 6516
5th 6514
inalienable 6512
filing 6512
irregular 6510
operates 6509
bu@@ 6507
cessation 6506
XV 6506
positively 6503
il 6503
Senate 6501
unanimously 6501
fears 6500
cup 6500
throw 6500
professor 6499
accord 6498
reveal 6496
Domestic 6493
promising 6492
tri@@ 6491
res@@ 6487
accredited 6483
Smith 6483
restriction 6481
renewal 6479
influenced 6479
privileges 6479
ins 6477
9,@@ 6476
nineteenth 6476
succeeded 6473
Bhutan 6473
ative 6472
projections 6469
blow 6467
supervisory 6462
talked 6462
proceeded 6461
socially 6459
sponsor 6458
keeps 6458
mon@@ 6456
Commercial 6455
WP.@@ 6453
halt 6452
Add.@@ 6449
GS 6449
wedding 6448
appendix 6447
tough 6446
Aviation 6444
Home 6444
constructed 6443
philosophy 6441
translate 6438
designate 6438
routes 6438
inconsistent 6436
1970 6435
convenient 6434
Liberation 6433
tender 6431
Si@@ 6429
specialist 6427
bread 6424
pen@@ 6421
notified 6414
civilization 6412
circle 6411
of@@ 6410
accede 6409
dogs 6408
Natural 6408
reparation 6407
taxation 6406
meantime 6403
starts 6403
lease 6401
SE@@ 6400
poses 6399
errors 6398
racist 6398
centred 6397
Engineering 6396
Rural 6396
IMO 6395
deny 6388
CCW 6385
safeguarding 6384
respecting 6383
mindful 6381
Qaida 6381
illiteracy 6380
ness 6380
authorize 6380
quarterly 6378
filling 6377
exceeded 6377
density 6376
temporarily 6376
Statement 6375
fe@@ 6373
patrols 6373
seed 6372
exemption 6369
modification 6368
bulk 6368
DE@@ 6365
photo 6364
ster 6362
UNFICYP 6360
Liberian 6358
defendant 6353
debts 6352
stored 6350
Rotterdam 6348
commend 6346
segments 6345
au@@ 6342
windows 6342
passenger 6339
prerequisite 6339
subprogrammes 6339
Par@@ 6338
inventories 6337
Har@@ 6337
eliminated 6337
shareholders 6334
incumbent 6330
contributors 6330
introductory 6326
car@@ 6325
900 6324
graduate 6324
surprised 6324
suspect 6323
lock 6321
gravity 6319
everyday 6319
recosting 6316
endorses 6315
removing 6313
Mainland 6312
chains 6312
individually 6311
gh@@ 6308
141 6306
cotton 6306
Chemicals 6306
Investigation 6306
internet 6305
4.1 6305
incitement 6300
169 6300
indicative 6295
ler 6295
naturally 6295
Establishment 6295
Sexual 6294
hazards 6293
Light 6293
transform 6289
stores 6286
lifting 6286
recovered 6285
explosives 6284
News 6283
They 6280
hostile 6280
alignment 6279
Qu@@ 6279
annexed 6275
platforms 6274
disclosed 6274
Outcome 6274
relocation 6272
thinks 6270
matrix 6270
logic 6270
persistence 6268
den 6267
earmarked 6264
perpetrated 6264
explanations 6259
ko 6258
readily 6257
hall 6255
Papua 6254
Summary 6254
completing 6254
risen 6253
sensitivity 6252
Harry 6251
hazard 6249
likes 6248
attach 6247
inability 6245
127 6245
publishing 6243
argue 6242
abilities 6241
lights 6234
CMP 6231
au 6231
compare 6231
Multilateral 6229
1975 6225
roster 6224
logical 6223
invoked 6222
incentive 6220
Response 6219
demonstrates 6219
neck 6213
Presidency 6212
6th 6212
fifteenth 6210
shock 6210
Istanbul 6205
jump 6204
endorsement 6202
kitchen 6201
et@@ 6200
vertical 6199
tremendous 6196
ep@@ 6195
expendable 6194
hill 6193
somebody 6192
barrier 6190
Blue 6189
Americas 6188
adolescent 6186
hidden 6185
tongue 6185
cl@@ 6185
ity 6184
disseminating 6183
height 6182
shelters 6181
giant 6181
Cor@@ 6178
shadow 6175
162 6175
camera 6171
teeth 6171
Amendment 6171
rocket 6171
noticed 6168
periodically 6167
Sha@@ 6163
renew 6161
infections 6161
consulting 6161
4.2 6160
entail 6159
ard 6157
Genocide 6155
1974 6155
pl@@ 6152
131 6150
ary 6148
leg 6146
stake 6145
pa@@ 6142
repeat 6141
chairs 6141
Governance 6139
commence 6136
Goods 6134
contingents 6134
cancellation 6131
XII 6130
uranium 6129
Seminar 6129
1980s 6129
unusual 6128
Swedish 6127
wars 6126
CARICOM 6125
ignored 6120
2.4 6119
Long 6119
websites 6118
AP@@ 6116
Resident 6116
Ko@@ 6115
cheap 6114
Eradication 6113
Be 6112
Sal@@ 6107
3.3 6105
policymaking 6104
illegally 6104
Lo@@ 6102
inheritance 6102
suspects 6101
eligibility 6100
punishable 6098
margin 6097
winning 6097
basically 6096
Peaceful 6095
chapters 6094
highlighting 6094
occurring 6093
instalment 6092
Bonn 6092
sessional 6091
conceptual 6091
Danish 6090
COMMITTEE 6090
wrongful 6089
couples 6085
induced 6085
Go@@ 6084
hygiene 6078
arrears 6074
favorite 6074
Lu@@ 6071
Dis@@ 6071
hat 6070
verified 6070
136 6068
com@@ 6065
operator 6064
Registration 6062
audio 6060
nomination 6059
Construction 6058
impression 6054
heaven 6053
Programmes 6051
alike 6048
warming 6043
tragic 6043
Letter 6042
switch 6039
MI@@ 6038
industrialized 6035
sake 6035
ga 6031
ur 6031
precious 6030
MO@@ 6030
gases 6029
generous 6029
Gibraltar 6029
apportionment 6023
flower 6023
deploy 6023
implies 6022
Ne@@ 6022
artificial 6020
ay 6020
nose 6018
stem 6018
produces 6015
Racism 6012
Bi@@ 6010
aggregate 6006
investor 6005
marking 6004
ride 6003
frozen 6000
clock 5999
Mon@@ 5998
confiscation 5996
Macao 5992
accelerating 5990
consolidating 5987
males 5987
personally 5987
socialist 5985
Im 5985
Ms 5982
harmonious 5979
protein 5979
Liaison 5977
mar@@ 5976
blame 5976
email 5975
Robert 5973
Take 5971
~ 5971
Market 5971
à 5970
watched 5969
Gu@@ 5969
uh 5968
DC 5967
modify 5966
By 5963
picked 5961
workplan 5961
Islam 5960
comprised 5956
accomplishment 5956
empower 5954
ati@@ 5953
packages 5951
super@@ 5951
wire 5948
Integration 5946
bar@@ 5945
Ru@@ 5943
reproduced 5942
explains 5941
40@@ 5939
demonstrations 5936
harmonize 5936
attracted 5934
va 5933
Hu@@ 5933
Line 5932
symptoms 5931
rejection 5931
ants 5928
hardship 5925
occurrence 5924
Lesotho 5918
hide 5911
tall 5911
violating 5911
AR@@ 5906
deficiencies 5904
Based 5903
owed 5903
Chambers 5903
ani 5898
qualification 5897
static 5896
ob@@ 5895
devastating 5894
1,0@@ 5893
angle 5891
broadcasting 5891
nominations 5890
precision 5888
differential 5888
Committed 5884
luck 5884
neglect 5883
Inspectors 5883
vacant 5882
continental 5882
moratorium 5881
tied 5876
AI 5876
gs 5875
Good 5875
committing 5874
143 5874
ded 5871
purchased 5871
mortgage 5871
C.4 5869
Enterprise 5868
discount 5865
exclude 5864
Grand 5864
postponed 5863
servant 5862
councils 5861
phenomena 5861
deeper 5860
manufacturers 5859
contexts 5859
ger 5855
tor@@ 5855
anywhere 5854
^ 5853
passport 5852
James 5850
accurately 5849
varying 5849
ruled 5849
MINURSO 5848
pulled 5846
accepting 5844
exhibition 5842
preserving 5838
142 5838
nearby 5837
tive 5836
superior 5836
joining 5835
archives 5830
lend 5827
AC.109 5826
tuberculosis 5825
&apos;i 5823
diversion 5820
ni@@ 5820
end@@ 5814
venue 5811
liquidity 5810
laser 5809
PRESIDENT 5808
imply 5807
3.5 5805
iz@@ 5805
clinics 5804
coalition 5804
assistant 5803
ce@@ 5800
Limited 5798
variable 5797
ki 5796
She 5795
entrance 5793
dad 5793
6,000 5792
ceiling 5791
Conventional 5791
array 5791
methodological 5789
Mc@@ 5789
Gambia 5789
Brazilian 5785
accomplish 5785
Situation 5784
protest 5782
vendors 5782
Mogadishu 5777
decentralized 5773
ly@@ 5772
correctly 5766
awaiting 5764
tackling 5764
UNCDF 5763
Promoting 5762
ITC 5762
Its 5762
combine 5759
quarters 5757
Participation 5757
raises 5757
recipients 5756
maps 5755
137 5752
chances 5752
bomb 5750
signals 5748
145 5747
legs 5746
credits 5745
Democracy 5745
144 5743
dominant 5742
honor 5741
1977 5741
CH@@ 5739
deliberate 5738
El@@ 5737
restrictive 5737
Accounts 5734
RA@@ 5731
Z 5731
forensic 5730
Coalition 5729
Li@@ 5729
Competition 5727
ry 5727
Contributions 5726
amending 5726
residual 5723
Plenary 5722
deputy 5721
CST 5720
UNITA 5717
Media 5716
sc@@ 5715
successor 5715
ation@@ 5713
thick 5712
differ 5712
pledge 5711
analyze 5710
coupled 5707
definitely 5706
50@@ 5702
survive 5701
solved 5699
Ethics 5699
blocks 5697
schooling 5695
detected 5695
parliamentarians 5694
Lee 5694
countermeasures 5694
recycling 5692
mom 5692
ang@@ 5690
Three 5690
hell 5690
coat 5688
Bahamas 5686
soldier 5684
Solomon 5684
alongside 5680
overwhelming 5677
Centres 5676
1961 5676
undertakings 5675
admit 5673
harder 5673
apartment 5672
split 5671
imposing 5670
139 5669
1971 5669
tone 5668
4,000 5667
Recommendations 5667
backed 5665
experiencing 5665
livestock 5660
min@@ 5660
deserve 5659
compiled 5659
doubts 5657
align 5657
tie 5657
expressions 5656
HK 5651
mood 5649
institute 5647
visibility 5646
ov 5646
designation 5646
Portuguese 5643
ys 5643
horizontal 5642
thermal 5642
chose 5642
impetus 5642
SA 5641
ranking 5640
roughly 5637
bottle 5637
Zhang 5636
IMIS 5634
phased 5632
abolished 5632
fathers 5632
strain 5631
container 5631
C.6 5630
Opportunities 5630
trainers 5629
accumulation 5629
tragedy 5627
subtotal 5626
lifted 5626
Radio 5625
Dispute 5624
worried 5623
AT@@ 5623
ministry 5621
sa 5620
marital 5620
magnetic 5617
provider 5616
drove 5616
235 5615
ment@@ 5612
arrests 5609
SS 5608
multilateralism 5607
contaminated 5606
Po@@ 5605
tiny 5603
00@@ 5603
nursing 5601
tickets 5599
portal 5598
147 5596
comfort 5596
Access 5594
captain 5592
Provisional 5590
sp@@ 5590
Miss 5589
guests 5588
UNDAF 5588
captured 5587
IP@@ 5586
noon 5585
151 5581
overdue 5581
EN@@ 5579
audited 5578
demanded 5577
du 5575
pipe 5574
Jewish 5573
methyl 5572
films 5571
Ivorian 5568
Uses 5567
vegetables 5567
condemns 5565
wash 5564
compete 5563
optical 5563
7th 5563
Destruction 5562
Ra@@ 5560
Master 5559
156 5559
enactment 5556
preferential 5554
reiterating 5552
Treaties 5549
Reconciliation 5548
employ 5547
multinational 5547
Egyptian 5547
humankind 5546
Families 5545
EC@@ 5542
log 5542
dy 5538
seeds 5537
burn 5537
ak 5536
tourist 5535
146 5535
inception 5534
graduates 5532
ray 5531
corporation 5530
undermined 5528
ST@@ 5527
ICC 5526
commented 5526
Any 5526
Joseph 5526
Approach 5525
ING 5524
shaped 5522
heating 5521
Wan 5520
Hospital 5520
Freedom 5519
Church 5519
sixteenth 5519
Oman 5518
overcoming 5512
challenged 5509
Tibetan 5509
powder 5509
eggs 5508
CRIC 5506
voluntarily 5505
fuels 5504
Reports 5504
tissue 5503
Umoja 5503
OP 5502
finalize 5499
ying 5498
gaining 5498
publicity 5498
PRST 5497
belongs 5496
dominated 5495
underground 5495
lake 5495
unclear 5494
USA 5494
tropical 5493
criminals 5493
LA@@ 5493
undoubtedly 5491
Chen 5489
IM@@ 5489
ale 5488
helicopters 5487
Sha 5486
streamlining 5486
ain 5483
Mor@@ 5482
vacation 5481
truck 5475
rebel 5474
Hotel 5474
crude 5471
dose 5471
socioeconomic 5468
compounds 5467
Abu 5466
peacekeepers 5466
treating 5463
ized 5462
q@@ 5461
arose 5460
golden 5459
volatile 5459
attempting 5456
confined 5455
5.2 5455
seventeenth 5454
tells 5453
Charles 5453
promises 5453
ence 5452
1976 5451
demining 5450
un 5450
rolling 5450
delete 5449
rubber 5449
costly 5448
artistic 5448
chairmanship 5441
erosion 5440
aggressive 5439
Brown 5438
cable 5438
hang 5434
supporters 5433
ves 5428
reasonably 5427
spatial 5424
Pe@@ 5419
Offices 5418
Vi@@ 5417
Conservation 5416
cloud 5414
universally 5412
stayed 5412
deciding 5411
suspend 5410
back@@ 5409
economists 5409
selective 5409
sophisticated 5409
L. 5407
ink 5407
1.4 5407
Electronic 5406
cooperatives 5406
borrowing 5405
OIC 5405
reception 5404
wheel 5403
petroleum 5403
merit 5401
encouragement 5400
hu@@ 5398
contracted 5398
formerly 5396
celebrate 5394
corrected 5388
La@@ 5388
collaborate 5387
doctrine 5387
8th 5387
investigators 5386
reject 5385
depression 5384
remittances 5382
251 5381
166 5380
diligence 5379
outlook 5378
clusters 5378
specially 5377
unfair 5377
predecessor 5376
ranks 5375
1960 5373
Sun 5372
Near 5370
kan 5370
gen@@ 5369
moderate 5368
appreciates 5367
restored 5364
deposited 5363
educated 5361
all@@ 5358
favor 5356
CONF.@@ 5356
extraction 5352
prosecutions 5352
applicability 5351
Embassy 5348
assuming 5348
Aspects 5346
Dr 5346
sharply 5345
fed 5345
empowered 5344
determines 5343
Quality 5342
united 5341
volunteer 5340
approached 5339
discovery 5338
Private 5337
beneficiary 5336
Dutch 5336
totalling 5336
invention 5335
entitlements 5335
notable 5335
bi 5334
breaches 5334
For@@ 5333
170 5330
AU 5330
Black 5326
Ku@@ 5326
libraries 5326
breath 5323
advocated 5323
roof 5321
fairness 5320
mainland 5320
can@@ 5320
legacy 5318
commensurate 5318
exemptions 5318
centers 5316
facilitates 5315
edition 5314
microfinance 5314
identifies 5314
IT@@ 5313
firstly 5310
agendas 5309
Chairmen 5309
Practices 5306
conform 5305
connections 5304
helicopter 5304
pricing 5303
12.@@ 5302
sin 5301
Christ 5301
5.1 5301
Du@@ 5300
154 5299
mer@@ 5296
ri 5296
iii 5295
wheat 5292
communiqué 5292
ping 5290
sts 5289
Defense 5285
judgements 5284
civic 5284
pu@@ 5284
eighteenth 5282
devote 5282
Muslims 5281
Verde 5280
Transfer 5280
Monaco 5279
UNV 5278
shocks 5277
correspondence 5277
mercenaries 5276
tor 5276
amongst 5275
Design 5272
Minorities 5269
han@@ 5268
civilizations 5267
4.3 5262
inspectors 5261
immunities 5260
SC@@ 5260
coercive 5259
weakness 5256
pharmaceutical 5255
autumn 5254
33@@ 5253
successive 5253
200@@ 5251
actor 5248
Na@@ 5248
van 5248
rations 5247
affirmative 5244
aftermath 5244
pandemic 5244
158 5243
demanding 5241
establishments 5241
converted 5240
152 5240
CIS 5238
freezing 5236
He@@ 5235
marginalization 5234
ization 5231
1972 5230
9th 5229
rank 5229
negatively 5229
Border 5229
4.5 5228
Queen 5226
minds 5226
Migrant 5224
ca@@ 5223
copyright 5221
ER@@ 5220
Prevent 5218
157 5217
sed 5217
deportation 5217
ari@@ 5217
norm 5216
crew 5214
na 5213
ors 5207
emerge 5205
K. 5204
complemented 5196
inevitable 5195
SADC 5194
founding 5193
signatories 5192
successes 5192
CE@@ 5192
ACC 5189
ste@@ 5189
ars 5189
interpretative 5184
Informal 5183
compensate 5181
pride 5180
combining 5180
plenty 5180
regretted 5179
expectancy 5179
pays 5179
Te@@ 5179
FA@@ 5179
COUNCIL 5179
161 5178
wa@@ 5176
distinguish 5175
privatization 5173
score 5172
tens 5170
sheets 5169
liver 5168
linear 5168
dramatically 5167
UNDOF 5167
habit 5166
es.@@ 5165
beaten 5163
holidays 5158
settlers 5157
az@@ 5156
suppose 5156
cycles 5154
ID@@ 5154
innovations 5154
Her@@ 5153
Enforced 5152
fourteenth 5151
Acts 5151
poly@@ 5150
benchmark 5150
paint 5150
bin 5150
consecutive 5149
travelling 5148
ignore 5148
ali@@ 5148
148 5147
restraint 5147
retired 5146
60@@ 5146
clauses 5145
communicable 5144
Enhanced 5143
Intelligence 5142
accessing 5142
Rico 5139
metals 5135
cooking 5134
licences 5134
composite 5133
yours 5132
pushed 5130
den@@ 5130
Award 5129
Mohamed 5129
ru@@ 5128
approves 5128
ses 5127
Periodic 5127
affirms 5121
evacuation 5121
protests 5120
plain 5120
sequence 5120
scenarios 5119
importantly 5117
hired 5117
benefiting 5116
Bay 5113
So@@ 5112
鈥檚 5112
Groups 5112
guards 5111
stepped 5111
slight 5110
missed 5108
evolved 5106
ne 5106
pan@@ 5106
20,000 5106
tin 5106
globe 5105
journal 5099
competing 5098
chicken 5098
activists 5097
reunification 5097
designs 5095
chamber 5095
ics 5095
incomplete 5094
Microsoft 5093
Manager 5092
minimal 5092
tube 5091
Abyei 5091
acquiring 5089
stones 5089
Mal@@ 5088
stolen 5087
220 5084
accumulated 5083
badly 5082
attained 5081
gifts 5081
landing 5080
referral 5080
Progress 5078
ance 5078
volatility 5076
fiber 5076
pounds 5074
interregional 5073
copper 5073
nowadays 5072
choosing 5070
TA@@ 5070
lifetime 5070
} 5069
assignments 5068
dioxide 5067
explosion 5065
utilizing 5065
Henry 5065
dec@@ 5063
seconds 5063
Sam@@ 5063
infectious 5062
generic 5062
auditors 5060
tsunami 5058
NA@@ 5057
insert 5056
Festival 5055
broaden 5054
exam 5054
streamline 5051
shells 5051
gear 5050
restitution 5049
graduation 5047
fix 5045
149 5043
MDG 5043
vendor 5042
suspicious 5042
Virgin 5040
ments 5039
unchanged 5039
CTBT 5037
voices 5037
hearts 5037
happening 5036
IA@@ 5035
adviser 5034
UNAMA 5034
breakfast 5033
classroom 5033
colleges 5032
ano 5032
tends 5032
ear 5032
usefulness 5031
Equatorial 5031
Agreements 5030
prisoner 5029
Caledonia 5029
Role 5029
forgotten 5028
No@@ 5028
rid 5027
sleeping 5026
ot 5026
contamination 5024
AC@@ 5024
Richard 5023
proposing 5021
{ 5019
linkage 5016
physically 5016
campus 5016
cream 5012
consciousness 5011
PV.@@ 5009
impede 5008
Georgian 5008
steering 5008
Jo@@ 5007
tanks 5006
ant@@ 5006
parliaments 5006
RES 5003
hire 5002
guns 5001
presently 5000
inappropriate 4999
fluid 4998
checking 4996
y.@@ 4995
ological 4995
delegate 4995
bears 4994
.org 4993
Clinton 4993
inviting 4993
inspired 4992
Thomas 4992
worthy 4991
Paper 4991
phones 4991
advocates 4990
reads 4989
openness 4986
SO@@ 4986
hoping 4985
50,000 4982
parity 4982
connect 4982
remainder 4982
Sciences 4981
lacked 4980
gene 4979
cleared 4978
admissible 4978
208 4973
lucky 4972
Certain 4971
Mexican 4970
Presidential 4969
prevail 4969
ent@@ 4968
County 4963
are@@ 4961
Ber@@ 4960
thirdly 4960
offensive 4960
Airport 4960
ens 4959
consisted 4958
floods 4956
scourge 4956
ti 4955
adopts 4954
tic@@ 4950
Norwegian 4948
entitlement 4946
pretrial 4943
ye@@ 4942
11@@ 4939
paramount 4938
ol 4936
eradicating 4936
foreseen 4934
sk@@ 4933
201 4933
Serbian 4932
escalation 4932
displayed 4931
ja 4930
manufactured 4930
Stabilization 4928
Prison 4927
AC 4926
recruit 4926
govern 4926
Serb 4925
specifications 4924
doors 4924
spaces 4923
rec@@ 4921
irrigation 4920
seventy 4920
quotas 4920
cre@@ 4918
ig@@ 4918
executing 4918
terminal 4916
interviewed 4914
confrontation 4912
democratization 4910
beside 4908
Bali 4908
accrued 4907
tion@@ 4907
unencumbered 4907
pollutants 4907
failures 4907
inquiries 4906
persecution 4905
rating 4902
air@@ 4902
correlation 4902
Google 4899
cumulative 4898
MONUSCO 4896
theories 4896
liked 4895
Catholic 4894
ade 4893
BY 4892
Belize 4888
concentrations 4888
sciences 4887
endorse 4887
pump 4886
brown 4886
165 4886
pocket 4885
fleet 4885
fled 4883
Contract 4880
hiring 4880
illustrated 4880
financially 4879
Improved 4877
Provide 4877
tech 4875
21st 4874
exporting 4874
allegation 4873
shooting 4873
IC 4873
motivation 4872
habits 4872
absent 4871
legality 4871
renovation 4869
tortured 4867
Civilian 4866
disposition 4866
buyers 4865
terminated 4864
ini 4863
educate 4860
Ti@@ 4859
disclose 4856
crossed 4856
injection 4855
226 4854
Him 4851
locked 4849
Ma 4849
ascertain 4848
expectation 4846
ceased 4844
fans 4844
centuries 4844
Friends 4838
mixture 4838
urging 4837
auditing 4836
22@@ 4835
rooted 4835
sis 4834
cleaner 4833
cement 4831
CISG 4830
159 4830
San@@ 4830
stamp 4827
connectivity 4826
bureau 4826
ble 4825
C.@@ 4822
profiles 4821
spreading 4821
Views 4820
directives 4820
dying 4819
guest 4816
tourists 4815
Liu 4815
Kar@@ 4814
expeditiously 4814
foremost 4813
uncertain 4813
somewhere 4812
intermediate 4811
3.4 4811
ff@@ 4810
Risk 4809
scholars 4809
correction 4807
noble 4807
reporters 4806
convictions 4806
outlines 4805
ash 4804
ud@@ 4803
convergence 4803
10th 4802
smell 4802
trace 4802
outbreak 4801
perfectly 4799
tr@@ 4798
Reporting 4797
develops 4792
fa@@ 4790
oversee 4790
sustaining 4789
shirt 4789
selecting 4788
nets 4788
numerical 4786
undermining 4786
packaging 4786
ethnicity 4785
imbalances 4784
leverage 4781
During 4779
tailored 4778
Courts 4776
forwarded 4774
fabric 4773
Compensation 4772
remnants 4771
simplified 4771
RO@@ 4770
exacerbated 4769
ality 4766
1951 4765
photos 4763
adjacent 4763
0.7 4763
aging 4762
Economy 4759
producer 4759
1. 4757
surge 4756
confusion 4755
&apos;affaires 4753
seizure 4749
modifications 4749
modes 4747
ala 4747
ver 4746
Club 4745
alization 4744
2.6 4744
claiming 4744
offshore 4743
swimming 4742
ff 4742
restoring 4741
accompanying 4741
string 4740
stockpiles 4737
attracting 4735
ga@@ 4735
1969 4735
defeat 4735
Subsidiary 4734
vulnerabilities 4733
banned 4732
Man 4732
parking 4732
highway 4731
praise 4730
Ver@@ 4730
scarce 4730
213 4730
anyway 4729
William 4728
factual 4726
fruits 4726
Rehabilitation 4726
AL@@ 4726
Executives 4725
Beirut 4725
organisation 4724
Ageing 4723
lu@@ 4722
complied 4720
Argentine 4719
10.@@ 4718
immune 4718
impressive 4717
seize 4715
167 4714
tribal 4714
alarm 4714
extends 4713
apple 4713
requisite 4709
strengths 4708
cohesion 4707
han 4706
shelf 4706
211 4706
progressively 4705
IDPs 4704
instituted 4700
Credentials 4700
ven@@ 4696
Operational 4696
shell 4696
,0@@ 4695
desert 4695
procuring 4694
Compact 4693
AWG 4693
Ho@@ 4691
harvest 4689
button 4688
congratulations 4684
Ha@@ 4684
interrelated 4684
filter 4683
lets 4683
oxygen 4681
Five 4680
cap 4680
IP 4680
Point 4679
singing 4679
Guiding 4678
containers 4676
bel@@ 4675
residing 4675
trafficked 4675
hampered 4675
1.6 4673
laugh 4672
mu@@ 4670
PA 4669
242 4669
condemn 4668
FARDC 4667
Major 4666
safer 4663
purchases 4663
UNDG 4663
deepen 4662
stimulus 4662
CC@@ 4661
qualities 4661
wa 4660
destructive 4660
instrumental 4658
inevitably 4657
keen 4657
informing 4656
alert 4655
embodied 4654
dressed 4653
38@@ 4653
Tra@@ 4652
fortune 4651
strikes 4651
11.@@ 4650
Kowloon 4650
ize 4650
confront 4649
notifications 4649
belt 4647
circular 4647
super 4647
plight 4645
2. 4645
voltage 4644
Ethiopian 4643
fruitful 4643
arises 4643
loving 4643
LO@@ 4641
tra@@ 4641
Higher 4640
rounds 4640
fluctuations 4639
segregation 4638
ears 4636
distant 4635
ups 4633
persist 4632
mirror 4631
TS 4630
inserted 4630
Solidarity 4630
hungry 4628
210 4628
competencies 4628
dialogues 4627
Or@@ 4626
finalization 4624
enjoying 4622
trigger 4621
enrolled 4621
els 4621
deforestation 4618
Ta@@ 4618
terminology 4617
Mi@@ 4617
participates 4616
57@@ 4615
searching 4615
euros 4614
grades 4612
Men 4611
optimization 4611
tries 4611
Refugee 4609
cure 4607
IS 4607
8,000 4606
Counsel 4606
theft 4605
Auditor 4604
painful 4603
Export 4603
auto 4601
enact 4601
construct 4599
UNOMIG 4598
39@@ 4597
indications 4594
employing 4593
cu@@ 4593
av@@ 4592
34@@ 4586
interactions 4586
shed 4583
scales 4583
tics 4582
af@@ 4582
fl@@ 4581
holy 4581
mal@@ 4580
timber 4580
sustainment 4580
supplemented 4580
Disability 4579
UNMEE 4578
blockade 4577
transformed 4576
volumes 4576
discover 4576
checked 4575
tape 4574
Detention 4572
consultancy 4571
executives 4571
elementary 4571
depleting 4571
radical 4570
164 4569
prioritize 4569
SR 4568
rationale 4568
Indonesian 4567
misuse 4566
curb 4565
lion 4565
administrations 4565
Bur@@ 4565
Albanian 4563
overarching 4560
del 4559
umbrella 4558
163 4557
reward 4556
reduces 4552
farms 4552
Roman 4551
parameter 4551
ner 4550
shortages 4549
laboratories 4548
interfere 4547
entails 4547
shorter 4547
rail 4546
ordnance 4545
ada 4545
Language 4544
cancelled 4543
stateless 4543
Young 4542
a.i. 4542
complementarity 4541
exchanged 4541
policing 4539
270 4538
Ge@@ 4538
announce 4536
beach 4535
ching 4534
computing 4532
shops 4532
confiscated 4531
cried 4530
panellists 4529
Ri@@ 4528
veto 4526
varies 4525
Station 4524
observes 4523
Kivu 4523
artillery 4521
variation 4521
gr@@ 4520
After 4519
touched 4519
protects 4519
beer 4516
buried 4516
suppression 4515
175 4515
&apos;clock 4515
To@@ 4515
enjoys 4514
deadlines 4514
favoured 4514
threw 4514
XIII 4513
packing 4510
intercultural 4510
leaf 4509
da@@ 4508
naval 4507
purely 4507
CPC 4506
ju@@ 4506
tended 4506
intervene 4506
Lake 4506
reforming 4505
mature 4505
Im@@ 4505
192 4504
Pi@@ 4504
interpreters 4503
Comoros 4503
receivables 4501
IOM 4501
laying 4499
36@@ 4498
Suriname 4497
ged 4496
ICSC 4496
bold 4495
shouldn 4495
industrialization 4493
millennium 4490
ines 4490
speedy 4490
kin 4490
commissioned 4489
227 4488
ish@@ 4488
abstract 4487
prosperous 4487
readers 4485
extensively 4485
concert 4483
exporters 4483
synergy 4483
opens 4482
staying 4480
exploit 4478
rivers 4478
ise 4478
izing 4475
Sports 4475
leisure 4475
cake 4474
IFAD 4473
Kabul 4473
mobilized 4472
opium 4472
Promote 4470
counties 4469
interior 4468
Accord 4468
har@@ 4467
militias 4467
IA 4464
engineers 4462
sal@@ 4461
catalyst 4460
decreasing 4460
visas 4455
signatory 4454
clouds 4454
wi@@ 4454
4.4 4454
babies 4453
ning 4453
proclaimed 4452
egg 4451
confronted 4449
10,@@ 4447
br@@ 4446
Whole 4446
deteriorating 4446
entertainment 4445
worship 4444
departmental 4442
Lucia 4442
Organic 4440
voter 4440
dedication 4439
consular 4436
CC 4436
afforded 4434
Missions 4433
alarming 4426
farmer 4426
lodged 4426
complainants 4423
Mother 4422
delicate 4421
Cha@@ 4421
factories 4421
repairs 4421
darkness 4421
Index 4419
lacks 4419
organised 4419
Crimes 4419
Form 4418
celebration 4418
exported 4418
48@@ 4417
junior 4417
za 4415
CO2 4414
5.3 4413
Gar@@ 4412
if@@ 4412
ery 4411
ats 4411
Ser@@ 4409
deserves 4408
t.@@ 4407
liberation 4405
valve 4405
athletes 4404
DNA 4401
Fisheries 4400
Inspector 4399
Provisions 4399
unsustainable 4398
toll 4398
yard 4397
R. 4395
248 4394
describing 4392
GHG 4391
cook 4389
bra@@ 4387
MA 4385
donations 4385
Southeast 4385
fossil 4385
replacing 4383
UNAMSIL 4380
variations 4378
bio@@ 4377
ata 4375
mouse 4375
fin@@ 4375
textbooks 4375
protracted 4374
sheep 4374
dimensional 4373
rests 4373
Traffic 4371
Recovery 4369
shipments 4368
vol 4367
Swaziland 4366
6.5 4364
ms 4363
Money 4363
Don 4363
tis 4363
dozen 4362
recruiting 4362
documentary 4360
P. 4359
remembered 4359
coach 4358
corrupt 4356
L.1 4355
absorbed 4354
seizures 4353
So 4353
discriminate 4353
narrative 4353
Do@@ 4353
ky 4352
Sales 4352
Communist 4351
childcare 4351
excellence 4351
Republican 4350
fighters 4349
demonstrating 4348
signatures 4346
auction 4345
chest 4343
work@@ 4342
affiliated 4340
tertiary 4340
tariffs 4340
undue 4340
unauthorized 4340
cloth 4339
compile 4338
traders 4338
168 4338
6.1 4337
compatibility 4337
creativity 4336
ane 4336
350 4336
geared 4336
importing 4335
efficacy 4335
songs 4334
caring 4334
validation 4334
ham 4333
Of 4333
ser@@ 4333
D.@@ 4330
Campaign 4330
centralized 4330
confirms 4329
Applications 4329
academia 4328
ches 4327
variables 4327
random 4326
Effective 4326
defer 4326
upheld 4323
attaining 4323
loves 4323
intelligent 4321
que 4320
unequal 4320
37@@ 4320
HKSAR 4316
alter 4316
reaches 4315
predict 4315
minerals 4314
Vincent 4314
Serbs 4313
nervous 4312
Performance 4312
supervise 4311
bombs 4310
orderly 4310
Chargé 4309
ass 4309
sewage 4309
asks 4309
Increase 4308
eventual 4306
suspicion 4305
Fed 4305
Kimberley 4305
José 4304
seal 4304
Enforcement 4303
loading 4302
boom 4302
initiation 4301
bags 4301
matching 4300
1,500 4300
Berlin 4299
tail 4299
artists 4299
UNAMI 4298
Pre@@ 4297
Series 4297
gar@@ 4296
Have 4296
cleansing 4294
backlog 4293
announcements 4293
absorb 4292
terminate 4289
deepening 4288
183 4287
carriage 4286
ED 4285
seriousness 4283
inmates 4283
SP 4281
luxury 4281
boxes 4281
boats 4280
accepts 4280
distress 4279
bidding 4279
nutritional 4278
abduction 4278
Supply 4277
contest 4277
mad 4274
measurable 4274
adjournment 4274
Forest 4274
striking 4272
ji 4272
IPCC 4271
calculate 4270
Sub.2 4269
ban@@ 4266
meters 4266
enemies 4266
deficits 4266
controversial 4265
ach@@ 4264
cooperated 4263
dismissal 4263
6.2 4262
fingers 4261
diagnostic 4260
resistant 4260
her@@ 4258
锛@@ 4256
enthusiasm 4254
acceding 4254
189 4253
absorption 4253
colors 4252
240 4252
Verification 4250
doubled 4247
CN@@ 4247
distribute 4246
Combating 4246
harsh 4246
Ham@@ 4245
deliberately 4244
Impact 4243
ders 4243
transferring 4243
exciting 4240
1963 4239
schedules 4239
standardization 4238
dependency 4237
Case 4235
disproportionate 4234
hinder 4234
imbalance 4233
actuarial 4232
undergoing 4232
maker 4231
Eritrean 4231
offender 4231
Vanuatu 4230
sincerely 4230
LE@@ 4229
enrichment 4227
prize 4226
magic 4226
Compliance 4225
scholarships 4225
unaccompanied 4225
grid 4224
tur@@ 4224
vaccine 4223
pi@@ 4223
lengthy 4223
1.8 4223
enacting 4222
Aboriginal 4219
abolish 4219
Arusha 4218
immunization 4218
likelihood 4218
circulate 4217
yearly 4216
mi@@ 4215
58@@ 4214
indiscriminate 4214
intentions 4212
empowering 4211
holdings 4211
Kim 4210
mitigating 4210
extremism 4210
narcotic 4209
pragmatic 4209
beam 4209
Contracts 4208
healthcare 4208
daughters 4208
anybody 4208
1325 4208
reactions 4207
loose 4207
quest 4207
La 4204
190 4203
Hamas 4203
suited 4200
ingly 4199
AS 4199
Bal@@ 4198
IF@@ 4196
IDF 4196
stuck 4195
slave 4195
214 4193
rigorous 4192
vacuum 4191
cannabis 4190
1.7 4189
Belgrade 4188
reveals 4188
sacrifice 4188
municipality 4187
buffer 4186
Front 4185
2.7 4183
Arctic 4180
caution 4180
insisted 4180
verbatim 4179
Chicago 4177
Effects 4177
instant 4173
Add.3 4171
Principal 4170
exploited 4168
scaling 4168
stomach 4167
differentiated 4167
Observatory 4167
lips 4166
fought 4165
dish 4165
ratios 4163
tracing 4162
ME@@ 4161
172 4160
coexistence 4159
Controller 4158
Total 4157
suggesting 4157
equation 4157
eg@@ 4157
relied 4156
174 4156
fulfill 4155
viability 4155
UNMIT 4154
MS 4151
comprehensively 4151
diabetes 4147
conciliation 4147
Khartoum 4144
enforcing 4144
believing 4142
execute 4142
infrastructures 4142
Nature 4141
approaching 4140
181 4140
sc 4139
universe 4139
Procedures 4139
cor@@ 4138
perpetrator 4138
Mines 4138
disorder 4138
observing 4137
Antigua 4136
5.5 4136
commander 4135
depended 4135
frank 4132
191 4129
hath 4129
173 4127
ze 4127
situated 4126
slowdown 4126
Col@@ 4126
resist 4124
Ministries 4123
asserted 4121
meter 4121
hostage 4121
bo 4118
hy@@ 4117
ours 4116
shoot 4116
tors 4115
HK@@ 4115
ess 4114
particles 4113
Mer@@ 4110
ITU 4110
crash 4110
Twenty 4110
clashes 4108
ideological 4108
alliance 4107
Minimum 4105
crazy 4105
sensor 4105
preserved 4104
overlap 4102
leather 4102
0.5 4102
head@@ 4101
differently 4101
photographs 4101
Let 4100
curve 4100
administer 4099
While 4098
230 4097
ERP 4094
maturity 4093
bromide 4092
Marshall 4092
robbery 4092
petition 4091
vested 4091
syndrome 4090
reorganization 4089
altogether 4088
Stockpiling 4085
conditional 4085
amid 4084
flagrant 4084
prompted 4082
encounter 4082
Town 4079
wh@@ 4079
influences 4079
detrimental 4078
burned 4078
reclassification 4077
Investigations 4075
pot 4074
foregoing 4073
alism 4073
stroke 4073
PR@@ 4072
hydro@@ 4072
god 4071
185 4071
PO@@ 4071
Meetings 4069
kiss 4068
clubs 4068
Income 4067
passes 4067
Jane 4066
218 4066
Museum 4065
Yes 4065
warehouse 4065
Cup 4065
insist 4064
scrutiny 4064
invalid 4064
atmospheric 4063
Pan@@ 4062
Brindisi 4062
breaks 4061
concessions 4061
summaries 4061
1,4@@ 4061
embedded 4060
substantiated 4060
geological 4060
I.@@ 4060
install 4059
manufacturer 4059
guides 4057
rush 4056
washing 4056
funny 4056
Not 4055
knife 4055
Ahmed 4053
GENERAL 4051
&apos;a 4051
shortfall 4050
68@@ 4046
KP 4045
continually 4044
overtime 4044
Seychelles 4044
wound 4043
B.@@ 4042
D.C. 4040
meals 4040
Judges 4039
UNMISS 4038
fan 4038
pleasant 4036
rises 4036
therapeutic 4036
movies 4034
mg 4033
ging 4033
oneself 4032
preamble 4032
Offr 4032
184 4030
unexpected 4028
177 4027
tip 4027
multidisciplinary 4026
extremist 4025
shore 4024
finger 4023
widening 4023
gra@@ 4022
charter 4020
233 4019
aerial 4019
Trustees 4017
V. 4017
unliquidated 4017
pushing 4017
sl@@ 4016
ef@@ 4015
ine@@ 4015
uneven 4014
thrust 4014
arriving 4013
safely 4012
70@@ 4011
rolled 4010
theatre 4008
fifteen 4007
lovely 4007
kers 4007
tower 4006
exceeds 4006
propaganda 4006
187 4006
49@@ 4006
remedial 4005
186 4004
Vietnam 4003
Directors 4003
interpret 4003
preferences 4003
fever 4002
hereinafter 4002
Landlocked 4001
Croatian 4000
understands 3999
permanently 3999
conservative 3999
Dec@@ 3999
premium 3999
sensitization 3998
202 3998
constrained 3998
secrets 3998
tentative 3998
embrace 3997
206 3996
borrow 3996
passive 3995
consuming 3993
afterwards 3993
rats 3992
analyzing 3992
Daniel 3991
UNPROFOR 3991
litigation 3989
burdens 3989
refined 3987
lighting 3987
Empowerment 3987
prevents 3986
airports 3986
radar 3985
upward 3984
Ca@@ 3984
Ps 3983
finances 3983
Communities 3982
redeployed 3981
basin 3981
kid 3980
dirty 3979
abducted 3978
59@@ 3978
multisectoral 3976
retaining 3976
jet 3976
nationalities 3976
conducts 3975
armaments 3975
jumped 3974
bridges 3974
countryside 3973
rocks 3973
arsenals 3972
accessed 3971
measurements 3970
footing 3970
sha@@ 3969
monopoly 3969
deputies 3969
speaks 3969
defects 3969
commanders 3969
editor 3967
rebuilding 3967
Develop 3966
sexes 3966
loud 3964
FMCT 3964
passion 3963
banning 3963
assign 3962
pointing 3961
technically 3960
pen 3960
Annan 3960
Oceans 3960
a.@@ 3959
titles 3959
unconditional 3959
C.12 3959
artist 3959
171 3957
hasn 3956
hello 3956
Inc 3956
Subcommission 3955
amnesty 3955
vibration 3955
ised 3954
illustrate 3952
orphans 3952
Sch@@ 3951
We@@ 3950
Valley 3949
expiration 3948
7,000 3948
CR@@ 3947
regulators 3947
compliant 3947
lectures 3946
optimize 3945
gan@@ 3945
convenience 3945
atomic 3944
basketball 3944
anxiety 3944
diffusion 3943
abandon 3943
temperatures 3943
keys 3943
triangular 3942
wings 3942
regrettable 3939
AT 3939
178 3935
30,000 3935
assists 3934
From 3931
Ozone 3929
undergo 3928
calculating 3927
listened 3927
500,000 3927
engineer 3925
merger 3924
Question 3924
ensuing 3923
Tuvalu 3923
Times 3923
Trans@@ 3922
sur@@ 3922
writers 3922
instructed 3922
mat@@ 3921
Morgan 3920
ara 3920
complications 3919
260 3919
alized 3919
wireless 3917
pipeline 3917
1,7@@ 3917
ev@@ 3917
strongest 3916
legislature 3916
spots 3916
sooner 3915
traffickers 3915
privately 3914
Future 3914
compact 3913
complain 3913
disadvantage 3912
trillion 3912
disadvantages 3912
Is@@ 3910
disappointed 3910
Jones 3908
underlining 3905
predicted 3905
nurses 3903
honey 3903
confronting 3903
Jim 3901
ming 3901
47@@ 3900
generators 3899
Falkland 3896
sword 3896
cha@@ 3896
crack 3895
6.3 3895
Plurinational 3895
3. 3895
stupid 3895
UPR 3894
12,@@ 3894
restaurants 3893
225 3893
ICAO 3892
fold 3890
rebels 3889
Bel@@ 3889
AF@@ 3889
ama 3888
Who 3885
certainty 3883
surprising 3882
emanating 3881
deficiency 3881
moments 3880
bur@@ 3880
condemnation 3879
taxi 3878
rebuild 3878
reluctant 3877
corn 3877
prone 3877
atory 3876
á@@ 3876
Ben@@ 3876
cattle 3876
organisms 3876
synthetic 3876
insofar 3874
ns 3874
travelled 3874
struggling 3872
dancing 3872
UNLB 3871
expelled 3871
circumstance 3871
predictability 3870
sympathy 3870
literary 3869
Citizens 3869
muscle 3867
ering 3867
Almaty 3866
minded 3865
bacteria 3865
Age 3865
grows 3864
ful 3863
excited 3863
shifting 3862
20th 3861
bias 3860
AP 3860
INSTRAW 3859
battery 3858
surrender 3858
prospective 3857
firing 3856
relax 3855
li 3855
Intellectual 3854
sampling 3853
wildlife 3851
Can 3850
eager 3849
Love 3849
Organizational 3847
os@@ 3847
CA 3847
LDC 3846
aggravated 3846
Kinshasa 3846
bitter 3846
Tai 3845
memories 3845
insured 3841
clearer 3841
tier 3841
uc@@ 3840
Substances 3840
209 3839
builds 3839
Narcotics 3838
GC 3837
contributor 3836
Tu@@ 3836
manuals 3836
ce 3835
embarked 3835
Barbuda 3834
defendants 3834
presumption 3834
unfortunate 3834
Overseas 3833
crystal 3833
occasionally 3832
194 3831
ideals 3830
steam 3830
interact 3830
CP 3829
explaining 3829
vigorous 3828
243 3828
incoming 3827
tear 3826
encompass 3826
underline 3825
2.30 3824
deadly 3824
grand 3824
disorders 3824
hub 3823
si 3823
dare 3823
Delhi 3823
poorly 3822
irreversible 3821
ari 3821
Recommendation 3820
35@@ 3818
Brunei 3818
extraterritorial 3818
WMO 3818
billions 3817
ey 3816
burst 3815
Maintenance 3815
disk 3815
historically 3813
simultaneous 3813
ges 3812
gl@@ 3812
waited 3811
journalist 3810
del@@ 3808
subsidy 3808
reproduction 3807
litem 3806
red@@ 3805
uncle 3805
interdependent 3804
occupy 3804
176 3803
diplomats 3803
7.5 3802
LRA 3802
opposing 3802
ously 3801
multidimensional 3800
enriched 3799
disturbing 3798
qualify 3798
automation 3798
13,@@ 3797
midterm 3796
ase 3796
approving 3794
Austrian 3794
Moroccan 3794
lecture 3793
disciplines 3791
alizing 3791
GIS 3790
forecasts 3789
audiences 3789
Contact 3789
carriers 3788
IR@@ 3788
perceptions 3788
checkpoints 3787
222 3785
Sim@@ 3785
credited 3783
ICCD 3782
Understanding 3782
hotels 3781
clinic 3781
liberal 3780
Economics 3779
francs 3779
flame 3778
abused 3777
neglected 3777
chemistry 3777
cornerstone 3777
vel@@ 3774
ineffective 3773
Crisis 3773
trips 3772
Are 3771
bulletin 3770
Partnerships 3770
mor@@ 3769
Polish 3769
Rec@@ 3768
ites 3765
praised 3765
2.8 3764
ill@@ 3764
Appointment 3763
imminent 3763
complained 3762
Equipment 3762
Sar@@ 3762
devise 3761
Armenian 3761
utilities 3760
207 3760
hunting 3759
203 3758
tide 3757
criminalization 3756
incremental 3755
gang 3755
portable 3754
metric 3752
drinks 3752
estimation 3751
quoted 3750
transported 3749
confinement 3749
meteorological 3748
criticized 3748
SAR 3748
deserved 3747
Please 3746
verifiable 3744
arena 3744
188 3744
inflows 3743
Best 3742
vigorously 3741
Bar 3741
Elizabeth 3740
imagination 3738
payroll 3738
ical 3738
tasked 3738
altered 3737
Well 3734
200,000 3734
beneath 3734
milestone 3734
ICCPR 3732
Learning 3731
Chi@@ 3730
Accra 3729
Ben 3728
ped 3728
Oil 3728
statutes 3727
Inquiry 3726
facilitator 3726
span 3725
XIV 3725
extract 3725
commits 3725
wholly 3724
ward 3723
amp 3722
1,8@@ 3722
Che@@ 3722
bars 3721
constituting 3720
aya 3719
Fundamental 3719
chip 3718
precarious 3718
practically 3718
SH@@ 3718
precedent 3717
OAS 3715
OR@@ 3714
forecasting 3713
Kofi 3713
wives 3712
lung 3712
Abuse 3712
Johnson 3712
constituent 3712
ber 3710
Carrie 3708
ICEF 3707
Father 3707
threatens 3706
probability 3704
initiating 3704
mer 3703
outsourcing 3703
221 3702
immense 3701
Val@@ 3700
Joe 3698
bri@@ 3698
disproportionately 3695
Watch 3695
optimum 3694
cocaine 3694
premature 3694
turnover 3694
hung 3693
barely 3693
d.@@ 3693
classical 3692
wanna 3691
frames 3690
Areas 3690
war@@ 3690
mice 3688
Mike 3687
withdrew 3686
quo 3686
summarizes 3685
198@@ 3685
peacefully 3685
recommending 3684
eighty 3684
questionnaires 3684
chocolate 3683
Ak@@ 3683
immigrant 3682
mentally 3681
1970s 3681
Tri@@ 3680
hydraulic 3679
1948 3679
DPRK 3678
destiny 3678
adequacy 3677
Trusteeship 3677
oppose 3677
N. 3676
Dynasty 3676
diversified 3676
cant 3675
versus 3675
ads 3675
congresses 3674
Arts 3674
Mrs 3673
oma 3672
exhaustion 3672
bankruptcy 3672
hanging 3671
impediments 3671
wastewater 3671
asleep 3670
Shi@@ 3668
intra 3667
.com 3665
flew 3665
silk 3665
delegated 3663
streamlined 3663
Disabled 3663
heroin 3661
calculations 3660
convert 3660
15,@@ 3660
exert 3660
228 3660
ica 3659
Abkhazia 3659
refuge 3656
Why 3656
timeliness 3655
Judiciary 3655
hand@@ 3654
forcing 3653
5.4 3652
induction 3651
hurry 3650
199 3647
whatsoever 3647
cancel 3647
241 3647
albeit 3647
talents 3646
ion 3646
undertakes 3644
Sichuan 3644
abundant 3641
basket 3640
sch@@ 3640
permitting 3640
toxicity 3639
nurse 3637
connecting 3636
striving 3636
II.@@ 3635
fullest 3635
relying 3634
optimistic 3634
circles 3634
ran@@ 3633
attributes 3632
slum 3632
craft 3632
apartheid 3631
classic 3631
dozens 3630
Dar@@ 3628
barrel 3627
factions 3626
3.6 3626
oo@@ 3626
tennis 3624
des@@ 3623
fires 3622
patience 3621
Crescent 3619
Mohammed 3619
14.@@ 3618
conveyed 3618
237 3618
SP@@ 3618
Ottawa 3618
invoke 3617
14,@@ 3617
ac 3616
kick 3616
impeding 3616
postal 3615
trusted 3615
reservoir 3615
amazing 3614
hospitality 3614
Hu 3614
motions 3614
Israelis 3612
Mil@@ 3612
CEO 3612
ip@@ 3612
totalled 3612
kidnapping 3610
overcrowding 3610
collaborating 3609
guilt 3608
infants 3608
alliances 3608
69@@ 3608
prevalent 3607
festival 3606
violates 3606
drag 3604
Sub@@ 3603
Growth 3602
counts 3602
pesticides 3602
Daily 3601
implied 3600
Item 3600
formats 3600
Colombian 3600
IL@@ 3599
defending 3598
shaping 3598
Documentation 3598
Autonomous 3597
originating 3597
upset 3597
velocity 3596
cooling 3596
planted 3596
Atlas 3595
193 3595
sun@@ 3595
bribery 3594
damaging 3594
dental 3593
worn 3593
reminder 3592
Arabs 3591
exhaust 3591
tracks 3590
Malvinas 3590
dy@@ 3590
biotechnology 3590
allies 3589
download 3589
Phase 3589
ji@@ 3589
Grenada 3589
q 3589
stamps 3588
breeding 3587
temple 3587
Pa@@ 3586
homework 3585
dawn 3585
2.45 3584
cabinet 3584
Certificate 3583
lamp 3582
academics 3581
ret@@ 3580
mounted 3580
surgical 3577
rightly 3577
macro 3577
2,500 3577
glasses 3576
critics 3576
204 3575
1966 3575
groupings 3574
Satellite 3574
enters 3573
valley 3573
colleague 3572
warfare 3572
lonely 3571
wealthy 3567
seldom 3567
downward 3567
angel 3566
ving 3566
Euro 3565
hereby 3565
apparatus 3565
compelled 3564
surveyed 3564
disruption 3563
ned 3563
analyzes 3563
179 3562
inflicted 3562
narcotics 3562
bore 3561
positioning 3561
indictment 3560
pos@@ 3560
ile 3560
pack 3559
imprisoned 3559
OL 3558
coercion 3558
worrying 3557
groundwater 3557
harmonizing 3557
museum 3556
relies 3553
pop 3550
destroying 3549
genes 3549
specifies 3548
comparing 3548
stance 3547
IV@@ 3547
che@@ 3546
ESA 3545
queries 3545
WIPO 3544
ched 3544
fo@@ 3544
physics 3544
compounded 3543
EA 3543
ely 3542
affirm 3541
mathematics 3541
wed 3539
Supplementary 3539
bet 3536
Opening 3535
tips 3535
somehow 3534
Ag@@ 3533
brush 3531
Entity 3530
ans@@ 3530
Bosnian 3530
react 3530
swing 3529
trucks 3528
hedge 3528
sisters 3527
Ka@@ 3527
adapting 3527
fortieth 3527
problematic 3525
annotations 3525
Continue 3524
aquifer 3524
205 3522
post@@ 3522
affair 3522
deter 3522
void 3521
Timorese 3521
folk 3520
AS@@ 3520
ths 3519
266 3519
disposed 3519
unresolved 3518
constraint 3518
codification 3517
abortions 3516
Ger@@ 3516
you@@ 3516
AD@@ 3516
lesser 3515
Thai 3515
precursors 3515
dissolution 3515
215 3514
ement 3513
Mac@@ 3513
ial 3512
PS 3511
im 3511
18.@@ 3511
NE@@ 3511
regrettably 3511
Providing 3510
UNITED 3510
hero 3510
cheaper 3508
Commissions 3507
sion 3507
BC 3507
4.6 3507
hectares 3506
emotions 3506
Palau 3506
lifestyle 3505
€ 3505
whereabouts 3505
reversed 3505
drilling 3504
reconsider 3503
Labor 3502
advocating 3502
sickness 3501
handbook 3500
Abidjan 3500
compelling 3499
13.@@ 3499
chairpersons 3498
restricting 3497
walks 3495
communal 3494
mile 3494
glory 3494
treasure 3493
charity 3493
269 3493
blocked 3492
triggered 3492
Maria 3492
W. 3490
ca 3490
Em@@ 3490
Sahel 3489
supplementing 3489
216 3485
hum@@ 3485
CT 3485
Tehran 3484
Pal@@ 3484
exhaustive 3484
brave 3484
anymore 3483
Lands 3483
uncertainties 3482
don@@ 3482
casting 3482
elaborating 3481
childbirth 3481
alize 3480
invaluable 3480
intervals 3480
15.@@ 3480
s. 3479
217 3477
heightened 3476
declares 3476
shifts 3476
Dag 3475
Malaria 3474
molecular 3474
implements 3474
developers 3473
counting 3473
S.@@ 3473
At@@ 3472
iness 3472
.... 3471
enquiries 3470
trauma 3466
rigid 3465
expeditious 3464
195 3463
freshwater 3463
Grenadines 3463
adjusting 3463
upholding 3461
vo@@ 3461
demarcation 3460
mathematical 3460
expiry 3460
fragmentation 3458
reminds 3458
scheduling 3458
1,5@@ 3458
Far@@ 3457
shake 3457
graduated 3456
hol@@ 3456
Naqurah 3455
Ju@@ 3455
bones 3455
romantic 3454
Socialist 3453
Ram@@ 3453
Our 3452
vicinity 3451
flu 3451
col@@ 3450
Wu 3449
tunnel 3449
Departments 3448
psychosocial 3448
Dakar 3447
Je@@ 3447
promotional 3446
pretext 3446
Sol@@ 3446
kit 3446
hybrid 3445
tan@@ 3445
Memorandum 3444
253 3444
economical 3443
eco 3442
Ban@@ 3442
Sao 3442
thirtieth 3440
Bermuda 3440
evidenced 3439
manifest 3439
Chernobyl 3438
grace 3438
homeless 3438
Consideration 3438
These 3437
triennial 3437
Ukrainian 3437
bike 3437
Andorra 3437
coral 3436
suppress 3436
hydrogen 3435
margins 3433
reinforcement 3430
Cluster 3430
val@@ 3430
agro 3428
kits 3428
horses 3427
eurozone 3426
ranges 3426
Adaptation 3425
climb 3424
rival 3424
L.2 3424
bal@@ 3424
accompany 3424
slip 3423
Gra@@ 3423
aries 3422
reconsideration 3422
tactics 3422
CB 3422
neutrality 3421
Directive 3421
gray 3421
19th 3420
AC.105 3419
Pact 3418
morbidity 3418
DA@@ 3416
rockets 3416
down@@ 3415
template 3413
optimism 3412
E.@@ 3412
CCPR 3411
menu 3410
juice 3410
Pre 3409
pray 3409
thrown 3408
privilege 3408
effected 3407
Ibid 3407
quit 3407
resignation 3406
CTC 3405
openly 3404
neuro@@ 3404
ab 3403
Jews 3403
46@@ 3403
Transit 3402
Lusaka 3401
gay 3401
scores 3401
rat 3401
bles 3400
fence 3400
vegetable 3400
counted 3399
improves 3398
magazines 3395
TC 3395
1968 3395
holes 3395
judged 3395
engines 3394
197 3393
Seabed 3393
Cam@@ 3393
ists 3393
seismic 3392
53@@ 3392
Moses 3391
ate@@ 3391
invitations 3391
Fe@@ 3391
Intolerance 3389
ER 3389
routinely 3389
occupations 3388
finalizing 3388
atrocities 3388
Cypriots 3387
Spring 3387
flesh 3387
16.@@ 3387
deems 3387
sen 3386
Cities 3386
definitive 3384
strip 3384
wore 3384
Truth 3383
constituencies 3383
Classification 3382
escaped 3381
dating 3381
1,9@@ 3381
pers 3381
Course 3380
psychiatric 3380
wooden 3379
reparations 3378
quarantine 3377
illustrates 3377
prediction 3376
Travel 3373
ladies 3373
pregnancies 3373
packed 3373
appropriated 3373
psychology 3372
economist 3372
stigma 3371
unexploded 3369
ung 3369
Los 3369
attainable 3369
layout 3368
Ki@@ 3367
ideology 3365
backgrounds 3365
ODS 3364
conceived 3362
7.1 3362
fines 3362
commemoration 3362
catalytic 3361
stabilize 3360
Heritage 3360
denying 3359
Exploitation 3359
Guangdong 3358
Strengthen 3357
winner 3357
nerve 3356
reasoning 3355
allocating 3355
peninsula 3354
Fifty 3353
disappointment 3353
gentle 3353
unanimous 3351
agreeing 3351
Tonga 3349
ty@@ 3348
sen@@ 3347
forgive 3347
Products 3346
io 3346
brilliant 3346
.3 3343
villagers 3341
Darussalam 3339
Physical 3339
Units 3339
ster@@ 3338
80@@ 3337
forgot 3336
ales 3336
automated 3336
tes 3336
peasants 3335
lasted 3335
favorable 3335
water@@ 3334
67@@ 3333
vector 3332
corrigendum 3332
administrators 3331
flooding 3330
alist 3329
Quartet 3329
aw@@ 3329
label 3328
advertisement 3328
ham@@ 3327
feared 3327
Yang 3326
nominal 3325
symbols 3325
Sheikh 3325
loaded 3325
petrol 3325
proximity 3325
bureaux 3323
jury 3323
affirming 3323
interrogation 3321
midst 3321
grasp 3320
graphic 3319
depositary 3319
15,000 3319
Laundering 3317
stemming 3317
troubled 3316
dies 3316
Medicine 3316
Ap@@ 3315
Oslo 3314
stimulating 3314
Documents 3314
Barack 3313
Pu@@ 3312
interpretations 3312
quadrennial 3312
influential 3312
sanction 3311
Funds 3309
repercussions 3309
finite 3308
Yu@@ 3307
ingredients 3305
Pol@@ 3305
Exercise 3304
disregard 3304
contravention 3303
ski 3302
HIPC 3301
influenza 3301
Old 3301
í@@ 3300
revolutionary 3300
Ming 3299
Marino 3298
Shenzhen 3298
ISO 3298
Ni@@ 3295
spell 3295
fracture 3295
enclosed 3295
Buenos 3295
soup 3295
obsolete 3294
unrest 3293
hiding 3293
223 3293
poorer 3292
Karabakh 3292
15th 3291
guardian 3291
sta@@ 3290
surrounded 3290
corrective 3290
19.@@ 3289
severity 3289
ICTR 3289
tap 3289
mud 3288
1000 3288
pan 3288
mortar 3287
Francisco 3287
1,6@@ 3286
Hammarskjöld 3285
Min@@ 3285
ISU 3284
Mark 3284
AL 3284
ess@@ 3283
e. 3283
constructively 3283
5. 3282
rated 3281
evolve 3279
ous@@ 3279
bombing 3278
reader 3278
od@@ 3277
264 3277
clarifying 3277
performances 3277
influencing 3276
com 3275
Command 3271
swift 3271
trap 3270
11th 3269
255 3268
Aires 3267
Pan 3267
honoured 3267
societal 3266
combustion 3266
juveniles 3264
Columbia 3263
entries 3263
downturn 3263
Apple 3263
Knowledge 3262
injustice 3261
gently 3261
brutal 3261
decreases 3260
276 3259
my@@ 3259
swim 3259
sanitary 3258
capitals 3258
56@@ 3257
deceased 3256
congress 3254
practicable 3253
por@@ 3253
symposium 3252
Han 3251
settling 3251
Bor@@ 3250
Gazette 3250
Wil@@ 3250
parks 3250
Now 3249
correspond 3249
yields 3246
conception 3245
reconcile 3245
supplements 3245
layers 3244
specification 3244
arisen 3243
CP@@ 3243
Projects 3240
contraceptive 3240
Some 3240
extradite 3240
despair 3238
flash 3238
culturally 3235
recreational 3235
Art 3233
Ke@@ 3233
Tenth 3233
Regular 3232
disparity 3232
ino 3232
1.9 3232
contends 3232
infringement 3231
blast 3231
directory 3230
Policies 3230
4. 3230
lan@@ 3230
SIDS 3229
shame 3229
Putin 3227
Multi 3226
broadening 3226
bro@@ 3226
Commitment 3226
sia 3226
coup 3226
PDF 3226
bs 3225
MINURCAT 3225
conditioning 3225
solemn 3225
undergone 3223
Srpska 3222
198 3221
marginal 3221
zi 3220
CE 3220
Santiago 3219
Tar@@ 3219
posting 3216
complying 3215
servers 3214
1,3@@ 3213
SS@@ 3213
Infrastructure 3212
ki@@ 3212
pronounced 3212
treatments 3211
predominantly 3211
AG@@ 3211
ballistic 3209
gro@@ 3208
objectivity 3208
celebrated 3207
welding 3207
subparagraphs 3207
presiding 3206
fool 3205
wells 3205
Municipal 3204
associates 3204
pivotal 3204
She@@ 3204
2,0@@ 3203
governor 3203
whoever 3202
AC.@@ 3201
Technological 3201
ICTs 3201
fundamentally 3200
Delegation 3200
consumed 3200
speculation 3199
ell 3199
1267 3198
avail 3198
endanger 3197
adaptive 3196
offs 3196
236 3196
beds 3195
beating 3195
OP@@ 3195
vitamin 3195
tal@@ 3194
vague 3194
tooth 3194
Nordic 3192
revising 3191
discourage 3191
warmly 3191
Continental 3191
spacecraft 3191
articulated 3190
UNIDIR 3190
floating 3190
altitude 3185
Da@@ 3185
ws 3185
Boards 3185
ninety 3184
teenage 3183
pr@@ 3183
stretch 3183
Early 3183
accusations 3182
intake 3181
Fish 3181
gen 3180
bubble 3180
450 3180
declaring 3179
Provision 3179
clerk 3178
ut@@ 3176
inspiration 3176
sacred 3175
appointing 3175
pale 3174
consequent 3174
exhibit 3173
recurrence 3173
Janeiro 3172
hyper@@ 3172
pile 3171
Ki 3171
questioning 3170
exchanging 3170
fatigue 3170
sorrow 3169
1,200 3169
our@@ 3169
4.8 3169
eleven 3168
winds 3168
thread 3168
mayor 3167
girlfriend 3167
breathing 3167
7.3 3166
17,@@ 3166
TH@@ 3165
painted 3164
diesel 3163
scientist 3163
Scotland 3162
weakened 3160
dire 3159
Faculty 3159
Harvard 3159
school@@ 3159
etc. 3158
ignorance 3158
encumbered 3158
Colonel 3158
pres@@ 3158
microcredit 3157
sentencing 3156
husbands 3156
Ji@@ 3155
masses 3154
fellowship 3154
Cap 3152
negotiable 3152
TE@@ 3152
directive 3151
CD@@ 3151
planting 3151
expecting 3151
sponsorship 3150
7.2 3150
crying 3150
encompasses 3149
265 3148
boarding 3148
4.7 3147
unreasonable 3147
232 3146
attribute 3145
FA 3145
12th 3143
competitors 3143
abundance 3142
tripartite 3142
SubCommission 3142
mounting 3142
odd 3141
frustration 3141
lin@@ 3140
rap@@ 3140
Ay@@ 3140
Republika 3140
DO@@ 3139
expired 3139
traded 3139
16,@@ 3138
off@@ 3137
Han@@ 3137
Medium 3137
communicating 3136
Hongkong 3136
pet 3135
magistrates 3135
Er@@ 3135
emotion 3134
editing 3134
underscore 3133
Advice 3133
196 3132
mid@@ 3132
IG@@ 3132
ational 3131
quietly 3131
opponents 3130
stringent 3130
simplify 3129
rendering 3129
Laws 3129
fuzzy 3128
avoidance 3128
trademark 3127
hosts 3127
ventures 3127
youre 3127
graph 3126
prioritized 3126
Nauru 3125
precautionary 3124
Associations 3124
behold 3123
NO@@ 3123
kingdom 3123
inspect 3123
Lehman 3121
Credit 3120
departed 3119
3.7 3119
Commodities 3119
AM@@ 3117
exempt 3116
persuade 3116
cy@@ 3116
traveling 3116
annum 3115
matched 3115
Which 3115
Irish 3115
populated 3115
responds 3113
proves 3113
Nor@@ 3113
flowing 3112
sel@@ 3112
UNMOVIC 3111
empirical 3111
forcibly 3110
pursuance 3110
grey 3110
confirming 3110
shoulders 3109
247 3109
kes 3108
ita 3108
attachment 3107
vaccines 3106
Set 3106
cigarette 3106
plot 3105
ambition 3105
forbidden 3105
Sam 3105
dictionary 3105
ranked 3104
assumes 3104
Cs 3104
Ombudsperson 3103
Damascus 3103
bride 3103
locate 3103
imaging 3102
distinctive 3102
pesticide 3101
land@@ 3101
231 3101
Mat@@ 3100
definite 3100
jeopardize 3100
attorney 3099
INTERPOL 3099
brackets 3098
238 3097
turmoil 3096
prudent 3096
unsafe 3095
redouble 3095
ards 3094
outgoing 3093
arbitrarily 3093
Guard 3090
dispatch 3090
yan 3090
246 3089
concise 3088
244 3088
ising 3086
refoulement 3085
plates 3084
forge 3084
17th 3084
Frente 3084
687 3084
Mas@@ 3082
slower 3082
homeland 3082
logging 3081
evictions 3081
ily 3081
Book 3080
Assistants 3080
licensed 3079
Cu@@ 3079
ratione 3078
derive 3078
automobile 3077
foreseeable 3075
discrepancies 3073
Commissioners 3073
Nobel 3072
17.@@ 3072
biology 3071
Nos. 3071
invoices 3071
stricken 3071
acclamation 3071
UNSOA 3071
defamation 3071
microwave 3068
20.@@ 3068
unforeseen 3067
expire 3067
inherited 3066
Reintegration 3066
appearing 3066
donation 3065
crowded 3065
frontier 3065
preclude 3064
promulgation 3064
ware 3063
Methods 3063
224 3062
drunk 3061
conscientious 3061
discourse 3061
Prize 3061
CON@@ 3060
preferable 3060
tumor 3060
concession 3060
AN 3060
5.6 3060
fortunately 3059
Reconstruction 3058
critically 3058
orange 3058
Her 3058
refusing 3058
counter@@ 3056
Nicosia 3056
precondition 3056
speeches 3055
1958 3054
Tang 3053
bled 3053
warplanes 3052
fits 3052
endangered 3052
19,@@ 3051
stockpile 3049
hamper 3049
repression 3049
DS 3048
keywords 3047
robot 3046
bail 3046
ls 3046
neighbors 3046
letting 3045
shoe 3045
2.9 3044
rationalization 3044
buses 3044
upgraded 3044
Disappearance 3044
royal 3043
overhead 3043
Includes 3043
Cartagena 3043
widest 3042
ura 3042
ably 3041
Poor 3041
prosecuting 3041
HO@@ 3040
lowering 3039
paths 3039
preferably 3038
differing 3038
underscores 3038
preceded 3036
sho@@ 3035
lethal 3035
Securities 3035
1950 3035
． 3034
collaborated 3033
multimedia 3032
supreme 3032
repetition 3031
generator 3030
hal@@ 3030
hadn 3029
contradiction 3029
18th 3028
rapporteur 3028
cautious 3028
II@@ 3028
examines 3027
tense 3027
discriminated 3027
Azerbaijani 3026
Challenges 3026
psychotropic 3026
Facilitation 3026
Sport 3026
manages 3025
simplification 3025
Jan 3024
Associate 3024
condemning 3023
petitioner 3023
EL@@ 3023
9,000 3022
drain 3022
anxious 3022
alleges 3021
dismantling 3020
principally 3020
Br@@ 3020
prince 3019
18,@@ 3018
priest 3017
234 3016
tro@@ 3016
educators 3015
berg 3015
explosions 3014
contested 3014
chambers 3014
scattered 3014
clarifications 3014
Susan 3014
ny 3013
Santa 3013
POPS 3013
cognitive 3011
MOP 3009
44@@ 3009
Transparency 3009
na@@ 3008
impressed 3007
ACABQ 3007
258 3007
knee 3007
coating 3007
sealed 3006
custodial 3006
Those 3005
jo@@ 3005
brands 3005
Micronesia 3005
detecting 3004
drama 3004
ek 3003
IPU 3003
Revolution 3002
musical 3002
coefficient 3002
ath 3001
Fair 3001
nonproliferation 3000
X. 3000
neighbourhood 3000
Pakistani 2999
battalion 2999
inspected 2999
balancing 2999
DVD 2999
Enterprises 2998
Fight 2997
shifted 2997
persisted 2996
199@@ 2996
congratulated 2996
airline 2996
suits 2995
respiratory 2994
constructing 2994
condolences 2993
disputed 2993
hierarchy 2993
1964 2993
polling 2993
lump 2992
hills 2992
IO@@ 2992
Turks 2992
criminalize 2992
str@@ 2991
incorporates 2991
compensable 2991
varieties 2991
furthering 2990
cra@@ 2988
asserts 2988
Seoul 2988
descriptions 2987
herein 2987
Can@@ 2987
entrepreneurial 2986
bow 2985
ali 2985
43@@ 2984
hindered 2983
armoured 2983
diversify 2981
subordinate 2981
reprisals 2981
6.4 2981
rear 2981
rhetoric 2981
bite 2981
Establish 2980
Mount 2979
scarcity 2979
ko@@ 2978
Circular 2977
prayer 2976
Ash@@ 2976
Weapon 2976
affection 2976
recreation 2975
morality 2974
Extension 2974
electronics 2973
Institutional 2973
Carlos 2973
acquisitions 2972
bell 2971
NAP 2971
oldest 2971
fishery 2971
DPKO 2971
outlining 2970
contacted 2970
unstable 2970
landed 2969
litres 2969
earning 2969
pressed 2967
solitary 2967
Fu@@ 2967
Volunteer 2967
HR@@ 2967
transforming 2966
drops 2965
reside 2965
laughter 2965
alisation 2964
sil@@ 2964
Notes 2964
administrator 2964
ISAF 2963
jail 2963
hom@@ 2963
Sanctions 2963
devised 2963
Dec.@@ 2962
relieve 2962
poll 2962
stranger 2962
supplying 2962
colonialism 2961
reformed 2960
sizes 2960
vein 2959
professions 2959
stra@@ 2958
CN.15 2958
Observation 2957
ao 2957
churches 2957
rainfall 2956
BO@@ 2956
editorial 2955
win@@ 2955
equ@@ 2954
bargaining 2954
fu@@ 2954
facilitators 2954
dishes 2953
Premier 2953
Cambodian 2953
pity 2953
subjective 2953
extensions 2952
accommodated 2950
confused 2950
Camp 2950
eli@@ 2949
seasonal 2948
noteworthy 2948
careers 2948
impaired 2947
ow@@ 2946
poultry 2946
GO@@ 2945
CN.7 2945
Stanley 2945
equilibrium 2944
338 2943
Afro 2943
whilst 2942
eaten 2942
activated 2942
encompassing 2942
advising 2942
mill 2942
TA 2940
indebted 2939
distributing 2939
pri@@ 2938
wounds 2938
om 2938
worsening 2937
paradigm 2937
retreat 2937
Mandate 2937
recognised 2936
aquatic 2935
minimizing 2935
impeded 2934
Identification 2932
13th 2930
FS 2930
desperate 2929
trains 2928
sorts 2928
expires 2928
insight 2926
diminished 2926
Six 2926
repeal 2925
300,000 2925
ow 2925
eminent 2925
convince 2925
storms 2924
ICPD 2924
tar@@ 2924
Hill 2924
Consultation 2923
275 2922
mate 2922
tw@@ 2922
KFOR 2922
discharged 2922
projection 2921
didnt 2921
migratory 2920
hel@@ 2920
bath 2919
bn 2919
sporting 2919
pe 2919
Rapporteurs 2919
219 2918
deliveries 2917
forefront 2917
alloy 2917
defensive 2917
Cal@@ 2917
Symposium 2916
Four 2915
enlargement 2915
TR@@ 2913
posters 2913
Khan 2913
featured 2913
princess 2913
professionalism 2912
eg 2912
textile 2912
enhances 2912
Census 2912
Pl@@ 2910
irregularities 2910
cap@@ 2909
conflicting 2909
Anguilla 2908
vaccination 2908
any@@ 2908
searches 2907
Os 2906
Television 2906
endless 2906
backing 2906
interrupted 2906
twin 2905
founder 2904
shots 2903
thats 2902
16th 2902
ash@@ 2902
programmed 2902
sti@@ 2902
masters 2902
warnings 2901
electronically 2900
analyst 2900
escorted 2900
ugly 2899
Bra@@ 2899
Claims 2899
conferred 2899
Governors 2899
Abuja 2898
Antarctic 2898
medication 2897
origins 2897
removals 2897
deeds 2896
Tor@@ 2896
deteriorated 2896
trades 2896
283 2895
254 2895
warranted 2895
Confederation 2894
registers 2894
query 2893
Guangzhou 2893
acceleration 2893
dic@@ 2892
broadband 2891
precedence 2889
fierce 2889
throat 2888
assertion 2888
Computer 2887
0,000 2887
bankers 2886
sums 2885
slope 2885
yl@@ 2884
Cayman 2884
án 2884
replenishment 2883
regionally 2883
champion 2882
3.8 2881
breastfeeding 2881
underrepresented 2880
acknowledgement 2880
Awards 2880
int 2879
PRO@@ 2879
classifications 2879
steal 2878
precursor 2877
ances 2877
Improving 2877
RS 2876
jacket 2876
sul@@ 2876
delimitation 2876
woods 2875
plasma 2875
voiced 2875
improper 2875
gotta 2874
joke 2873
destined 2873
impediment 2872
receipts 2872
Texas 2872
radi@@ 2871
55@@ 2871
vic@@ 2871
sexuality 2870
fastest 2870
14th 2870
Palais 2870
landmark 2869
supervised 2869
245 2869
dropping 2869
mercy 2869
Kyrgyz 2868
prescription 2868
garbage 2868
brokering 2867
Gi@@ 2867
Technologies 2866
Drafting 2865
footnote 2864
sto@@ 2864
Goma 2864
Will 2864
grantor 2863
Tome 2862
Mountain 2862
collateral 2862
bedroom 2862
weren 2862
toilet 2862
289 2861
designer 2861
GE 2860
dispatched 2859
chaos 2859
multifaceted 2859
singer 2858
undermines 2858
dam 2858
particle 2858
Corp. 2857
gy 2857
ai@@ 2857
Palace 2856
Strategies 2856
Ahmad 2856
costing 2856
seabed 2856
Helena 2855
ved 2855
ut 2855
rope 2855
rejects 2855
superiority 2854
arid 2854
US@@ 2853
smoothly 2853
outlets 2852
Contractor 2852
365 2852
shipped 2852
pound 2852
controller 2851
possessed 2851
peacemaking 2851
gentleman 2850
T. 2849
reactor 2849
slowed 2849
bil@@ 2848
shan 2848
gravely 2848
nights 2846
duplicate 2846
assemblies 2845
POPs 2844
coping 2844
Hassan 2843
ically 2843
fore@@ 2842
knock 2841
SPT 2841
photograph 2840
ker@@ 2840
Slovak 2839
kin@@ 2839
sw@@ 2838
passports 2838
Instrument 2838
dispose 2838
easing 2838
EP 2838
drainage 2837
unhappy 2837
Coast 2836
Telecommunication 2835
vegetation 2835
geography 2834
MP 2834
SU@@ 2834
www.un@@ 2834
Settlement 2833
DPI 2833
XX 2832
TNCs 2832
Xenophobia 2831
breakthrough 2831
nearest 2830
entirety 2830
ger@@ 2830
Material 2830
inscribed 2829
respondent 2829
Tin 2829
subregions 2828
FO@@ 2828
displays 2827
membrane 2827
regulates 2827
Waste 2827
Belgian 2826
materiel 2826
beef 2826
Bon@@ 2826
ola 2825
Mobile 2824
vicious 2823
lit@@ 2823
BWC 2822
electro@@ 2822
sters 2821
Term 2821
goodwill 2821
catalogue 2821
discontinued 2821
poetry 2820
ell@@ 2820
AB@@ 2820
cal@@ 2819
1965 2819
Montserrat 2818
ure 2817
rows 2817
enduring 2817
advisable 2817
Mad@@ 2816
verbal 2815
20,@@ 2815
sends 2815
subnational 2815
SME 2815
May@@ 2815
modality 2814
piano 2814
Wales 2814
ira 2813
reg@@ 2813
AD 2813
MD@@ 2812
authorizes 2812
т@@ 2811
democracies 2810
Taylor 2810
yen 2810
1945 2810
LEG 2810
Meteorological 2809
resin 2809
pm 2809
unilaterally 2809
ME 2808
commending 2808
yielded 2807
Principe 2806
Cases 2806
sentiment 2804
Disengagement 2804
streams 2804
Chung 2803
Athens 2802
1701 2802
Materials 2802
ori@@ 2801
rac@@ 2801
ae 2801
2030 2801
8.5 2801
overlapping 2801
poppy 2801
mild 2801
styles 2801
mercenary 2800
FDLR 2799
spirits 2799
LA 2798
antiretroviral 2798
Net 2798
25,000 2797
Pierre 2797
SD 2796
char@@ 2796
Andean 2795
weaker 2795
proportional 2794
mess 2793
pat@@ 2793
abandonment 2792
Card 2791
Religious 2791
loop 2790
avenues 2790
Bou@@ 2789
66@@ 2789
merchandise 2789
Freedoms 2789
withdrawing 2789
Angeles 2788
64@@ 2788
pig 2788
Fellowship 2787
controversy 2786
252 2786
modeling 2786
backward 2786
bon@@ 2786
futures 2785
201@@ 2785
commendable 2785
maximizing 2784
fraudulent 2784
universalization 2784
midnight 2784
bowl 2784
° 2783
biomass 2783
tim@@ 2783
je@@ 2782
assistants 2782
sol@@ 2782
Geographical 2780
preconditions 2780
Wen 2778
shook 2778
blessed 2778
proving 2777
nitrogen 2776
slowing 2775
refine 2775
staffed 2774
unequivocal 2774
by@@ 2772
popularity 2772
sem@@ 2772
opt 2771
clever 2770
stepping 2770
premise 2769
Moon 2769
Eight 2769
ICTY 2768
Algerian 2766
stopping 2766
china 2765
Cap@@ 2765
Florida 2765
warrants 2765
ore@@ 2764
efficiencies 2764
citing 2764
riding 2763
Nu@@ 2763
Po 2762
recurring 2762
RA 2762
COM@@ 2762
bicycle 2762
disagreement 2762
smiled 2761
CRP.1 2761
cur@@ 2761
charitable 2760
performs 2760
Windows 2760
punitive 2759
blank 2759
Drought 2759
ville 2759
280 2758
ture 2758
Marriage 2757
PIC 2757
paramilitary 2757
arguing 2757
cul@@ 2757
Char@@ 2757
originated 2757
259 2756
desktop 2756
genuinely 2756
IR 2756
reporter 2755
288 2754
Diplomatic 2753
deploying 2753
ere 2752
DA 2752
Century 2752
Yearbook 2752
ton@@ 2751
institutionalized 2751
acy 2751
Evidence 2750
aesthetic 2750
horizon 2749
bul@@ 2748
famine 2747
Paragraph 2747
Responsibility 2747
Mag@@ 2747
modelling 2746
charts 2746
Sen@@ 2745
waiver 2745
Nation 2745
249 2745
counterpart 2744
elite 2744
Method 2743
authoritative 2743
explanatory 2743
4.9 2742
The@@ 2742
Handbook 2741
videos 2741
Fi@@ 2741
flee 2741
Az@@ 2741
belonged 2741
Bob 2740
medal 2740
handsome 2740
intentional 2740
296 2740
ass@@ 2739
furnished 2739
SE 2738
troop- 2738
Sarajevo 2738
cheese 2738
hostility 2737
8.3 2737
Provincial 2736
trans 2735
pole 2735
1514 2735
assembled 2735
lab 2734
slide 2733
profitable 2732
fitting 2731
postpone 2731
Baltic 2730
Mutual 2730
Steve 2729
ear@@ 2729
Hal@@ 2729
inland 2729
Plant 2729
lit 2728
Louis 2727
hor@@ 2727
happily 2727
manpower 2726
forging 2726
notices 2726
Hussein 2726
ECOSOC 2726
discretionary 2726
DEVELOPMENT 2726
ón 2725
bare 2725
overnight 2723
Enhancing 2723
depletion 2722
positioned 2721
Majesty 2720
257 2720
Consolidated 2720
logistic 2720
impasse 2719
Muhammad 2719
risky 2719
drives 2719
MC 2718
XVI 2718
Tunis 2718
Such 2718
ises 2718
plug 2718
powered 2718
CRP.@@ 2717
trick 2716
disappear 2716
shower 2714
ratifications 2714
hai 2713
ei@@ 2712
Supervision 2712
DAC 2712
.It 2712
ft 2711
Ensuring 2711
sodium 2711
bilingual 2709
protections 2708
clay 2707
asi 2707
Goldman 2707
anthropogenic 2706
matches 2706
Decisions 2706
casual 2706
commemorate 2705
360 2704
disbursements 2704
nowhere 2704
ently 2703
bridging 2703
Add.4 2702
presumed 2702
Algiers 2702
tering 2700
contempt 2700
Del@@ 2700
day@@ 2699
retaliation 2699
moisture 2699
swiftly 2699
dra@@ 2698
toys 2698
ascertained 2698
adhered 2698
depreciation 2697
sted 2697
Elections 2696
elegant 2696
V.@@ 2695
declines 2695
diminish 2694
mined 2694
sb 2694
prioritization 2694
innocence 2693
tribes 2692
advertisements 2692
discharging 2692
identities 2691
Firearms 2691
med 2691
assert 2691
Kam@@ 2690
drawdown 2690
bent 2689
Luis 2689
261 2689
PFOS 2689
pink 2688
slept 2688
disturbed 2687
telecommunication 2687
manifestation 2686
subsidized 2685
soccer 2684
unwilling 2684
.A 2684
checklist 2684
Primary 2684
fatal 2684
ATION 2683
contraception 2682
ents 2682
Ste@@ 2682
indefinite 2682
forged 2682
GE@@ 2681
asbestos 2681
stops 2681
trapped 2680
Hazardous 2680
imp@@ 2680
Fin@@ 2679
Vision 2679
revitalize 2679
256 2678
races 2677
OR 2676
Reference 2676
relay 2676
practise 2675
esteem 2675
gel 2675
My@@ 2674
Class 2674
consume 2674
atic 2673
onset 2673
impacted 2672
Ibrahim 2672
Kal@@ 2672
washed 2671
deletion 2670
defect 2670
diverted 2670
aids 2670
indoor 2670
Antonio 2669
expose 2668
Mel@@ 2668
domination 2668
smiling 2667
Yu 2667
Hol@@ 2666
sth 2666
panic 2665
supervisors 2665
chiefs 2665
239 2664
weakening 2664
Paulo 2664
sediment 2664
Vol 2663
229 2663
trusts 2663
tt@@ 2662
1962 2661
sin@@ 2660
ing.@@ 2658
Names 2657
polymetallic 2657
alteration 2657
Annexes 2657
baggage 2656
scenes 2656
polar 2655
batteries 2655
mentoring 2654
thickness 2654
vain 2653
proportions 2653
torn 2653
SECURITY 2652
implicit 2651
Horn 2650
obstetric 2649
backdrop 2649
pit 2649
planes 2648
faithful 2648
0,@@ 2648
262 2647
Telecommunications 2646
outward 2646
mask 2646
zing 2646
practised 2645
memorandums 2645
eng@@ 2645
prospecting 2645
diameter 2644
ev 2644
ample 2644
intensifying 2643
Abkhaz 2642
terrestrial 2642
refuses 2642
Schools 2642
tune 2642
Democrats 2641
Teaching 2641
OCHA 2641
scared 2640
eighteen 2639
Agencies 2639
dressing 2639
axis 2639
addiction 2639
Senator 2639
lodge 2639
tically 2638
occasional 2638
Exploration 2637
grandfather 2637
Populations 2637
DM 2637
EEC 2636
boring 2636
Objectives 2636
CT@@ 2636
Facilities 2635
cultivated 2635
hotline 2635
De 2635
Macau 2635
Juba 2634
assassination 2634
compiling 2633
Africans 2633
ado 2633
corrosion 2633
ric@@ 2633
Helen 2632
friction 2631
Victoria 2631
indices 2631
differentiation 2631
pin 2631
prevailed 2630
textiles 2630
mann 2630
defences 2630
Ford 2628
ben@@ 2628
overflew 2627
isation 2626
depressed 2626
wolf 2626
Caicos 2625
INTERNATIONAL 2625
presidents 2625
fied 2625
77@@ 2623
decrees 2623
Tony 2622
Twelfth 2622
collections 2621
Import 2621
Digital 2620
263 2619
ordering 2619
nonlinear 2619
4.30 2619
tours 2619
292 2619
yo 2618
hem@@ 2617
owe 2617
272 2615
Wal@@ 2615
invisible 2614
devil 2614
Me 2613
researches 2612
pools 2612
sells 2611
ole 2611
judgments 2611
sm@@ 2610
tent 2609
home@@ 2609
disbursement 2608
Dominica 2608
RMB 2608
Ethnic 2608
mel@@ 2608
destabilizing 2607
affiliation 2607
unjust 2606
technicians 2606
compliments 2606
rer 2606
Temporary 2606
prepares 2605
rewards 2603
elders 2603
Migrants 2603
fitness 2603
pulse 2603
sensors 2602
obesity 2602
catering 2602
Bas@@ 2602
Relationship 2601
tel@@ 2600
ums 2600
285 2599
45@@ 2599
commencing 2599
spin 2598
testify 2598
Ping 2598
paintings 2597
shield 2597
Albert 2597
lic@@ 2596
Councils 2596
ena 2596
suffers 2596
deformation 2596
detriment 2595
flour 2595
deaf 2594
detainee 2594
LL 2593
imposes 2593
Greenland 2592
password 2592
insights 2592
specifying 2591
scholarship 2590
harness 2588
Certification 2588
charging 2588
Pollutants 2588
width 2587
secrecy 2587
contemplated 2586
eve 2586
inferior 2586
bonus 2586
Men@@ 2585
provisionally 2584
305 2584
creatures 2583
316 2583
intimate 2583
aluminum 2583
screw 2582
glance 2582
gan 2582
CS 2582
serial 2582
permissible 2581
heed 2581
5.8 2581
eh 2581
XVII 2580
Shelf 2579
GNP 2578
ratings 2578
40,000 2578
Bro@@ 2577
AM 2577
gates 2577
Hi@@ 2576
MSP 2576
calcium 2576
intangible 2576
influx 2575
ther@@ 2575
Jordanian 2575
Single 2575
selectivity 2575
HA 2574
und@@ 2574
snake 2573
tactical 2573
ho 2573
correctional 2573
Secretaries 2573
possesses 2572
grief 2572
Edward 2571
Federated 2571
sink 2571
essay 2570
dwellers 2570
L.3 2570
OPCW 2570
shortfalls 2569
Add.1. 2568
Amman 2567
EM@@ 2567
pur@@ 2567
realm 2567
Barcelona 2565
blade 2565
dull 2565
Stephen 2565
Stocks 2564
Database 2564
Interpol 2563
78@@ 2563
lean 2561
healing 2560
Juan 2560
repository 2560
Arbitrary 2559
gotten 2559
knocked 2558
Wa@@ 2558
gauge 2558
lays 2558
relaxed 2558
peasant 2558
illnesses 2558
FPA 2557
delicious 2557
bullet 2557
1946 2557
Art. 2556
PC@@ 2555
Benjamin 2554
translating 2553
concurrently 2553
endure 2553
sunshine 2552
bury 2552
batch 2552
Alma 2552
Consider 2552
jure 2550
that@@ 2550
incorrect 2550
ach 2549
Schedule 2548
boyfriend 2547
grandmother 2547
searched 2546
ple@@ 2546
reforestation 2546
dried 2545
recruits 2545
dining 2545
Star 2545
jurisdictional 2544
educating 2544
ening 2544
summarize 2543
Because 2543
Kashmir 2542
organizers 2541
motives 2540
fined 2540
Lima 2540
rod 2539
top@@ 2539
SNA 2539
Chairpersons 2538
dam@@ 2538
muscles 2538
6.6 2537
UNOSOM 2537
10.30 2537
poet 2537
omission 2537
Cooperative 2536
cultivate 2536
loyal 2536
• 2536
dependants 2535
entailed 2535
6.7 2535
donated 2534
tre@@ 2534
23.@@ 2534
script 2534
enforceable 2533
wan 2533
butter 2533
mystery 2532
oh 2532
humane 2532
Vietnamese 2532
unsatisfactory 2532
Big 2530
bienniums 2529
countless 2529
alo@@ 2529
Yuan 2529
leakage 2529
bun@@ 2529
rel@@ 2529
standpoint 2528
Forestry 2528
neighbor 2528
esa 2528
crown 2527
History 2527
MAL 2527
enclosure 2527
deterrent 2527
ese 2527
creature 2526
Make 2526
Arrangements 2526
probe 2526
inclined 2526
mighty 2525
envisages 2525
criminalized 2525
manipulation 2524
lens 2524
abnormal 2523
kindness 2523
21.@@ 2522
Wong 2522
Transition 2522
spo@@ 2522
Kigali 2522
Host 2522
IOC 2522
att@@ 2521
compensated 2520
throwing 2520
Pat@@ 2520
retirees 2519
zer 2518
warn 2518
nominate 2518
aut 2517
resilient 2517
breathe 2517
juncture 2517
funeral 2516
march 2515
Towards 2515
iv 2514
corridor 2513
No.@@ 2513
Request 2513
Collection 2513
endemic 2513
Ter@@ 2512
CL@@ 2511
embark 2510
Societies 2510
Punish 2509
widows 2509
purview 2509
seemingly 2509
Guidance 2509
sunlight 2508
ace 2507
Pen@@ 2507
austerity 2507
fake 2507
mini 2507
trainees 2507
subsection 2506
Persistent 2505
CRPD 2505
Innovation 2505
Proposed 2505
Offenders 2505
yl 2504
Tur@@ 2504
petitioners 2504
murdered 2504
collapsed 2503
criminality 2502
ney 2502
cents 2502
bus@@ 2502
Res@@ 2502
longest 2501
columns 2500
involuntary 2500
Shabaab 2500
shaft 2499
Village 2499
tuition 2498
---@@ 2498
underway 2497
SAICM 2497
spray 2496
Before 2496
op 2496
More 2495
ODP 2495
unlimited 2495
dri@@ 2494
adi 2494
ć 2494
wholesale 2493
Nile 2493
unification 2492
Delivering 2491
publicize 2491
authentic 2491
Pearl 2490
1954 2490
son@@ 2490
ases 2488
Eleventh 2487
pulling 2486
backup 2486
intensification 2484
palace 2482
substantiate 2482
Abdullah 2481
sufficiency 2481
ulation 2480
favourably 2480
PR 2479
ular 2479
CSCE 2479
accords 2479
exhibitions 2479
ida 2479
functionality 2478
onic 2478
fare 2478
Tr@@ 2476
reciprocal 2475
ther 2475
Managing 2475
incommunicado 2474
energies 2474
sn@@ 2474
luggage 2472
teenagers 2472
7.4 2472
inspire 2472
M.@@ 2471
RI@@ 2471
interlocutors 2471
Offences 2471
outdated 2470
Avenue 2470
304 2470
che 2469
colored 2469
compromised 2469
earthquakes 2469
induce 2468
golf 2468
Claimant 2468
290 2468
Christians 2468
fraction 2467
Mass 2467
plaintiff 2467
institutionalization 2467
ela 2466
lover 2466
heated 2465
shy 2465
drafts 2465
0.3 2465
Kitts 2464
not@@ 2464
ah@@ 2462
Ara@@ 2462
oxide 2462
ire 2461
bush 2461
authorizing 2460
geospatial 2460
concurred 2460
exempted 2459
wanting 2459
repatriated 2458
unwanted 2458
reluctance 2458
outdoor 2457
delighted 2457
tailor 2457
gasoline 2457
drift 2456
thief 2456
pal@@ 2456
orbital 2456
ich 2456
Substantive 2456
According 2456
memorial 2455
Hel@@ 2455
8.1 2455
enumerated 2455
Hor@@ 2453
massacre 2453
zinc 2453
CI 2453
outs 2452
367 2452
Nevis 2452
cameras 2452
Ren@@ 2452
9.5 2452
tar 2452
tation 2452
prejudices 2451
surfaces 2451
lenders 2450
287 2450
worries 2450
queen 2450
weaken 2450
UNISFA 2450
flies 2449
bly 2449
clo@@ 2448
Resolutions 2447
Shu@@ 2447
intentionally 2447
pitch 2447
ini@@ 2446
rushed 2446
Improvement 2446
bio 2446
timeline 2444
one@@ 2444
ro 2444
ast@@ 2444
Railway 2443
stole 2443
End 2443
profiling 2443
blog 2443
har 2442
Type 2442
loads 2442
Bridge 2442
ide 2442
impairment 2441
267 2441
CESCR 2441
plan@@ 2440
TO@@ 2439
owns 2439
deepest 2439
naked 2439
peers 2438
clandestine 2438
possessing 2437
illa 2437
checkpoint 2437
Angolan 2437
MENT 2434
san@@ 2434
particulars 2434
demonstrators 2434
phasing 2433
furnace 2433
elastic 2432
rings 2432
Zaire 2432
strengthens 2432
Lan@@ 2432
Mus@@ 2431
dro@@ 2431
node 2431
SGB 2431
Finnish 2430
stems 2430
worlds 2430
garage 2430
FIR 2430
symbolic 2429
NAM 2427
apples 2426
crossings 2426
Pollution 2426
deb@@ 2426
formalities 2425
Biodiversity 2425
talented 2424
architectural 2423
revert 2423
Navy 2423
dairy 2422
useless 2422
Mak@@ 2422
ek@@ 2421
ue 2421
validated 2421
5.7 2421
rage 2420
registering 2420
winners 2420
.鈥 2420
responsiveness 2419
Abdul 2418
fibre 2417
inch 2417
Shan 2416
drying 2416
ranged 2416
lately 2415
286 2413
algorithms 2413
ory 2413
shocked 2413
depleted 2413
Pri@@ 2412
survived 2412
licenses 2412
lowered 2412
convincing 2412
verdict 2412
fancy 2412
cr@@ 2411
needy 2411
radiological 2411
statelessness 2410
Under@@ 2410
annotated 2410
kilometers 2410
loc@@ 2410
Prisoners 2410
humor 2410
Real 2409
infrared 2409
cloning 2409
seated 2408
deem 2408
laughing 2408
Entebbe 2407
strife 2407
ultra 2407
supervising 2407
Fire 2407
lam@@ 2406
recovering 2406
mainstreamed 2406
policemen 2406
gn@@ 2405
grouped 2405
prohibitions 2404
wondering 2404
24.@@ 2404
ining 2404
envelope 2404
persists 2403
elder 2403
tional 2403
Supporting 2403
ces 2402
variances 2402
Ontario 2402
Nigerian 2402
88@@ 2401
fer@@ 2401
Authorities 2401
Pristina 2400
inefficient 2400
Philippine 2400
fitted 2400
Gates 2400
Xinjiang 2398
closest 2398
protesters 2398
sible 2397
Broadcasting 2397
pluralism 2397
strides 2397
alarmed 2397
ide@@ 2396
Ninth 2396
Little 2396
mes@@ 2396
van@@ 2395
Hungarian 2395
aspiration 2395
Observers 2394
FROM 2393
pic@@ 2393
wool 2393
54@@ 2393
MERCOSUR 2392
consortium 2392
climbed 2391
hopefully 2391
invoice 2391
lord 2391
exceptionally 2391
steep 2390
overseeing 2390
ack@@ 2389
reuse 2389
comparisons 2388
odds 2388
contraceptives 2388
gods 2387
Disappearances 2387
22,@@ 2386
enti@@ 2386
domestically 2385
numbered 2385
satisfying 2384
Havana 2383
11.30 2383
gratis 2383
stan@@ 2383
webcast 2383
Conditions 2383
collision 2382
pp. 2382
cow 2382
debated 2382
Referendum 2382
9.3 2381
Virginia 2381
Sarah 2381
handful 2380
anda 2380
fertilizer 2380
corresponds 2380
vi 2380
Background 2380
281 2379
Madam 2379
Simon 2379
SESSION 2379
implication 2379
tan 2378
bench 2377
425 2377
fusion 2377
ron@@ 2376
Living 2376
Catherine 2376
Def@@ 2376
Spirit 2376
policeman 2376
museums 2375
rotary 2375
blamed 2374
Sin@@ 2374
socialism 2374
flown 2374
verifying 2374
War@@ 2373
Resistance 2373
abolishment 2372
90@@ 2372
laughed 2372
SW@@ 2371
Pitcairn 2371
3.9 2371
Ir@@ 2371
burnt 2370
ripe 2370
auditor 2370
IB@@ 2370
akan 2370
qui@@ 2368
fragmented 2367
lifelong 2367
toy 2367
Caucasus 2367
kidney 2366
lon@@ 2366
exacerbate 2366
alised 2366
endosulfan 2366
Rs 2366
MYFF 2365
tiger 2365
Milan 2364
Aliens 2364
overlooked 2364
ili@@ 2364
neighbour 2364
desirability 2364
learnt 2364
SPIDER 2363
electron 2363
professors 2362
Suppress 2361
broker 2361
hopeful 2361
Kampala 2360
him@@ 2360
repayment 2359
curious 2358
raped 2358
Gal@@ 2358
Ugandan 2357
Key 2357
authentication 2357
ok 2357
Vocational 2357
person@@ 2357
attacking 2356
vitality 2356
polio 2356
fixing 2355
disbursed 2355
substitution 2354
L.4 2354
ens@@ 2353
1244 2353
Banking 2352
visitor 2352
opponent 2351
cervical 2351
unfounded 2350
Especially 2349
mixing 2349
unused 2349
stretched 2349
appetite 2348
aki 2348
climbing 2348
min 2348
Lin 2348
Secondary 2348
pirates 2348
privileged 2348
oppression 2347
cruise 2347
quote 2346
backstopping 2346
Indicators 2346
FC 2346
Jacob 2345
tireless 2345
catastrophe 2345
Fo@@ 2344
delight 2344
excitement 2343
ome 2343
boosting 2343
cro@@ 2343
alleviating 2343
wrapped 2342
Kan@@ 2342
richest 2341
Lin@@ 2341
awa 2341
Represents 2340
Week 2340
23,@@ 2340
Associated 2340
blocking 2339
Cook 2339
refining 2339
touching 2339
Revised 2339
ography 2339
lip 2339
cables 2339
sions 2338
retire 2338
nuts 2337
.5 2337
switching 2337
ati 2337
mechanics 2336
globalized 2336
victimization 2336
CCA 2335
Mediation 2335
alternatively 2334
Restrictions 2334
broadcasts 2334
bathroom 2334
infantry 2333
confession 2333
unpredictable 2332
stairs 2332
afforestation 2331
misery 2331
ser 2331
Tong 2331
gun@@ 2329
unrestricted 2329
uniformed 2329
additions 2329
CFC 2328
dirt 2328
Valentine 2328
defeated 2328
Dubai 2328
sinks 2328
enrich 2326
remark 2326
fur@@ 2326
SB 2325
demolition 2325
torch 2325
750 2325
chat 2324
exhibits 2324
Mohammad 2324
bother 2324
Monrovia 2324
squ@@ 2324
stri@@ 2323
viewing 2323
oring 2323
ü@@ 2322
attraction 2322
Alan 2322
proportionate 2322
NASA 2321
combines 2321
climatic 2321
Square 2321
HCH 2318
pervasive 2318
sy 2318
bit@@ 2318
Partners 2317
loyalty 2317
268 2317
proxy 2316
computerized 2316
ori 2316
Alexander 2316
Amnesty 2315
physician 2315
ASSEMBLY 2314
Opinion 2313
Map 2313
demobilized 2313
Mahmoud 2313
Civilizations 2312
alists 2312
tures 2312
UNA0@@ 2312
WITH 2312
dig 2311
0.6 2311
Fa@@ 2310
shine 2310
lag 2310
extracted 2309
organizes 2309
diagnosed 2307
continents 2307
aire 2306
spiral 2306
R.@@ 2305
keynote 2304
operationalization 2304
Debt 2303
PP@@ 2303
prototype 2303
Sk@@ 2303
wasted 2302
Reg@@ 2302
aquifers 2302
ner@@ 2302
dly 2301
soap 2301
guardians 2301
á 2300
chi@@ 2300
airlines 2299
tenders 2298
pockets 2297
Inalienable 2297
picking 2297
Mid 2297
UNAMIR 2297
irrelevant 2296
SO 2295
Ceasefire 2295
susceptible 2295
Hollywood 2295
regain 2295
Date 2295
tale 2294
bye 2294
GPS 2293
dissolved 2293
anticipate 2293
inconsistencies 2293
Address 2292
ford 2292
sensible 2292
widen 2292
aunt 2291
2050 2291
· 2291
cellular 2291
generates 2291
ency 2290
6.8 2290
brick 2290
Van 2290
reciprocity 2289
XXI 2289
intermediary 2289
ren 2289
consensual 2289
unite 2289
interpreter 2288
divorced 2288
needle 2288
tively 2288
ong@@ 2287
UNCT 2287
Add.5 2286
UNISPACE 2286
ERW 2285
motive 2285
MEETING 2285
unutilized 2284
ited 2284
chi 2283
adventure 2283
directing 2283
gentlemen 2283
cats 2283
tical 2282
catastrophic 2281
pardon 2281
lateral 2281
Sydney 2280
ple 2280
WA 2279
desires 2279
EF 2279
appliances 2279
IE@@ 2278
sor@@ 2278
tolerate 2278
ano@@ 2278
Sami 2277
aluminium 2277
ades 2276
Girls 2276
referenced 2276
mount 2276
harbour 2275
istic 2274
way@@ 2274
proportionality 2274
poisoning 2274
BiH 2273
shade 2273
poem 2273
finishing 2273
neighborhood 2273
ROM 2272
Taking 2272
math 2272
Burundian 2272
cen@@ 2272
contradictory 2272
PL@@ 2271
McCain 2271
manifested 2271
importation 2269
grounded 2268
there@@ 2268
sensitize 2267
troubles 2266
designers 2266
Kon@@ 2266
transporting 2266
Corps 2265
8.2 2265
resolutely 2265
cocoa 2264
Dangerous 2264
sweat 2264
HCFC 2264
equations 2263
vocabulary 2263
interpreting 2263
weigh 2263
ene 2263
Stock 2263
Gen@@ 2263
deck 2263
Mun@@ 2263
SPLA 2262
tightly 2262
rains 2262
specialization 2262
ambitions 2262
Ga@@ 2262
measles 2262
lim@@ 2262
spontaneous 2261
brokers 2261
Publications 2260
vibrant 2260
с@@ 2260
generously 2260
Andrew 2260
Kiribati 2260
Industries 2260
&apos;S 2260
play@@ 2259
Institution 2259
venues 2259
disrupt 2258
illustration 2257
indivisible 2257
Officials 2257
Republicans 2256
Dad 2256
borrowed 2255
spill 2255
sits 2255
fro@@ 2254
6. 2254
milestones 2254
uniforms 2254
Mars 2254
Frank 2253
wal@@ 2253
Conclusions 2252
LS 2251
temper 2251
sticks 2251
electromagnetic 2251
tings 2251
Insolvency 2250
earnest 2250
ven 2250
22.@@ 2250
Gre@@ 2250
eternal 2250
grammar 2249
disturbance 2249
lane 2248
procured 2248
representations 2248
Cambridge 2248
palm 2248
ula 2247
yi 2247
HS 2247
lin 2246
ologist 2246
stro@@ 2246
MI 2245
Don@@ 2245
achievable 2245
drill 2244
interruption 2244
centrally 2244
faults 2244
Harmonized 2243
ick 2243
par 2243
Then 2242
cooked 2242
IGAD 2241
uni@@ 2241
28,@@ 2241
ishes 2241
Gas 2241
equip 2241
diagram 2240
solicitation 2240
breeze 2240
standby 2240
deriving 2239
attribution 2239
Concerning 2238
amphetamine 2238
ee 2238
fronts 2238
xenophobic 2238
tly 2238
Adam 2238
construed 2237
emperor 2237
60,000 2236
hook 2236
contention 2236
99@@ 2235
Mac 2235
lar@@ 2235
ts@@ 2235
ona 2234
channelled 2234
stalemate 2234
Ituri 2234
Lam@@ 2233
∙ 2233
ignoring 2232
cadres 2232
speeds 2231
7.6 2230
Most 2230
brains 2230
stationed 2230
behave 2229
279 2228
compassion 2228
researched 2227
zes 2227
wor@@ 2227
domains 2226
competitions 2226
time@@ 2226
Sect 2226
confessions 2226
sion@@ 2225
22nd 2225
compression 2225
fun@@ 2224
Ouagadougou 2224
aboard 2223
subtle 2223
detentions 2223
Buildings 2223
behaviors 2223
fellowships 2222
Jakarta 2221
embassy 2221
hid 2221
closures 2220
comparatively 2220
Covenants 2219
stabilizing 2219
comparability 2219
Cl@@ 2219
writes 2219
posing 2219
dominate 2219
Puntland 2218
Kafr 2218
Implementing 2217
AGENDA 2217
Oxford 2217
0.8 2217
portions 2216
cigarettes 2216
presided 2216
PRC 2216
trail 2216
Students 2216
UR@@ 2216
shaking 2215
Yi 2214
balls 2214
poured 2214
Dra@@ 2213
aj@@ 2213
Transportation 2213
5.9 2213
looting 2212
CGE 2212
pigs 2212
Distribution 2211
PARTIES 2211
heal 2211
launches 2211
evidentiary 2209
exporter 2209
leg@@ 2209
NG@@ 2209
Europeans 2208
dietary 2208
JI 2208
foolish 2207
fostered 2207
resigned 2207
25th 2207
Ly@@ 2206
corpus 2205
pie 2205
Specific 2204
rally 2204
doctrines 2204
misleading 2204
deadlock 2203
devising 2203
dropout 2202
insects 2202
penetrated 2201
engages 2200
11,@@ 2200
destinations 2200
24,@@ 2199
floors 2199
cave 2198
Layer 2198
supervisor 2198
understandable 2198
timelines 2198
companion 2197
1960s 2197
Ho 2197
overly 2197
indefinitely 2196
Cell 2196
disappointing 2196
25,@@ 2196
obstruction 2196
genius 2196
lat@@ 2195
277 2194
GNSS 2194
tenants 2193
prenatal 2192
invented 2192
DDT 2192
stigmatization 2191
Balkans 2191
NA 2191
blowing 2191
ghost 2191
compel 2191
appealing 2191
Encourage 2190
corridors 2190
stipulate 2189
cylinder 2189
informative 2189
vigilance 2188
ry@@ 2188
swear 2188
23rd 2188
quantum 2188
accidental 2188
917 2187
Plans 2187
interconnected 2187
Cy@@ 2187
274 2186
dealers 2186
Judah 2185
objected 2185
duck 2185
onwards 2185
rou@@ 2185
median 2185
shallow 2185
scaled 2185
ind@@ 2184
Citizenship 2184
ast 2183
Juvenile 2182
cousin 2182
habitat 2182
disastrous 2182
bas@@ 2182
On@@ 2182
BA 2182
Buddhist 2181
Dalai 2180
Rican 2180
anticipation 2180
blanket 2179
295 2179
hast 2178
apologize 2178
aa 2178
mysterious 2177
303 2177
literally 2177
prerequisites 2176
Kennedy 2176
plastics 2176
wicked 2176
expiring 2176
bleeding 2176
grab 2175
businessmen 2175
Jackson 2174
catching 2174
rainy 2174
jar 2173
foam 2173
63@@ 2173
pave 2173
criminalizing 2173
Seventh 2173
aggravating 2173
Core 2173
273 2172
Slavery 2172
extractive 2172
merged 2171
reimbursements 2171
enquired 2171
honesty 2171
swept 2171
siege 2171
liaise 2170
newborn 2170
Zhou 2169
restorative 2169
ito 2169
favourite 2169
charm 2169
Anti@@ 2168
zo 2168
answering 2168
unregulated 2168
tackled 2168
ingredient 2168
roller 2167
Bible 2166
dispersed 2166
curbing 2166
Codification 2166
Fs 2166
disagree 2165
ath@@ 2165
26,@@ 2165
pin@@ 2164
ities 2164
kov 2164
ade@@ 2164
Unlawful 2164
Points 2164
O. 2163
Limits 2163
grievances 2163
pa 2163
RBM 2162
din 2162
lightning 2162
Crown 2161
deported 2161
Residual 2161
Transboundary 2160
vel 2160
PE 2160
shit 2160
ately 2160
reimbursed 2159
clan 2159
bling 2158
intrinsic 2158
blew 2158
Collective 2158
bolster 2158
sian 2158
smallest 2158
modifying 2158
governorates 2157
dem@@ 2157
actress 2157
ened 2157
320 2157
bamboo 2156
aria 2156
loses 2156
Sino 2156
Memorial 2156
Price 2155
rivals 2155
releasing 2155
Canal 2155
Cheung 2155
scandal 2155
XVIII 2154
2018 2154
1955 2153
Investments 2152
ket 2152
CF@@ 2152
je 2152
pensionable 2152
75@@ 2152
entrust 2152
sive 2152
GNI 2151
282 2151
medium- 2151
79@@ 2150
Chan 2150
silly 2150
admire 2149
Current 2149
deliberation 2149
Just 2149
Mah@@ 2149
aga 2149
ram@@ 2149
enlarged 2148
markedly 2148
shapes 2148
prostitutes 2148
mortgages 2148
juridical 2147
bloody 2147
carpet 2147
repaired 2146
competency 2146
weighted 2146
med@@ 2146
reversal 2146
computation 2146
idle 2145
rehabilitate 2144
black@@ 2144
shining 2144
kings 2144
lobby 2144
aerospace 2144
negligence 2144
yed 2144
ami 2143
abusive 2143
outbreaks 2143
sail 2143
ram 2143
Es@@ 2143
Lu 2142
zed 2142
Strengthened 2142
PE@@ 2142
horror 2141
multicultural 2141
remittance 2141
derivatives 2141
terrain 2141
Song 2141
ist@@ 2140
descendants 2140
cat@@ 2140
viewpoint 2140
importers 2140
30,@@ 2139
Respect 2139
FNL 2139
protectionism 2137
practiced 2137
Fer@@ 2137
Safeguards 2137
obey 2136
EX@@ 2136
guardianship 2136
drum 2135
Son 2135
302 2135
Mai 2135
bottles 2134
modernize 2134
oun@@ 2133
tribe 2133
330 2133
1959 2132
variability 2132
probable 2132
flavor 2131
Death 2131
ome@@ 2130
revive 2130
baseball 2130
Up 2129
accessories 2129
gers 2129
lively 2127
89@@ 2127
ambassadors 2127
legislators 2127
stays 2126
gesture 2126
bin@@ 2126
Source 2126
null 2125
perceive 2125
complies 2125
magistrate 2125
thi@@ 2125
Unions 2125
nail 2124
reserving 2124
inhumane 2123
unhindered 2123
sanctioned 2123
lawsuit 2123
12,000 2123
deprive 2122
slipped 2122
cm 2122
conversations 2122
irresponsible 2122
301 2122
Bay@@ 2122
M23 2122
Dar 2122
CSOs 2121
stimulants 2121
ils 2121
Sur@@ 2120
REP 2120
Percentage 2120
Maori 2119
wrap 2119
IFRS 2119
Coordinators 2119
broadened 2119
Captain 2118
negara 2118
Honourable 2118
cinema 2118
facial 2117
doses 2117
miners 2117
arrivals 2117
conspiracy 2116
solvent 2116
7.8 2116
tru@@ 2114
Student 2114
Rent 2114
ONUB 2113
incredible 2113
stockpiling 2113
poison 2113
Estate 2113
ium 2112
exploiting 2112
SLM 2112
it.@@ 2112
pipes 2112
penetration 2111
garment 2111
conversely 2111
Tunisian 2110
widow 2110
fy 2110
Go 2110
mentioning 2110
Boundary 2110
Laden 2109
Ob@@ 2109
situ 2109
mi 2109
scenery 2109
excessively 2109
Laboratory 2108
aka 2108
bargain 2108
Vladimir 2108
distances 2107
untuk 2107
energetic 2107
opted 2106
arm@@ 2105
Donor 2105
multilingualism 2104
infringed 2104
volcanic 2104
scanning 2104
shareholder 2104
ard@@ 2104
geopolitical 2104
formidable 2103
Qing 2103
Ive 2103
olo@@ 2103
27,@@ 2103
knees 2103
Consumer 2102
imagery 2102
pilots 2102
deviation 2101
L.7 2101
Peninsula 2100
Trading 2100
huh 2099
Basin 2099
youths 2099
8.6 2098
Ann 2098
dial 2098
tag 2098
sellers 2097
hunt 2097
form@@ 2097
EULEX 2096
&apos;it 2096
MEETINGS 2096
ora 2095
SI 2094
neural 2093
DESA 2093
beans 2093
Product 2093
followers 2092
26.@@ 2092
fertile 2091
dwelling 2091
opera 2091
attendant 2091
Jiang 2091
embraced 2090
3,500 2090
IV.@@ 2090
sterilization 2090
soils 2090
Tom@@ 2090
0.1 2090
Prof. 2089
physicians 2089
reassignment 2088
Results 2088
subscription 2088
self@@ 2087
unaware 2087
bands 2087
roses 2086
mol@@ 2085
dignified 2085
Minority 2084
harvesting 2084
therefrom 2083
injecting 2083
foreigner 2082
contentious 2082
dilemma 2081
auxiliary 2081
L.6 2081
straw 2081
chan@@ 2081
AA 2081
Strait 2079
envisage 2079
broadest 2078
purple 2078
commands 2078
degraded 2078
dia 2078
illiterate 2077
generalized 2077
Grant 2076
Back 2076
avert 2075
civilized 2075
arranging 2075
instantly 2075
enhancements 2075
leap 2075
discrepancy 2074
Rice 2074
29,@@ 2074
surviving 2074
rays 2073
Greater 2072
metadata 2071
Companies 2071
interval 2070
ó@@ 2070
inclusiveness 2070
punishing 2069
vis@@ 2069
furnish 2069
setbacks 2068
petty 2068
ecology 2068
Reproductive 2068
Abraham 2068
castle 2067
Den@@ 2067
hurricane 2066
collar 2066
behaviours 2066
judging 2065
characterization 2065
faithfully 2063
preschool 2063
Structure 2062
silicon 2062
CFCs 2062
concessionaire 2062
exerted 2062
monkey 2061
Wilson 2061
278 2060
slums 2060
Wei 2059
Preventing 2059
drastic 2059
seasons 2059
sauce 2058
cater 2058
lubricants 2058
downsizing 2058
stereotyping 2058
&apos;the 2057
blessing 2057
baselines 2057
sy@@ 2057
strategically 2056
Opportunity 2056
indicted 2055
backs 2055
warheads 2055
45th 2054
ella 2054
cooperates 2054
Has@@ 2054
rude 2054
compares 2053
viruses 2053
un.org. 2053
Ltd. 2053
inward 2053
disrupted 2052
preventable 2052
jo 2052
VA 2052
lovers 2052
inquired 2051
year@@ 2051
ap 2051
democratically 2051
localities 2050
sup@@ 2050
bing 2050
with@@ 2049
drank 2049
eng 2049
coin 2049
fledged 2049
Tower 2049
ventilation 2048
310 2048
await 2048
Emperor 2048
underdevelopment 2047
401 2047
she@@ 2047
bids 2047
tract 2047
Sta@@ 2047
iro 2046
Consultations 2046
UNOWA 2046
Princess 2046
cautioned 2046
Sab@@ 2045
Cold 2045
271 2044
SG 2044
UNCLOS 2044
SR@@ 2044
Sil@@ 2044
polymer 2043
Mis@@ 2042
Abbas 2041
gh 2041
Shi 2041
entrenched 2041
CN 2041
unidentified 2040
exemplary 2040
sim@@ 2039
Dan@@ 2039
Au@@ 2038
Position 2038
dividends 2037
treasury 2037
obligatory 2037
interdisciplinary 2037
ken 2036
CN.3 2036
intermediaries 2035
ballots 2035
conserve 2035
proteins 2035
retains 2034
Somaliland 2034
Customer 2034
frustrated 2034
commercially 2034
hemisphere 2033
L.8 2033
Theory 2033
testimonies 2033
Blair 2033
Prohibitions 2032
Preventive 2032
dom 2032
sadness 2031
Software 2031
relocated 2030
expel 2030
sh 2030
scan 2030
fellows 2030
lifestyles 2029
traumatic 2029
stir 2029
grams 2028
leaflets 2028
tightening 2028
Alice 2028
merchant 2028
311 2027
7.9 2027
unsuccessful 2027
Nutrition 2027
laundry 2027
outlying 2027
Delta 2026
oils 2026
28th 2026
beloved 2025
impoverished 2025
biased 2025
ets 2025
geostationary 2025
bunch 2024
daunting 2024
Ur@@ 2024
phrases 2023
cher 2023
miserable 2023
existent 2023
assignee 2022
stealing 2022
cybercrime 2022
FGM 2022
breed 2021
Lady 2020
quasi 2020
ude 2020
diminishing 2019
Exhibition 2019
Terrorist 2018
distortion 2018
til@@ 2018
ith 2018
wheels 2018
capitalism 2018
sheer 2017
Making 2017
AB 2017
E4 2017
elevated 2016
submarine 2016
commemorative 2015
380 2015
pul@@ 2015
zhou 2014
excludes 2014
resolute 2014
aff@@ 2014
registries 2014
bureaucratic 2014
multitude 2013
1,800 2012
hits 2012
rotating 2012
featuring 2012
habitats 2012
д@@ 2012
Sun@@ 2012
fucking 2012
Psychotropic 2012
INF.@@ 2012
ECOMOG 2011
incur 2011
incapable 2011
grinding 2010
dil@@ 2010
Nationality 2010
Corporate 2009
Leadership 2009
Hybrid 2009
wins 2009
Francis 2009
Demobilization 2009
ECB 2008
learners 2008
exile 2008
manners 2008
precautions 2007
ss 2007
ord@@ 2007
temporal 2006
L.5 2006
bull 2006
slaves 2006
PP 2005
DLDD 2005
censuses 2005
lakes 2004
unduly 2004
Xinhua 2004
Preparation 2004
supper 2003
CP.7 2003
sided 2002
AR 2002
kicked 2002
1957 2001
zz@@ 2001
flagship 2001
Id 2001
Literacy 2001
quantified 2000
behavioural 2000
punishments 2000
personalities 2000
Iraqis 1999
star@@ 1998
Legislation 1998
TCDC 1998
XIX 1998
ship@@ 1997
ills 1997
kilograms 1997
ok@@ 1997
mas@@ 1996
figured 1996
hua 1996
informational 1996
purification 1996
underwater 1996
cheque 1995
ron 1995
differs 1995
refund 1995
Mul@@ 1995
gam@@ 1995
faction 1994
Vol@@ 1994
hitting 1994
trunk 1994
mil@@ 1993
dragon 1993
Figure 1993
Mao 1993
Nacional 1993
tolerated 1993
CoE 1993
Organs 1992
frightened 1992
ann@@ 1992
Globalization 1992
cholera 1991
pec@@ 1991
nickel 1991
Mining 1991
charming 1990
polls 1990
Tlatelolco 1990
immunodeficiency 1990
ams 1989
emb@@ 1989
murders 1989
respectful 1988
FE@@ 1988
epidemiological 1988
disc 1988
insecure 1987
meditation 1987
arbitrator 1987
mag@@ 1987
undocumented 1987
rulings 1987
arc 1987
patrolling 1986
undesirable 1986
65@@ 1986
breached 1986
ier 1985
reactors 1985
premiums 1985
Chadian 1984
Stability 1983
Holocaust 1983
ians 1983
appropriateness 1983
awake 1982
Each 1982
Outlook 1982
completeness 1982
ops 1982
editors 1982
gangs 1982
Manila 1982
deterrence 1982
lazy 1982
depart 1981
Liverpool 1981
HC@@ 1980
inches 1980
militants 1980
caregivers 1980
gambling 1979
restructured 1978
insists 1978
activation 1978
prioritizing 1978
barrels 1978
perpetuate 1977
Mur@@ 1977
halted 1977
IF 1977
obligated 1976
oli@@ 1976
volunteerism 1976
hen@@ 1976
cage 1976
law@@ 1976
ze@@ 1976
sailing 1975
pol@@ 1974
thirteen 1974
optimizing 1974
normalization 1974
rejecting 1974
Reuters 1974
dense 1973
284 1972
researcher 1972
7.7 1972
tun@@ 1972
spared 1971
hood 1971
leveraging 1971
calibration 1971
Jan@@ 1971
Call 1970
ij@@ 1970
blown 1969
satisfactorily 1969
convoy 1969
Steel 1969
ideally 1968
CS@@ 1968
miracle 1968
articulate 1968
eness 1968
hip 1968
texture 1966
Counsellor 1966
stainless 1966
Particularly 1966
hu 1965
theater 1965
eviction 1965
tine 1964
fourteen 1964
run@@ 1964
foot@@ 1964
shuttle 1964
bodily 1964
condoms 1964
chips 1964
Scope 1964
exams 1963
ners 1963
nit@@ 1963
Category 1962
struggles 1962
550 1962
1956 1962
2,9@@ 1962
&apos;b 1962
ECCAS 1962
wards 1961
bombings 1961
Options 1961
EN 1961
Mental 1961
Brothers 1961
novels 1961
PD 1960
Establishing 1960
Sale 1960
plea 1960
ace@@ 1959
petitions 1959
labourers 1959
league 1959
shouted 1958
46th 1958
penitentiary 1958
neo 1957
ku@@ 1957
NO 1956
--- 1956
alleging 1956
lest 1956
Since 1956
fleeing 1955
Ze@@ 1955
Marketing 1954
Helsinki 1954
Garden 1954
killer 1953
abstaining 1953
potatoes 1953
motherland 1952
Investigate 1952
polygamy 1952
surprisingly 1951
9.1 1951
Toxin 1951
refinement 1951
magnificent 1951
val 1950
09@@ 1950
1874 1949
surpluses 1949
lers 1949
fighter 1949
supermarket 1948
RI 1948
proclamation 1948
arch 1947
dissertation 1947
TH 1947
droughts 1947
lo 1947
9.6 1947
291 1947
gre@@ 1946
prey 1946
L.9 1946
inhabited 1946
ICP 1946
struggled 1945
Inc. 1945
doesnt 1945
estimating 1945
damn 1945
2,8@@ 1945
Asset 1945
sang 1944
advises 1944
invariably 1944
bind 1944
oxidation 1944
priests 1944
chinese 1944
hubs 1943
hometown 1943
accustomed 1943
ashes 1943
worm 1943
Gr@@ 1943
retrieval 1943
sacrifices 1942
stadium 1942
quake 1942
Older 1942
Bujumbura 1941
massacres 1941
iling 1941
Issue 1941
borrowers 1940
subway 1940
dividend 1940
yah 1940
complexities 1940
Kh@@ 1940
São 1939
CM@@ 1939
adi@@ 1939
woke 1939
Marie 1939
Lieutenant 1938
650 1938
š@@ 1938
spur 1938
oul@@ 1938
pioneer 1938
barracks 1937
anonymous 1937
dominance 1937
Every 1936
workplans 1936
Principle 1935
OC 1935
geographically 1935
businessman 1935
indexes 1935
BP 1935
hypo@@ 1935
Between 1934
fiction 1934
formations 1934
30th 1934
hollow 1934
awaited 1934
flags 1934
Collaborative 1934
percentages 1933
coding 1933
Patrick 1933
Sources 1933
molecules 1932
Clean 1931
Chinas 1931
ined 1931
landmine 1931
oned 1931
cam@@ 1930
hesitate 1930
resorting 1930
Value 1930
redundant 1930
yer 1929
PRE@@ 1929
was@@ 1929
L.10 1929
Effectiveness 1929
but@@ 1929
Bol@@ 1929
Navigation 1929
fugitives 1928
anchor 1928
JS1 1928
blueprint 1928
Needs 1928
nouvelles 1927
wan@@ 1927
dwell 1927
shirts 1926
6.9 1926
taxpayers 1925
serum 1924
3,0@@ 1924
Sarkozy 1924
profoundly 1924
diploma 1924
worthwhile 1924
commanded 1923
ration 1923
ometer 1922
ERS 1922
SD@@ 1922
Disposal 1922
corners 1922
retailers 1922
headings 1922
patents 1921
Hon 1921
scarcely 1920
revenge 1920
Sel@@ 1920
Mercury 1920
doubtful 1920
Standardization 1920
vit@@ 1920
rit@@ 1919
simulated 1919
Cro@@ 1919
inaction 1918
eth 1918
Ou@@ 1917
Requirements 1917
nodes 1917
ITL 1917
UNPOS 1917
cerebral 1916
hammer 1916
inherit 1915
42nd 1915
izes 1915
LE 1914
Processing 1914
highways 1914
CP.@@ 1914
legend 1914
1,300 1914
insect 1914
Sex 1913
ea 1913
decoration 1913
supporter 1912
к@@ 1912
Highway 1911
Chelsea 1911
MP@@ 1911
Disease 1911
1,600 1911
replication 1910
2,7@@ 1910
ato@@ 1910
cross@@ 1910
cardiovascular 1910
reversing 1909
29th 1909
strangers 1909
ación 1909
conceal 1908
ila 1908
APEC 1907
separating 1907
youngest 1907
priced 1907
them@@ 1907
Nan@@ 1906
assignor 1906
cord 1906
studio 1906
defended 1906
traced 1906
Chi 1906
interlinked 1905
ja@@ 1905
Malian 1904
Hyogo 1904
rectify 1904
trainings 1904
Presentation 1903
Leaders 1903
journals 1903
SB@@ 1903
straightforward 1903
rested 1902
HRI 1902
Repertory 1902
sixteen 1901
unconditionally 1901
colorful 1901
headache 1901
cleaned 1901
objectively 1900
intra@@ 1900
mem@@ 1900
е@@ 1899
renminbi 1899
ished 1899
contributory 1899
sorties 1898
book@@ 1898
newsletter 1898
maid 1898
serviced 1898
.He 1897
AG 1897
ICESCR 1897
ED@@ 1897
ax@@ 1897
ose 1896
Cost 1896
constituency 1896
Channel 1896
corps 1895
UNTAET 1895
7. 1895
Entry 1894
uniformity 1894
NC@@ 1894
SAT 1894
fame 1894
polluted 1893
nutrients 1893
Eradicate 1892
postponement 1892
MB@@ 1892
Por@@ 1892
noticeable 1891
echo 1891
teen 1891
secular 1890
shrinking 1890
Mol@@ 1890
Lincoln 1890
Extraordinary 1889
spl@@ 1889
Experiencing 1889
log@@ 1889
curative 1888
gardens 1888
sometime 1888
saith 1888
WE@@ 1888
Shipping 1888
optimized 1888
wel@@ 1888
imagined 1887
reefs 1887
postgraduate 1887
150,000 1887
8.7 1887
Pot@@ 1886
recordings 1886
migrate 1886
validate 1886
triple 1886
Nazi 1886
coupling 1885
worsened 1885
bits 1885
hes 1885
aded 1884
250,000 1884
deduction 1884
nodules 1884
epidemics 1884
Sp@@ 1883
uncomfortable 1883
Jun@@ 1883
Colonialism 1882
ologists 1881
improvised 1881
acoustic 1880
eu@@ 1880
repay 1880
elle 1879
n. 1879
fond 1879
MOU 1878
aided 1878
homicide 1878
candle 1878
Facebook 1877
24th 1877
nexus 1877
ceramic 1876
ero 1876
1,400 1876
candy 1876
translators 1876
ITS 1876
multiplier 1876
Vo@@ 1875
axial 1875
297 1875
Bl@@ 1875
Kir@@ 1874
ech@@ 1874
low@@ 1874
gendarmerie 1874
hat@@ 1874
ain@@ 1873
Tuberculosis 1873
farther 1873
confess 1873
Equity 1873
197@@ 1873
stagnation 1872
Rom@@ 1872
provocative 1872
happier 1871
censorship 1871
fistula 1871
insulation 1870
27th 1870
ey@@ 1870
renowned 1870
los 1870
tissues 1870
TF 1870
Disputes 1870
299 1870
hon@@ 1870
qualifying 1869
officio 1869
rolls 1869
Sy@@ 1868
shelling 1868
GGE 1868
farmland 1868
ids 1868
Mayor 1868
revival 1868
booking 1868
leased 1867
token 1867
endured 1867
repairing 1867
accrual 1867
spends 1867
continual 1866
warmth 1866
cough 1866
pad 1866
colours 1865
Missile 1865
rostrum 1865
heavier 1865
ble@@ 1865
fac@@ 1865
relaxation 1865
breadth 1864
grip 1864
Sum@@ 1863
rationalize 1863
earnestly 1863
extremists 1863
Fre@@ 1863
tam@@ 1862
principled 1862
horrible 1861
potato 1861
Discipline 1861
rented 1861
Initiatives 1861
bachelor 1860
Consortium 1860
infringe 1860
About 1859
skirt 1859
abbreviations 1858
LCA 1858
accountants 1858
Romanian 1858
Cur@@ 1857
olive 1857
.6 1857
OS 1856
Bulletin 1856
bat@@ 1856
pon@@ 1856
HFCs 1856
Philip 1856
pairs 1855
RECOMMENDATIONS 1855
port@@ 1855
rifle 1855
township 1855
travellers 1855
294 1855
grains 1854
pumps 1854
cyclical 1854
Citigroup 1853
concurrent 1853
remand 1852
ante 1852
Recognition 1852
ached 1852
peculiar 1852
Lesson 1852
CB@@ 1851
joins 1851
400,000 1851
unimpeded 1851
outright 1851
curtain 1851
derives 1851
Postal 1851
insertion 1850
L.15 1850
berry 1850
concentrating 1849
ting@@ 1849
reimbursable 1849
Dili 1849
logo 1849
printers 1849
zo@@ 1849
lent 1849
manifestly 1849
wears 1848
triumph 1848
proposition 1848
Omar 1847
informally 1847
Orthodox 1847
Conclusion 1846
START 1846
Lisbon 1846
Micro@@ 1845
tastes 1845
Tripoli 1845
Chris 1845
Agreed 1845
25.@@ 1845
а@@ 1844
inadequacy 1844
1947 1844
lan 1844
rabbit 1844
lofty 1843
revoked 1843
travels 1843
Hom@@ 1843
sk 1843
Neighbouring 1843
receiver 1843
Smuggling 1843
employs 1843
315 1842
tracked 1842
photo@@ 1842
shear 1842
hardest 1841
chairing 1841
contradictions 1841
WMD 1841
Des@@ 1840
a. 1840
mentality 1840
stu@@ 1840
intact 1840
well@@ 1840
humble 1839
HABITAT 1839
Lawyers 1839
deteriorate 1839
Pound@@ 1839
Traditional 1839
shortest 1838
Membership 1838
Bri@@ 1838
booklet 1838
BBC 1838
stalled 1837
ied 1837
Xiao 1837
celebrating 1837
mergers 1837
MINUSMA 1836
renders 1836
Yahoo 1836
MTSP 1836
hostages 1836
notions 1835
Afghans 1834
coca 1834
pork 1834
Stamp 1834
relics 1834
Francophonie 1834
Pra@@ 1834
Female 1834
ero@@ 1834
sand@@ 1833
mar 1833
Subregional 1833
neighboring 1833
diaspora 1833
8.8 1833
unavoidable 1833
rem@@ 1833
mold 1832
reactive 1832
González 1832
hardships 1832
Kat@@ 1831
scrap 1831
fried 1831
lined 1831
simplicity 1831
ka@@ 1830
Amended 1830
remarkably 1830
olds 1829
abolishing 1829
UNAVEM 1829
fuller 1829
macro@@ 1829
unspent 1828
drastically 1828
STATES 1828
denounced 1828
Antarctica 1828
aligning 1828
Mom 1828
barred 1827
unrelated 1827
remarked 1827
EM 1827
impair 1826
Minsk 1826
freed 1826
vers 1826
.8 1826
zi@@ 1826
9.2 1826
F.@@ 1826
ure@@ 1825
PM@@ 1825
acc@@ 1825
distorted 1825
alities 1825
Bin 1825
Cheng 1824
Sachs 1824
UV 1824
misunderstanding 1824
faculty 1824
patriarchal 1824
withstand 1824
curiosity 1824
ladder 1823
strains 1823
biofuels 1823
laptop 1823
lining 1823
L.11 1823
Come 1822
és 1822
nest 1822
293 1822
publicized 1822
sadly 1822
Pledging 1821
scored 1821
FM 1821
pants 1821
determinants 1820
Af@@ 1820
discrete 1820
ols 1820
stack 1820
Rodríguez 1820
fundamentals 1820
soaring 1819
infinite 1819
impulse 1819
kindergarten 1819
Gordon 1818
acti@@ 1818
handles 1818
SOCIAL 1818
escort 1818
STI 1817
NHRIs 1817
Zhejiang 1817
Immunities 1817
Assets 1816
followup 1816
cavity 1815
inaccurate 1815
Il@@ 1815
Equalization 1815
engagements 1815
0.9 1815
traits 1815
negotiators 1814
inherently 1814
osis 1813
Williams 1813
Ci@@ 1813
colony 1813
morals 1813
surrendered 1813
fortunate 1813
burial 1812
313 1812
needing 1812
Film 1812
residency 1812
unjustified 1812
Sanitation 1811
concessional 1811
CONVENTION 1811
revitalizing 1811
Ny@@ 1811
fire@@ 1811
1952 1811
ination 1811
stewardship 1811
gue 1810
TE 1810
TB 1810
hepatitis 1810
Gran@@ 1810
handover 1810
306 1810
gg@@ 1809
foodstuffs 1809
sue 1809
manned 1809
ste 1809
profitability 1809
Le 1808
Modern 1808
cas@@ 1808
addenda 1808
urine 1808
bor@@ 1808
pets 1808
298 1808
Leader 1807
dismantle 1807
discouraged 1807
approximate 1807
smokers 1806
wilderness 1806
Petroleum 1806
NAPs 1806
classrooms 1806
Tan@@ 1806
Rev.1. 1806
CONFERENCE 1806
separatist 1805
trustee 1805
Arabian 1805
polarization 1805
Huang 1805
Improve 1805
flats 1804
ox@@ 1804
escalating 1804
8.9 1804
handicapped 1804
Actions 1803
redistribution 1803
Jersey 1803
vol@@ 1803
Hg 1803
č@@ 1802
jus 1802
м@@ 1802
minus 1801
romance 1800
wont 1800
ashamed 1800
adjudication 1800
Nanjing 1800
NP@@ 1800
OD@@ 1800
classmates 1799
drawings 1799
glorious 1799
boots 1799
constituents 1799
affiliates 1798
asa 1798
cubic 1798
Patent 1798
downtown 1798
Plan@@ 1797
rhythm 1797
ful@@ 1796
fauna 1796
categorized 1796
dering 1796
devastation 1795
cop@@ 1795
unrealistic 1795
ambulance 1795
brochure 1795
throne 1795
ity@@ 1794
Dun@@ 1794
Ken@@ 1794
26th 1794
nut 1794
rah 1794
0.2 1794
informs 1793
oth 1793
abductions 1793
omissions 1793
persuaded 1793
refurbishment 1793
philosophical 1793
renounce 1793
Floor 1792
compendium 1792
Dem@@ 1792
advantageous 1792
smuggled 1791
goodbye 1791
WG.6 1791
Transactions 1790
CMP.1 1790
Golden 1790
vivid 1790
Bre@@ 1790
lawfully 1789
labelling 1789
sco@@ 1789
ng 1789
reconvened 1789
ced 1789
labels 1789
Liability 1789
Speaker 1789
PM 1788
Temple 1788
denies 1788
sliding 1788
hypertension 1787
Trans 1787
Event 1787
PBC 1786
Movements 1786
CWC 1786
preside 1786
souls 1786
Wastes 1785
staring 1785
RD 1785
geo@@ 1785
forcible 1785
lamps 1785
underpin 1785
brake 1785
adhering 1784
1718 1784
nu@@ 1784
DP@@ 1783
dou@@ 1783
bullets 1783
Revolutionary 1783
arian 1783
assigning 1783
MIN@@ 1783
307 1783
translations 1783
fourthly 1782
downloaded 1782
stakes 1782
BE@@ 1782
duc@@ 1781
upstairs 1781
GU@@ 1781
Bangui 1781
Objects 1780
locality 1780
confer 1779
jumping 1779
reap 1778
ook 1778
TRA@@ 1778
apology 1778
Outreach 1778
Advanced 1777
ification 1777
Gali 1777
artery 1777
waiter 1776
keeper 1776
railways 1775
Sharif 1775
divert 1775
jiang 1774
usable 1774
tolerant 1774
grouping 1774
antenna 1774
cou@@ 1774
prominence 1774
Expo 1774
Rob@@ 1774
leasing 1773
bankrupt 1773
sincerity 1773
ater 1773
ation.@@ 1773
fundraising 1773
Start 1773
chiefly 1773
Summer 1773
fer 1772
kon@@ 1772
offerings 1772
Mountains 1772
backbone 1772
regulator 1771
fantastic 1771
CERs 1771
melting 1771
Tam@@ 1771
motherhood 1771
Yao 1771
Full 1771
surroundings 1771
OTHER 1771
sunny 1770
IES 1770
Over@@ 1770
sweeping 1770
prof@@ 1769
1,700 1769
Anna 1769
gri@@ 1769
undergraduate 1768
divergent 1768
40,@@ 1768
vigilant 1768
2,5@@ 1768
Regulatory 1767
underwent 1766
Remote 1766
investigator 1765
understandings 1765
selfish 1765
dr@@ 1764
Cancer 1764
UNA@@ 1764
liquor 1764
primitive 1764
shipper 1764
Junior 1764
secretaries 1764
governorate 1763
scratch 1763
regression 1763
exc@@ 1763
resourced 1762
Ross 1762
Str@@ 1761
intercourse 1761
melt 1761
CHAIRMAN 1761
Bodies 1761
une 1761
Steven 1760
dismiss 1760
assi@@ 1760
bel 1760
Asst 1760
TION 1759
spectacular 1759
sounded 1759
allotted 1759
Star@@ 1759
MOTAPM 1759
Benefits 1759
dynamism 1758
formulations 1758
mammals 1758
Upper 1758
85@@ 1758
temptation 1758
unlawfully 1757
ack 1757
inactive 1757
ris@@ 1757
cared 1757
Rem@@ 1757
politician 1756
primacy 1756
peripheral 1756
medals 1756
Rachel 1756
inger 1755
splendid 1755
interrupt 1755
UNMIBH 1755
tendering 1755
avian 1755
embassies 1755
oath 1754
lightly 1754
storing 1754
defender 1754
Occupational 1753
PNTL 1753
bless 1753
ich@@ 1753
al. 1753
syn@@ 1753
obstruct 1752
contraction 1752
Bran@@ 1752
pipelines 1752
handing 1752
bans 1751
Cab@@ 1751
grand@@ 1751
DE 1751
sta 1751
WG 1750
awarding 1750
Efficiency 1750
Overview 1750
specializing 1750
beta 1750
disturbances 1750
Injurious 1750
rebellion 1749
teaches 1748
WG@@ 1748
unmarried 1748
calories 1748
awful 1748
echoed 1748
312 1747
dwellings 1747
IASC 1747
Chancellor 1747
Poly@@ 1747
76@@ 1747
versa 1746
Singh 1746
Sho@@ 1746
invoking 1746
314 1745
thermo@@ 1745
fu 1745
celebrations 1745
8.4 1745
Ref@@ 1744
carcinoma 1744
wipe 1744
308 1744
Electric 1744
stipulations 1744
speculative 1744
Bad@@ 1744
Bag@@ 1743
evidently 1743
Kab@@ 1743
illegitimate 1742
Safe 1742
Awareness 1742
poems 1742
healthier 1742
accountant 1741
L.18 1741
− 1741
scholar 1741
arch@@ 1740
morale 1740
album 1740
Donald 1740
Music 1740
rounded 1740
admiration 1740
patch 1739
yourselves 1739
testified 1739
paternity 1739
Max 1739
doubling 1739
BE 1739
POLISARIO 1738
assemble 1738
acids 1738
Indiscriminate 1738
replicated 1738
Guarantee 1737
Tre@@ 1737
bat 1737
contacting 1736
lieu 1736
Vehicle 1736
Tianjin 1736
UNIKOM 1735
Fact 1735
ug 1735
mistaken 1735
Affecting 1735
semester 1735
relieved 1735
ush@@ 1735
GROUP 1734
Kra@@ 1734
74@@ 1734
tus 1734
&apos;we 1734
Mam@@ 1734
Gri@@ 1733
rents 1733
73@@ 1733
hun@@ 1732
lasts 1732
L.16 1732
occupancy 1732
Yo@@ 1732
zoo 1731
mac@@ 1731
dom@@ 1731
gener@@ 1731
cite 1731
groundwork 1731
cognizant 1731
yards 1731
graphics 1731
Nelson 1730
KO@@ 1730
Lama 1730
substitutes 1730
paved 1730
enn@@ 1730
pharmaceuticals 1730
mountainous 1730
326 1730
hou@@ 1730
fulness 1730
AC.26 1729
physiological 1729
Water@@ 1729
Hy@@ 1729
accumulate 1729
richer 1729
cel@@ 1728
hn@@ 1728
tablets 1728
rang 1727
Talks 1727
stricter 1727
uncontrolled 1727
variant 1726
illusion 1726
alise 1726
Thank 1726
presences 1725
pest 1725
Repertoire 1725
GATS 1725
artisanal 1725
309 1725
culminated 1725
heroes 1725
DDR 1725
Charlie 1724
hur@@ 1724
unfavourable 1723
hard@@ 1723
REPORT 1722
uk 1722
UL@@ 1722
developer 1722
WP 1721
ston 1721
weights 1721
coincide 1721
revealing 1721
prerogative 1721
ima 1720
fox 1720
py 1720
pretend 1720
ISAR 1720
iri 1719
Thirteenth 1719
evolutionary 1719
Many 1719
40th 1719
distinctions 1719
witnessing 1719
unequivocally 1718
ATIONS 1718
Only 1718
metabolism 1718
posture 1718
8. 1718
sam@@ 1718
hair@@ 1718
CM 1718
keyboard 1717
.7 1717
insurgency 1717
Also 1717
Oscar 1716
casualty 1716
spelled 1716
spy 1716
ni 1716
bronze 1716
remediation 1716
Arthur 1716
Ill 1716
Editor 1715
ku 1715
proprietary 1715
bending 1715
intergenerational 1715
beatings 1715
Bamako 1714
blatant 1714
H.@@ 1714
shi@@ 1714
succeeding 1714
ET 1714
malicious 1714
idi@@ 1714
insurgents 1713
warehouses 1713
sav@@ 1713
XXIX 1713
Bat@@ 1713
flu@@ 1712
arrives 1712
Monte 1712
exploded 1712
psychologists 1711
takeover 1711
Ed@@ 1711
ruin 1711
refrigeration 1711
pause 1711
federations 1711
chin 1710
vascular 1710
short- 1710
practicing 1710
Audiovisual 1710
hearted 1709
pulmonary 1709
ays 1709
sie 1709
massage 1709
compensatory 1709
reconciled 1708
upstream 1708
ashi 1708
Download 1707
CRP.2 1707
retraining 1707
Contemporary 1707
Dec. 1707
Ankara 1707
differed 1706
crowds 1706
reproduce 1706
2000, 1706
beast 1706
constitutions 1706
vin@@ 1705
inaccessible 1705
Period 1705
icity 1705
prescribe 1705
ether 1705
appellate 1705
tighten 1705
verbales 1704
desks 1704
honestly 1704
equals 1704
basement 1704
photography 1704
MT@@ 1703
Rate 1703
9.30 1703
dé@@ 1703
abstain 1703
restructure 1702
rifles 1702
Return 1701
impartially 1701
theoretically 1701
cute 1700
Guatemalan 1700
1737 1700
L.12 1700
Examination 1699
Geographic 1699
Wide 1699
bean 1699
ö@@ 1698
arduous 1698
unhealthy 1698
sting 1698
Notice 1697
03@@ 1697
Site 1697
harnessing 1697
equipments 1697
esti@@ 1697
arsenal 1697
clash 1697
shalt 1697
GEO 1696
&apos;at 1696
fre@@ 1696
renal 1696
sunset 1695
stared 1695
intersectoral 1695
gli@@ 1694
mo 1694
L.14 1694
ik@@ 1694
steer 1694
Boston 1693
Estonian 1693
cho@@ 1693
Mes@@ 1693
sworn 1693
grazing 1693
winding 1693
gy@@ 1692
unavailable 1692
expediting 1692
complements 1692
canal 1692
L.13 1692
una 1692
recycled 1691
weighed 1691
319 1691
ATS 1691
circuits 1691
ambiguity 1691
progressed 1691
domicile 1691
weekends 1690
Ye@@ 1690
transplantation 1690
VIII.@@ 1690
MB 1689
inquire 1689
Dam@@ 1689
instructors 1689
Brigade 1689
ples 1689
Eurostat 1689
Parts 1688
digit 1688
deducted 1688
mentions 1687
AMIS 1687
PROGRAMME 1687
planners 1687
Job 1687
folks 1687
resurgence 1687
clicking 1687
surveying 1686
affirmation 1686
Xi@@ 1686
underpinned 1686
ceremonies 1686
thine 1686
Chang 1686
Ali@@ 1686
IM 1686
paste 1685
aks 1685
mosquito 1685
Eve 1685
trousers 1685
grassroots 1684
Pretoria 1684
faint 1684
ruler 1684
Privileges 1684
XML 1684
Hawaii 1684
fil@@ 1683
Bulgarian 1683
armies 1683
333 1683
5935 1683
containment 1683
interfaces 1683
add@@ 1683
Pr@@ 1683
Chin@@ 1682
fur 1682
Non@@ 1682
brochures 1682
Deng 1682
characterize 1682
partition 1682
arbitrators 1681
hurts 1681
racing 1681
age@@ 1681
Us 1680
ress 1680
Leg@@ 1680
quotation 1680
Manuel 1680
merge 1679
compromising 1679
Accountability 1679
Kom@@ 1679
ICJ 1679
resign 1679
50th 1679
Victor 1678
[...]
