{
  "eos": 0, 
  "UNK": 1, 
  "的": 2, 
  "，": 3, 
  "。": 4, 
  "和": 5, 
  "在": 6, 
  ".": 7, 
  "、": 8, 
  "了": 9, 
  "是": 10, 
  ",": 11, 
  "年": 12, 
  ")": 13, 
  "(": 14, 
  "/": 15, 
  "对": 16, 
  "委员会": 17, 
  "与": 18, 
  "月": 19, 
  "并": 20, 
  "第": 21, 
  "中": 22, 
  "问题": 23, 
  "我": 24, 
  "将": 25, 
  "为": 26, 
  "国家": 27, 
  "》": 28, 
  "《": 29, 
  "-": 30, 
  "会议": 31, 
  "；": 32, 
  "\"": 33, 
  "有": 34, 
  "：": 35, 
  "他": 36, 
  "联合国": 37, 
  "日": 38, 
  "或": 39, 
  "我们": 40, 
  "报告": 41, 
  "一个": 42, 
  "发展": 43, 
  "不": 44, 
  "国际": 45, 
  "其": 46, 
  "提供": 47, 
  "你": 48, 
  "工作": 49, 
  "）": 50, 
  "（": 51, 
  "以": 52, 
  "到": 53, 
  "上": 54, 
  "关于": 55, 
  "组织": 56, 
  "1": 57, 
  "进行": 58, 
  "人": 59, 
  "以及": 60, 
  "也": 61, 
  "就": 62, 
  "这些": 63, 
  "这": 64, 
  "包括": 65, 
  "通过": 66, 
  "所": 67, 
  "社会": 68, 
  "该": 69, 
  "方案": 70, 
  "情况": 71, 
  "其他": 72, 
  "有关": 73, 
  "方面": 74, 
  "还": 75, 
  "而": 76, 
  "执行": 77, 
  "特别": 78, 
  "政府": 79, 
  "机构": 80, 
  "向": 81, 
  "他们": 82, 
  "都": 83, 
  "决议": 84, 
  "被": 85, 
  "2": 86, 
  "活动": 87, 
  "号": 88, 
  "建议": 89, 
  "地": 90, 
  "所有": 91, 
  "可": 92, 
  "妇女": 93, 
  "及": 94, 
  "没有": 95, 
  "3": 96, 
  "行动": 97, 
  "项目": 98, 
  "但": 99, 
  "经济": 100, 
  "时": 101, 
  "人权": 102, 
  "安全": 103, 
  "公约": 104, 
  "个": 105, 
  "需要": 106, 
  "可以": 107, 
  "会": 108, 
  "说": 109, 
  "大会": 110, 
  "应": 111, 
  "区域": 112, 
  "根据": 113, 
  "下": 114, 
  "规定": 115, 
  "4": 116, 
  "它": 117, 
  "提出": 118, 
  "理事会": 119, 
  "5": 120, 
  "合作": 121, 
  "她": 122, 
  "儿童": 123, 
  "决定": 124, 
  "于": 125, 
  "从": 126, 
  "可能": 127, 
  "6": 128, 
  "一": 129, 
  "必须": 130, 
  "使": 131, 
  "新": 132, 
  "代表": 133, 
  "支持": 134, 
  "技术": 135, 
  "已": 136, 
  "10": 137, 
  "由": 138, 
  "影响": 139, 
  "权利": 140, 
  "A": 141, 
  "法律": 142, 
  "各": 143, 
  "认为": 144, 
  "政策": 145, 
  "要求": 146, 
  "12": 147, 
  "秘书长": 148, 
  "继续": 149, 
  "促进": 150, 
  "一些": 151, 
  "采取": 152, 
  "更": 153, 
  "“": 154, 
  "来": 155, 
  "7": 156, 
  "目标": 157, 
  "加强": 158, 
  "和平": 159, 
  "要": 160, 
  "措施": 161, 
  "管理": 162, 
  "保护": 163, 
  "提交": 164, 
  "系统": 165, 
  "确保": 166, 
  ":": 167, 
  "”": 168, 
  "服务": 169, 
  "使用": 170, 
  "主要": 171, 
  "缔约国": 172, 
  "能力": 173, 
  "条": 174, 
  "研究": 175, 
  "计划": 176, 
  "这种": 177, 
  "把": 178, 
  "任何": 179, 
  "作为": 180, 
  "本": 181, 
  "重要": 182, 
  "努力": 183, 
  "注意": 184, 
  "后": 185, 
  "内": 186, 
  "建立": 187, 
  "9": 188, 
  "？": 189, 
  "主席": 190, 
  "这个": 191, 
  "已经": 192, 
  "%": 193, 
  "如果": 194, 
  "因此": 195, 
  "给": 196, 
  "草案": 197, 
  "审议": 198, 
  "资源": 199, 
  "11": 200, 
  "等": 201, 
  "举行": 202, 
  "请": 203, 
  "先生": 204, 
  "文件": 205, 
  "实现": 206, 
  "期间": 207, 
  "8": 208, 
  "人员": 209, 
  "段": 210, 
  "之间": 211, 
  "各国": 212, 
  "教育": 213, 
  "因为": 214, 
  "多": 215, 
  "很": 216, 
  "·": 217, 
  "信息": 218, 
  "审查": 219, 
  "行为": 220, 
  "成员": 221, 
  "环境": 222, 
  "最": 223, 
  "基金": 224, 
  "能": 225, 
  "得到": 226, 
  "援助": 227, 
  "这一": 228, 
  "实施": 229, 
  "领域": 230, 
  "全球": 231, 
  "开展": 232, 
  "增加": 233, 
  "世界": 234, 
  "考虑": 235, 
  "持续": 236, 
  "相关": 237, 
  "表示": 238, 
  "参与": 239, 
  "战略": 240, 
  "获得": 241, 
  "地区": 242, 
  "议程": 243, 
  "其中": 244, 
  "自己": 245, 
  "代表团": 246, 
  "着": 247, 
  "协调": 248, 
  "支助": 249, 
  "作出": 250, 
  "者": 251, 
  "有效": 252, 
  "讨论": 253, 
  "方法": 254, 
  "但是": 255, 
  "小组": 256, 
  "预算": 257, 
  "及其": 258, 
  "作用": 259, 
  "正在": 260, 
  "由于": 261, 
  "能够": 262, 
  "指出": 263, 
  "工作人员": 264, 
  "一项": 265, 
  "程序": 266, 
  "政治": 267, 
  "资料": 268, 
  "让": 269, 
  "至": 270, 
  "处理": 271, 
  "目前": 272, 
  "a": 273, 
  "中国": 274, 
  "解决": 275, 
  "人民": 276, 
  "美国": 277, 
  "许多": 278, 
  "它们": 279, 
  "方式": 280, 
  "一种": 281, 
  "开始": 282, 
  "进一步": 283, 
  "提高": 284, 
  "机制": 285, 
  "特派团": 286, 
  "公司": 287, 
  "中心": 288, 
  "做": 289, 
  "事务": 290, 
  "任务": 291, 
  "次": 292, 
  "意见": 293, 
  "非洲": 294, 
  "说明": 295, 
  "条约": 296, 
  "培训": 297, 
  "参加": 298, 
  "取得": 299, 
  "评估": 300, 
  "减少": 301, 
  "制定": 302, 
  "15": 303, 
  "调查": 304, 
  "秘书处": 305, 
  "框架": 306, 
  "确定": 307, 
  "发展中国家": 308, 
  "人口": 309, 
  "原则": 310, 
  "进程": 311, 
  "具有": 312, 
  "美元": 313, 
  "同时": 314, 
  "又": 315, 
  "各种": 316, 
  "b": 317, 
  "目的": 318, 
  "而且": 319, 
  "部分": 320, 
  "国": 321, 
  "去": 322, 
  "30": 323, 
  "时间": 324, 
  "工作组": 325, 
  "前": 326, 
  "以便": 327, 
  "这样": 328, 
  "强调": 329, 
  "名": 330, 
  "里": 331, 
  "费用": 332, 
  "希望": 333, 
  "部门": 334, 
  "平等": 335, 
  "发言": 336, 
  "利用": 337, 
  "不是": 338, 
  "现在": 339, 
  "成为": 340, 
  "不同": 341, 
  "文化": 342, 
  "生活": 343, 
  "间": 344, 
  "此外": 345, 
  ";": 346, 
  "应该": 347, 
  "用": 348, 
  "2005": 349, 
  "标准": 350, 
  "发生": 351, 
  "20": 352, 
  "2008": 353, 
  "为了": 354, 
  "分析": 355, 
  "适当": 356, 
  "缔约方": 357, 
  "维持": 358, 
  "同": 359, 
  "是否": 360, 
  "存在": 361, 
  "C": 362, 
  "对于": 363, 
  "应当": 364, 
  "制度": 365, 
  "接受": 366, 
  "2006": 367, 
  "数据": 368, 
  "会员国": 369, 
  "基础": 370, 
  "必要": 371, 
  "*": 372, 
  "按照": 373, 
  "关系": 374, 
  "地方": 375, 
  "2010": 376, 
  "造成": 377, 
  "设立": 378, 
  "最后": 379, 
  "产生": 380, 
  "行政": 381, 
  "2009": 382, 
  "专家": 383, 
  "结果": 384, 
  "办事处": 385, 
  "办法": 386, 
  "全面": 387, 
  "好": 388, 
  "范围": 389, 
  "机会": 390, 
  "消除": 391, 
  "?": 392, 
  "什么": 393, 
  "非": 394, 
  "2007": 395, 
  "具体": 396, 
  "进展": 397, 
  "司法": 398, 
  "—": 399, 
  "各项": 400, 
  "受到": 401, 
  "2004": 402, 
  "承诺": 403, 
  "13": 404, 
  "14": 405, 
  "不能": 406, 
  "建设": 407, 
  "那": 408, 
  "家庭": 409, 
  "协助": 410, 
  "如": 411, 
  "投资": 412, 
  "鼓励": 413, 
  "充分": 414, 
  "负责": 415, 
  "帮助": 416, 
  "即": 417, 
  "并且": 418, 
  "做法": 419, 
  "法": 420, 
  "就是": 421, 
  "2011": 422, 
  "责任": 423, 
  "共同": 424, 
  "性别": 425, 
  "18": 426, 
  "用于": 427, 
  "咨询": 428, 
  "安排": 429, 
  "法院": 430, 
  "如何": 431, 
  "16": 432, 
  "资金": 433, 
  "监测": 434, 
  "吗": 435, 
  "严重": 436, 
  "贸易": 437, 
  "涉及": 438, 
  "议定书": 439, 
  "知道": 440, 
  "过程": 441, 
  "一次": 442, 
  "事项": 443, 
  "想": 444, 
  "欢迎": 445, 
  "款": 446, 
  "义务": 447, 
  "歧视": 448, 
  "条件": 449, 
  "一切": 450, 
  "人们": 451, 
  "2003": 452, 
  "形式": 453, 
  "受": 454, 
  "基本": 455, 
  "冲突": 456, 
  "以色列": 457, 
  "部队": 458, 
  "2000": 459, 
  "办公室": 460, 
  "性": 461, 
  "完成": 462, 
  "犯罪": 463, 
  "两个": 464, 
  "尤其": 465, 
  "2002": 466, 
  "改革": 467, 
  "挑战": 468, 
  "例如": 469, 
  "那些": 470, 
  "业务": 471, 
  "需": 472, 
  "日至": 473, 
  "批准": 474, 
  "2012": 475, 
  "这方面": 476, 
  "尽管": 477, 
  "大": 478, 
  "21": 479, 
  "17": 480, 
  "认识": 481, 
  "则": 482, 
  "之后": 483, 
  "采用": 484, 
  "得": 485, 
  "介绍": 486, 
  "之": 487, 
  "关切": 488, 
  "适用": 489, 
  "附件": 490, 
  "难民": 491, 
  "个人": 492, 
  "自由": 493, 
  "选举": 494, 
  "国内": 495, 
  "c": 496, 
  "协定": 497, 
  "仍然": 498, 
  "武器": 499, 
  "以下": 500, 
  "非政府": 501, 
  "出现": 502, 
  "们": 503, 
  "过": 504, 
  "企业": 505, 
  "2001": 506, 
  "当": 507, 
  "控制": 508, 
  "期": 509, 
  "19": 510, 
  "成果": 511, 
  "未": 512, 
  "临时": 513, 
  "关注": 514, 
  "优先": 515, 
  "人道主义": 516, 
  "[": 517, 
  "．": 518, 
  "000": 519, 
  "31": 520, 
  "改善": 521, 
  "市场": 522, 
  "直接": 523, 
  "25": 524, 
  "见": 525, 
  "社区": 526, 
  "利益": 527, 
  "表明": 528, 
  "这项": 529, 
  "评价": 530, 
  "之前": 531, 
  "一般": 532, 
  "非常": 533, 
  "案件": 534, 
  "仍": 535, 
  "健康": 536, 
  "当局": 537, 
  "生产": 538, 
  "联合": 539, 
  "暴力": 540, 
  "22": 541, 
  "两年": 542, 
  "立法": 543, 
  "原因": 544, 
  "虽然": 545, 
  "无法": 546, 
  "报告员": 547, 
  "然而": 548, 
  "以来": 549, 
  "时候": 550, 
  "比": 551, 
  "现有": 552, 
  "最近": 553, 
  "]": 554, 
  "24": 555, 
  "按": 556, 
  "重申": 557, 
  "履行": 558, 
  "独立": 559, 
  "2013": 560, 
  "经费": 561, 
  "或者": 562, 
  "禁止": 563, 
  "防止": 564, 
  "1999": 565, 
  "巴勒斯坦": 566, 
  "积极": 567, 
  "项": 568, 
  "限制": 569, 
  "过去": 570, 
  "23": 571, 
  "恐怖主义": 572, 
  "安理会": 573, 
  "增长": 574, 
  "一直": 575, 
  "稳定": 576, 
  "因": 577, 
  "自": 578, 
  "作": 579, 
  "出": 580, 
  "一份": 581, 
  "内容": 582, 
  "了解": 583, 
  "导致": 584, 
  "综合": 585, 
  "收到": 586, 
  "结构": 587, 
  "地位": 588, 
  "某些": 589, 
  "B": 590, 
  "需求": 591, 
  "L": 592, 
  "不会": 593, 
  "监督": 594, 
  "打击": 595, 
  "发现": 596, 
  "因素": 597, 
  "状况": 598, 
  "协商": 599, 
  "风险": 600, 
  "针对": 601, 
  "！": 602, 
  "广泛": 603, 
  "同意": 604, 
  "人类": 605, 
  "另": 606, 
  "土著": 607, 
  "领土": 608, 
  "审计": 609, 
  "请求": 610, 
  "呼吁": 611, 
  "1998": 612, 
  "这是": 613, 
  "纳入": 614, 
  "谈判": 615, 
  "承认": 616, 
  "结束": 617, 
  "制订": 618, 
  "高": 619, 
  "论坛": 620, 
  "指导": 621, 
  "E": 622, 
  "军事": 623, 
  "推动": 624, 
  "扩大": 625, 
  "对话": 626, 
  "实际": 627, 
  "欧洲": 628, 
  "厅": 629, 
  "面临": 630, 
  "定期": 631, 
  "保证": 632, 
  "26": 633, 
  "警察": 634, 
  "全国": 635, 
  "材料": 636, 
  "集团": 637, 
  "选择": 638, 
  "保障": 639, 
  "规则": 640, 
  "联系": 641, 
  "只有": 642, 
  "该国": 643, 
  "您": 644, 
  "27": 645, 
  "区": 646, 
  "宣言": 647, 
  "条款": 648, 
  "28": 649, 
  "完全": 650, 
  "发挥": 651, 
  "总统": 652, 
  "遵守": 653, 
  "经": 654, 
  "违反": 655, 
  "整个": 656, 
  "产品": 657, 
  "上述": 658, 
  "来自": 659, 
  "预防": 660, 
  "我国": 661, 
  "法庭": 662, 
  "伊拉克": 663, 
  "再": 664, 
  "规划": 665, 
  "从而": 666, 
  "财政": 667, 
  "却": 668, 
  "成功": 669, 
  "设计": 670, 
  "重新": 671, 
  "只": 672, 
  "记录": 673, 
  "非法": 674, 
  "侵犯": 675, 
  "员额": 676, 
  "正式": 677, 
  "长期": 678, 
  "明确": 679, 
  "协议": 680, 
  "加入": 681, 
  "重点": 682, 
  "S": 683, 
  "威胁": 684, 
  "收入": 685, 
  "网络": 686, 
  "事件": 687, 
  "一样": 688, 
  "更加": 689, 
  "你们": 690, 
  "之一": 691, 
  "发达国家": 692, 
  "经常": 693, 
  "程度": 694, 
  "学校": 695, 
  "起": 696, 
  "伙伴关系": 697, 
  "城市": 698, 
  "还是": 699, 
  "占": 700, 
  "当地": 701, 
  "开发": 702, 
  "29": 703, 
  "确认": 704, 
  "准备": 705, 
  "成员国": 706, 
  "土地": 707, 
  "符合": 708, 
  "同样": 709, 
  "经验": 710, 
  "每个": 711, 
  "不断": 712, 
  "外": 713, 
  "改进": 714, 
  "方": 715, 
  "下列": 716, 
  "应对": 717, 
  "结论": 718, 
  "二": 719, 
  "d": 720, 
  "普遍": 721, 
  "内部": 722, 
  "较": 723, 
  "感到": 724, 
  "小": 725, 
  "拥有": 726, 
  "有助于": 727, 
  "基于": 728, 
  "公民": 729, 
  "还有": 730, 
  "千年": 731, 
  "旨在": 732, 
  "变化": 733, 
  "宪法": 734, 
  "就业": 735, 
  "部": 736, 
  "岁": 737, 
  "一起": 738, 
  "此": 739, 
  "均": 740, 
  "恢复": 741, 
  "做出": 742, 
  "设备": 743, 
  "保持": 744, 
  "达到": 745, 
  "群体": 746, 
  "准则": 747, 
  "科学": 748, 
  "空间": 749, 
  "处": 750, 
  "人数": 751, 
  "公共": 752, 
  "编写": 753, 
  "不过": 754, 
  "倡议": 755, 
  "带来": 756, 
  "未来": 757, 
  "合同": 758, 
  "法官": 759, 
  "设施": 760, 
  "学生": 761, 
  "民主": 762, 
  "所述": 763, 
  "给予": 764, 
  "女士": 765, 
  "表": 766, 
  "％": 767, 
  "约": 768, 
  "50": 769, 
  "运动": 770, 
  "很多": 771, 
  "显示": 772, 
  "每": 773, 
  "分": 774, 
  "本国": 775, 
  "刑事": 776, 
  "解释": 777, 
  "一名": 778, 
  "像": 779, 
  "贩运": 780, 
  "专业": 781, 
  "保健": 782, 
  "受害者": 783, 
  "国际法": 784, 
  "年度": 785, 
  "进入": 786, 
  "境内": 787, 
  "保留": 788, 
  "缺乏": 789, 
  "类": 790, 
  "重大": 791, 
  "现象": 792, 
  "知识": 793, 
  "列入": 794, 
  "改变": 795, 
  "应用": 796, 
  "指标": 797, 
  "回顾": 798, 
  "有些": 799, 
  "举办": 800, 
  "才": 801, 
  "权": 802, 
  "实体": 803, 
  "申请": 804, 
  "60": 805, 
  "局势": 806, 
  "支付": 807, 
  "艾滋病": 808, 
  "反映": 809, 
  "日本": 810, 
  "组成": 811, 
  "阶段": 812, 
  "宣传": 813, 
  "管制": 814, 
  "落实": 815, 
  "水平": 816, 
  "大学": 817, 
  "下午": 818, 
  "贫穷": 819, 
  "看到": 820, 
  "提到": 821, 
  "允许": 822, 
  "构成": 823, 
  "宗教": 824, 
  "副": 825, 
  "孩子": 826, 
  "官员": 827, 
  "拘留": 828, 
  "提议": 829, 
  "条例": 830, 
  "正": 831, 
  "民间": 832, 
  "伙伴": 833, 
  "反对": 834, 
  "工具": 835, 
  "享有": 836, 
  "传统": 837, 
  "满足": 838, 
  "尊重": 839, 
  "危机": 840, 
  "价值": 841, 
  "大量": 842, 
  "核武器": 843, 
  "那么": 844, 
  "裁军": 845, 
  "文书": 846, 
  "手段": 847, 
  "2014": 848, 
  "数量": 849, 
  "后续": 850, 
  "调整": 851, 
  "今天": 852, 
  "女性": 853, 
  "40": 854, 
  "危险": 855, 
  "起来": 856, 
  "宣布": 857, 
  "成立": 858, 
  "酷刑": 859, 
  "达成": 860, 
  "关键": 861, 
  "基金会": 862, 
  "通知": 863, 
  "超过": 864, 
  "证明": 865, 
  "非正式": 866, 
  "1997": 867, 
  "最大": 868, 
  "三": 869, 
  "理由": 870, 
  "农业": 871, 
  "然后": 872, 
  "补充": 873, 
  "艾滋病毒": 874, 
  "实行": 875, 
  "访问": 876, 
  "财务": 877, 
  "无": 878, 
  "统计": 879, 
  "行动计划": 880, 
  "签署": 881, 
  "只是": 882, 
  "以上": 883, 
  "所以": 884, 
  "一点": 885, 
  "一部分": 886, 
  "呢": 887, 
  "授权": 888, 
  "扩散": 889, 
  "英语": 890, 
  "若干": 891, 
  "看": 892, 
  "资产": 893, 
  "采购": 894, 
  "为此": 895, 
  "银行": 896, 
  "声明": 897, 
  "支出": 898, 
  "残疾人": 899, 
  "职能": 900, 
  "编制": 901, 
  "事": 902, 
  "协会": 903, 
  "拟议": 904, 
  "总": 905, 
  "通常": 906, 
  "P": 907, 
  "e": 908, 
  "另外": 909, 
  "贡献": 910, 
  "主任": 911, 
  "在内": 912, 
  "分配": 913, 
  "总部": 914, 
  "各方": 915, 
  "今后": 916, 
  "质量": 917, 
  "来说": 918, 
  "地点": 919, 
  "领导": 920, 
  "重要性": 921, 
  "森林": 922, 
  "提案": 923, 
  "困难": 924, 
  "收集": 925, 
  "一定": 926, 
  "修订": 927, 
  "登记": 928, 
  "治疗": 929, 
  "大多数": 930, 
  "如下": 931, 
  "权力": 932, 
  "答复": 933, 
  "学习": 934, 
  "观察员": 935, 
  "出口": 936, 
  "尚未": 937, 
  "证据": 938, 
  "更好": 939, 
  "团": 940, 
  "拟订": 941, 
  "曾": 942, 
  "一致": 943, 
  "青年": 944, 
  "苏丹": 945, 
  "每年": 946, 
  "万美元": 947, 
  "吧": 948, 
  "增强": 949, 
  "估计": 950, 
  "移民": 951, 
  "有人": 952, 
  "属于": 953, 
  "模式": 954, 
  "－": 955, 
  "印度": 956, 
  "阿富汗": 957, 
  "Add": 958, 
  "担任": 959, 
  "亚洲": 960, 
  "多边": 961, 
  "三个": 962, 
  "毒品": 963, 
  "喜欢": 964, 
  "水": 965, 
  "再次": 966, 
  "鉴于": 967, 
  "生物": 968, 
  "气候变化": 969, 
  "外国": 970, 
  "课程": 971, 
  "罪行": 972, 
  "移徙": 973, 
  "加以": 974, 
  "自愿": 975, 
  "除": 976, 
  "常驻": 977, 
  "告诉": 978, 
  "专门": 979, 
  "联盟": 980, 
  "从事": 981, 
  "不要": 982, 
  "农村": 983, 
  "加拿大": 984, 
  "宪章": 985, 
  "点": 986, 
  "步骤": 987, 
  "寻求": 988, 
  "创造": 989, 
  "一位": 990, 
  "比较": 991, 
  "单位": 992, 
  "议会": 993, 
  "第五": 994, 
  "1996": 995, 
  "黎巴嫩": 996, 
  "团体": 997, 
  "特殊": 998, 
  "意义": 999, 
  "亿美元": 1000, 
  "核心": 1001, 
  "而言": 1002, 
  "高级": 1003, 
  "敦促": 1004, 
  "至少": 1005, 
  "其它": 1006, 
  "避免": 1007, 
  "以前": 1008, 
  "引起": 1009, 
  "纲领": 1010, 
  "第二": 1011, 
  "100": 1012, 
  "财产": 1013, 
  "她们": 1014, 
  "法国": 1015, 
  "来源": 1016, 
  "基础设施": 1017, 
  "公众": 1018, 
  "新闻": 1019, 
  "甚至": 1020, 
  "题为": 1021, 
  "发表": 1022, 
  "十分": 1023, 
  "供": 1024, 
  "最终": 1025, 
  "第六": 1026, 
  "迅速": 1027, 
  "运作": 1028, 
  "越来越": 1029, 
  "观点": 1030, 
  "通信": 1031, 
  "统一": 1032, 
  "交流": 1033, 
  "维护": 1034, 
  "首脑会议": 1035, 
  "主题": 1036, 
  "公开": 1037, 
  "核准": 1038, 
  "不仅": 1039, 
  "公平": 1040, 
  "商定": 1041, 
  "D": 1042, 
  "欧洲联盟": 1043, 
  "纽约": 1044, 
  "任命": 1045, 
  "工业": 1046, 
  "最佳": 1047, 
  "两": 1048, 
  "几个": 1049, 
  "战争": 1050, 
  "部署": 1051, 
  "召开": 1052, 
  "概念": 1053, 
  "相信": 1054, 
  "能源": 1055, 
  "损失": 1056, 
  "粮食": 1057, 
  "似乎": 1058, 
  "运输": 1059, 
  "署": 1060, 
  "此类": 1061, 
  "35": 1062, 
  "医疗": 1063, 
  "比例": 1064, 
  "赔偿": 1065, 
  "债务": 1066, 
  "日内瓦": 1067, 
  "预期": 1068, 
  "一级": 1069, 
  "承担": 1070, 
  "真正": 1071, 
  "首先": 1072, 
  "流离失所": 1073, 
  "才能": 1074, 
  "传播": 1075, 
  "如此": 1076, 
  "第一": 1077, 
  "予以": 1078, 
  "性质": 1079, 
  "体制": 1080, 
  "依照": 1081, 
  "历史": 1082, 
  "高级专员": 1083, 
  "除了": 1084, 
  "定义": 1085, 
  "金融": 1086, 
  "精神": 1087, 
  "指控": 1088, 
  "的话": 1089, 
  "贸发": 1090, 
  "计算": 1091, 
  "磋商": 1092, 
  "理解": 1093, 
  "司": 1094, 
  "据": 1095, 
  "有权": 1096, 
  "遭受": 1097, 
  "57": 1098, 
  "语言": 1099, 
  "索赔": 1100, 
  "55": 1101, 
  "预计": 1102, 
  "东西": 1103, 
  "走": 1104, 
  "45": 1105, 
  "信": 1106, 
  "感谢": 1107, 
  "良好": 1108, 
  "低": 1109, 
  "称": 1110, 
  "举措": 1111, 
  "愿意": 1112, 
  "表现": 1113, 
  "一年": 1114, 
  "这里": 1115, 
  "职位": 1116, 
  "趋势": 1117, 
  "死亡": 1118, 
  "成本": 1119, 
  "媒体": 1120, 
  "日期": 1121, 
  "平民": 1122, 
  "捐助": 1123, 
  "65": 1124, 
  "民族": 1125, 
  "两性": 1126, 
  "商业": 1127, 
  "32": 1128, 
  "紧急": 1129, 
  "贫困": 1130, 
  "组": 1131, 
  "邀请": 1132, 
  "古巴": 1133, 
  "00": 1134, 
  "辩论": 1135, 
  "价格": 1136, 
  "双方": 1137, 
  "实质性": 1138, 
  "网站": 1139, 
  "开发署": 1140, 
  "分别": 1141, 
  "住房": 1142, 
  "背景": 1143, 
  "58": 1144, 
  "依据": 1145, 
  "工人": 1146, 
  "那个": 1147, 
  "详细": 1148, 
  "训练": 1149, 
  "捐款": 1150, 
  "类似": 1151, 
  "1995": 1152, 
  "’": 1153, 
  "很大": 1154, 
  "事情": 1155, 
  "不得": 1156, 
  "34": 1157, 
  "几乎": 1158, 
  "生效": 1159, 
  "59": 1160, 
  "33": 1161, 
  "当前": 1162, 
  "降低": 1163, 
  "探讨": 1164, 
  "资助": 1165, 
  "形成": 1166, 
  "清单": 1167, 
  "立即": 1168, 
  "职业": 1169, 
  "与会者": 1170, 
  "61": 1171, 
  "德国": 1172, 
  "事实": 1173, 
  "共和国": 1174, 
  "卫生": 1175, 
  "上诉": 1176, 
  "62": 1177, 
  "36": 1178, 
  "检查": 1179, 
  "一@@": 1180, 
  "发出": 1181, 
  "十年": 1182, 
  "障碍": 1183, 
  "找到": 1184, 
  "及时": 1185, 
  "指定": 1186, 
  "特定": 1187, 
  "占领": 1188, 
  "64": 1189, 
  "不@@": 1190, 
  "最高": 1191, 
  "身份": 1192, 
  "主管": 1193, 
  "住": 1194, 
  "决策": 1195, 
  "全部": 1196, 
  "海洋": 1197, 
  "反": 1198, 
  "那样": 1199, 
  "不可": 1200, 
  "一般性": 1201, 
  "这次": 1202, 
  "明显": 1203, 
  "随着": 1204, 
  "采取行动": 1205, 
  "疾病": 1206, 
  "上午": 1207, 
  "大@@": 1208, 
  "行使": 1209, 
  "效率": 1210, 
  "下降": 1211, 
  "公正": 1212, 
  "2015": 1213, 
  "核": 1214, 
  "起诉": 1215, 
  "出席": 1216, 
  "往往": 1217, 
  "本身": 1218, 
  "电子": 1219, 
  "律师": 1220, 
  "交易": 1221, 
  "52": 1222, 
  "53": 1223, 
  "会议室": 1224, 
  "容易": 1225, 
  "一系列": 1226, 
  "破坏": 1227, 
  "37": 1228, 
  "致力于": 1229, 
  "足够": 1230, 
  "体系": 1231, 
  "损害": 1232, 
  "药物": 1233, 
  "香港": 1234, 
  "讲习班": 1235, 
  "63": 1236, 
  "高级别": 1237, 
  "阿拉伯": 1238, 
  "率": 1239, 
  "审判": 1240, 
  "至关重要": 1241, 
  "赞赏": 1242, 
  "少数": 1243, 
  "朋友": 1244, 
  "联合王国": 1245, 
  "所作": 1246, 
  "54": 1247, 
  "专员": 1248, 
  "修改": 1249, 
  "56": 1250, 
  "视为": 1251, 
  "接触": 1252, 
  "专家组": 1253, 
  "专题": 1254, 
  "索马里": 1255, 
  "有限": 1256, 
  "物质": 1257, 
  "各级": 1258, 
  "四": 1259, 
  "私营部门": 1260, 
  "重视": 1261, 
  "反应": 1262, 
  "数字": 1263, 
  "处于": 1264, 
  "女孩": 1265, 
  "经过": 1266, 
  "顾问": 1267, 
  "拒绝": 1268, 
  "届": 1269, 
  "39": 1270, 
  "生命": 1271, 
  "此种": 1272, 
  "名单": 1273, 
  "截至": 1274, 
  "联邦": 1275, 
  "相互": 1276, 
  "干事": 1277, 
  "任择": 1278, 
  "地雷": 1279, 
  "英国": 1280, 
  "那里": 1281, 
  "筹备": 1282, 
  "最新": 1283, 
  "澳大利亚": 1284, 
  "48": 1285, 
  "!": 1286, 
  "领导人": 1287, 
  "适应": 1288, 
  "且": 1289, 
  "数目": 1290, 
  "66": 1291, 
  "意味着": 1292, 
  "大约": 1293, 
  "国际公约": 1294, 
  "办": 1295, 
  "令人": 1296, 
  "仅": 1297, 
  "离开": 1298, 
  "评论": 1299, 
  "外地": 1300, 
  "监狱": 1301, 
  "51": 1302, 
  "数额": 1303, 
  "1994": 1304, 
  "天": 1305, 
  "所涉": 1306, 
  "38": 1307, 
  "秘书": 1308, 
  "侵害": 1309, 
  "没": 1310, 
  "筹资": 1311, 
  "为什么": 1312, 
  "之外": 1313, 
  "化": 1314, 
  "研究所": 1315, 
  "研讨会": 1316, 
  "部长": 1317, 
  "载": 1318, 
  "工作队": 1319, 
  "家": 1320, 
  "居民": 1321, 
  "以后": 1322, 
  "竞争": 1323, 
  "大规模": 1324, 
  "救济": 1325, 
  "即使": 1326, 
  "第一次": 1327, 
  "巨大": 1328, 
  "立场": 1329, 
  "卢旺达": 1330, 
  "人权委员会": 1331, 
  "以外": 1332, 
  "带": 1333, 
  "小时": 1334, 
  "达": 1335, 
  "成": 1336, 
  "平衡": 1337, 
  "停止": 1338, 
  "表决": 1339, 
  "觉得": 1340, 
  "吃": 1341, 
  "跟": 1342, 
  "49": 1343, 
  "力量": 1344, 
  "随后": 1345, 
  "各个": 1346, 
  "复杂": 1347, 
  "41": 1348, 
  "最好": 1349, 
  "67": 1350, 
  "42": 1351, 
  "巴西": 1352, 
  "增进": 1353, 
  "武装": 1354, 
  "理论": 1355, 
  "级": 1356, 
  "墨西哥": 1357, 
  "科索沃": 1358, 
  "…": 1359, 
  "也许": 1360, 
  "出来": 1361, 
  "1990": 1362, 
  "44": 1363, 
  "多样性": 1364, 
  "罪": 1365, 
  "货物": 1366, 
  "日益": 1367, 
  "欧盟": 1368, 
  "人士": 1369, 
  "爱": 1370, 
  "各自": 1371, 
  "不足": 1372, 
  "打算": 1373, 
  "食物": 1374, 
  "制裁": 1375, 
  "信托": 1376, 
  "加勒比": 1377, 
  "型": 1378, 
  "申诉": 1379, 
  "第三": 1380, 
  "职责": 1381, 
  "男子": 1382, 
  "机关": 1383, 
  "过渡": 1384, 
  "攸关": 1385, 
  "合理": 1386, 
  "延长": 1387, 
  "武装冲突": 1388, 
  "电话": 1389, 
  "今年": 1390, 
  "工程": 1391, 
  "转让": 1392, 
  "大部分": 1393, 
  "遭到": 1394, 
  "商品": 1395, 
  "待遇": 1396, 
  "一下": 1397, 
  "平均": 1398, 
  "谁": 1399, 
  "'": 1400, 
  "巴基斯坦": 1401, 
  "便利": 1402, 
  "68": 1403, 
  "股": 1404, 
  "世纪": 1405, 
  "46": 1406, 
  "修正": 1407, 
  "分发": 1408, 
  "父母": 1409, 
  "43": 1410, 
  "享受": 1411, 
  "母亲": 1412, 
  "科威特": 1413, 
  "俄罗斯联邦": 1414, 
  "来文": 1415, 
  "47": 1416, 
  "CN": 1417, 
  "供资": 1418, 
  "维也纳": 1419, 
  "全体会议": 1420, 
  "压力": 1421, 
  "获取": 1422, 
  "中@@": 1423, 
  "未能": 1424, 
  "意识": 1425, 
  "拉丁美洲": 1426, 
  "用户": 1427, 
  "清楚": 1428, 
  "账户": 1429, 
  "后果": 1430, 
  "实际上": 1431, 
  "而是": 1432, 
  "土耳其": 1433, 
  "便": 1434, 
  "检察官": 1435, 
  "治理": 1436, 
  "福利": 1437, 
  "听": 1438, 
  "唯一": 1439, 
  "提及": 1440, 
  "重建": 1441, 
  "大家": 1442, 
  "创新": 1443, 
  "在于": 1444, 
  "科": 1445, 
  "集中": 1446, 
  "f": 1447, 
  "法治": 1448, 
  "流动": 1449, 
  "不再": 1450, 
  "太平洋": 1451, 
  "效果": 1452, 
  "人力资源": 1453, 
  "官方": 1454, 
  "本文": 1455, 
  "500": 1456, 
  "埃及": 1457, 
  "安保": 1458, 
  "技能": 1459, 
  "飞机": 1460, 
  "协调员": 1461, 
  "钱": 1462, 
  "总是": 1463, 
  "信任": 1464, 
  "种族歧视": 1465, 
  "节": 1466, 
  "刚果民主共和国": 1467, 
  "预测": 1468, 
  "虐待": 1469, 
  "初步": 1470, 
  "攻击": 1471, 
  "供应": 1472, 
  "道": 1473, 
  "站": 1474, 
  "更新": 1475, 
  "事实上": 1476, 
  "问": 1477, 
  "年龄": 1478, 
  "南非": 1479, 
  "资格": 1480, 
  "查明": 1481, 
  "类型": 1482, 
  "对此": 1483, 
  "式": 1484, 
  "销售": 1485, 
  "提请": 1486, 
  "份": 1487, 
  "启动": 1488, 
  "局": 1489, 
  "数据库": 1490, 
  "包含": 1491, 
  "南": 1492, 
  "开发计划署": 1493, 
  "态度": 1494, 
  "当然": 1495, 
  "看法": 1496, 
  "是因为": 1497, 
  "海地": 1498, 
  "70": 1499, 
  "数": 1500, 
  "指南": 1501, 
  "变得": 1502, 
  "org": 1503, 
  "开放": 1504, 
  "当时": 1505, 
  "私人": 1506, 
  "列": 1507, 
  "利比里亚": 1508, 
  "时期": 1509, 
  "公布": 1510, 
  "起草": 1511, 
  "正如": 1512, 
  "残疾": 1513, 
  "规范": 1514, 
  "小@@": 1515, 
  "用途": 1516, 
  "劳工": 1517, 
  "核查": 1518, 
  "诉讼": 1519, 
  "自然": 1520, 
  "助理": 1521, 
  "200": 1522, 
  "外部": 1523, 
  "既": 1524, 
  "灾害": 1525, 
  "判决": 1526, 
  "转移": 1527, 
  "途径": 1528, 
  "北京": 1529, 
  "国民": 1530, 
  "工发": 1531, 
  "1993": 1532, 
  "主席团": 1533, 
  "制造": 1534, 
  "表达": 1535, 
  "方向": 1536, 
  "指": 1537, 
  "不利": 1538, 
  "放在": 1539, 
  "返回": 1540, 
  "77": 1541, 
  "额外": 1542, 
  "特点": 1543, 
  "相当": 1544, 
  "贷款": 1545, 
  "须": 1546, 
  "化学品": 1547, 
  "五": 1548, 
  "使得": 1549, 
  "意大利": 1550, 
  "通报": 1551, 
  "将会": 1552, 
  "依然": 1553, 
  "订正": 1554, 
  "种族": 1555, 
  "双边": 1556, 
  "执行局": 1557, 
  "袭击": 1558, 
  "总体": 1559, 
  "种": 1560, 
  "心理": 1561, 
  "期限": 1562, 
  "委会": 1563, 
  "观察": 1564, 
  "道路": 1565, 
  "展开": 1566, 
  "西班牙": 1567, 
  "80": 1568, 
  "每天": 1569, 
  "候选人": 1570, 
  "之中": 1571, 
  "显然": 1572, 
  "劳动": 1573, 
  "总额": 1574, 
  "全世界": 1575, 
  "附属": 1576, 
  "状态": 1577, 
  "所有人": 1578, 
  "剥夺": 1579, 
  "难民署": 1580, 
  "酌情": 1581, 
  "只要": 1582, 
  "量": 1583, 
  "俄罗斯": 1584, 
  "可能性": 1585, 
  "投入": 1586, 
  "采取措施": 1587, 
  "怎么": 1588, 
  "最低": 1589, 
  "这么": 1590, 
  "结合": 1591, 
  "简单": 1592, 
  "哪些": 1593, 
  "种族主义": 1594, 
  "全": 1595, 
  "主流": 1596, 
  "语文": 1597, 
  "瑞士": 1598, 
  "透明度": 1599, 
  "省": 1600, 
  "达尔富尔": 1601, 
  "强迫": 1602, 
  "有时": 1603, 
  "男女": 1604, 
  "相对": 1605, 
  "驻": 1606, 
  "裁决": 1607, 
  "指示": 1608, 
  "相同": 1609, 
  "中期": 1610, 
  "旅行": 1611, 
  "我要": 1612, 
  "分享": 1613, 
  "美利坚合众国": 1614, 
  "医生": 1615, 
  "议事规则": 1616, 
  "摘要": 1617, 
  "维和": 1618, 
  "子女": 1619, 
  "载有": 1620, 
  "特设": 1621, 
  "常设": 1622, 
  "原子能": 1623, 
  "组成部分": 1624, 
  "之下": 1625, 
  "更为": 1626, 
  "全球化": 1627, 
  "一天": 1628, 
  "多年": 1629, 
  "主持": 1630, 
  "干预": 1631, 
  "工程处": 1632, 
  "功能": 1633, 
  "行业": 1634, 
  "中东": 1635, 
  "报道": 1636, 
  "万": 1637, 
  "次级": 1638, 
  "国家一级": 1639, 
  "现金": 1640, 
  "现行": 1641, 
  "试验": 1642, 
  "试图": 1643, 
  "子": 1644, 
  "客户": 1645, 
  "边界": 1646, 
  "发布": 1647, 
  "集体": 1648, 
  "差异": 1649, 
  "女童": 1650, 
  "模型": 1651, 
  "州": 1652, 
  "逮捕": 1653, 
  "外交": 1654, 
  "叫": 1655, 
  "有利于": 1656, 
  "票": 1657, 
  "父亲": 1658, 
  "法令": 1659, 
  "协作": 1660, 
  "剥削": 1661, 
  "暴力行为": 1662, 
  "叙利亚": 1663, 
  "雇员": 1664, 
  "错误": 1665, 
  "令": 1666, 
  "赞扬": 1667, 
  "津贴": 1668, 
  "科特迪瓦": 1669, 
  "规模": 1670, 
  "补救": 1671, 
  "气候": 1672, 
  "长": 1673, 
  "差距": 1674, 
  "医院": 1675, 
  "以期": 1676, 
  "相应": 1677, 
  "案": 1678, 
  "执法": 1679, 
  "后勤": 1680, 
  "颁布": 1681, 
  "69": 1682, 
  "面前": 1683, 
  "回答": 1684, 
  "正确": 1685, 
  "卫星": 1686, 
  "人@@": 1687, 
  "多少": 1688, 
  "事务部": 1689, 
  "投票": 1690, 
  "太": 1691, 
  "案文": 1692, 
  "妇女地位": 1693, 
  "90": 1694, 
  "拟定": 1695, 
  "争取": 1696, 
  "只能": 1697, 
  "密切": 1698, 
  "分类": 1699, 
  "有所": 1700, 
  "并非": 1701, 
  "第二次": 1702, 
  "民众": 1703, 
  "加": 1704, 
  "主权": 1705, 
  "地球": 1706, 
  "男性": 1707, 
  "un": 1708, 
  "中央": 1709, 
  "合法": 1710, 
  "多@@": 1711, 
  "i": 1712, 
  "尽可能": 1713, 
  "测试": 1714, 
  "有@@": 1715, 
  "进口": 1716, 
  "世界银行": 1717, 
  "上升": 1718, 
  "大使": 1719, 
  "死": 1720, 
  "非洲联盟": 1721, 
  "汽车": 1722, 
  "正常": 1723, 
  "派遣": 1724, 
  "1992": 1725, 
  "法案": 1726, 
  "失踪": 1727, 
  "取消": 1728, 
  "一条": 1729, 
  "坚持": 1730, 
  "层面": 1731, 
  "啊": 1732, 
  "教师": 1733, 
  "任期": 1734, 
  "高兴": 1735, 
  "多数": 1736, 
  "潜在": 1737, 
  "环境署": 1738, 
  "1991": 1739, 
  "担保": 1740, 
  "进步": 1741, 
  "伊朗": 1742, 
  "确实": 1743, 
  "感觉": 1744, 
  "切实": 1745, 
  "遇到": 1746, 
  "建筑": 1747, 
  "共识": 1748, 
  "印度尼西亚": 1749, 
  "资本": 1750, 
  "容忍": 1751, 
  "身体": 1752, 
  "人力": 1753, 
  "阁下": 1754, 
  "军队": 1755, 
  "经历": 1756, 
  "第四": 1757, 
  "成就": 1758, 
  "减轻": 1759, 
  "证书": 1760, 
  "筹措": 1761, 
  "挪威": 1762, 
  "居住": 1763, 
  "单独": 1764, 
  "现实": 1765, 
  "食品": 1766, 
  "满意": 1767, 
  "一家": 1768, 
  "阻碍": 1769, 
  "根本": 1770, 
  "所载": 1771, 
  "相比": 1772, 
  "头": 1773, 
  "用来": 1774, 
  "严格": 1775, 
  "废物": 1776, 
  "石油": 1777, 
  "替代": 1778, 
  "除非": 1779, 
  "I": 1780, 
  "业绩": 1781, 
  "逐步": 1782, 
  "赋予": 1783, 
  "车辆": 1784, 
  "购买": 1785, 
  "防治": 1786, 
  "阿根廷": 1787, 
  "图": 1788, 
  "出版物": 1789, 
  "市": 1790, 
  "合并": 1791, 
  "诸如": 1792, 
  "平台": 1793, 
  "高度": 1794, 
  "青少年": 1795, 
  "因而": 1796, 
  "货币": 1797, 
  "经营": 1798, 
  "预防犯罪": 1799, 
  "免费": 1800, 
  "证实": 1801, 
  "制止": 1802, 
  "特征": 1803, 
  "即将": 1804, 
  "基地": 1805, 
  "肯定": 1806, 
  "申诉人": 1807, 
  "g": 1808, 
  "得以": 1809, 
  "透明": 1810, 
  "合作伙伴": 1811, 
  "解决办法": 1812, 
  "B@@": 1813, 
  "公务员": 1814, 
  "担心": 1815, 
  "类别": 1816, 
  "找": 1817, 
  "上文": 1818, 
  "家庭暴力": 1819, 
  "速度": 1820, 
  "东帝汶": 1821, 
  "www": 1822, 
  "人道主义法": 1823, 
  "惩罚": 1824, 
  "仲裁": 1825, 
  "波斯尼亚": 1826, 
  "荷兰": 1827, 
  "储存": 1828, 
  "决心": 1829, 
  "女": 1830, 
  "斯": 1831, 
  "吁请": 1832, 
  "年代": 1833, 
  "高专": 1834, 
  "多个": 1835, 
  "面对": 1836, 
  "调动": 1837, 
  "现代": 1838, 
  "若": 1839, 
  "体现": 1840, 
  "F": 1841, 
  "装置": 1842, 
  "弹药": 1843, 
  "伤害": 1844, 
  "赞同": 1845, 
  "塞拉利昂": 1846, 
  "实践": 1847, 
  "「": 1848, 
  "第一个": 1849, 
  "快速": 1850, 
  "300": 1851, 
  "刑法": 1852, 
  "」": 1853, 
  "书": 1854, 
  "去年": 1855, 
  "无论": 1856, 
  "效力": 1857, 
  "写": 1858, 
  "派": 1859, 
  "乌克兰": 1860, 
  "团结": 1861, 
  "全体": 1862, 
  "处罚": 1863, 
  "国籍": 1864, 
  "同一": 1865, 
  "燃料": 1866, 
  "议题": 1867, 
  "开支": 1868, 
  "保险": 1869, 
  "联": 1870, 
  "别人": 1871, 
  "阐述": 1872, 
  "金": 1873, 
  "取决于": 1874, 
  "买": 1875, 
  "以往": 1876, 
  "争端": 1877, 
  "适合": 1878, 
  "一旦": 1879, 
  "寻找": 1880, 
  "无@@": 1881, 
  "付款": 1882, 
  "位置": 1883, 
  "常常": 1884, 
  "德": 1885, 
  "后来": 1886, 
  "咨": 1887, 
  "瑞典": 1888, 
  "马@@": 1889, 
  "角度": 1890, 
  "认可": 1891, 
  "四个": 1892, 
  "道德": 1893, 
  "行": 1894, 
  "对@@": 1895, 
  "制作": 1896, 
  "对象": 1897, 
  "哥伦比亚": 1898, 
  "南部": 1899, 
  "消费": 1900, 
  "跨国": 1901, 
  "T@@": 1902, 
  "反恐": 1903, 
  "比赛": 1904, 
  "埃塞俄比亚": 1905, 
  "促使": 1906, 
  "新西兰": 1907, 
  "推广": 1908, 
  "思想": 1909, 
  "南斯拉夫": 1910, 
  "地@@": 1911, 
  "污染": 1912, 
  "强烈": 1913, 
  "突出": 1914, 
  "更大": 1915, 
  "排放": 1916, 
  "体": 1917, 
  "出版": 1918, 
  "自身": 1919, 
  "路": 1920, 
  "位": 1921, 
  "代理": 1922, 
  "释放": 1923, 
  "推进": 1924, 
  "设": 1925, 
  "六": 1926, 
  "谴责": 1927, 
  "回应": 1928, 
  "法规": 1929, 
  "网": 1930, 
  "想要": 1931, 
  "促请": 1932, 
  "布隆迪": 1933, 
  "大楼": 1934, 
  "附近": 1935, 
  "概述": 1936, 
  "武装部队": 1937, 
  "花": 1938, 
  "的@@": 1939, 
  "位于": 1940, 
  "例子": 1941, 
  "款项": 1942, 
  "我@@": 1943, 
  "75": 1944, 
  "妨碍": 1945, 
  "值得": 1946, 
  "曾经": 1947, 
  "混合": 1948, 
  "该项": 1949, 
  "可靠": 1950, 
  "巩固": 1951, 
  "涵盖": 1952, 
  "普通": 1953, 
  "融资": 1954, 
  "未经": 1955, 
  "还要": 1956, 
  "监管": 1957, 
  "车": 1958, 
  "摩洛哥": 1959, 
  "和解": 1960, 
  "永远": 1961, 
  "示范": 1962, 
  "动物": 1963, 
  "专门机构": 1964, 
  "养": 1965, 
  "加沙": 1966, 
  "男人": 1967, 
  "尼日利亚": 1968, 
  "荒漠化": 1969, 
  "件": 1970, 
  "参考": 1971, 
  "捐助者": 1972, 
  "某": 1973, 
  "族裔": 1974, 
  "危害": 1975, 
  "直到": 1976, 
  "工资": 1977, 
  "共": 1978, 
  "S@@": 1979, 
  "外层空间": 1980, 
  "文": 1981, 
  "不到": 1982, 
  "修正案": 1983, 
  "1994年": 1984, 
  "年底": 1985, 
  "命令": 1986, 
  "场所": 1987, 
  "可是": 1988, 
  "确立": 1989, 
  "手册": 1990, 
  "失去": 1991, 
  "儿子": 1992, 
  "费": 1993, 
  "融入": 1994, 
  "线": 1995, 
  "放弃": 1996, 
  "整体": 1997, 
  "言": 1998, 
  "上@@": 1999, 
  "一体化": 2000, 
  "书面": 2001, 
  "额": 2002, 
  "拉": 2003, 
  "生殖": 2004, 
  "死亡率": 2005, 
  "运行": 2006, 
  "意愿": 2007, 
  "估计数": 2008, 
  "联合会": 2009, 
  "1993年": 2010, 
  "页": 2011, 
  "审理": 2012, 
  "室": 2013, 
  "证人": 2014, 
  "软件": 2015, 
  "腐败": 2016, 
  "声称": 2017, 
  "共同体": 2018, 
  "显著": 2019, 
  "婚姻": 2020, 
  "门": 2021, 
  "装备": 2022, 
  "续": 2023, 
  "记者": 2024, 
  "话": 2025, 
  "斗争": 2026, 
  "死刑": 2027, 
  "成绩": 2028, 
  "共计": 2029, 
  "讲": 2030, 
  "受理": 2031, 
  "产出": 2032, 
  "首次": 2033, 
  "脆弱": 2034, 
  "阿@@": 2035, 
  "菲律宾": 2036, 
  "庇护": 2037, 
  "恶化": 2038, 
  "小岛屿": 2039, 
  "难以": 2040, 
  "三@@": 2041, 
  "开": 2042, 
  "依赖": 2043, 
  "信息技术": 2044, 
  "一道": 2045, 
  "自治": 2046, 
  "分摊": 2047, 
  "吸引": 2048, 
  "女人": 2049, 
  "M@@": 2050, 
  "受害人": 2051, 
  "水@@": 2052, 
  "与其": 2053, 
  "注重": 2054, 
  "G@@": 2055, 
  "公共部门": 2056, 
  "感染": 2057, 
  "H@@": 2058, 
  "衡量": 2059, 
  "自然资源": 2060, 
  "持久": 2061, 
  "劳动力": 2062, 
  "拿": 2063, 
  "N@@": 2064, 
  "发": 2065, 
  "讨论会": 2066, 
  "期望": 2067, 
  "乌干达": 2068, 
  "政治权利": 2069, 
  "管理局": 2070, 
  "L@@": 2071, 
  "尽快": 2072, 
  "澄清": 2073, 
  "细则": 2074, 
  "不得不": 2075, 
  "米": 2076, 
  "职务": 2077, 
  "规划署": 2078, 
  "具备": 2079, 
  "终止": 2080, 
  "打": 2081, 
  "过境": 2082, 
  "发起": 2083, 
  "征聘": 2084, 
  "描述": 2085, 
  "真的": 2086, 
  "期待": 2087, 
  "定于": 2088, 
  "之@@": 2089, 
  "高@@": 2090, 
  "学": 2091, 
  "度": 2092, 
  "仅仅": 2093, 
  "准确": 2094, 
  "学院": 2095, 
  "无核武器": 2096, 
  "行预": 2097, 
  "阿尔及利亚": 2098, 
  "泰国": 2099, 
  "利比亚": 2100, 
  "自我": 2101, 
  "简要": 2102, 
  "管辖": 2103, 
  "总理": 2104, 
  "监禁": 2105, 
  "就此": 2106, 
  "一套": 2107, 
  "部长级": 2108, 
  "实验": 2109, 
  "加快": 2110, 
  "设想": 2111, 
  "电影": 2112, 
  "界定": 2113, 
  "物品": 2114, 
  "建造": 2115, 
  "有着": 2116, 
  "时代": 2117, 
  "清洁": 2118, 
  "薪金": 2119, 
  "实地": 2120, 
  "运用": 2121, 
  "P@@": 2122, 
  "周期": 2123, 
  "痛苦": 2124, 
  "图书馆": 2125, 
  "最初": 2126, 
  "列出": 2127, 
  "拉@@": 2128, 
  "可@@": 2129, 
  "㈠": 2130, 
  "负担": 2131, 
  "中有": 2132, 
  "很快": 2133, 
  "D@@": 2134, 
  "卡": 2135, 
  "重返": 2136, 
  "亦": 2137, 
  "本次": 2138, 
  "引渡": 2139, 
  "机": 2140, 
  "情报": 2141, 
  "英文": 2142, 
  "任意": 2143, 
  "雇主": 2144, 
  "快": 2145, 
  "年轻": 2146, 
  "正是": 2147, 
  "很少": 2148, 
  "效益": 2149, 
  "听取": 2150, 
  "赞成": 2151, 
  "消费者": 2152, 
  "相": 2153, 
  "被告": 2154, 
  "宗旨": 2155, 
  "旅游": 2156, 
  "询问": 2157, 
  "争议": 2158, 
  "格鲁吉亚": 2159, 
  "推迟": 2160, 
  "㈡": 2161, 
  "信贷": 2162, 
  "谨": 2163, 
  "人居": 2164, 
  "发言者": 2165, 
  "设法": 2166, 
  "两种": 2167, 
  "别": 2168, 
  "队": 2169, 
  "几年": 2170, 
  "肯尼亚": 2171, 
  "三年": 2172, 
  "神": 2173, 
  "阿塞拜疆": 2174, 
  "北": 2175, 
  "空缺": 2176, 
  "怀疑": 2177, 
  "应急": 2178, 
  "伊斯兰": 2179, 
  "特性": 2180, 
  "年度报告": 2181, 
  "第三次": 2182, 
  "彻底": 2183, 
  "手": 2184, 
  "器": 2185, 
  "患者": 2186, 
  "核裁军": 2187, 
  "有利": 2188, 
  "老年人": 2189, 
  "驱逐": 2190, 
  "阻止": 2191, 
  "听到": 2192, 
  "400": 2193, 
  "新@@": 2194, 
  "员工": 2195, 
  "想法": 2196, 
  "少": 2197, 
  "值": 2198, 
  "克服": 2199, 
  "管辖权": 2200, 
  "规约": 2201, 
  "称为": 2202, 
  "操作": 2203, 
  "前往": 2204, 
  "豁免": 2205, 
  "3@@": 2206, 
  "飞行": 2207, 
  "塞浦路斯": 2208, 
  "刚果": 2209, 
  "声音": 2210, 
  "制": 2211, 
  "认真": 2212, 
  "下@@": 2213, 
  "妻子": 2214, 
  "已有": 2215, 
  "交换": 2216, 
  "好处": 2217, 
  "拨款": 2218, 
  "怎样": 2219, 
  "设置": 2220, 
  "潜力": 2221, 
  "掌握": 2222, 
  "西非": 2223, 
  "奥地利": 2224, 
  "近": 2225, 
  "讲话": 2226, 
  "减贫": 2227, 
  "厄立特里亚": 2228, 
  "口头": 2229, 
  "重复": 2230, 
  "照顾": 2231, 
  "投资者": 2232, 
  "黑塞哥维那": 2233, 
  "al": 2234, 
  "共有": 2235, 
  "气体": 2236, 
  "马来西亚": 2237, 
  "马": 2238, 
  "并未": 2239, 
  "百分比": 2240, 
  "机场": 2241, 
  "恤金": 2242, 
  "h": 2243, 
  "联络": 2244, 
  "阿": 2245, 
  "先": 2246, 
  "应付": 2247, 
  "受益": 2248, 
  "艺术": 2249, 
  "外勤": 2250, 
  "看见": 2251, 
  "这@@": 2252, 
  "销毁": 2253, 
  "自动": 2254, 
  "谅解": 2255, 
  "通讯": 2256, 
  "会计": 2257, 
  "智利": 2258, 
  "护理": 2259, 
  "低于": 2260, 
  "提名": 2261, 
  "要素": 2262, 
  "五年": 2263, 
  "完整": 2264, 
  "变成": 2265, 
  "公民权利": 2266, 
  "检测": 2267, 
  "内@@": 2268, 
  "关心": 2269, 
  "72": 2270, 
  "互动": 2271, 
  "财务报表": 2272, 
  "创建": 2273, 
  "教授": 2274, 
  "和@@": 2275, 
  "R@@": 2276, 
  "进": 2277, 
  "案例": 2278, 
  "意思": 2279, 
  "与此同时": 2280, 
  "经委会": 2281, 
  "600": 2282, 
  "4@@": 2283, 
  "计划署": 2284, 
  "西": 2285, 
  "丈夫": 2286, 
  "出于": 2287, 
  "安装": 2288, 
  "东道国": 2289, 
  "排除": 2290, 
  "多种": 2291, 
  "将来": 2292, 
  "欧元": 2293, 
  "缅甸": 2294, 
  "教科文组织": 2295, 
  "AC": 2296, 
  "敏感": 2297, 
  "补偿": 2298, 
  "供应商": 2299, 
  "初级": 2300, 
  "提醒": 2301, 
  "本届": 2302, 
  "逐渐": 2303, 
  "建设性": 2304, 
  "可行": 2305, 
  "象": 2306, 
  "一场": 2307, 
  "两次": 2308, 
  "少数民族": 2309, 
  "71": 2310, 
  "角色": 2311, 
  "罗马": 2312, 
  "海关": 2313, 
  "相反": 2314, 
  "心": 2315, 
  "取代": 2316, 
  "事先": 2317, 
  "备忘录": 2318, 
  "或许": 2319, 
  "希腊": 2320, 
  "西@@": 2321, 
  "特": 2322, 
  "加上": 2323, 
  "教学": 2324, 
  "兴趣": 2325, 
  "G": 2326, 
  "回到": 2327, 
  "深入": 2328, 
  "计算机": 2329, 
  "力": 2330, 
  "失败": 2331, 
  "生": 2332, 
  "削减": 2333, 
  "或是": 2334, 
  "裁军谈判": 2335, 
  "惯例": 2336, 
  "提供援助": 2337, 
  "阿拉伯叙利亚共和国": 2338, 
  "所谓": 2339, 
  "主义": 2340, 
  "看来": 2341, 
  "前景": 2342, 
  "备选": 2343, 
  "优势": 2344, 
  "克罗地亚": 2345, 
  "73": 2346, 
  "发放": 2347, 
  "下来": 2348, 
  "我会": 2349, 
  "翻译": 2350, 
  "出生": 2351, 
  "观察团": 2352, 
  "许可证": 2353, 
  "告知": 2354, 
  "当选": 2355, 
  "私营": 2356, 
  "大韩民国": 2357, 
  "早期": 2358, 
  "总数": 2359, 
  "外国人": 2360, 
  "导言": 2361, 
  "主张": 2362, 
  "印发": 2363, 
  "加速": 2364, 
  "完善": 2365, 
  "丹麦": 2366, 
  "他人": 2367, 
  "主动": 2368, 
  "会上": 2369, 
  "遵循": 2370, 
  "伊朗伊斯兰共和国": 2371, 
  "滥用": 2372, 
  "近东": 2373, 
  "紧张": 2374, 
  "名义": 2375, 
  "否则": 2376, 
  "K@@": 2377, 
  "陈述": 2378, 
  "金融机构": 2379, 
  "营养": 2380, 
  "家人": 2381, 
  "缺少": 2382, 
  "注册": 2383, 
  "安全理事会": 2384, 
  "两@@": 2385, 
  "两名": 2386, 
  "每月": 2387, 
  "这位": 2388, 
  "2@@": 2389, 
  "观念": 2390, 
  "世界各地": 2391, 
  "失业": 2392, 
  "委员": 2393, 
  "各地": 2394, 
  "不论": 2395, 
  "名字": 2396, 
  "士兵": 2397, 
  "囚犯": 2398, 
  "情形": 2399, 
  "不够": 2400, 
  "北部": 2401, 
  "消息": 2402, 
  "员": 2403, 
  "合": 2404, 
  "o": 2405, 
  "有用": 2406, 
  "人格": 2407, 
  "短期": 2408, 
  "生态系统": 2409, 
  "大型": 2410, 
  "分子": 2411, 
  "培养": 2412, 
  "巴黎": 2413, 
  "粮农组织": 2414, 
  "工会": 2415, 
  "物": 2416, 
  "人人": 2417, 
  "安哥拉": 2418, 
  "74": 2419, 
  "保存": 2420, 
  "F@@": 2421, 
  "上帝": 2422, 
  "事业": 2423, 
  "方针": 2424, 
  "结婚": 2425, 
  "约旦": 2426, 
  "卖淫": 2427, 
  "尊严": 2428, 
  "限度": 2429, 
  "渔业": 2430, 
  "s@@": 2431, 
  "孟加拉国": 2432, 
  "议员": 2433, 
  "丰富": 2434, 
  "克": 2435, 
  "利": 2436, 
  "C@@": 2437, 
  "发射": 2438, 
  "自@@": 2439, 
  "指数": 2440, 
  "76": 2441, 
  "新闻部": 2442, 
  "星期": 2443, 
  "波兰": 2444, 
  "一半": 2445, 
  "白俄罗斯": 2446, 
  "第四次": 2447, 
  "一只": 2448, 
  "密切合作": 2449, 
  "收益": 2450, 
  "作业": 2451, 
  "某种": 2452, 
  "看看": 2453, 
  "s": 2454, 
  "名额": 2455, 
  "概算": 2456, 
  "农民": 2457, 
  "故事": 2458, 
  "以@@": 2459, 
  "五个": 2460, 
  "暂停": 2461, 
  "不应": 2462, 
  "比如": 2463, 
  "许可": 2464, 
  "补贴": 2465, 
  "年轻人": 2466, 
  "载于": 2467, 
  "独特": 2468, 
  "分布": 2469, 
  "例": 2470, 
  "驻地": 2471, 
  "特遣队": 2472, 
  "测量": 2473, 
  "文章": 2474, 
  "加@@": 2475, 
  "对待": 2476, 
  "78": 2477, 
  "经济体": 2478, 
  "习惯": 2479, 
  "内罗毕": 2480, 
  "获悉": 2481, 
  "移交": 2482, 
  "来看": 2483, 
  "用品": 2484, 
  "安置": 2485, 
  "警方": 2486, 
  "绝对": 2487, 
  "85": 2488, 
  "为期": 2489, 
  "伦敦": 2490, 
  "这份": 2491, 
  "卡@@": 2492, 
  "系": 2493, 
  "理想": 2494, 
  "芬兰": 2495, 
  "科技": 2496, 
  "突尼斯": 2497, 
  "十一届": 2498, 
  "自然灾害": 2499, 
  "各类": 2500, 
  "缔结": 2501, 
  "随时": 2502, 
  "800": 2503, 
  "秘鲁": 2504, 
  "雇用": 2505, 
  "出售": 2506, 
  "有害": 2507, 
  "康复": 2508, 
  "汇编": 2509, 
  "基准": 2510, 
  "充足": 2511, 
  "界": 2512, 
  "加剧": 2513, 
  "转变": 2514, 
  "Rev": 2515, 
  "以此": 2516, 
  "废除": 2517, 
  "互联网": 2518, 
  "交付": 2519, 
  "毁灭性": 2520, 
  "语": 2521, 
  "亿": 2522, 
  "最高法院": 2523, 
  "政党": 2524, 
  "于是": 2525, 
  "方便": 2526, 
  "目录": 2527, 
  "明白": 2528, 
  "些": 2529, 
  "据称": 2530, 
  "一件": 2531, 
  "性能": 2532, 
  "改为": 2533, 
  "主办": 2534, 
  "任": 2535, 
  "病人": 2536, 
  "这类": 2537, 
  "始终": 2538, 
  "约束力": 2539, 
  "不管": 2540, 
  "危地马拉": 2541, 
  "会计准则": 2542, 
  "婴儿": 2543, 
  "着手": 2544, 
  "面": 2545, 
  "职等": 2546, 
  "体育": 2547, 
  "恐怖": 2548, 
  "强化": 2549, 
  "可持续性": 2550, 
  "推行": 2551, 
  "音乐": 2552, 
  "第二个": 2553, 
  "男孩": 2554, 
  "下面": 2555, 
  "电脑": 2556, 
  "身上": 2557, 
  "比利时": 2558, 
  "柬埔寨": 2559, 
  "比率": 2560, 
  "M": 2561, 
  "耶和华": 2562, 
  "组合": 2563, 
  "房间": 2564, 
  "时间表": 2565, 
  "融合": 2566, 
  "问责制": 2567, 
  "认定": 2568, 
  "附加": 2569, 
  "衣服": 2570, 
  "章": 2571, 
  "信仰": 2572, 
  "专门知识": 2573, 
  "坚定": 2574, 
  "邻国": 2575, 
  "格式": 2576, 
  "国际法庭": 2577, 
  "总结": 2578, 
  "马里": 2579, 
  "文本": 2580, 
  "遗憾": 2581, 
  "任何人": 2582, 
  "志愿人员": 2583, 
  "调解": 2584, 
  "近年来": 2585, 
  "名称": 2586, 
  "得出": 2587, 
  "国际贸易": 2588, 
  "95": 2589, 
  "复员": 2590, 
  "扩展": 2591, 
  "穿": 2592, 
  "动态": 2593, 
  "设在": 2594, 
  "妈妈": 2595, 
  "裁定": 2596, 
  "处境": 2597, 
  "另一方面": 2598, 
  "的确": 2599, 
  "眼睛": 2600, 
  "小型": 2601, 
  "斯@@": 2602, 
  "考试": 2603, 
  "缺陷": 2604, 
  "生存": 2605, 
  "事故": 2606, 
  "极为": 2607, 
  "分庭": 2608, 
  "后者": 2609, 
  "特@@": 2610, 
  "m@@": 2611, 
  "连续": 2612, 
  "关闭": 2613, 
  "天@@": 2614, 
  "星期一": 2615, 
  "资源管理": 2616, 
  "协同": 2617, 
  "化学": 2618, 
  "投诉": 2619, 
  "渠道": 2620, 
  "79": 2621, 
  "何种": 2622, 
  "本人": 2623, 
  "於": 2624, 
  "星期五": 2625, 
  "81": 2626, 
  "负责人": 2627, 
  "核定": 2628, 
  "斯里兰卡": 2629, 
  "先前": 2630, 
  "突然": 2631, 
  "内陆": 2632, 
  "积极参与": 2633, 
  "科学家": 2634, 
  "尼泊尔": 2635, 
  "关联": 2636, 
  "提升": 2637, 
  "不久": 2638, 
  "接近": 2639, 
  "间接": 2640, 
  "灵活": 2641, 
  "塞尔维亚": 2642, 
  "岛": 2643, 
  "，@@": 2644, 
  "美洲": 2645, 
  "光": 2646, 
  "策略": 2647, 
  "极大": 2648, 
  "房子": 2649, 
  "特别是": 2650, 
  "尔": 2651, 
  "海洋法": 2652, 
  "83": 2653, 
  "外@@": 2654, 
  "场": 2655, 
  "绿色": 2656, 
  "性暴力": 2657, 
  "连接": 2658, 
  "不人道": 2659, 
  "病毒": 2660, 
  "汞": 2661, 
  "所@@": 2662, 
  "参数": 2663, 
  "协商一致": 2664, 
  "强奸": 2665, 
  "依靠": 2666, 
  "国外": 2667, 
  "反腐败": 2668, 
  "700": 2669, 
  "穷人": 2670, 
  "5@@": 2671, 
  "首席": 2672, 
  "支援": 2673, 
  "纲要": 2674, 
  "干": 2675, 
  "受伤": 2676, 
  "厄瓜多尔": 2677, 
  "6@@": 2678, 
  "帮": 2679, 
  "委内瑞拉": 2680, 
  "有罪": 2681, 
  "地理": 2682, 
  "上空": 2683, 
  "82": 2684, 
  "贸易法": 2685, 
  "配置": 2686, 
  "排雷": 2687, 
  "企图": 2688, 
  "信心": 2689, 
  "首长": 2690, 
  "等待": 2691, 
  "电视": 2692, 
  "其他人": 2693, 
  "删除": 2694, 
  "拖延": 2695, 
  "单方面": 2696, 
  "属": 2697, 
  "那@@": 2698, 
  "董事会": 2699, 
  "表格": 2700, 
  "签名": 2701, 
  "加工": 2702, 
  "纪念": 2703, 
  "坚决": 2704, 
  "98": 2705, 
  "变革": 2706, 
  "er": 2707, 
  "管理人员": 2708, 
  "兼": 2709, 
  "探索": 2710, 
  "缓解": 2711, 
  "爆炸": 2712, 
  "SR": 2713, 
  "汇报": 2714, 
  "植物": 2715, 
  "极端": 2716, 
  "10@@": 2717, 
  "看起来": 2718, 
  "各位": 2719, 
  "表面": 2720, 
  "一国": 2721, 
  "海@@": 2722, 
  "正义": 2723, 
  "法定": 2724, 
  "移动": 2725, 
  "跟踪": 2726, 
  "房屋": 2727, 
  "老师": 2728, 
  "月份": 2729, 
  "尽": 2730, 
  "可用": 2731, 
  "南南合作": 2732, 
  "现状": 2733, 
  "其@@": 2734, 
  "有机": 2735, 
  "周围": 2736, 
  "V@@": 2737, 
  "in": 2738, 
  "有益": 2739, 
  "遣返": 2740, 
  "一方面": 2741, 
  "推出": 2742, 
  "个别": 2743, 
  "地震": 2744, 
  "秩序": 2745, 
  "当中": 2746, 
  "单一": 2747, 
  "回来": 2748, 
  "退休": 2749, 
  "区别": 2750, 
  "气": 2751, 
  "细胞": 2752, 
  "地带": 2753, 
  "共享": 2754, 
  "持有": 2755, 
  "纳": 2756, 
  "当事人": 2757, 
  "转递": 2758, 
  "如今": 2759, 
  "行政当局": 2760, 
  "有力": 2761, 
  "审评": 2762, 
  "金属": 2763, 
  "真": 2764, 
  "学会": 2765, 
  "那种": 2766, 
  "武力": 2767, 
  "召集": 2768, 
  "法语": 2769, 
  "国别": 2770, 
  "七": 2771, 
  "守则": 2772, 
  "d@@": 2773, 
  "余额": 2774, 
  "山": 2775, 
  "W@@": 2776, 
  "国际法院": 2777, 
  "架": 2778, 
  "此项": 2779, 
  "知识产权": 2780, 
  "开幕": 2781, 
  "大大": 2782, 
  "绩效": 2783, 
  "说法": 2784, 
  "快乐": 2785, 
  "信号": 2786, 
  "必要性": 2787, 
  "管": 2788, 
  "做到": 2789, 
  "海外": 2790, 
  "船": 2791, 
  "负债": 2792, 
  "送": 2793, 
  "德@@": 2794, 
  "固定": 2795, 
  "金@@": 2796, 
  "多次": 2797, 
  "充满": 2798, 
  "an": 2799, 
  "转型": 2800, 
  "摊款": 2801, 
  "病": 2802, 
  "爱尔兰": 2803, 
  "心@@": 2804, 
  "新加坡": 2805, 
  "元": 2806, 
  "援助团": 2807, 
  "J@@": 2808, 
  "级别": 2809, 
  "为止": 2810, 
  "87": 2811, 
  "发言人": 2812, 
  "事态": 2813, 
  "越南": 2814, 
  "产业": 2815, 
  "偿还": 2816, 
  "不想": 2817, 
  "残忍": 2818, 
  "86": 2819, 
  "连": 2820, 
  "晚上": 2821, 
  "领空": 2822, 
  "之内": 2823, 
  "发达": 2824, 
  "回": 2825, 
  "亚": 2826, 
  "签订": 2827, 
  "简化": 2828, 
  "b@@": 2829, 
  "84": 2830, 
  "亚美尼亚": 2831, 
  "丧失": 2832, 
  "同@@": 2833, 
  "照片": 2834, 
  "感兴趣": 2835, 
  "处置": 2836, 
  "分列": 2837, 
  "科@@": 2838, 
  "被迫": 2839, 
  "社会保障": 2840, 
  "c@@": 2841, 
  "交通": 2842, 
  "120": 2843, 
  "迄今": 2844, 
  "212": 2845, 
  "这场": 2846, 
  "处决": 2847, 
  "至于": 2848, 
  "h@@": 2849, 
  "汇率": 2850, 
  "强大": 2851, 
  "订立": 2852, 
  "边境": 2853, 
  "自从": 2854, 
  "广告": 2855, 
  "愿": 2856, 
  "葡萄牙": 2857, 
  "应有": 2858, 
  "第一届": 2859, 
  "上面": 2860, 
  "沟通": 2861, 
  "罪犯": 2862, 
  "格": 2863, 
  "怀孕": 2864, 
  "发@@": 2865, 
  "京都": 2866, 
  "某个": 2867, 
  "轻武器": 2868, 
  "竞争力": 2869, 
  "能否": 2870, 
  "来到": 2871, 
  "他@@": 2872, 
  "96": 2873, 
  "披露": 2874, 
  "空气": 2875, 
  "假设": 2876, 
  "剂": 2877, 
  "空中": 2878, 
  "标志": 2879, 
  "网上": 2880, 
  "不妨": 2881, 
  "四@@": 2882, 
  "拟": 2883, 
  "幸福": 2884, 
  "A@@": 2885, 
  "很难": 2886, 
  "哪": 2887, 
  "t@@": 2888, 
  "终了": 2889, 
  "愿望": 2890, 
  "四年": 2891, 
  "外交部长": 2892, 
  "塞内加尔": 2893, 
  "国@@": 2894, 
  "形势": 2895, 
  "题": 2896, 
  "跑": 2897, 
  "西亚": 2898, 
  "巴勒斯坦人": 2899, 
  "小学": 2900, 
  "尼": 2901, 
  "秘密": 2902, 
  "视察": 2903, 
  "效应": 2904, 
  "老@@": 2905, 
  "如@@": 2906, 
  "口": 2907, 
  "入": 2908, 
  "维修": 2909, 
  "92": 2910, 
  "着重": 2911, 
  "词": 2912, 
  "时@@": 2913, 
  "所属": 2914, 
  "转": 2915, 
  "任职": 2916, 
  "质疑": 2917, 
  "日@@": 2918, 
  "北爱尔兰": 2919, 
  "游戏": 2920, 
  "时限": 2921, 
  "问责": 2922, 
  "实质": 2923, 
  "分@@": 2924, 
  "l@@": 2925, 
  "人群": 2926, 
  "加纳": 2927, 
  "前提": 2928, 
  "刺激": 2929, 
  "分散": 2930, 
  "照料": 2931, 
  "预算外": 2932, 
  "开会": 2933, 
  "1995年": 2934, 
  "仇外": 2935, 
  "以为": 2936, 
  "其余": 2937, 
  "出去": 2938, 
  "合适": 2939, 
  "93": 2940, 
  "99": 2941, 
  "老": 2942, 
  "中非共和国": 2943, 
  "暂时": 2944, 
  "多样化": 2945, 
  "长@@": 2946, 
  "金额": 2947, 
  "坐在": 2948, 
  "诊断": 2949, 
  "查阅": 2950, 
  "军": 2951, 
  "工艺": 2952, 
  "统计数据": 2953, 
  "诉": 2954, 
  "地域": 2955, 
  "村": 2956, 
  "巴@@": 2957, 
  "协调一致": 2958, 
  "警告": 2959, 
  "88": 2960, 
  "掉": 2961, 
  "k@@": 2962, 
  "繁荣": 2963, 
  "十五届": 2964, 
  "监察员": 2965, 
  "星期四": 2966, 
  "强调指出": 2967, 
  "会@@": 2968, 
  "世贸组织": 2969, 
  "过度": 2970, 
  "为@@": 2971, 
  "贩卖": 2972, 
  "台": 2973, 
  "联合国开发计划署": 2974, 
  "两项": 2975, 
  "索赔人": 2976, 
  "出@@": 2977, 
  "继承": 2978, 
  "常会": 2979, 
  "本@@": 2980, 
  "1.@@": 2981, 
  "犯下": 2982, 
  "二@@": 2983, 
  "说话": 2984, 
  "乌拉圭": 2985, 
  "文明": 2986, 
  "n": 2987, 
  "哥斯达黎加": 2988, 
  "变动": 2989, 
  "获": 2990, 
  "配合": 2991, 
  "西方": 2992, 
  "规章": 2993, 
  "东部": 2994, 
  "非殖民化": 2995, 
  "杀害": 2996, 
  "罗马尼亚": 2997, 
  "入侵": 2998, 
  "e@@": 2999, 
  "倾向": 3000, 
  "公里": 3001, 
  "现代化": 3002, 
  "沙特阿拉伯": 3003, 
  "明天": 3004, 
  "布": 3005, 
  "解决方案": 3006, 
  "法律援助": 3007, 
  "阅读": 3008, 
  "特派": 3009, 
  "业": 3010, 
  "$": 3011, 
  "到达": 3012, 
  "基": 3013, 
  "展示": 3014, 
  "乍得": 3015, 
  "药品": 3016, 
  "有辱": 3017, 
  "档案": 3018, 
  "领取": 3019, 
  "阐明": 3020, 
  "民事": 3021, 
  "留下": 3022, 
  "定": 3023, 
  "促成": 3024, 
  "字": 3025, 
  "每次": 3026, 
  "还应": 3027, 
  "150": 3028, 
  "91": 3029, 
  "财富": 3030, 
  "库存": 3031, 
  "一张": 3032, 
  "星期二": 3033, 
  "尝试": 3034, 
  "引发": 3035, 
  "打@@": 3036, 
  "巴": 3037, 
  "强": 3038, 
  "有效性": 3039, 
  "男女平等": 3040, 
  "包容性": 3041, 
  "联刚": 3042, 
  "不幸": 3043, 
  "地址": 3044, 
  "谈到": 3045, 
  "y@@": 3046, 
  "900": 3047, 
  "就业机会": 3048, 
  "女儿": 3049, 
  "根源": 3050, 
  "法@@": 3051, 
  "中间": 3052, 
  "89": 3053, 
  "识别": 3054, 
  "难": 3055, 
  "批评": 3056, 
  "第二届": 3057, 
  "信通": 3058, 
  "轨道": 3059, 
  "热": 3060, 
  "开@@": 3061, 
  "靠": 3062, 
  "行事": 3063, 
  "97": 3064, 
  "职权范围": 3065, 
  "五@@": 3066, 
  "儿": 3067, 
  "Al": 3068, 
  "罗@@": 3069, 
  "高于": 3070, 
  "en": 3071, 
  "参照": 3072, 
  "n@@": 3073, 
  "升级": 3074, 
  "定罪": 3075, 
  "经验教训": 3076, 
  "鱼": 3077, 
  "这儿": 3078, 
  "净额": 3079, 
  "含有": 3080, 
  "领袖": 3081, 
  "粮食安全": 3082, 
  "纪律": 3083, 
  "下去": 3084, 
  "前@@": 3085, 
  "一步": 3086, 
  "r@@": 3087, 
  "工厂": 3088, 
  "流": 3089, 
  "分钟": 3090, 
  "94": 3091, 
  "温室": 3092, 
  "星期三": 3093, 
  "利@@": 3094, 
  "饥饿": 3095, 
  ">": 3096, 
  "选出": 3097, 
  "节目": 3098, 
  "宝贵": 3099, 
  "比@@": 3100, 
  "安全部队": 3101, 
  "假": 3102, 
  "破产": 3103, 
  "上海": 3104, 
  "国际标准": 3105, 
  "现": 3106, 
  "限": 3107, 
  "碳": 3108, 
  "物体": 3109, 
  "片": 3110, 
  "外交部": 3111, 
  "越": 3112, 
  "有限公司": 3113, 
  "大幅": 3114, 
  "E@@": 3115, 
  "导弹": 3116, 
  "其实": 3117, 
  "塔": 3118, 
  "就要": 3119, 
  "记得": 3120, 
  "p@@": 3121, 
  "查询": 3122, 
  "区分": 3123, 
  "兄弟": 3124, 
  "原": 3125, 
  "灾难": 3126, 
  "消耗": 3127, 
  "响应": 3128, 
  "清除": 3129, 
  "彼此": 3130, 
  "例外": 3131, 
  "南方": 3132, 
  "单": 3133, 
  "总干事": 3134, 
  "完": 3135, 
  "板": 3136, 
  "铭记": 3137, 
  "合格": 3138, 
  "单@@": 3139, 
  "105": 3140, 
  "税收": 3141, 
  "109": 3142, 
  "而@@": 3143, 
  "众多": 3144, 
  "作品": 3145, 
  "物资": 3146, 
  "追求": 3147, 
  "解除武装": 3148, 
  "公路": 3149, 
  "区域合作": 3150, 
  "现已": 3151, 
  "列为": 3152, 
  "亚@@": 3153, 
  "本地": 3154, 
  "至今": 3155, 
  "待": 3156, 
  "杀伤": 3157, 
  "等等": 3158, 
  "税": 3159, 
  "因特网": 3160, 
  "好像": 3161, 
  "没收": 3162, 
  "转交": 3163, 
  "远": 3164, 
  "首要": 3165, 
  "该法": 3166, 
  "万@@": 3167, 
  "现场": 3168, 
  "主": 3169, 
  "算法": 3170, 
  "层": 3171, 
  "有点": 3172, 
  "对付": 3173, 
  "退化": 3174, 
  "标题": 3175, 
  "博士": 3176, 
  "对策": 3177, 
  "从@@": 3178, 
  "岛屿": 3179, 
  "日起": 3180, 
  "尼加拉瓜": 3181, 
  "在线": 3182, 
  "@": 3183, 
  "草坪": 3184, 
  "声": 3185, 
  "从未": 3186, 
  "真实": 3187, 
  "热@@": 3188, 
  "姆": 3189, 
  "必需": 3190, 
  "穆斯林": 3191, 
  "来@@": 3192, 
  "正@@": 3193, 
  "海上": 3194, 
  "动力": 3195, 
  "约翰": 3196, 
  "常规武器": 3197, 
  "生态": 3198, 
  "发展权": 3199, 
  "简报": 3200, 
  "放": 3201, 
  "别的": 3202, 
  "内部监督": 3203, 
  "永久": 3204, 
  "由此": 3205, 
  "战斗": 3206, 
  "这件": 3207, 
  "玻利维亚": 3208, 
  "干旱": 3209, 
  "最为": 3210, 
  "所说": 3211, 
  "实验室": 3212, 
  "种种": 3213, 
  "庆祝": 3214, 
  "航空": 3215, 
  "朝鲜民主主义人民共和国": 3216, 
  "定为": 3217, 
  "交给": 3218, 
  "匈牙利": 3219, 
  "哈萨克斯坦": 3220, 
  "大不列颠": 3221, 
  "纠正": 3222, 
  "所列": 3223, 
  "里面": 3224, 
  "加大": 3225, 
  "实例": 3226, 
  "一致性": 3227, 
  "一段": 3228, 
  "白@@": 3229, 
  "H": 3230, 
  "军备": 3231, 
  "编辑": 3232, 
  "多哈": 3233, 
  "八": 3234, 
  "细节": 3235, 
  "时刻": 3236, 
  "经理": 3237, 
  "同事": 3238, 
  "1996年": 3239, 
  "y": 3240, 
  "所有权": 3241, 
  "萨尔瓦多": 3242, 
  "核可": 3243, 
  "选民": 3244, 
  "进度": 3245, 
  "思考": 3246, 
  "疟疾": 3247, 
  "祝贺": 3248, 
  "流行": 3249, 
  "图像": 3250, 
  "打开": 3251, 
  "12月": 3252, 
  "应@@": 3253, 
  "球": 3254, 
  "班": 3255, 
  "动员": 3256, 
  "制约": 3257, 
  "紧急情况": 3258, 
  "an@@": 3259, 
  "er@@": 3260, 
  "O@@": 3261, 
  "解除": 3262, 
  "左右": 3263, 
  "奥巴马": 3264, 
  "用以": 3265, 
  "包": 3266, 
  "利润": 3267, 
  "侵略": 3268, 
  "光@@": 3269, 
  "提高认识": 3270, 
  "伊": 3271, 
  "全权": 3272, 
  "○": 3273, 
  "相当于": 3274, 
  "美": 3275, 
  "客观": 3276, 
  "支柱": 3277, 
  "差别": 3278, 
  "狗": 3279, 
  "代表性": 3280, 
  "真是": 3281, 
  "编列": 3282, 
  "也门": 3283, 
  "用@@": 3284, 
  "赢得": 3285, 
  "是从": 3286, 
  "监察": 3287, 
  "al@@": 3288, 
  "违背": 3289, 
  "离职": 3290, 
  "所在": 3291, 
  "咨询服务": 3292, 
  "招募": 3293, 
  "强有力": 3294, 
  "1989": 3295, 
  "第二条": 3296, 
  "天气": 3297, 
  "超出": 3298, 
  "独立性": 3299, 
  "回收": 3300, 
  "安@@": 3301, 
  "喀麦隆": 3302, 
  "接收": 3303, 
  "周": 3304, 
  "时至": 3305, 
  "读": 3306, 
  "水资源": 3307, 
  "忽视": 3308, 
  "团队": 3309, 
  "公认": 3310, 
  "判例": 3311, 
  "覆盖": 3312, 
  "少年": 3313, 
  "源": 3314, 
  "持": 3315, 
  "奥@@": 3316, 
  "排放量": 3317, 
  "脆弱性": 3318, 
  "提起": 3319, 
  "㈢": 3320, 
  "ar@@": 3321, 
  "排斥": 3322, 
  "é": 3323, 
  "在@@": 3324, 
  "当事方": 3325, 
  "家里": 3326, 
  "均衡": 3327, 
  "双@@": 3328, 
  "捐助国": 3329, 
  "易": 3330, 
  "油": 3331, 
  "对外": 3332, 
  "倡导": 3333, 
  "观测": 3334, 
  "u": 3335, 
  "早": 3336, 
  "捷克共和国": 3337, 
  "种植": 3338, 
  "中学": 3339, 
  "广播": 3340, 
  "关押": 3341, 
  "负有": 3342, 
  "夫人": 3343, 
  "侧重于": 3344, 
  "伊@@": 3345, 
  "席位": 3346, 
  "地面": 3347, 
  "登记册": 3348, 
  "帐户": 3349, 
  "报": 3350, 
  "963": 3351, 
  "吨": 3352, 
  "手术": 3353, 
  "犯": 3354, 
  "必要措施": 3355, 
  "检验": 3356, 
  "成效": 3357, 
  "港口": 3358, 
  "年@@": 3359, 
  "十三届": 3360, 
  "高效": 3361, 
  "认证": 3362, 
  "用作": 3363, 
  "生@@": 3364, 
  "亚太经社会": 3365, 
  "结论性": 3366, 
  "封锁": 3367, 
  "每日": 3368, 
  "每周": 3369, 
  "强制": 3370, 
  "价值观": 3371, 
  "临床": 3372, 
  "伟大": 3373, 
  "化学武器": 3374, 
  "设定": 3375, 
  "恰当": 3376, 
  "原来": 3377, 
  "0": 3378, 
  "林": 3379, 
  "咨商": 3380, 
  "一方": 3381, 
  "非@@": 3382, 
  "作者": 3383, 
  "美丽": 3384, 
  "营地": 3385, 
  "禁运": 3386, 
  "钻石": 3387, 
  "限于": 3388, 
  "几@@": 3389, 
  "信息系统": 3390, 
  "河": 3391, 
  "情绪": 3392, 
  "尽量": 3393, 
  "毛里求斯": 3394, 
  "家属": 3395, 
  "撤销": 3396, 
  "裁谈会": 3397, 
  "溴": 3398, 
  "一贯": 3399, 
  "培训班": 3400, 
  "同等": 3401, 
  "族": 3402, 
  "生产总值": 3403, 
  "7@@": 3404, 
  "恐怖分子": 3405, 
  "会晤": 3406, 
  "国内法": 3407, 
  "保安": 3408, 
  "发给": 3409, 
  "判断": 3410, 
  "会费": 3411, 
  "美@@": 3412, 
  "形象": 3413, 
  "日子": 3414, 
  "in@@": 3415, 
  "当@@": 3416, 
  "洗钱": 3417, 
  "g@@": 3418, 
  "决策者": 3419, 
  "政权": 3420, 
  "金融危机": 3421, 
  "选定": 3422, 
  "约束": 3423, 
  "R": 3424, 
  "i@@": 3425, 
  "摆脱": 3426, 
  "所得": 3427, 
  "吸收": 3428, 
  "净": 3429, 
  "发行": 3430, 
  "后@@": 3431, 
  "往": 3432, 
  "卡塔尔": 3433, 
  "自决": 3434, 
  "克@@": 3435, 
  "日常": 3436, 
  "+": 3437, 
  "污染物": 3438, 
  "县": 3439, 
  "先进": 3440, 
  "房": 3441, 
  "利率": 3442, 
  "一词": 3443, 
  "尽早": 3444, 
  "温度": 3445, 
  "of": 3446, 
  "薪酬": 3447, 
  "配偶": 3448, 
  "成@@": 3449, 
  "Y@@": 3450, 
  "视": 3451, 
  "为何": 3452, 
  "那时": 3453, 
  "1@@": 3454, 
  "直至": 3455, 
  "辅助": 3456, 
  "灵活性": 3457, 
  "爆发": 3458, 
  "牙买加": 3459, 
  "十@@": 3460, 
  "优化": 3461, 
  "发了": 3462, 
  "包容": 3463, 
  "单元": 3464, 
  "城": 3465, 
  "花@@": 3466, 
  "分离": 3467, 
  "de": 3468, 
  "1988": 3469, 
  "做好": 3470, 
  "一所": 3471, 
  "倒": 3472, 
  "迄今为止": 3473, 
  "歧视性": 3474, 
  "被占领土": 3475, 
  "绑架": 3476, 
  "强制性": 3477, 
  "份额": 3478, 
  "全@@": 3479, 
  "高等教育": 3480, 
  "韩国": 3481, 
  "尼@@": 3482, 
  "重@@": 3483, 
  "沿海": 3484, 
  "削弱": 3485, 
  "填补": 3486, 
  "全球性": 3487, 
  "流程": 3488, 
  "参与者": 3489, 
  "过@@": 3490, 
  "风": 3491, 
  "论文": 3492, 
  "陷入": 3493, 
  "版本": 3494, 
  "种类": 3495, 
  "9@@": 3496, 
  "f@@": 3497, 
  "大陆": 3498, 
  "言论自由": 3499, 
  "船舶": 3500, 
  "学术": 3501, 
  "谢谢": 3502, 
  "未成年人": 3503, 
  "夫": 3504, 
  "指称": 3505, 
  "论述": 3506, 
  "基@@": 3507, 
  "终于": 3508, 
  "哈@@": 3509, 
  "1980": 3510, 
  "边": 3511, 
  "网页": 3512, 
  "迹象": 3513, 
  "阿尔巴尼亚": 3514, 
  "t": 3515, 
  "增多": 3516, 
  "极其": 3517, 
  "开办": 3518, 
  "分歧": 3519, 
  "答案": 3520, 
  "里@@": 3521, 
  "主@@": 3522, 
  "代价": 3523, 
  "转@@": 3524, 
  "Corr": 3525, 
  "CP": 3526, 
  "初次": 3527, 
  "库": 3528, 
  "顺利": 3529, 
  "得不到": 3530, 
  "生计": 3531, 
  "那儿": 3532, 
  "卫生组织": 3533, 
  "该部": 3534, 
  "下次": 3535, 
  "脱离": 3536, 
  "从来": 3537, 
  "较大": 3538, 
  "古@@": 3539, 
  "旅游业": 3540, 
  "ar": 3541, 
  "几内亚比绍": 3542, 
  "坐": 3543, 
  "改造": 3544, 
  "回家": 3545, 
  "授予": 3546, 
  "教": 3547, 
  "宏观经济": 3548, 
  "联合国大会": 3549, 
  "分为": 3550, 
  "万人": 3551, 
  "复原": 3552, 
  "距离": 3553, 
  "更改": 3554, 
  "试点": 3555, 
  "作出贡献": 3556, 
  "具": 3557, 
  "8@@": 3558, 
  "近期": 3559, 
  "中国政府": 3560, 
  "海": 3561, 
  "面积": 3562, 
  "太阳": 3563, 
  "赞比亚": 3564, 
  "给出": 3565, 
  "十二届": 3566, 
  "a@@": 3567, 
  "=": 3568, 
  "不必": 3569, 
  "报纸": 3570, 
  "再生能源": 3571, 
  "意外": 3572, 
  "意图": 3573, 
  "另有": 3574, 
  "公报": 3575, 
  "兰": 3576, 
  "输入": 3577, 
  "计量": 3578, 
  "工作文件": 3579, 
  "清理": 3580, 
  "条文": 3581, 
  "文@@": 3582, 
  "模拟": 3583, 
  "HRC": 3584, 
  "杂志": 3585, 
  "哪里": 3586, 
  "颜色": 3587, 
  "Z@@": 3588, 
  "成长": 3589, 
  "见到": 3590, 
  "朝": 3591, 
  "巴塞尔": 3592, 
  "刚": 3593, 
  "会谈": 3594, 
  "提": 3595, 
  "名@@": 3596, 
  "塞": 3597, 
  "暂行": 3598, 
  "要是": 3599, 
  "民兵": 3600, 
  "‘": 3601, 
  "极": 3602, 
  "核实": 3603, 
  "含量": 3604, 
  "中部": 3605, 
  "色情": 3606, 
  "缓慢": 3607, 
  "不错": 3608, 
  "增编": 3609, 
  "大小": 3610, 
  "首都": 3611, 
  "土壤": 3612, 
  "沙@@": 3613, 
  "犯罪行为": 3614, 
  "和平利用": 3615, 
  "散发": 3616, 
  "难民营": 3617, 
  "人权法": 3618, 
  "树": 3619, 
  "预定": 3620, 
  "110": 3621, 
  "农村妇女": 3622, 
  "申请人": 3623, 
  "各@@": 3624, 
  "顾客": 3625, 
  "免遭": 3626, 
  "人为": 3627, 
  "安": 3628, 
  "详情": 3629, 
  "消失": 3630, 
  "保加利亚": 3631, 
  "奥运会": 3632, 
  "环境保护": 3633, 
  "消灭": 3634, 
  "`": 3635, 
  "南@@": 3636, 
  "循环": 3637, 
  "合法性": 3638, 
  "下文": 3639, 
  "常见": 3640, 
  "本来": 3641, 
  "on": 3642, 
  "富有": 3643, 
  "上次": 3644, 
  "重": 3645, 
  "技术转让": 3646, 
  "国家元首": 3647, 
  "黑@@": 3648, 
  "定居点": 3649, 
  "动": 3650, 
  "童工": 3651, 
  "西岸": 3652, 
  "结果表明": 3653, 
  "援引": 3654, 
  "应由": 3655, 
  "k": 3656, 
  "FCCC": 3657, 
  "品": 3658, 
  "注": 3659, 
  "不罚": 3660, 
  "足以": 3661, 
  "债权人": 3662, 
  "其次": 3663, 
  "基本上": 3664, 
  "对方": 3665, 
  "前面": 3666, 
  "250": 3667, 
  "z@@": 3668, 
  "面向": 3669, 
  "系列": 3670, 
  "U@@": 3671, 
  "半@@": 3672, 
  "仔细": 3673, 
  "纳@@": 3674, 
  "好@@": 3675, 
  "弱势群体": 3676, 
  "草稿": 3677, 
  "昨天": 3678, 
  "马上": 3679, 
  "感": 3680, 
  "革命": 3681, 
  "是不是": 3682, 
  "安全部门": 3683, 
  "优惠": 3684, 
  "实物": 3685, 
  "无论是": 3686, 
  "新型": 3687, 
  "朝鲜": 3688, 
  "管理系统": 3689, 
  "船只": 3690, 
  "第六条": 3691, 
  "电子邮件": 3692, 
  "状": 3693, 
  "管理层": 3694, 
  "指挥官": 3695, 
  "入境": 3696, 
  "调查结果": 3697, 
  "接着": 3698, 
  "基因": 3699, 
  "和谐": 3700, 
  "and": 3701, 
  "工作者": 3702, 
  "家庭成员": 3703, 
  "无害": 3704, 
  "兹": 3705, 
  "制品": 3706, 
  "青年人": 3707, 
  "18@@": 3708, 
  "遭": 3709, 
  "座": 3710, 
  "激励": 3711, 
  "国王": 3712, 
  "办理": 3713, 
  "免受": 3714, 
  "国会": 3715, 
  "局面": 3716, 
  "养护": 3717, 
  "保密": 3718, 
  "所示": 3719, 
  "证券": 3720, 
  "蒙特利尔": 3721, 
  "港": 3722, 
  "添加": 3723, 
  "谈": 3724, 
  "后面": 3725, 
  "莫桑比克": 3726, 
  "不当": 3727, 
  "工": 3728, 
  "言论": 3729, 
  "华盛顿": 3730, 
  "不仅仅": 3731, 
  "想象": 3732, 
  "刚刚": 3733, 
  "围绕": 3734, 
  "常规": 3735, 
  "党": 3736, 
  "此次": 3737, 
  "自由化": 3738, 
  "节省": 3739, 
  "多么": 3740, 
  "要@@": 3741, 
  "计划生育": 3742, 
  "传真": 3743, 
  "任用": 3744, 
  "http": 3745, 
  "年初": 3746, 
  "次数": 3747, 
  "人生": 3748, 
  "l": 3749, 
  "下述": 3750, 
  "普及": 3751, 
  "亚太": 3752, 
  "除外": 3753, 
  "真相": 3754, 
  "蒙古": 3755, 
  "达@@": 3756, 
  "圆桌会议": 3757, 
  "麽": 3758, 
  "迫使": 3759, 
  "被捕": 3760, 
  "审查会议": 3761, 
  "凡": 3762, 
  "商": 3763, 
  "队伍": 3764, 
  "成熟": 3765, 
  "剩余": 3766, 
  "政府首脑": 3767, 
  "复苏": 3768, 
  "俱乐部": 3769, 
  "电@@": 3770, 
  "手@@": 3771, 
  "司法部": 3772, 
  "第三届": 3773, 
  "装": 3774, 
  "验证": 3775, 
  "会见": 3776, 
  "事宜": 3777, 
  "有待": 3778, 
  "短": 3779, 
  "失望": 3780, 
  "杀": 3781, 
  "公园": 3782, 
  "受害": 3783, 
  "I@@": 3784, 
  "作物": 3785, 
  "电信": 3786, 
  "一支": 3787, 
  "常": 3788, 
  "友好": 3789, 
  "署长": 3790, 
  "增长率": 3791, 
  "辐射": 3792, 
  "波": 3793, 
  "地图": 3794, 
  "分段": 3795, 
  "学科": 3796, 
  "...": 3797, 
  "熟悉": 3798, 
  "气氛": 3799, 
  "经济委员会": 3800, 
  "缩小": 3801, 
  "迫切需要": 3802, 
  "机器": 3803, 
  "老板": 3804, 
  "布@@": 3805, 
  "生产力": 3806, 
  "习俗": 3807, 
  "布基纳法索": 3808, 
  "世界卫生组织": 3809, 
  "药": 3810, 
  "建筑物": 3811, 
  "12@@": 3812, 
  "此事": 3813, 
  "机遇": 3814, 
  "著名": 3815, 
  "教训": 3816, 
  "权能": 3817, 
  "w@@": 3818, 
  "起到": 3819, 
  "设有": 3820, 
  "对抗": 3821, 
  "发动": 3822, 
  "离": 3823, 
  "T": 3824, 
  "依法": 3825, 
  "活力": 3826, 
  "津巴布韦": 3827, 
  "买卖": 3828, 
  "司长": 3829, 
  "变": 3830, 
  "世界人权宣言": 3831, 
  "几内亚": 3832, 
  "编号": 3833, 
  "据说": 3834, 
  "核试验": 3835, 
  "特权": 3836, 
  "第十四条": 3837, 
  "期内": 3838, 
  "老人": 3839, 
  "深": 3840, 
  "应用程序": 3841, 
  "明": 3842, 
  "补助金": 3843, 
  "每一": 3844, 
  "差": 3845, 
  "土著人": 3846, 
  "失业率": 3847, 
  "留在": 3848, 
  "开设": 3849, 
  "红@@": 3850, 
  "旧": 3851, 
  "萨@@": 3852, 
  "冻结": 3853, 
  "申明": 3854, 
  "不少": 3855, 
  "标准化": 3856, 
  "施加": 3857, 
  "头@@": 3858, 
  "跨界": 3859, 
  "十届": 3860, 
  "指导方针": 3861, 
  "经合组织": 3862, 
  "同次": 3863, 
  "罗": 3864, 
  "权限": 3865, 
  "生育": 3866, 
  "报酬": 3867, 
  "联黎": 3868, 
  "斯洛伐克": 3869, 
  "台湾": 3870, 
  "委托": 3871, 
  "爆炸物": 3872, 
  "人物": 3873, 
  "主管部门": 3874, 
  "斯洛文尼亚": 3875, 
  "月底": 3876, 
  "依": 3877, 
  "第三方": 3878, 
  "或@@": 3879, 
  "所用": 3880, 
  "j": 3881, 
  "特使": 3882, 
  "开列": 3883, 
  "姓名": 3884, 
  "广大": 3885, 
  "CEDAW": 3886, 
  "新兴": 3887, 
  "无效": 3888, 
  "害怕": 3889, 
  "流@@": 3890, 
  "集": 3891, 
  "课": 3892, 
  "找出": 3893, 
  "气@@": 3894, 
  "旅费": 3895, 
  "振兴": 3896, 
  "赠款": 3897, 
  "非正规": 3898, 
  "恩": 3899, 
  "著": 3900, 
  "文字": 3901, 
  "短缺": 3902, 
  "山@@": 3903, 
  "中非": 3904, 
  "批款": 3905, 
  "修复": 3906, 
  "&": 3907, 
  "职类": 3908, 
  "波动": 3909, 
  "风@@": 3910, 
  "健全": 3911, 
  "盟约": 3912, 
  "恐惧": 3913, 
  "知情": 3914, 
  "预防性": 3915, 
  "承受": 3916, 
  "共同努力": 3917, 
  "缴款": 3918, 
  "如同": 3919, 
  "动机": 3920, 
  "西部": 3921, 
  "维@@": 3922, 
  "序言": 3923, 
  "签证": 3924, 
  "科技咨询": 3925, 
  "要点": 3926, 
  "总共": 3927, 
  "Ch@@": 3928, 
  "色": 3929, 
  "冲击": 3930, 
  "102": 3931, 
  "UNEP": 3932, 
  "刑事法庭": 3933, 
  "巡逻": 3934, 
  "我谨": 3935, 
  "村庄": 3936, 
  "毛额": 3937, 
  "支配": 3938, 
  "当代": 3939, 
  "性@@": 3940, 
  "版": 3941, 
  "技巧": 3942, 
  "联合国环境规划署": 3943, 
  "股票": 3944, 
  "风险管理": 3945, 
  "矛盾": 3946, 
  "忘记": 3947, 
  "整合": 3948, 
  "报表": 3949, 
  "哈": 3950, 
  "es": 3951, 
  "不用": 3952, 
  "索": 3953, 
  "修建": 3954, 
  "波@@": 3955, 
  "计": 3956, 
  "残疾儿童": 3957, 
  "普@@": 3958, 
  "担忧": 3959, 
  "联塞": 3960, 
  "黑山": 3961, 
  "年前": 3962, 
  "截止": 3963, 
  "圣@@": 3964, 
  "驳回": 3965, 
  "福祉": 3966, 
  "不结盟运动": 3967, 
  "已@@": 3968, 
  "疫苗": 3969, 
  "J": 3970, 
  "分担": 3971, 
  "欧洲委员会": 3972, 
  "运送": 3973, 
  "生长": 3974, 
  "民": 3975, 
  "分开": 3976, 
  "远远": 3977, 
  "能量": 3978, 
  "乌兹别克斯坦": 3979, 
  "仇恨": 3980, 
  "论": 3981, 
  "判处": 3982, 
  "多项": 3983, 
  "一块": 3984, 
  "家@@": 3985, 
  "想到": 3986, 
  "一架": 3987, 
  "招聘": 3988, 
  "联邦政府": 3989, 
  "殖民地": 3990, 
  "反@@": 3991, 
  "此后": 3992, 
  "产妇": 3993, 
  "CRP": 3994, 
  "国际劳工组织": 3995, 
  "无疑": 3996, 
  "力求": 3997, 
  "引入": 3998, 
  "梦想": 3999, 
  "不受": 4000, 
  "美好": 4001, 
  "页次": 4002, 
  "喝": 4003, 
  "高质量": 4004, 
  "着重指出": 4005, 
  "块": 4006, 
  "免疫": 4007, 
  "行政部门": 4008, 
  "1992年": 4009, 
  "发挥作用": 4010, 
  "弱势": 4011, 
  "产量": 4012, 
  "划分": 4013, 
  "欺诈": 4014, 
  "煽动": 4015, 
  "收费": 4016, 
  "每@@": 4017, 
  "采纳": 4018, 
  "诉诸": 4019, 
  "101": 4020, 
  "V": 4021, 
  "民警": 4022, 
  "萨": 4023, 
  "紧迫": 4024, 
  "文职人员": 4025, 
  "停火": 4026, 
  "爱@@": 4027, 
  "j@@": 4028, 
  "相似": 4029, 
  "指挥": 4030, 
  "起@@": 4031, 
  "家长": 4032, 
  "应为": 4033, 
  "中等": 4034, 
  "置于": 4035, 
  "性虐待": 4036, 
  "爱情": 4037, 
  "奇": 4038, 
  "命运": 4039, 
  "带有": 4040, 
  "贝宁": 4041, 
  "正规": 4042, 
  "机械": 4043, 
  "其后": 4044, 
  "130": 4045, 
  "CONF": 4046, 
  "行@@": 4047, 
  "正当": 4048, 
  "辩护": 4049, 
  "必不可少": 4050, 
  "看着": 4051, 
  "认捐": 4052, 
  "总务": 4053, 
  "随": 4054, 
  "本着": 4055, 
  "不愿": 4056, 
  "过来": 4057, 
  "皮@@": 4058, 
  "爸爸": 4059, 
  "m": 4060, 
  "103": 4061, 
  "六个": 4062, 
  "转向": 4063, 
  "工作量": 4064, 
  "开采": 4065, 
  "显得": 4066, 
  "影响力": 4067, 
  "图@@": 4068, 
  "变@@": 4069, 
  "购置": 4070, 
  "撒哈拉": 4071, 
  "防范": 4072, 
  "干涉": 4073, 
  "较为": 4074, 
  "111": 4075, 
  "零": 4076, 
  "太@@": 4077, 
  "联合国秘书处": 4078, 
  "17@@": 4079, 
  "数@@": 4080, 
  "N": 4081, 
  "一周": 4082, 
  "提前": 4083, 
  "张": 4084, 
  "r": 4085, 
  "第十届": 4086, 
  "it@@": 4087, 
  "附": 4088, 
  "编": 4089, 
  "街": 4090, 
  "卫生部": 4091, 
  "海事": 4092, 
  "东耶路撒冷": 4093, 
  "送交": 4094, 
  "笑": 4095, 
  "v@@": 4096, 
  "K": 4097, 
  "总@@": 4098, 
  "底": 4099, 
  "塞族": 4100, 
  "2.@@": 4101, 
  "工业化": 4102, 
  "O": 4103, 
  "抗议": 4104, 
  "群岛": 4105, 
  "医学": 4106, 
  "第七条": 4107, 
  "术语": 4108, 
  "哦": 4109, 
  "104": 4110, 
  "六@@": 4111, 
  "互相": 4112, 
  "相@@": 4113, 
  "经济危机": 4114, 
  "酒": 4115, 
  "大众": 4116, 
  "人均": 4117, 
  "at": 4118, 
  "几天": 4119, 
  "ad@@": 4120, 
  "核能": 4121, 
  "半": 4122, 
  "一部": 4123, 
  "错": 4124, 
  "一句": 4125, 
  "储备": 4126, 
  "家园": 4127, 
  "案情": 4128, 
  "宗": 4129, 
  "颁发": 4130, 
  "奖励": 4131, 
  "深刻": 4132, 
  "通用": 4133, 
  "回返": 4134, 
  "契约": 4135, 
  "人事": 4136, 
  "边缘": 4137, 
  "满": 4138, 
  "裂变": 4139, 
  "画": 4140, 
  "办公": 4141, 
  "低@@": 4142, 
  "一座": 4143, 
  "架构": 4144, 
  "埃@@": 4145, 
  "今日": 4146, 
  "能@@": 4147, 
  "指令": 4148, 
  "倍": 4149, 
  "记忆": 4150, 
  "INF": 4151, 
  "长时间": 4152, 
  "筹备工作": 4153, 
  "毫无": 4154, 
  "耶路撒冷": 4155, 
  "因@@": 4156, 
  "持久性": 4157, 
  "谨慎": 4158, 
  "联检": 4159, 
  "包装": 4160, 
  "撤回": 4161, 
  "马耳他": 4162, 
  "大幅度": 4163, 
  "没@@": 4164, 
  "1986": 4165, 
  "延迟": 4166, 
  "麻醉药品": 4167, 
  "II": 4168, 
  "格@@": 4169, 
  "干扰": 4170, 
  "奠定": 4171, 
  "受@@": 4172, 
  "反馈": 4173, 
  "雷@@": 4174, 
  "副本": 4175, 
  "关税": 4176, 
  "离婚": 4177, 
  "东": 4178, 
  "西撒哈拉": 4179, 
  "本条": 4180, 
  "网址": 4181, 
  "塔吉克斯坦": 4182, 
  "罚款": 4183, 
  "基本权利": 4184, 
  "大力": 4185, 
  "神@@": 4186, 
  "真@@": 4187, 
  "有趣": 4188, 
  "深信": 4189, 
  "回@@": 4190, 
  "国务院": 4191, 
  "弃权": 4192, 
  "王": 4193, 
  "人才": 4194, 
  "发送": 4195, 
  "敌人": 4196, 
  "由@@": 4197, 
  "物种": 4198, 
  "中亚": 4199, 
  "108": 4200, 
  "警察部队": 4201, 
  "am@@": 4202, 
  "打电话": 4203, 
  "你@@": 4204, 
  "脚": 4205, 
  "典型": 4206, 
  "谋求": 4207, 
  "该@@": 4208, 
  "皮肤": 4209, 
  "之际": 4210, 
  "漂亮": 4211, 
  "走向": 4212, 
  "经社理事会": 4213, 
  "as": 4214, 
  "范畴": 4215, 
  "针对性": 4216, 
  "某一": 4217, 
  "笔": 4218, 
  "提@@": 4219, 
  "必然": 4220, 
  "ing": 4221, 
  "德班": 4222, 
  "坦桑尼亚联合共和国": 4223, 
  "叙述": 4224, 
  "付出": 4225, 
  "13@@": 4226, 
  "电力": 4227, 
  "楼": 4228, 
  "铁路": 4229, 
  "会议议程": 4230, 
  "博@@": 4231, 
  "治安": 4232, 
  "中小企业": 4233, 
  "社会主义": 4234, 
  "106": 4235, 
  "过于": 4236, 
  "群": 4237, 
  "重组": 4238, 
  "活": 4239, 
  "增至": 4240, 
  "市民": 4241, 
  "联合国儿童基金会": 4242, 
  "迪": 4243, 
  "王@@": 4244, 
  "玩": 4245, 
  "巴林": 4246, 
  "补编": 4247, 
  "生成": 4248, 
  "14@@": 4249, 
  "代替": 4250, 
  "撤出": 4251, 
  "中美洲": 4252, 
  "法律文书": 4253, 
  "小姐": 4254, 
  "部落": 4255, 
  "奖": 4256, 
  "结余": 4257, 
  "准备金": 4258, 
  "缴纳": 4259, 
  "en@@": 4260, 
  "假如": 4261, 
  "套": 4262, 
  "不足以": 4263, 
  "112": 4264, 
  "住宅": 4265, 
  "出发": 4266, 
  "COP": 4267, 
  "追踪": 4268, 
  "107": 4269, 
  "含义": 4270, 
  "世界贸易组织": 4271, 
  "转换": 4272, 
  "证": 4273, 
  "浓度": 4274, 
  "准许": 4275, 
  "运营": 4276, 
  "原@@": 4277, 
  "超越": 4278, 
  "首脑": 4279, 
  "抵达": 4280, 
  "第五次": 4281, 
  "禁毒": 4282, 
  "外联": 4283, 
  "空@@": 4284, 
  "东@@": 4285, 
  "退出": 4286, 
  "印刷": 4287, 
  "el@@": 4288, 
  "上涨": 4289, 
  "１": 4290, 
  "否认": 4291, 
  "礼物": 4292, 
  "章程": 4293, 
  "年间": 4294, 
  "元素": 4295, 
  "骚扰": 4296, 
  "多名": 4297, 
  "九": 4298, 
  "债券": 4299, 
  "勘探": 4300, 
  "行动者": 4301, 
  "各个方面": 4302, 
  "系统地": 4303, 
  "句": 4304, 
  "活跃": 4305, 
  "0@@": 4306, 
  "跨": 4307, 
  "小额": 4308, 
  "纳米比亚": 4309, 
  "中华人民共和国": 4310, 
  "联利": 4311, 
  "既定": 4312, 
  "体面": 4313, 
  "驱动": 4314, 
  "低收入": 4315, 
  "厂": 4316, 
  "于@@": 4317, 
  "可怕": 4318, 
  "商店": 4319, 
  "兵": 4320, 
  "渴望": 4321, 
  "跨国公司": 4322, 
  "偏见": 4323, 
  "花费": 4324, 
  "口译": 4325, 
  "感受": 4326, 
  "六个月": 4327, 
  "即便": 4328, 
  "第二章": 4329, 
  "铁@@": 4330, 
  "第四届": 4331, 
  "营养不良": 4332, 
  "前进": 4333, 
  "黄@@": 4334, 
  "救助": 4335, 
  "联科": 4336, 
  "将要": 4337, 
  "两者": 4338, 
  "爱沙尼亚": 4339, 
  "事务处": 4340, 
  "选": 4341, 
  "审": 4342, 
  "手机": 4343, 
  "入@@": 4344, 
  "一边": 4345, 
  "怎么样": 4346, 
  "得@@": 4347, 
  "闭会": 4348, 
  "寿命": 4349, 
  "一段时间": 4350, 
  "林业": 4351, 
  "取得成功": 4352, 
  "瓦": 4353, 
  "权威": 4354, 
  "东盟": 4355, 
  "并于": 4356, 
  "休息": 4357, 
  "拉加": 4358, 
  "妇发": 4359, 
  "运动员": 4360, 
  "质": 4361, 
  "1967": 4362, 
  "使命": 4363, 
  "提倡": 4364, 
  "角": 4365, 
  "转化": 4366, 
  "心里": 4367, 
  "未@@": 4368, 
  "成人": 4369, 
  "征求": 4370, 
  "作出努力": 4371, 
  "此@@": 4372, 
  "一事": 4373, 
  "承包商": 4374, 
  "─": 4375, 
  "积累": 4376, 
  "比额": 4377, 
  "我能": 4378, 
  "顾及": 4379, 
  "弥补": 4380, 
  "有所增加": 4381, 
  "刚才": 4382, 
  "路线图": 4383, 
  "胜利": 4384, 
  "普遍性": 4385, 
  "某人": 4386, 
  "麻烦": 4387, 
  "签发": 4388, 
  "供水": 4389, 
  "瓦@@": 4390, 
  "目的地": 4391, 
  "主导": 4392, 
  "ch@@": 4393, 
  "环保": 4394, 
  "演讲": 4395, 
  "电": 4396, 
  "酒店": 4397, 
  "作@@": 4398, 
  "养恤": 4399, 
  "路线": 4400, 
  "可否": 4401, 
  "几": 4402, 
  "成分": 4403, 
  "巴拿马": 4404, 
  "支": 4405, 
  "致使": 4406, 
  "别@@": 4407, 
  "了@@": 4408, 
  "第四条": 4409, 
  "轮": 4410, 
  "卷": 4411, 
  "这笔": 4412, 
  "联合国总部": 4413, 
  "谈话": 4414, 
  "减缓": 4415, 
  "该司": 4416, 
  "届会": 4417, 
  "采矿": 4418, 
  "115": 4419, 
  "皮": 4420, 
  "两级": 4421, 
  "托": 4422, 
  "el": 4423, 
  "演变": 4424, 
  "理念": 4425, 
  "接纳": 4426, 
  "勒": 4427, 
  "组建": 4428, 
  "鱼类": 4429, 
  "手中": 4430, 
  "碎片": 4431, 
  "之上": 4432, 
  "拉脱维亚": 4433, 
  "学者": 4434, 
  "无需": 4435, 
  "一片": 4436, 
  "三分之一": 4437, 
  "逻辑": 4438, 
  "巴拉圭": 4439, 
  "呀": 4440, 
  "114": 4441, 
  "中文": 4442, 
  "实在": 4443, 
  "经共体": 4444, 
  "会期": 4445, 
  "欣见": 4446, 
  "空": 4447, 
  "更多地": 4448, 
  "闭门": 4449, 
  "赛": 4450, 
  "确切": 4451, 
  "荷": 4452, 
  "会员": 4453, 
  "犯有": 4454, 
  "引导": 4455, 
  "说@@": 4456, 
  "or@@": 4457, 
  "第三条": 4458, 
  "操守": 4459, 
  "咖啡": 4460, 
  "打破": 4461, 
  "本书": 4462, 
  "遗产": 4463, 
  "大西洋": 4464, 
  "森": 4465, 
  "遭遇": 4466, 
  "表演": 4467, 
  "智慧": 4468, 
  "0.@@": 4469, 
  "IDB": 4470, 
  "当作": 4471, 
  "事物": 4472, 
  "洪都拉斯": 4473, 
  "门@@": 4474, 
  "紧密": 4475, 
  "这家": 4476, 
  "肉": 4477, 
  "先@@": 4478, 
  "尚": 4479, 
  "消极": 4480, 
  "签字": 4481, 
  "113": 4482, 
  "斯德哥尔摩": 4483, 
  "两国": 4484, 
  "摧毁": 4485, 
  "已于": 4486, 
  "看出": 4487, 
  "1373": 4488, 
  "手续": 4489, 
  "第五条": 4490, 
  "李@@": 4491, 
  "记住": 4492, 
  "毕业": 4493, 
  "有意": 4494, 
  "代码": 4495, 
  "臭氧": 4496, 
  "双重": 4497, 
  "文职": 4498, 
  "160": 4499, 
  "15@@": 4500, 
  "米@@": 4501, 
  "堕胎": 4502, 
  "顿": 4503, 
  "隔离": 4504, 
  "完美": 4505, 
  "服务器": 4506, 
  "边缘化": 4507, 
  "140": 4508, 
  "原籍": 4509, 
  "统治": 4510, 
  "住所": 4511, 
  "透过": 4512, 
  "利息": 4513, 
  "使用者": 4514, 
  "达成协议": 4515, 
  "搜索": 4516, 
  "周年": 4517, 
  "权益": 4518, 
  "卖": 4519, 
  "含": 4520, 
  "价": 4521, 
  "合作社": 4522, 
  "赞助": 4523, 
  "塞@@": 4524, 
  "石": 4525, 
  "头发": 4526, 
  "直升机": 4527, 
  "抓住": 4528, 
  "订约": 4529, 
  "第一章": 4530, 
  "土库曼斯坦": 4531, 
  "国际原子能机构": 4532, 
  "艰难": 4533, 
  "品牌": 4534, 
  "at@@": 4535, 
  "糟糕": 4536, 
  "负面影响": 4537, 
  "军火": 4538, 
  "所指": 4539, 
  "地中海": 4540, 
  "一辆": 4541, 
  "早上": 4542, 
  "塞人": 4543, 
  "尊重人权": 4544, 
  "不好": 4545, 
  "战斗人员": 4546, 
  "上学": 4547, 
  "更正": 4548, 
  "DP": 4549, 
  "领土完整": 4550, 
  "u@@": 4551, 
  "仪式": 4552, 
  "116": 4553, 
  "警官": 4554, 
  "明年": 4555, 
  "委": 4556, 
  "调": 4557, 
  "莫@@": 4558, 
  "迁移": 4559, 
  "遏制": 4560, 
  "到来": 4561, 
  "雷": 4562, 
  "什": 4563, 
  "跳": 4564, 
  "尽管如此": 4565, 
  "X": 4566, 
  "塔@@": 4567, 
  "科学技术": 4568, 
  "中所载": 4569, 
  "火@@": 4570, 
  "16@@": 4571, 
  "GC": 4572, 
  "证件": 4573, 
  "更换": 4574, 
  "乡村": 4575, 
  "到底": 4576, 
  "立陶宛": 4577, 
  "检查组": 4578, 
  "斐济": 4579, 
  "愉快": 4580, 
  "团长": 4581, 
  "关键作用": 4582, 
  "原理": 4583, 
  "苏丹政府": 4584, 
  "便于": 4585, 
  "诺": 4586, 
  "进来": 4587, 
  "统筹": 4588, 
  "补助": 4589, 
  "小心": 4590, 
  "竞选": 4591, 
  "名册": 4592, 
  "看上去": 4593, 
  "3.@@": 4594, 
  "推荐": 4595, 
  "基本建设": 4596, 
  "频率": 4597, 
  "Sh@@": 4598, 
  "求": 4599, 
  "激烈": 4600, 
  "税务": 4601, 
  "向前": 4602, 
  "林@@": 4603, 
  "构想": 4604, 
  "木材": 4605, 
  "7月": 4606, 
  "目": 4607, 
  "取": 4608, 
  "该条": 4609, 
  "中断": 4610, 
  "绝大多数": 4611, 
  "索@@": 4612, 
  "脸": 4613, 
  "油@@": 4614, 
  "平@@": 4615, 
  "尽力": 4616, 
  "帕@@": 4617, 
  "122": 4618, 
  "视频": 4619, 
  "一类": 4620, 
  "根": 4621, 
  "对应": 4622, 
  "租赁": 4623, 
  "落": 4624, 
  "外债": 4625, 
  "o@@": 4626, 
  "教堂": 4627, 
  "一再": 4628, 
  "一届": 4629, 
  "困境": 4630, 
  "1987": 4631, 
  "冰岛": 4632, 
  "第三个": 4633, 
  "出色": 4634, 
  "弄": 4635, 
  "the": 4636, 
  "动议": 4637, 
  "０": 4638, 
  "收取": 4639, 
  "维护者": 4640, 
  "表示感谢": 4641, 
  "反对派": 4642, 
  "精确": 4643, 
  "构建": 4644, 
  "中止": 4645, 
  "两位": 4646, 
  "及@@": 4647, 
  "是@@": 4648, 
  "却是": 4649, 
  "天然气": 4650, 
  "蒂": 4651, 
  "聘用": 4652, 
  "第@@": 4653, 
  "纸": 4654, 
  "不安": 4655, 
  "宣称": 4656, 
  "重叠": 4657, 
  "艾@@": 4658, 
  "从中": 4659, 
  "海底": 4660, 
  "坏": 4661, 
  "一生": 4662, 
  "自主": 4663, 
  "Mr": 4664, 
  "惩处": 4665, 
  "看作": 4666, 
  "所需": 4667, 
  "感情": 4668, 
  "司法制度": 4669, 
  "么": 4670, 
  "十四届": 4671, 
  "先决条件": 4672, 
  "措辞": 4673, 
  "致": 4674, 
  "老年": 4675, 
  "排": 4676, 
  "耶稣": 4677, 
  "志愿": 4678, 
  "军事行动": 4679, 
  "分裂": 4680, 
  "护照": 4681, 
  "费@@": 4682, 
  "吉尔吉斯斯坦": 4683, 
  "1985": 4684, 
  "118": 4685, 
  "全文": 4686, 
  "明@@": 4687, 
  "流入": 4688, 
  "金钱": 4689, 
  "热情": 4690, 
  "老龄": 4691, 
  "人体": 4692, 
  "优质": 4693, 
  "】": 4694, 
  "本法": 4695, 
  "再@@": 4696, 
  "捍卫": 4697, 
  "117": 4698, 
  "镇": 4699, 
  "预警": 4700, 
  "个案": 4701, 
  "户": 4702, 
  "洛@@": 4703, 
  "审讯": 4704, 
  "啦": 4705, 
  "孕妇": 4706, 
  "减免": 4707, 
  "20@@": 4708, 
  "最多": 4709, 
  "还会": 4710, 
  "动作": 4711, 
  "经济社会": 4712, 
  "参观": 4713, 
  "降": 4714, 
  "119": 4715, 
  "下跌": 4716, 
  "非索": 4717, 
  "可行性": 4718, 
  "说道": 4719, 
  "不予": 4720, 
  "日前": 4721, 
  "考察": 4722, 
  "阿拉伯联合酋长国": 4723, 
  "和平解决": 4724, 
  "连@@": 4725, 
  "迪@@": 4726, 
  "火": 4727, 
  "撤离": 4728, 
  "不了": 4729, 
  "牵头": 4730, 
  "指明": 4731, 
  "多哥": 4732, 
  "有没有": 4733, 
  "美国政府": 4734, 
  "曼": 4735, 
  "信@@": 4736, 
  "毫无疑问": 4737, 
  "一人": 4738, 
  "海岸": 4739, 
  "家具": 4740, 
  "调节": 4741, 
  "贵": 4742, 
  "协调会": 4743, 
  "饮食": 4744, 
  "企业家": 4745, 
  "聪明": 4746, 
  "合成": 4747, 
  "团伙": 4748, 
  "集会": 4749, 
  "is@@": 4750, 
  "贝@@": 4751, 
  "充分利用": 4752, 
  "电邮": 4753, 
  "塔利班": 4754, 
  "汤姆": 4755, 
  "on@@": 4756, 
  "刑法典": 4757, 
  "饮用水": 4758, 
  "海盗": 4759, 
  "租金": 4760, 
  "挑选": 4761, 
  "点@@": 4762, 
  "呆": 4763, 
  "全面禁止": 4764, 
  "相关性": 4765, 
  "下载": 4766, 
  "延误": 4767, 
  "成年人": 4768, 
  "有时候": 4769, 
  "外空": 4770, 
  "面@@": 4771, 
  "张@@": 4772, 
  "混乱": 4773, 
  "普通照会": 4774, 
  "损坏": 4775, 
  "子@@": 4776, 
  "惩治": 4777, 
  "申报": 4778, 
  "浪费": 4779, 
  "职": 4780, 
  "放@@": 4781, 
  "要么": 4782, 
  "配备": 4783, 
  "儿基会": 4784, 
  "公共行政": 4785, 
  "180": 4786, 
  "议定": 4787, 
  "估算": 4788, 
  "危及": 4789, 
  "1982": 4790, 
  "国民议会": 4791, 
  "追加": 4792, 
  "刑事诉讼": 4793, 
  "西班牙语": 4794, 
  "2.1": 4795, 
  "关": 4796, 
  "通货膨胀": 4797, 
  "测定": 4798, 
  "罗姆人": 4799, 
  "争论": 4800, 
  "严峻": 4801, 
  "自行": 4802, 
  "经@@": 4803, 
  "石@@": 4804, 
  "不满": 4805, 
  "方@@": 4806, 
  "实务": 4807, 
  "照": 4808, 
  "乐观": 4809, 
  "据此": 4810, 
  "托@@": 4811, 
  "抑制": 4812, 
  "注意力": 4813, 
  "层次": 4814, 
  "职业培训": 4815, 
  "一个月": 4816, 
  "车@@": 4817, 
  "电子商务": 4818, 
  "6月": 4819, 
  "社会福利": 4820, 
  "当今": 4821, 
  "资讯": 4822, 
  "遗留": 4823, 
  "枚": 4824, 
  "羁押": 4825, 
  "地上": 4826, 
  "传递": 4827, 
  "向@@": 4828, 
  "地说": 4829, 
  "法文": 4830, 
  "之所以": 4831, 
  "报复": 4832, 
  "感到遗憾": 4833, 
  "恶劣": 4834, 
  "施工": 4835, 
  "算": 4836, 
  "初期": 4837, 
  "清@@": 4838, 
  "以南": 4839, 
  "职权": 4840, 
  "公共卫生": 4841, 
  "本案": 4842, 
  "素": 4843, 
  "第五十九": 4844, 
  "禁令": 4845, 
  "百@@": 4846, 
  "确信": 4847, 
  "穷国": 4848, 
  "身": 4849, 
  "像是": 4850, 
  "拯救": 4851, 
  "将军": 4852, 
  "处在": 4853, 
  "概况": 4854, 
  "三名": 4855, 
  "教会": 4856, 
  "电台": 4857, 
  "毫米": 4858, 
  "假定": 4859, 
  "10月": 4860, 
  "法律事务": 4861, 
  "职员": 4862, 
  "立刻": 4863, 
  "项下": 4864, 
  "八@@": 4865, 
  "物理": 4866, 
  "草": 4867, 
  "监控": 4868, 
  "吉布提": 4869, 
  "精简": 4870, 
  "参加者": 4871, 
  "鲁@@": 4872, 
  "CRC": 4873, 
  "料": 4874, 
  "公共政策": 4875, 
  "风格": 4876, 
  "看待": 4877, 
  "辆": 4878, 
  "城镇": 4879, 
  "压": 4880, 
  "样子": 4881, 
  "传染病": 4882, 
  "信函": 4883, 
  "眼": 4884, 
  "as@@": 4885, 
  "定位": 4886, 
  "很@@": 4887, 
  "ic@@": 4888, 
  "对比": 4889, 
  "机@@": 4890, 
  "无国籍": 4891, 
  "农场": 4892, 
  "第九届": 4893, 
  "第九条": 4894, 
  "(@@": 4895, 
  "采取有效": 4896, 
  "WP": 4897, 
  "更具": 4898, 
  "高级官员": 4899, 
  "大多": 4900, 
  "次序": 4901, 
  "概要": 4902, 
  "教育部": 4903, 
  "警察局": 4904, 
  "工程师": 4905, 
  "产": 4906, 
  "指责": 4907, 
  "创业": 4908, 
  "国防": 4909, 
  "分区": 4910, 
  "抗@@": 4911, 
  "理事": 4912, 
  "曼谷": 4913, 
  "谈论": 4914, 
  "尼日尔": 4915, 
  "此前": 4916, 
  "自决权": 4917, 
  "学@@": 4918, 
  "萨摩亚": 4919, 
  "救援": 4920, 
  "看@@": 4921, 
  "垃圾": 4922, 
  "三次": 4923, 
  "内政部": 4924, 
  "顺序": 4925, 
  "过渡时期": 4926, 
  "收回": 4927, 
  "125": 4928, 
  "列举": 4929, 
  "干@@": 4930, 
  "少女": 4931, 
  "_": 4932, 
  "具体措施": 4933, 
  "木@@": 4934, 
  "不变": 4935, 
  "最@@": 4936, 
  "酸": 4937, 
  "谋杀": 4938, 
  "等级": 4939, 
  "街头": 4940, 
  "南部非洲": 4941, 
  "印象": 4942, 
  "执法人员": 4943, 
  "尊敬": 4944, 
  "今晚": 4945, 
  "之日起": 4946, 
  "分至": 4947, 
  "第五十八": 4948, 
  "症": 4949, 
  "适足": 4950, 
  "综合性": 4951, 
  "放射性": 4952, 
  "恩@@": 4953, 
  "体@@": 4954, 
  "梅@@": 4955, 
  "标签": 4956, 
  "概览": 4957, 
  "施行": 4958, 
  "膜": 4959, 
  "强度": 4960, 
  "论点": 4961, 
  "付": 4962, 
  "意": 4963, 
  "苏@@": 4964, 
  "追究": 4965, 
  "行径": 4966, 
  "旅馆": 4967, 
  "买方": 4968, 
  "无人": 4969, 
  "指@@": 4970, 
  "枪": 4971, 
  "癌症": 4972, 
  "马拉维": 4973, 
  "黑": 4974, 
  "种族灭绝": 4975, 
  "接到": 4976, 
  "p": 4977, 
  "形": 4978, 
  "证词": 4979, 
  "化合物": 4980, 
  "师": 4981, 
  "复制": 4982, 
  "内阁": 4983, 
  "得出结论": 4984, 
  "表@@": 4985, 
  "作战": 4986, 
  "优秀": 4987, 
  "七@@": 4988, 
  "南亚": 4989, 
  "Al@@": 4990, 
  "一组": 4991, 
  "放松": 4992, 
  "转型期": 4993, 
  "卢森堡": 4994, 
  "公共服务": 4995, 
  "统计数字": 4996, 
  "标记": 4997, 
  "交": 4998, 
  "展览": 4999, 
  "域": 5000, 
  "司机": 5001, 
  "11月": 5002, 
  "123": 5003, 
  "筹集": 5004, 
  "女生": 5005, 
  "清晰": 5006, 
  "生境": 5007, 
  "财务报告": 5008, 
  "9月": 5009, 
  "05": 5010, 
  "抗": 5011, 
  "穿着": 5012, 
  "异常": 5013, 
  "储蓄": 5014, 
  "专用": 5015, 
  "黑暗": 5016, 
  "公@@": 5017, 
  "欧洲人": 5018, 
  "埃": 5019, 
  "睡": 5020, 
  "将近": 5021, 
  "合@@": 5022, 
  "游客": 5023, 
  "附录": 5024, 
  "呈": 5025, 
  "捐赠": 5026, 
  "过分": 5027, 
  "伤": 5028, 
  "只会": 5029, 
  "递交": 5030, 
  "中国@@": 5031, 
  "检察长": 5032, 
  "进出口": 5033, 
  "几次": 5034, 
  "女@@": 5035, 
  "当事": 5036, 
  "早日": 5037, 
  "系数": 5038, 
  "丝": 5039, 
  "流行病": 5040, 
  "十": 5041, 
  "忙": 5042, 
  "这时": 5043, 
  "两人": 5044, 
  "展望": 5045, 
  "见下文": 5046, 
  "听说": 5047, 
  "尔@@": 5048, 
  "亲爱": 5049, 
  "专题讨论": 5050, 
  "根除": 5051, 
  "大脑": 5052, 
  "刑事诉讼法": 5053, 
  "一笔": 5054, 
  "东欧": 5055, 
  "维": 5056, 
  "普查": 5057, 
  "见解": 5058, 
  "划界": 5059, 
  "解雇": 5060, 
  "属性": 5061, 
  "非国家": 5062, 
  "到@@": 5063, 
  "初": 5064, 
  "通道": 5065, 
  "条@@": 5066, 
  "提取": 5067, 
  "采访": 5068, 
  "红": 5069, 
  "真诚": 5070, 
  "土": 5071, 
  "红色": 5072, 
  "势头": 5073, 
  "营": 5074, 
  "121": 5075, 
  "<": 5076, 
  "博物馆": 5077, 
  "既然": 5078, 
  "英": 5079, 
  "文献": 5080, 
  "具体情况": 5081, 
  "术": 5082, 
  "预先": 5083, 
  "建": 5084, 
  "吉@@": 5085, 
  "骨": 5086, 
  "收@@": 5087, 
  "血": 5088, 
  "路上": 5089, 
  "ah": 5090, 
  "箱": 5091, 
  "那位": 5092, 
  "杜@@": 5093, 
  "马达加斯加": 5094, 
  "盖": 5095, 
  "多米尼加共和国": 5096, 
  "北方": 5097, 
  "蒙特雷": 5098, 
  "托克劳": 5099, 
  "内在": 5100, 
  "死@@": 5101, 
  "核证": 5102, 
  "指派": 5103, 
  "1.1": 5104, 
  "警务": 5105, 
  "es@@": 5106, 
  "“@@": 5107, 
  "练习": 5108, 
  "军官": 5109, 
  "期@@": 5110, 
  "引用": 5111, 
  "液": 5112, 
  "故意": 5113, 
  "联海": 5114, 
  "坚信": 5115, 
  "动荡": 5116, 
  "原则上": 5117, 
  "抱怨": 5118, 
  "大会决议": 5119, 
  "模块": 5120, 
  "气象": 5121, 
  "救灾": 5122, 
  "奖学金": 5123, 
  "九@@": 5124, 
  "解释性": 5125, 
  "主体": 5126, 
  "院": 5127, 
  "遗传": 5128, 
  "收购": 5129, 
  "抵抗": 5130, 
  "捕捞": 5131, 
  "占有": 5132, 
  "为主": 5133, 
  "墙": 5134, 
  "通@@": 5135, 
  "压@@": 5136, 
  "前任": 5137, 
  "公务": 5138, 
  "身边": 5139, 
  "严厉": 5140, 
  "缩短": 5141, 
  "贩卖人口": 5142, 
  "店": 5143, 
  "更多": 5144, 
  "ia": 5145, 
  "目前为止": 5146, 
  "忆及": 5147, 
  "外面": 5148, 
  "代": 5149, 
  "二十一": 5150, 
  "ab@@": 5151, 
  "汇款": 5152, 
  "入学率": 5153, 
  "蔓延": 5154, 
  "女子": 5155, 
  "服务中心": 5156, 
  "第五十七届": 5157, 
  "娱乐": 5158, 
  "三分之二": 5159, 
  "附上": 5160, 
  "平": 5161, 
  "入学": 5162, 
  "巴巴多斯": 5163, 
  "题目": 5164, 
  "卫生保健": 5165, 
  "个体": 5166, 
  "编纂": 5167, 
  "官": 5168, 
  "苦难": 5169, 
  "·@@": 5170, 
  "马其顿共和国": 5171, 
  "化@@": 5172, 
  "续会": 5173, 
  "庭": 5174, 
  "文学": 5175, 
  "法人": 5176, 
  "诊所": 5177, 
  "无线电": 5178, 
  "两份": 5179, 
  "土@@": 5180, 
  "明确规定": 5181, 
  "改组": 5182, 
  "即可": 5183, 
  "太太": 5184, 
  "力度": 5185, 
  "鸟": 5186, 
  "奇怪": 5187, 
  "收养": 5188, 
  "无关": 5189, 
  "山区": 5190, 
  "【": 5191, 
  "情感": 5192, 
  "大赦": 5193, 
  "炸弹": 5194, 
  "数学": 5195, 
  "事@@": 5196, 
  "邮件": 5197, 
  "数值": 5198, 
  "必": 5199, 
  "恐吓": 5200, 
  "部委": 5201, 
  "记": 5202, 
  "／": 5203, 
  "猫": 5204, 
  "普": 5205, 
  "通": 5206, 
  "网@@": 5207, 
  "鼓舞": 5208, 
  "读者": 5209, 
  "施政": 5210, 
  "小说": 5211, 
  "内地": 5212, 
  "市场准入": 5213, 
  "评注": 5214, 
  "一本": 5215, 
  "助长": 5216, 
  "灭绝种族": 5217, 
  "牺牲": 5218, 
  "博茨瓦纳": 5219, 
  "获益": 5220, 
  "服装": 5221, 
  "聚集": 5222, 
  "变更": 5223, 
  "北@@": 5224, 
  "希@@": 5225, 
  "原始": 5226, 
  "房地产": 5227, 
  "am": 5228, 
  "一揽子": 5229, 
  "延期": 5230, 
  "邮政": 5231, 
  "阵线": 5232, 
  "剩下": 5233, 
  "配额": 5234, 
  "应予": 5235, 
  "投": 5236, 
  "司法部门": 5237, 
  "灯": 5238, 
  "基督教": 5239, 
  "圣": 5240, 
  "第七届": 5241, 
  "解": 5242, 
  "身@@": 5243, 
  "is": 5244, 
  "㈣": 5245, 
  "信念": 5246, 
  "124": 5247, 
  "列支敦士登": 5248, 
  "原先": 5249, 
  "换": 5250, 
  "妥善": 5251, 
  "复杂性": 5252, 
  "何时": 5253, 
  "原料": 5254, 
  "抵消": 5255, 
  "燃烧": 5256, 
  "研制": 5257, 
  "大气": 5258, 
  "症状": 5259, 
  "思维": 5260, 
  "纤维": 5261, 
  "必@@": 5262, 
  "函数": 5263, 
  "区域性": 5264, 
  "马尔代夫": 5265, 
  "il@@": 5266, 
  "布什": 5267, 
  "小孩": 5268, 
  "ad": 5269, 
  "流通": 5270, 
  "几十年": 5271, 
  "存储": 5272, 
  "训研": 5273, 
  "迫切": 5274, 
  "un@@": 5275, 
  "哪个": 5276, 
  "场地": 5277, 
  "解决问题": 5278, 
  "审计员": 5279, 
  "卫生设施": 5280, 
  "政府部门": 5281, 
  "种子": 5282, 
  "支持者": 5283, 
  "用尽": 5284, 
  "伤亡": 5285, 
  "切@@": 5286, 
  "三种": 5287, 
  "叶": 5288, 
  "Original": 5289, 
  "ag@@": 5290, 
  "作家": 5291, 
  "接": 5292, 
  "联合国日内瓦办事处": 5293, 
  "本质": 5294, 
  "品质": 5295, 
  "09": 5296, 
  "周末": 5297, 
  "糖": 5298, 
  "派出": 5299, 
  "慢慢": 5300, 
  "导航": 5301, 
  "业已": 5302, 
  "预见": 5303, 
  "详尽": 5304, 
  "借鉴": 5305, 
  "第一步": 5306, 
  "连续性": 5307, 
  "文中": 5308, 
  "区内": 5309, 
  "1978": 5310, 
  "邦": 5311, 
  "病例": 5312, 
  "制造商": 5313, 
  "西欧": 5314, 
  "空运": 5315, 
  "峰会": 5316, 
  "灵魂": 5317, 
  "不但": 5318, 
  "走@@": 5319, 
  "稳定性": 5320, 
  "深@@": 5321, 
  "无条件": 5322, 
  "ed": 5323, 
  "深切": 5324, 
  "携带": 5325, 
  "优点": 5326, 
  "借口": 5327, 
  "138": 5328, 
  "使@@": 5329, 
  "七个": 5330, 
  "回报": 5331, 
  "令人满意": 5332, 
  "书记": 5333, 
  "诗": 5334, 
  "男": 5335, 
  "2.2": 5336, 
  "所提": 5337, 
  "General": 5338, 
  "欧安组织": 5339, 
  "理": 5340, 
  "扭转": 5341, 
  "精@@": 5342, 
  "选项": 5343, 
  "桥": 5344, 
  "阳光": 5345, 
  "工@@": 5346, 
  "128": 5347, 
  "负": 5348, 
  "直@@": 5349, 
  "示威": 5350, 
  "体罚": 5351, 
  "代理人": 5352, 
  "带@@": 5353, 
  "实效": 5354, 
  "可靠性": 5355, 
  "等于": 5356, 
  "赤贫": 5357, 
  "134": 5358, 
  "包@@": 5359, 
  "复兴": 5360, 
  "et": 5361, 
  "第六届": 5362, 
  "清洗": 5363, 
  "白色": 5364, 
  "预算编制": 5365, 
  "相互依存": 5366, 
  "第六次": 5367, 
  "节约": 5368, 
  "据报": 5369, 
  "扫盲": 5370, 
  "海洋环境": 5371, 
  "1970": 5372, 
  "微笑": 5373, 
  "忽略": 5374, 
  "归还": 5375, 
  "菜": 5376, 
  "航行": 5377, 
  "观众": 5378, 
  "医疗保健": 5379, 
  "微型": 5380, 
  "世卫": 5381, 
  "各部": 5382, 
  "升": 5383, 
  "排@@": 5384, 
  "完整性": 5385, 
  "WG": 5386, 
  "回合": 5387, 
  "第十一届": 5388, 
  "奥": 5389, 
  "神经": 5390, 
  "海牙": 5391, 
  "抱": 5392, 
  "集束": 5393, 
  "接下来": 5394, 
  "认同": 5395, 
  "保@@": 5396, 
  "第五届": 5397, 
  "毛里塔尼亚": 5398, 
  "承付": 5399, 
  "那天": 5400, 
  "华@@": 5401, 
  "缺点": 5402, 
  "绳之以法": 5403, 
  "结": 5404, 
  "火车": 5405, 
  "技术支持": 5406, 
  "火箭": 5407, 
  "3月": 5408, 
  "定@@": 5409, 
  "1981": 5410, 
  "频繁": 5411, 
  "经济学家": 5412, 
  "玻利瓦尔": 5413, 
  "玻璃": 5414, 
  "ed@@": 5415, 
  "中将": 5416, 
  "接待": 5417, 
  "常@@": 5418, 
  "北约": 5419, 
  "制@@": 5420, 
  "无论如何": 5421, 
  "盘旋": 5422, 
  "加深": 5423, 
  "界限": 5424, 
  "id@@": 5425, 
  "刑事责任": 5426, 
  "126": 5427, 
  "第二阶段": 5428, 
  "枪支": 5429, 
  "裔": 5430, 
  "5月": 5431, 
  "境况": 5432, 
  "155": 5433, 
  "一群": 5434, 
  "模糊": 5435, 
  "议": 5436, 
  "布鲁塞尔": 5437, 
  "洛": 5438, 
  "难@@": 5439, 
  "替代品": 5440, 
  "奇@@": 5441, 
  "结构性": 5442, 
  "费率": 5443, 
  "日历": 5444, 
  "千@@": 5445, 
  "体重": 5446, 
  "东南亚": 5447, 
  "回复": 5448, 
  "纠纷": 5449, 
  "欧洲共同体": 5450, 
  "现任": 5451, 
  "超@@": 5452, 
  "所在地": 5453, 
  "失@@": 5454, 
  "定居": 5455, 
  "欧@@": 5456, 
  "适宜": 5457, 
  "进@@": 5458, 
  "白": 5459, 
  "淘汰": 5460, 
  "作法": 5461, 
  "主人": 5462, 
  "得知": 5463, 
  "可信": 5464, 
  "司法机关": 5465, 
  "回归": 5466, 
  "解放": 5467, 
  "卷入": 5468, 
  "甄选": 5469, 
  "3.1": 5470, 
  "究竟": 5471, 
  "眼@@": 5472, 
  "遵照": 5473, 
  "什么样": 5474, 
  "实用": 5475, 
  "整@@": 5476, 
  "段落": 5477, 
  "口@@": 5478, 
  "慷慨": 5479, 
  "天空": 5480, 
  "章节": 5481, 
  "库@@": 5482, 
  "益处": 5483, 
  "假期": 5484, 
  "邮票": 5485, 
  "场合": 5486, 
  "信中": 5487, 
  "人民币": 5488, 
  "敌对行动": 5489, 
  "鉴定": 5490, 
  "只@@": 5491, 
  "国内外": 5492, 
  "处以": 5493, 
  "English": 5494, 
  "性骚扰": 5495, 
  "孕产妇": 5496, 
  "莱@@": 5497, 
  "想@@": 5498, 
  "飞": 5499, 
  "名为": 5500, 
  "交@@": 5501, 
  "防@@": 5502, 
  "阶层": 5503, 
  "伊斯兰会议组织": 5504, 
  "麦@@": 5505, 
  "十六届": 5506, 
  "荣幸": 5507, 
  "地下": 5508, 
  "调@@": 5509, 
  "自杀": 5510, 
  "中午": 5511, 
  "有个": 5512, 
  "2020": 5513, 
  "难道": 5514, 
  "抱歉": 5515, 
  "诺@@": 5516, 
  "吸引力": 5517, 
  "公私": 5518, 
  "而已": 5519, 
  "et@@": 5520, 
  "无视": 5521, 
  "国际货币基金组织": 5522, 
  "1.2": 5523, 
  "帐": 5524, 
  "一会儿": 5525, 
  "微@@": 5526, 
  "平静": 5527, 
  "诸多": 5528, 
  "一大": 5529, 
  "进行谈判": 5530, 
  "非统组织": 5531, 
  "矿物": 5532, 
  "自动化": 5533, 
  "挂": 5534, 
  "损伤": 5535, 
  "译文": 5536, 
  "梦": 5537, 
  "圈": 5538, 
  "专长": 5539, 
  "刑罚": 5540, 
  "取@@": 5541, 
  "陆地": 5542, 
  "铁": 5543, 
  "他会": 5544, 
  "不丹": 5545, 
  "望": 5546, 
  "核不扩散": 5547, 
  "图片": 5548, 
  "双": 5549, 
  "甲基": 5550, 
  "收容": 5551, 
  "称赞": 5552, 
  "款额": 5553, 
  "固有": 5554, 
  "盘": 5555, 
  "复@@": 5556, 
  "农产品": 5557, 
  "冷@@": 5558, 
  "权力下放": 5559, 
  "132": 5560, 
  "细菌": 5561, 
  "特色": 5562, 
  "惠益": 5563, 
  "尤其是": 5564, 
  "球员": 5565, 
  "调集": 5566, 
  "久": 5567, 
  "153": 5568, 
  "二氧化碳": 5569, 
  "圭亚那": 5570, 
  "不可或缺": 5571, 
  "飞@@": 5572, 
  "尸体": 5573, 
  "第八届": 5574, 
  "伊斯兰教": 5575, 
  "迫害": 5576, 
  "三项": 5577, 
  "归": 5578, 
  "第二天": 5579, 
  "累积": 5580, 
  "通告": 5581, 
  "Distr": 5582, 
  "股东": 5583, 
  "吸烟": 5584, 
  "监视": 5585, 
  "政": 5586, 
  "进去": 5587, 
  "小组讨论": 5588, 
  "ol@@": 5589, 
  "占据": 5590, 
  "哪儿": 5591, 
  "裁减": 5592, 
  "出台": 5593, 
  "输出": 5594, 
  "警卫": 5595, 
  "大卫": 5596, 
  "农药": 5597, 
  "王国": 5598, 
  "毛": 5599, 
  "研发": 5600, 
  "一批": 5601, 
  "治": 5602, 
  "力@@": 5603, 
  "就@@": 5604, 
  "im@@": 5605, 
  "吉": 5606, 
  "大概": 5607, 
  "牌": 5608, 
  "ay@@": 5609, 
  "129": 5610, 
  "涉嫌": 5611, 
  "社": 5612, 
  "查": 5613, 
  "08": 5614, 
  "增设": 5615, 
  "4月": 5616, 
  "拒": 5617, 
  "中小型": 5618, 
  "引进": 5619, 
  "刀": 5620, 
  "马德里": 5621, 
  "友谊": 5622, 
  "强@@": 5623, 
  "听见": 5624, 
  "主持人": 5625, 
  "违法行为": 5626, 
  "难题": 5627, 
  "对不起": 5628, 
  "幸运": 5629, 
  "代@@": 5630, 
  "加紧努力": 5631, 
  "与会": 5632, 
  "立@@": 5633, 
  "预防措施": 5634, 
  "贩毒": 5635, 
  "第三国": 5636, 
  "补救措施": 5637, 
  "ac@@": 5638, 
  "家中": 5639, 
  "运转": 5640, 
  "将@@": 5641, 
  "以供": 5642, 
  "学术界": 5643, 
  "常用": 5644, 
  "同行": 5645, 
  "雇佣军": 5646, 
  "135": 5647, 
  "朝着": 5648, 
  "杰克": 5649, 
  "乘客": 5650, 
  "腿": 5651, 
  "追回": 5652, 
  "所致": 5653, 
  "1973": 5654, 
  "简介": 5655, 
  "2016": 5656, 
  "［": 5657, 
  "继": 5658, 
  "够": 5659, 
  "致命": 5660, 
  "用水": 5661, 
  "01": 5662, 
  "阿拉伯国家联盟": 5663, 
  "对手": 5664, 
  "中所": 5665, 
  "无辜": 5666, 
  "庭长": 5667, 
  "迈出": 5668, 
  "切割": 5669, 
  "关键问题": 5670, 
  "这部": 5671, 
  "聚会": 5672, 
  "ak@@": 5673, 
  "妥协": 5674, 
  "财务状况": 5675, 
  "06": 5676, 
  "立": 5677, 
  "分娩": 5678, 
  "连同": 5679, 
  "请@@": 5680, 
  "焦点": 5681, 
  "暂定": 5682, 
  "躺": 5683, 
  "管道": 5684, 
  "故障": 5685, 
  "慈善": 5686, 
  "介入": 5687, 
  "侧重": 5688, 
  "规律": 5689, 
  "2.5": 5690, 
  "133": 5691, 
  "更@@": 5692, 
  "想起": 5693, 
  "产假": 5694, 
  "送到": 5695, 
  "受益人": 5696, 
  "环": 5697, 
  "职工": 5698, 
  "透露": 5699, 
  "受欢迎": 5700, 
  "时说": 5701, 
  "形态": 5702, 
  "血@@": 5703, 
  "缴付": 5704, 
  "境外": 5705, 
  "事务司": 5706, 
  "约翰内斯堡": 5707, 
  "占领国": 5708, 
  "木": 5709, 
  "相结合": 5710, 
  "航空公司": 5711, 
  "第十二届": 5712, 
  "旁边": 5713, 
  "卖方": 5714, 
  "127": 5715, 
  "远程": 5716, 
  "进而": 5717, 
  "摩尔多瓦共和国": 5718, 
  "re@@": 5719, 
  "愤怒": 5720, 
  "波多黎各": 5721, 
  "劳动者": 5722, 
  "列@@": 5723, 
  "重大进展": 5724, 
  "房舍": 5725, 
  "客人": 5726, 
  "不必要": 5727, 
  "1984": 5728, 
  "同学": 5729, 
  "幅度": 5730, 
  "联合国人口基金": 5731, 
  "不适": 5732, 
  "东京": 5733, 
  "再度": 5734, 
  "人身": 5735, 
  "群众": 5736, 
  "穿过": 5737, 
  "媒介": 5738, 
  "调查团": 5739, 
  "各种各样": 5740, 
  "遥感": 5741, 
  "独立宣言": 5742, 
  "自行车": 5743, 
  "但@@": 5744, 
  "公告": 5745, 
  "1540": 5746, 
  "改动": 5747, 
  "务": 5748, 
  "］": 5749, 
  "债务人": 5750, 
  "核算": 5751, 
  "兰@@": 5752, 
  "制造业": 5753, 
  "官长": 5754, 
  "民用": 5755, 
  "CD": 5756, 
  "总量": 5757, 
  "毫不": 5758, 
  "抢劫": 5759, 
  "生产能力": 5760, 
  "氟": 5761, 
  "充当": 5762, 
  "细@@": 5763, 
  "背后": 5764, 
  "投标": 5765, 
  "悲剧": 5766, 
  "耶": 5767, 
  "精力": 5768, 
  "战": 5769, 
  "庞大": 5770, 
  "不良": 5771, 
  "经社": 5772, 
  "全民投票": 5773, 
  "扩张": 5774, 
  "大批": 5775, 
  "182": 5776, 
  "史": 5777, 
  "法律顾问": 5778, 
  "哥本哈根": 5779, 
  "持久和平": 5780, 
  "宇宙": 5781, 
  "信件": 5782, 
  "军@@": 5783, 
  "借此机会": 5784, 
  "流量": 5785, 
  "相符": 5786, 
  "赫@@": 5787, 
  "无障碍": 5788, 
  "联苏": 5789, 
  "os": 5790, 
  "管理机构": 5791, 
  "个@@": 5792, 
  "仪器": 5793, 
  "城市化": 5794, 
  "身份证": 5795, 
  "护士": 5796, 
  "衰退": 5797, 
  "加蓬": 5798, 
  "组@@": 5799, 
  "吸毒": 5800, 
  "和政": 5801, 
  "伴随": 5802, 
  "缔约": 5803, 
  "湖": 5804, 
  "托管": 5805, 
  "一面": 5806, 
  "沿着": 5807, 
  "戴": 5808, 
  "141": 5809, 
  "虽": 5810, 
  "受过": 5811, 
  "到期": 5812, 
  "附注": 5813, 
  "军人": 5814, 
  "2017": 5815, 
  "理性": 5816, 
  "亲属": 5817, 
  "两天": 5818, 
  "夫妇": 5819, 
  "去@@": 5820, 
  "创作": 5821, 
  "麻醉品": 5822, 
  "商务": 5823, 
  "英译汉": 5824, 
  "信用": 5825, 
  "第五十四届": 5826, 
  "教@@": 5827, 
  "136": 5828, 
  "古": 5829, 
  "卡车": 5830, 
  "170": 5831, 
  "苹果": 5832, 
  "号法": 5833, 
  "划拨": 5834, 
  "地名": 5835, 
  "被@@": 5836, 
  "相一致": 5837, 
  "推@@": 5838, 
  "书@@": 5839, 
  "加重": 5840, 
  "时机": 5841, 
  "第十九条": 5842, 
  "崩溃": 5843, 
  "战略性": 5844, 
  "挂钩": 5845, 
  "国防部": 5846, 
  "合约": 5847, 
  "季度": 5848, 
  "呼吸": 5849, 
  "131": 5850, 
  "见@@": 5851, 
  "沙": 5852, 
  "拆除": 5853, 
  "靠近": 5854, 
  "年份": 5855, 
  "非洲人": 5856, 
  "样本": 5857, 
  "情@@": 5858, 
  "轻@@": 5859, 
  "管@@": 5860, 
  "幸存者": 5861, 
  "孤立": 5862, 
  "星": 5863, 
  "不让": 5864, 
  "关岛": 5865, 
  "搞": 5866, 
  "勇气": 5867, 
  "娜": 5868, 
  "收": 5869, 
  "患": 5870, 
  "阵地": 5871, 
  "极端主义": 5872, 
  "TD": 5873, 
  "莫斯科": 5874, 
  "拘押": 5875, 
  "联@@": 5876, 
  "教育权": 5877, 
  "象征": 5878, 
  "带到": 5879, 
  "ou@@": 5880, 
  "学员": 5881, 
  "２": 5882, 
  "宪法法院": 5883, 
  "犯人": 5884, 
  "抵押": 5885, 
  "早晨": 5886, 
  "隔离墙": 5887, 
  "简直": 5888, 
  "迎接": 5889, 
  "青@@": 5890, 
  "部件": 5891, 
  "宽容": 5892, 
  "运": 5893, 
  "奴役": 5894, 
  "不可分割": 5895, 
  "第一条": 5896, 
  "冷": 5897, 
  "各州": 5898, 
  "停": 5899, 
  "床": 5900, 
  "大学生": 5901, 
  "不确定性": 5902, 
  "苏联": 5903, 
  "伴侣": 5904, 
  "偷运": 5905, 
  "天然": 5906, 
  "可疑": 5907, 
  "脸上": 5908, 
  "莫": 5909, 
  "实力": 5910, 
  "轻松": 5911, 
  "氯化": 5912, 
  "玛丽": 5913, 
  "华": 5914, 
  "限额": 5915, 
  "红十字": 5916, 
  "良心": 5917, 
  "戈兰": 5918, 
  "影片": 5919, 
  "替": 5920, 
  "资金来源": 5921, 
  "扶持": 5922, 
  "扣押": 5923, 
  "选@@": 5924, 
  "船@@": 5925, 
  "不法行为": 5926, 
  "殴打": 5927, 
  "甲": 5928, 
  "伦": 5929, 
  "雨": 5930, 
  "修理": 5931, 
  "8月": 5932, 
  "违约": 5933, 
  "窗口": 5934, 
  "院长": 5935, 
  "旅客": 5936, 
  "巴格达": 5937, 
  "决定性": 5938, 
  "第一阶段": 5939, 
  "还@@": 5940, 
  "姑娘": 5941, 
  "周@@": 5942, 
  "核@@": 5943, 
  "好好": 5944, 
  "法外": 5945, 
  "月@@": 5946, 
  "生命权": 5947, 
  "黄金": 5948, 
  "插入": 5949, 
  "实@@": 5950, 
  "延伸": 5951, 
  "福@@": 5952, 
  "经济学": 5953, 
  "闭幕": 5954, 
  "信誉": 5955, 
  "借助": 5956, 
  "体验": 5957, 
  "查@@": 5958, 
  "判定": 5959, 
  "即@@": 5960, 
  "情": 5961, 
  "过时": 5962, 
  "太阳能": 5963, 
  "伯": 5964, 
  "极@@": 5965, 
  "此案": 5966, 
  "抵制": 5967, 
  "动用": 5968, 
  "节@@": 5969, 
  "内外": 5970, 
  "发明": 5971, 
  "霍@@": 5972, 
  "粉": 5973, 
  "解@@": 5974, 
  "声@@": 5975, 
  "毛@@": 5976, 
  "到处": 5977, 
  "存款": 5978, 
  "乌@@": 5979, 
  "注射": 5980, 
  "兼顾": 5981, 
  "拖欠": 5982, 
  "遵约": 5983, 
  "不知": 5984, 
  "昂贵": 5985, 
  "保护措施": 5986, 
  "违法": 5987, 
  "亚的斯亚贝巴": 5988, 
  "举报": 5989, 
  "西藏": 5990, 
  "脱@@": 5991, 
  "1949": 5992, 
  "妇女组织": 5993, 
  "卢@@": 5994, 
  "征得": 5995, 
  "07": 5996, 
  "辅导": 5997, 
  "养老金": 5998, 
  "改@@": 5999, 
  "蓄意": 6000, 
  "述及": 6001, 
  "花园": 6002, 
  "公然": 6003, 
  "非洲大陆": 6004, 
  "这使": 6005, 
  "远离": 6006, 
  "胁迫": 6007, 
  "各项规定": 6008, 
  "深感": 6009, 
  "之二": 6010, 
  "仿真": 6011, 
  "僵局": 6012, 
  "惊讶": 6013, 
  "全国性": 6014, 
  "桌子": 6015, 
  "判刑": 6016, 
  "基层": 6017, 
  "吸取": 6018, 
  "调查表": 6019, 
  "匹配": 6020, 
  "夏天": 6021, 
  "古老": 6022, 
  "这座": 6023, 
  "查看": 6024, 
  "169": 6025, 
  "减灾": 6026, 
  "从前": 6027, 
  "话题": 6028, 
  "泰@@": 6029, 
  "说服": 6030, 
  "准": 6031, 
  "落后": 6032, 
  "量化": 6033, 
  "茶": 6034, 
  "发病率": 6035, 
  "全额": 6036, 
  "免除": 6037, 
  "烟草": 6038, 
  "蔬菜": 6039, 
  "主意": 6040, 
  "哲学": 6041, 
  "这两项": 6042, 
  "辞职": 6043, 
  "斡旋": 6044, 
  "to": 6045, 
  "电池": 6046, 
  "丁": 6047, 
  "前所未有": 6048, 
  "载列": 6049, 
  "活@@": 6050, 
  "走进": 6051, 
  "最小": 6052, 
  "杯": 6053, 
  "并@@": 6054, 
  "多地": 6055, 
  "满@@": 6056, 
  "外来": 6057, 
  "替换": 6058, 
  "侦查": 6059, 
  "公寓": 6060, 
  "高效率": 6061, 
  "龙": 6062, 
  "步": 6063, 
  "食": 6064, 
  "x@@": 6065, 
  "1979": 6066, 
  "特别法庭": 6067, 
  "分组": 6068, 
  "á": 6069, 
  "海啸": 6070, 
  "疡": 6071, 
  "酶": 6072, 
  "创伤": 6073, 
  "对本": 6074, 
  "阿曼": 6075, 
  "服务业": 6076, 
  "正面": 6077, 
  "现@@": 6078, 
  "市长": 6079, 
  "按时": 6080, 
  "措词": 6081, 
  "主管机构": 6082, 
  "易于": 6083, 
  "原文": 6084, 
  "晚": 6085, 
  "第三章": 6086, 
  "撰写": 6087, 
  "健康状况": 6088, 
  "沉重": 6089, 
  "球队": 6090, 
  "经常性": 6091, 
  "若@@": 6092, 
  "编入": 6093, 
  "发言稿": 6094, 
  "薄弱": 6095, 
  "立法会": 6096, 
  "class": 6097, 
  "之类": 6098, 
  "形状": 6099, 
  "链接": 6100, 
  "整理": 6101, 
  "延续": 6102, 
  "5.@@": 6103, 
  "联网": 6104, 
  "联合国粮食及农业组织": 6105, 
  "海军": 6106, 
  "填写": 6107, 
  "民族和解": 6108, 
  "浏览": 6109, 
  "专利": 6110, 
  "杀死": 6111, 
  "毒性": 6112, 
  "生意": 6113, 
  "后代": 6114, 
  "162": 6115, 
  "温@@": 6116, 
  "连贯": 6117, 
  "传感器": 6118, 
  "顶": 6119, 
  "这会": 6120, 
  "第十三届": 6121, 
  "建制": 6122, 
  "增效": 6123, 
  "命": 6124, 
  "杰出": 6125, 
  "不可避免": 6126, 
  "法典": 6127, 
  "自主权": 6128, 
  "坦桑尼亚": 6129, 
  "走私": 6130, 
  "接@@": 6131, 
  "对联": 6132, 
  "众所周知": 6133, 
  "孤儿": 6134, 
  "新增": 6135, 
  "不限": 6136, 
  "应是": 6137, 
  "盐": 6138, 
  "度过": 6139, 
  "财政部": 6140, 
  "下令": 6141, 
  "疑问": 6142, 
  "生气": 6143, 
  "雇佣": 6144, 
  "结@@": 6145, 
  "用语": 6146, 
  "卢": 6147, 
  "交叉": 6148, 
  "137": 6149, 
  "接种": 6150, 
  "多重": 6151, 
  "交存": 6152, 
  "体内": 6153, 
  "牛": 6154, 
  "希": 6155, 
  "很小": 6156, 
  "142": 6157, 
  "长度": 6158, 
  "有毒": 6159, 
  "一篇": 6160, 
  "ur@@": 6161, 
  "伯@@": 6162, 
  "拨": 6163, 
  "充分考虑": 6164, 
  "文化遗产": 6165, 
  "扮演": 6166, 
  "紧张局势": 6167, 
  "赤字": 6168, 
  "拿出": 6169, 
  "十二": 6170, 
  "差旅": 6171, 
  "区域间": 6172, 
  "创立": 6173, 
  "不如": 6174, 
  "便是": 6175, 
  "欣赏": 6176, 
  "样": 6177, 
  "物流": 6178, 
  "高等法院": 6179, 
  "4.1": 6180, 
  "极为重要": 6181, 
  "生产性": 6182, 
  "3.2": 6183, 
  "幼儿": 6184, 
  "附表": 6185, 
  "Q@@": 6186, 
  "只不过": 6187, 
  "�": 6188, 
  "该次": 6189, 
  "敌对": 6190, 
  "伊拉克政府": 6191, 
  "金融市场": 6192, 
  "谈谈": 6193, 
  "液体": 6194, 
  "水果": 6195, 
  "145": 6196, 
  "血液": 6197, 
  "制备": 6198, 
  "开罗": 6199, 
  "预审": 6200, 
  "色彩": 6201, 
  "动@@": 6202, 
  "唱": 6203, 
  "远@@": 6204, 
  "1月": 6205, 
  "几种": 6206, 
  "毕业生": 6207, 
  "未决": 6208, 
  "供应链": 6209, 
  "黑色": 6210, 
  "商人": 6211, 
  "艺术家": 6212, 
  "报@@": 6213, 
  "嘴": 6214, 
  "年内": 6215, 
  "贾@@": 6216, 
  "绝不": 6217, 
  "贵国": 6218, 
  "八届": 6219, 
  "急剧": 6220, 
  "订": 6221, 
  "联委会": 6222, 
  "报导": 6223, 
  "应收款": 6224, 
  "货": 6225, 
  "143": 6226, 
  "空白": 6227, 
  "指引": 6228, 
  "股份": 6229, 
  "大程度": 6230, 
  "课题": 6231, 
  "源自": 6232, 
  "机器人": 6233, 
  "英里": 6234, 
  "写作": 6235, 
  "it": 6236, 
  "尺寸": 6237, 
  "流动性": 6238, 
  "歌": 6239, 
  "洞": 6240, 
  "三方": 6241, 
  "中央银行": 6242, 
  "自信": 6243, 
  "令人遗憾": 6244, 
  "犹太人": 6245, 
  "小规模": 6246, 
  "U": 6247, 
  "增@@": 6248, 
  "or": 6249, 
  "暴露": 6250, 
  "成年": 6251, 
  "录音": 6252, 
  "保": 6253, 
  "共@@": 6254, 
  "暴行": 6255, 
  "按@@": 6256, 
  "征收": 6257, 
  "样品": 6258, 
  "现况": 6259, 
  "第七": 6260, 
  "盖@@": 6261, 
  "在场": 6262, 
  "答辩": 6263, 
  "心中": 6264, 
  "性别歧视": 6265, 
  "特立尼达和多巴哥": 6266, 
  "麻": 6267, 
  "发育": 6268, 
  "贯彻": 6269, 
  "几项": 6270, 
  "独立国家": 6271, 
  "使人": 6272, 
  "反复": 6273, 
  "冈比亚": 6274, 
  "CO": 6275, 
  "街道": 6276, 
  "通知书": 6277, 
  "有效率": 6278, 
  "驾驶": 6279, 
  "懂": 6280, 
  "云": 6281, 
  "派驻": 6282, 
  "回去": 6283, 
  "仓库": 6284, 
  "冷战": 6285, 
  "4.@@": 6286, 
  "鹿特丹": 6287, 
  "陈": 6288, 
  "面试": 6289, 
  "问卷": 6290, 
  "书籍": 6291, 
  "相辅相成": 6292, 
  "局长": 6293, 
  "黑人": 6294, 
  "人工": 6295, 
  "亲自": 6296, 
  "当天": 6297, 
  "陈@@": 6298, 
  "听@@": 6299, 
  "努力实现": 6300, 
  "拘禁": 6301, 
  "抚养": 6302, 
  "配@@": 6303, 
  "藏": 6304, 
  "时应": 6305, 
  "虚拟": 6306, 
  "球@@": 6307, 
  "144": 6308, 
  "139": 6309, 
  "巴哈马": 6310, 
  "热带": 6311, 
  "历史性": 6312, 
  "鱼@@": 6313, 
  "艰苦": 6314, 
  "伊斯坦布尔": 6315, 
  "哭": 6316, 
  "保持一致": 6317, 
  "被控": 6318, 
  "1983": 6319, 
  "着@@": 6320, 
  "1日": 6321, 
  "患有": 6322, 
  "多方": 6323, 
  "鞋": 6324, 
  "自卫": 6325, 
  "采取任何": 6326, 
  "146": 6327, 
  "住宿": 6328, 
  "意志": 6329, 
  "董事": 6330, 
  "招标": 6331, 
  "曼@@": 6332, 
  "地向": 6333, 
  "第一款": 6334, 
  "道@@": 6335, 
  "出席会议": 6336, 
  "上周": 6337, 
  "一致意见": 6338, 
  "医疗保险": 6339, 
  "兑现": 6340, 
  "2.3": 6341, 
  "ri@@": 6342, 
  "便宜": 6343, 
  "巴布亚新几内亚": 6344, 
  "后裔": 6345, 
  "加紧": 6346, 
  "导": 6347, 
  "补@@": 6348, 
  "商@@": 6349, 
  "印": 6350, 
  "限制性": 6351, 
  "高层": 6352, 
  "里程碑": 6353, 
  "民政": 6354, 
  "th@@": 6355, 
  "认知": 6356, 
  "莱索托": 6357, 
  "东亚": 6358, 
  "宣读": 6359, 
  "种群": 6360, 
  "睡觉": 6361, 
  "在职": 6362, 
  "胡@@": 6363, 
  "无数": 6364, 
  "书记官": 6365, 
  "可爱": 6366, 
  "逃离": 6367, 
  "蒙@@": 6368, 
  "切": 6369, 
  "乐@@": 6370, 
  "再也": 6371, 
  "互助": 6372, 
  "福": 6373, 
  "物@@": 6374, 
  "不明": 6375, 
  "点击": 6376, 
  "选择性": 6377, 
  "勒@@": 6378, 
  "肇事者": 6379, 
  "飞离": 6380, 
  "震惊": 6381, 
  "假@@": 6382, 
  "订单": 6383, 
  "一体": 6384, 
  "撒": 6385, 
  "恐怕": 6386, 
  "似的": 6387, 
  "困扰": 6388, 
  "忘": 6389, 
  "睡眠": 6390, 
  "第十条": 6391, 
  "直布罗陀": 6392, 
  "消耗性": 6393, 
  "战略方针": 6394, 
  "布雷顿": 6395, 
  "同情": 6396, 
  "居": 6397, 
  "居留": 6398, 
  "句子": 6399, 
  "播放": 6400, 
  "乐": 6401, 
  "电视台": 6402, 
  "弱点": 6403, 
  "松": 6404, 
  "心脏": 6405, 
  "心情": 6406, 
  "弹性": 6407, 
  "日常生活": 6408, 
  "第六十六": 6409, 
  "俄": 6410, 
  "征税": 6411, 
  "实": 6412, 
  "详细资料": 6413, 
  "三大": 6414, 
  "交谈": 6415, 
  "乔治": 6416, 
  "高中": 6417, 
  "社团": 6418, 
  "om@@": 6419, 
  "列表": 6420, 
  "蓝色": 6421, 
  "越@@": 6422, 
  "易@@": 6423, 
  "清": 6424, 
  "中立": 6425, 
  "容器": 6426, 
  "负面": 6427, 
  "157": 6428, 
  "尼亚": 6429, 
  "一向": 6430, 
  "ani": 6431, 
  "词汇": 6432, 
  "支撑": 6433, 
  "标": 6434, 
  "汉@@": 6435, 
  "屠杀": 6436, 
  "彼得": 6437, 
  "和平部队": 6438, 
  "220": 6439, 
  "深度": 6440, 
  "土著居民": 6441, 
  "阿布哈兹": 6442, 
  "多边贸易": 6443, 
  "承包者": 6444, 
  "便利化": 6445, 
  "夫妻": 6446, 
  "苏": 6447, 
  "被害人": 6448, 
  "餐厅": 6449, 
  "呈现": 6450, 
  "235": 6451, 
  "开车": 6452, 
  "飞越": 6453, 
  "147": 6454, 
  "罢工": 6455, 
  "技术性": 6456, 
  "小册子": 6457, 
  "Y": 6458, 
  "观看": 6459, 
  "推翻": 6460, 
  "换@@": 6461, 
  "各省": 6462, 
  "省份": 6463, 
  "足球": 6464, 
  "可怜": 6465, 
  "保罗": 6466, 
  "变量": 6467, 
  "作出反应": 6468, 
  "落@@": 6469, 
  "荣誉": 6470, 
  "声援": 6471, 
  "首@@": 6472, 
  "财政年度": 6473, 
  "士": 6474, 
  "心灵": 6475, 
  "PV": 6476, 
  "汲取": 6477, 
  "搜查": 6478, 
  "大国": 6479, 
  "Q": 6480, 
  "大麻": 6481, 
  "此时": 6482, 
  "民航": 6483, 
  "刑事犯罪": 6484, 
  "基线": 6485, 
  "第二十届": 6486, 
  "可见": 6487, 
  "同步": 6488, 
  "疗法": 6489, 
  "余留": 6490, 
  "受益者": 6491, 
  "长期以来": 6492, 
  "甚": 6493, 
  "势力": 6494, 
  "扫描": 6495, 
  "索取": 6496, 
  "筹备会议": 6497, 
  "录": 6498, 
  "严肃": 6499, 
  "硬件": 6500, 
  "品种": 6501, 
  "一把": 6502, 
  "裁撤": 6503, 
  "传达": 6504, 
  "尤为": 6505, 
  "习惯法": 6506, 
  "公斤": 6507, 
  "演员": 6508, 
  "道理": 6509, 
  "综述": 6510, 
  "第二十三届": 6511, 
  "吃饭": 6512, 
  "密切相关": 6513, 
  "早就": 6514, 
  "合办": 6515, 
  "舒适": 6516, 
  "从不": 6517, 
  "复审": 6518, 
  "家伙": 6519, 
  "管理部": 6520, 
  "扎": 6521, 
  "桥梁": 6522, 
  "登": 6523, 
  "156": 6524, 
  "探测": 6525, 
  "梅": 6526, 
  "军备竞赛": 6527, 
  "世界粮食计划署": 6528, 
  "源于": 6529, 
  "分项": 6530, 
  "ah@@": 6531, 
  "变为": 6532, 
  "八个": 6533, 
  "保护区": 6534, 
  "战略规划": 6535, 
  "等@@": 6536, 
  "奴隶": 6537, 
  "营销": 6538, 
  "Mar@@": 6539, 
  "新闻稿": 6540, 
  "前后": 6541, 
  "1.5": 6542, 
  "二苯醚": 6543, 
  "多元化": 6544, 
  "石头": 6545, 
  "然": 6546, 
  "上班": 6547, 
  "姆@@": 6548, 
  "部长会议": 6549, 
  "重计": 6550, 
  "犯罪者": 6551, 
  "观": 6552, 
  "联合行动": 6553, 
  "潜能": 6554, 
  "发动机": 6555, 
  "审核": 6556, 
  "救": 6557, 
  "快@@": 6558, 
  "义": 6559, 
  "勇敢": 6560, 
  "环境卫生": 6561, 
  "进攻": 6562, 
  "康@@": 6563, 
  "病@@": 6564, 
  "传输": 6565, 
  "否定": 6566, 
  "严格遵守": 6567, 
  "注销": 6568, 
  "噢": 6569, 
  "拍": 6570, 
  "味": 6571, 
  "牛奶": 6572, 
  "季节": 6573, 
  "举": 6574, 
  "服": 6575, 
  "学年": 6576, 
  "深化": 6577, 
  "除@@": 6578, 
  "致力": 6579, 
  "市场经济": 6580, 
  "程": 6581, 
  "揭示": 6582, 
  "所定": 6583, 
  "民主化": 6584, 
  "ć": 6585, 
  "资讯科技": 6586, 
  "马克": 6587, 
  "皇家": 6588, 
  "151": 6589, 
  "捕鱼": 6590, 
  "禁产": 6591, 
  "执行机构": 6592, 
  "协商会议": 6593, 
  "赋权": 6594, 
  "生产率": 6595, 
  "em@@": 6596, 
  "纪录": 6597, 
  "做@@": 6598, 
  "高度重视": 6599, 
  "立法机构": 6600, 
  "科学研究": 6601, 
  "临": 6602, 
  "视角": 6603, 
  "PC": 6604, 
  "防御": 6605, 
  "以免": 6606, 
  "装@@": 6607, 
  "徒刑": 6608, 
  "保卫": 6609, 
  "冰@@": 6610, 
  "班@@": 6611, 
  "战胜": 6612, 
  "铲除": 6613, 
  "获准": 6614, 
  "穆@@": 6615, 
  "混凝土": 6616, 
  "在家": 6617, 
  "组件": 6618, 
  "传染性": 6619, 
  "交往": 6620, 
  "必要条件": 6621, 
  "诚实": 6622, 
  "素质": 6623, 
  "求@@": 6624, 
  "新闻界": 6625, 
  "回国": 6626, 
  "原件": 6627, 
  "承担责任": 6628, 
  "曲线": 6629, 
  "仪": 6630, 
  "开心": 6631, 
  "晋升": 6632, 
  "杆": 6633, 
  "忧虑": 6634, 
  "在外": 6635, 
  "暗示": 6636, 
  "避孕": 6637, 
  "活性": 6638, 
  "减": 6639, 
  "日刊": 6640, 
  "疗效": 6641, 
  "至@@": 6642, 
  "明智": 6643, 
  "存放": 6644, 
  "解散": 6645, 
  "我方": 6646, 
  "运@@": 6647, 
  "丧生": 6648, 
  "犯罪活动": 6649, 
  "承办": 6650, 
  "航班": 6651, 
  "波恩": 6652, 
  "约会": 6653, 
  "平等权利": 6654, 
  "股市": 6655, 
  "无力": 6656, 
  "154": 6657, 
  "惊人": 6658, 
  "构造": 6659, 
  "私有化": 6660, 
  "同一个": 6661, 
  "近@@": 6662, 
  "女工": 6663, 
  "智能": 6664, 
  "卡尔": 6665, 
  "色@@": 6666, 
  "老挝人民民主共和国": 6667, 
  "02": 6668, 
  "减@@": 6669, 
  "着眼于": 6670, 
  "龙@@": 6671, 
  "Re@@": 6672, 
  "大会堂": 6673, 
  "专@@": 6674, 
  "简短": 6675, 
  "扶贫": 6676, 
  "洪水": 6677, 
  "省级": 6678, 
  "传送": 6679, 
  "洗": 6680, 
  "喜爱": 6681, 
  "人口普查": 6682, 
  "美国@@": 6683, 
  "湾": 6684, 
  "密度": 6685, 
  "贴": 6686, 
  "没什么": 6687, 
  "钢": 6688, 
  "玛": 6689, 
  "差不多": 6690, 
  "路@@": 6691, 
  "强制执行": 6692, 
  "学位": 6693, 
  "1960": 6694, 
  "毁坏": 6695, 
  "盈余": 6696, 
  "166": 6697, 
  "族群": 6698, 
  "148": 6699, 
  "少@@": 6700, 
  "去世": 6701, 
  "不利于": 6702, 
  "戈": 6703, 
  "附带": 6704, 
  "面包": 6705, 
  "152": 6706, 
  "咱们": 6707, 
  "革新": 6708, 
  "统计资料": 6709, 
  "有形": 6710, 
  "跨部门": 6711, 
  "ina": 6712, 
  "不停": 6713, 
  "强劲": 6714, 
  "财力": 6715, 
  "第六十": 6716, 
  "实况": 6717, 
  "博": 6718, 
  "草拟": 6719, 
  "见面": 6720, 
  "讨厌": 6721, 
  "保养": 6722, 
  "免于": 6723, 
  "158": 6724, 
  "劳动法": 6725, 
  "总计": 6726, 
  "í": 6727, 
  "身心": 6728, 
  "早已": 6729, 
  "国家@@": 6730, 
  "大臣": 6731, 
  "答应": 6732, 
  "冒险": 6733, 
  "亲@@": 6734, 
  "战略目标": 6735, 
  "剂量": 6736, 
  "行李": 6737, 
  "独@@": 6738, 
  "合理化": 6739, 
  "处@@": 6740, 
  "初始": 6741, 
  "西班牙文": 6742, 
  "注明": 6743, 
  "竞争性": 6744, 
  "蛋白": 6745, 
  "游泳": 6746, 
  "火器": 6747, 
  "篇": 6748, 
  "149": 6749, 
  "耶@@": 6750, 
  "含水层": 6751, 
  "人选": 6752, 
  "第一@@": 6753, 
  "安全性": 6754, 
  "强行": 6755, 
  "暴力事件": 6756, 
  "350": 6757, 
  "展现": 6758, 
  "近来": 6759, 
  "210": 6760, 
  "十七届": 6761, 
  "家族": 6762, 
  "第二期": 6763, 
  "月初": 6764, 
  "社会保险": 6765, 
  "尽量减少": 6766, 
  "装饰": 6767, 
  "环境影响": 6768, 
  "推定": 6769, 
  "军方": 6770, 
  "04": 6771, 
  "号码": 6772, 
  "公职人员": 6773, 
  "定稿": 6774, 
  "ir@@": 6775, 
  "一间": 6776, 
  "厨房": 6777, 
  "民主党": 6778, 
  "危险废物": 6779, 
  "短@@": 6780, 
  "考验": 6781, 
  "4.2": 6782, 
  "竞赛": 6783, 
  "以色列政府": 6784, 
  "旋转": 6785, 
  "愿景": 6786, 
  "地质": 6787, 
  "第四章": 6788, 
  "251": 6789, 
  "成千上万": 6790, 
  "重量": 6791, 
  "二级": 6792, 
  "性健康": 6793, 
  "早些时候": 6794, 
  "供给": 6795, 
  "一颗": 6796, 
  "破": 6797, 
  "初@@": 6798, 
  "世": 6799, 
  "市政": 6800, 
  "产物": 6801, 
  "sh@@": 6802, 
  "婚礼": 6803, 
  "比尔": 6804, 
  "ST": 6805, 
  "实时": 6806, 
  "相互作用": 6807, 
  "发电机": 6808, 
  "药@@": 6809, 
  "多人": 6810, 
  "发表意见": 6811, 
  "依赖于": 6812, 
  "最低工资": 6813, 
  "一并": 6814, 
  "蒂@@": 6815, 
  "民@@": 6816, 
  "沙特": 6817, 
  "试": 6818, 
  "袋": 6819, 
  "约@@": 6820, 
  "西撒": 6821, 
  "应收": 6822, 
  "桑@@": 6823, 
  "裁判": 6824, 
  "走上": 6825, 
  "生物武器": 6826, 
  "齐": 6827, 
  "约定": 6828, 
  "1991年": 6829, 
  "这点": 6830, 
  "饮水": 6831, 
  "金伯利": 6832, 
  "局部": 6833, 
  "急性": 6834, 
  "大使馆": 6835, 
  "供@@": 6836, 
  "人民政府": 6837, 
  "领@@": 6838, 
  "土地利用": 6839, 
  "权@@": 6840, 
  "国有": 6841, 
  "av@@": 6842, 
  "後": 6843, 
  "联合国安全理事会": 6844, 
  "很长": 6845, 
  "大厦": 6846, 
  "第八条": 6847, 
  "联阿": 6848, 
  "拥挤": 6849, 
  "W": 6850, 
  "修@@": 6851, 
  "纯粹": 6852, 
  "河流": 6853, 
  "拍摄": 6854, 
  "饮料": 6855, 
  "注入": 6856, 
  "齐@@": 6857, 
  "安盟": 6858, 
  "莱": 6859, 
  "北美": 6860, 
  "凯@@": 6861, 
  "外界": 6862, 
  "161": 6863, 
  "戈@@": 6864, 
  "文盲": 6865, 
  "营业": 6866, 
  "审视": 6867, 
  "资源分配": 6868, 
  "南斯拉夫联盟共和国": 6869, 
  "司法程序": 6870, 
  "健康权": 6871, 
  "百万美元": 6872, 
  "国家计划": 6873, 
  "总之": 6874, 
  "传@@": 6875, 
  "人民法院": 6876, 
  "um@@": 6877, 
  "玩具": 6878, 
  "侵权行为": 6879, 
  "us@@": 6880, 
  "经由": 6881, 
  "孔": 6882, 
  "反而": 6883, 
  "隐藏": 6884, 
  "中欧": 6885, 
  "贝": 6886, 
  "第七章": 6887, 
  "富裕": 6888, 
  "日后": 6889, 
  "资发": 6890, 
  "规格": 6891, 
  "破坏性": 6892, 
  "出入": 6893, 
  "药物滥用": 6894, 
  "茨": 6895, 
  "上去": 6896, 
  "南北": 6897, 
  "第二项": 6898, 
  "泡沫": 6899, 
  "v": 6900, 
  "特许": 6901, 
  "附有": 6902, 
  "疯狂": 6903, 
  "270": 6904, 
  "第二节": 6905, 
  "锻炼": 6906, 
  "而定": 6907, 
  "批": 6908, 
  "摩加迪沙": 6909, 
  "七年": 6910, 
  "190": 6911, 
  "03": 6912, 
  "st@@": 6913, 
  "塑料": 6914, 
  "大致": 6915, 
  "感激": 6916, 
  "自豪": 6917, 
  "全民": 6918, 
  "激发": 6919, 
  "殖民主义": 6920, 
  "也就是说": 6921, 
  "讲座": 6922, 
  "干净": 6923, 
  "广场": 6924, 
  "令人鼓舞": 6925, 
  "穆罕默德": 6926, 
  "雅@@": 6927, 
  "毒素": 6928, 
  "扭曲": 6929, 
  "表决权": 6930, 
  "嗯": 6931, 
  "叫做": 6932, 
  "池": 6933, 
  "阿拉伯语": 6934, 
  "1975": 6935, 
  "原子": 6936, 
  "表述": 6937, 
  "往来": 6938, 
  "支票": 6939, 
  "系统性": 6940, 
  "飓风": 6941, 
  "农@@": 6942, 
  "沮丧": 6943, 
  "and@@": 6944, 
  "估值": 6945, 
  "含@@": 6946, 
  "出身": 6947, 
  "线路": 6948, 
  "大选": 6949, 
  "创造性": 6950, 
  "仅限于": 6951, 
  "列报": 6952, 
  "过多": 6953, 
  "受援国": 6954, 
  "予": 6955, 
  "汽油": 6956, 
  "下属": 6957, 
  "新生儿": 6958, 
  "出庭": 6959, 
  "位@@": 6960, 
  "前途": 6961, 
  "糖尿病": 6962, 
  "冲@@": 6963, 
  "us": 6964, 
  "聚@@": 6965, 
  "基石": 6966, 
  "2月": 6967, 
  "果": 6968, 
  "定性": 6969, 
  "大陆架": 6970, 
  "懂得": 6971, 
  "关@@": 6972, 
  "漫长": 6973, 
  "该处": 6974, 
  "视觉": 6975, 
  "医务": 6976, 
  "发票": 6977, 
  "指望": 6978, 
  "ra": 6979, 
  "发展部": 6980, 
  "痛": 6981, 
  "摩纳哥": 6982, 
  "信用证": 6983, 
  "两周": 6984, 
  "棒": 6985, 
  "杀人": 6986, 
  "管理工作": 6987, 
  "多方面": 6988, 
  "根@@": 6989, 
  "竞争法": 6990, 
  "载入": 6991, 
  "养@@": 6992, 
  "密码": 6993, 
  "对照": 6994, 
  "第十二条": 6995, 
  "一同": 6996, 
  "乔@@": 6997, 
  "应计": 6998, 
  "至迟": 6999, 
  "切实有效": 7000, 
  "上限": 7001, 
  "陪同": 7002, 
  "编码": 7003, 
  "定居者": 7004, 
  "联络小组": 7005, 
  "新喀里多尼亚": 7006, 
  "仲裁庭": 7007, 
  "骨@@": 7008, 
  "窗户": 7009, 
  "岗位": 7010, 
  "申请书": 7011, 
  "参与性": 7012, 
  "小计": 7013, 
  "欧元区": 7014, 
  "这条": 7015, 
  "产@@": 7016, 
  "音": 7017, 
  "x": 7018, 
  "已知": 7019, 
  "离@@": 7020, 
  "理@@": 7021, 
  "太多": 7022, 
  "采@@": 7023, 
  "创收": 7024, 
  "独联体": 7025, 
  "走廊": 7026, 
  "席": 7027, 
  "叶@@": 7028, 
  "微": 7029, 
  "侦察机": 7030, 
  "跨越": 7031, 
  "继续加强": 7032, 
  "显而易见": 7033, 
  "部@@": 7034, 
  "三天": 7035, 
  "鲁": 7036, 
  "严重性": 7037, 
  "节余": 7038, 
  "节日": 7039, 
  "这句": 7040, 
  "一台": 7041, 
  "货币基金": 7042, 
  "检查站": 7043, 
  "线@@": 7044, 
  "本项": 7045, 
  "年来": 7046, 
  "沃@@": 7047, 
  "高达": 7048, 
  "收获": 7049, 
  "30@@": 7050, 
  "树@@": 7051, 
  "2.4": 7052, 
  "基伍": 7053, 
  "密集": 7054, 
  "步伐": 7055, 
  "六年": 7056, 
  "同性恋": 7057, 
  "一个@@": 7058, 
  "路径": 7059, 
  "言@@": 7060, 
  "弹": 7061, 
  "演出": 7062, 
  "请愿": 7063, 
  "操纵": 7064, 
  "肿瘤": 7065, 
  "": 7066, 
  "PRST": 7067, 
  "届满": 7068, 
  "牧师": 7069, 
  "座位": 7070, 
  "控制系统": 7071, 
  "贫民窟": 7072, 
  "参议院": 7073, 
  "下届": 7074, 
  "断": 7075, 
  "创意": 7076, 
  "饭店": 7077, 
  "嫌疑人": 7078, 
  "教材": 7079, 
  "慢性": 7080, 
  "佛得角": 7081, 
  "11@@": 7082, 
  "破@@": 7083, 
  "夫@@": 7084, 
  "26@@": 7085, 
  "一声": 7086, 
  "讲述": 7087, 
  "科摩罗": 7088, 
  "长远": 7089, 
  "原有": 7090, 
  "培训中心": 7091, 
  "９": 7092, 
  "环@@": 7093, 
  "拍卖": 7094, 
  "送@@": 7095, 
  "公": 7096, 
  "留": 7097, 
  "温": 7098, 
  "玛@@": 7099, 
  "党派": 7100, 
  "吃@@": 7101, 
  "器官": 7102, 
  "文档": 7103, 
  "1961": 7104, 
  "III": 7105, 
  "基础教育": 7106, 
  "随函": 7107, 
  "240": 7108, 
  "急需": 7109, 
  "GDP": 7110, 
  "联合国贸易和发展会议": 7111, 
  "不符": 7112, 
  "z": 7113, 
  "栏": 7114, 
  "天内": 7115, 
  "宽": 7116, 
  "208": 7117, 
  "1974": 7118, 
  "紧缩": 7119, 
  "159": 7120, 
  "os@@": 7121, 
  "激光": 7122, 
  "生产者": 7123, 
  "智力": 7124, 
  "受到限制": 7125, 
  "氢": 7126, 
  "误解": 7127, 
  "不敢": 7128, 
  "多元": 7129, 
  "购物": 7130, 
  "估价": 7131, 
  "几位": 7132, 
  "雪@@": 7133, 
  "内战": 7134, 
  "ov@@": 7135, 
  "编@@": 7136, 
  "履约": 7137, 
  "研训": 7138, 
  "史密斯": 7139, 
  "展": 7140, 
  "建@@": 7141, 
  "总收入": 7142, 
  "外汇": 7143, 
  "耐心": 7144, 
  "增大": 7145, 
  "某种程度": 7146, 
  "树立": 7147, 
  "函件": 7148, 
  "英雄": 7149, 
  "非盟": 7150, 
  "菲@@": 7151, 
  "保险公司": 7152, 
  "土族": 7153, 
  "减至": 7154, 
  "192": 7155, 
  "神圣": 7156, 
  "扎@@": 7157, 
  "英@@": 7158, 
  "口粮": 7159, 
  "审计报告": 7160, 
  "进出": 7161, 
  "人称": 7162, 
  "特有": 7163, 
  "底@@": 7164, 
  "借": 7165, 
  "异@@": 7166, 
  "邻居": 7167, 
  "旁": 7168, 
  "是非": 7169, 
  "停留": 7170, 
  "猪": 7171, 
  "烟": 7172, 
  "采集": 7173, 
  "上网": 7174, 
  "市镇": 7175, 
  "撤消": 7176, 
  "201": 7177, 
  "平行": 7178, 
  "金融服务": 7179, 
  "苏格兰": 7180, 
  "X@@": 7181, 
  "定价": 7182, 
  "水域": 7183, 
  "交流信息": 7184, 
  "8.@@": 7185, 
  "Ar@@": 7186, 
  "树木": 7187, 
  "致函": 7188, 
  "手里": 7189, 
  "终身": 7190, 
  "旧@@": 7191, 
  "司@@": 7192, 
  "苦@@": 7193, 
  "社交": 7194, 
  "发电": 7195, 
  "紧": 7196, 
  "太空": 7197, 
  "监督机构": 7198, 
  "范例": 7199, 
  "引@@": 7200, 
  "日志": 7201, 
  "重债": 7202, 
  "虫": 7203, 
  "无意": 7204, 
  "一节": 7205, 
  "册": 7206, 
  "湖区": 7207, 
  "组成员": 7208, 
  "镇压": 7209, 
  "ap@@": 7210, 
  "拿到": 7211, 
  "疼痛": 7212, 
  "艰巨": 7213, 
  "31日": 7214, 
  "第二款": 7215, 
  "转达": 7216, 
  "监护人": 7217, 
  "1971": 7218, 
  "165": 7219, 
  "贯穿": 7220, 
  "大纲": 7221, 
  "人会": 7222, 
  "亮": 7223, 
  "下滑": 7224, 
  "乘": 7225, 
  "送给": 7226, 
  "首": 7227, 
  "轴": 7228, 
  "老鼠": 7229, 
  "大声": 7230, 
  "控告": 7231, 
  "松@@": 7232, 
  "在此期间": 7233, 
  "敌方": 7234, 
  "之友": 7235, 
  "领事": 7236, 
  "真理": 7237, 
  "酒@@": 7238, 
  "作证": 7239, 
  "王子": 7240, 
  "施@@": 7241, 
  "端": 7242, 
  "吹@@": 7243, 
  "性行为": 7244, 
  "#": 7245, 
  "一根": 7246, 
  "6.@@": 7247, 
  "回忆": 7248, 
  "肌肉": 7249, 
  "1977": 7250, 
  "臭氧层": 7251, 
  "交通运输": 7252, 
  "电路": 7253, 
  "克斯": 7254, 
  "存": 7255, 
  "首相": 7256, 
  "Th@@": 7257, 
  "冠军": 7258, 
  "该股": 7259, 
  "通胀": 7260, 
  "逾期": 7261, 
  "策划": 7262, 
  "差额": 7263, 
  "被判": 7264, 
  "各项措施": 7265, 
  "关键因素": 7266, 
  "钥匙": 7267, 
  "一对": 7268, 
  "越境": 7269, 
  "大于": 7270, 
  "生育率": 7271, 
  "六种": 7272, 
  "波黑": 7273, 
  "翻@@": 7274, 
  "∶": 7275, 
  "前体": 7276, 
  "消费量": 7277, 
  "软": 7278, 
  "舒服": 7279, 
  "预@@": 7280, 
  "普遍存在": 7281, 
  "海运": 7282, 
  "毁灭": 7283, 
  "控制措施": 7284, 
  "5.1": 7285, 
  "总督": 7286, 
  "欺骗": 7287, 
  "内心": 7288, 
  "7.@@": 7289, 
  "前者": 7290, 
  "上市": 7291, 
  "不同于": 7292, 
  "餐馆": 7293, 
  "审前": 7294, 
  "大胆": 7295, 
  "传染": 7296, 
  "降至": 7297, 
  "仆人": 7298, 
  "3.3": 7299, 
  "走出": 7300, 
  "不太": 7301, 
  "抓": 7302, 
  "眼前": 7303, 
  "报价": 7304, 
  "结核病": 7305, 
  "所起": 7306, 
  "联大": 7307, 
  "长大": 7308, 
  "突破": 7309, 
  "公营": 7310, 
  "技术咨询": 7311, 
  "威@@": 7312, 
  "该案": 7313, 
  "简易": 7314, 
  "横@@": 7315, 
  "新鲜": 7316, 
  "志愿者": 7317, 
  "超": 7318, 
  "星期六": 7319, 
  "布朗": 7320, 
  "照@@": 7321, 
  "教室": 7322, 
  "例句": 7323, 
  "英镑": 7324, 
  "奥运": 7325, 
  "柱": 7326, 
  "制成": 7327, 
  "车队": 7328, 
  "草@@": 7329, 
  "汇集": 7330, 
  "le": 7331, 
  "红十字国际委员会": 7332, 
  "质@@": 7333, 
  "交易所": 7334, 
  "常任理事": 7335, 
  "脂肪": 7336, 
  "服从": 7337, 
  "链": 7338, 
  "夏季": 7339, 
  "审慎": 7340, 
  "高速": 7341, 
  "伯利兹": 7342, 
  "头脑": 7343, 
  "边@@": 7344, 
  "标识": 7345, 
  "事例": 7346, 
  "167": 7347, 
  "随@@": 7348, 
  "法制": 7349, 
  "相称": 7350, 
  "停@@": 7351, 
  "St@@": 7352, 
  "公式": 7353, 
  "复合": 7354, 
  "古代": 7355, 
  "兴奋": 7356, 
  "ib@@": 7357, 
  "味道": 7358, 
  "参见": 7359, 
  "河@@": 7360, 
  "侵入": 7361, 
  "香@@": 7362, 
  "爬": 7363, 
  "留@@": 7364, 
  "导向": 7365, 
  "籍": 7366, 
  "反叛": 7367, 
  "防护": 7368, 
  "单个": 7369, 
  "富@@": 7370, 
  "英尺": 7371, 
  "活着": 7372, 
  "足": 7373, 
  "提示": 7374, 
  "杰@@": 7375, 
  "打死": 7376, 
  "程序性": 7377, 
  "业主": 7378, 
  "专注": 7379, 
  "不论是": 7380, 
  "选票": 7381, 
  "货运": 7382, 
  "弗@@": 7383, 
  "圣诞节": 7384, 
  "日向": 7385, 
  "污水": 7386, 
  "213": 7387, 
  "雷达": 7388, 
  "股@@": 7389, 
  "奉": 7390, 
  "条中": 7391, 
  "下放": 7392, 
  "二十@@": 7393, 
  "分工": 7394, 
  "集装箱": 7395, 
  "考@@": 7396, 
  "核对": 7397, 
  "轻": 7398, 
  "出资": 7399, 
  "末": 7400, 
  "岩石": 7401, 
  "以使": 7402, 
  "第一项": 7403, 
  "230": 7404, 
  "斯特": 7405, 
  "流域": 7406, 
  "据估计": 7407, 
  "189": 7408, 
  "井": 7409, 
  "更高": 7410, 
  "ul@@": 7411, 
  "圆@@": 7412, 
  "少量": 7413, 
  "深表": 7414, 
  "概括": 7415, 
  "上来": 7416, 
  "il": 7417, 
  "特别报告员": 7418, 
  "意识形态": 7419, 
  "183": 7420, 
  "牛@@": 7421, 
  "扔": 7422, 
  "沿": 7423, 
  "提高效率": 7424, 
  "㈤": 7425, 
  "仿佛": 7426, 
  "第二十四届": 7427, 
  "冬天": 7428, 
  "政治家": 7429, 
  "情景": 7430, 
  "分成": 7431, 
  "等到": 7432, 
  "平等待遇": 7433, 
  "变形": 7434, 
  "撞": 7435, 
  "禁试": 7436, 
  "全新": 7437, 
  "希族": 7438, 
  "意@@": 7439, 
  "横向": 7440, 
  "标@@": 7441, 
  "休假": 7442, 
  "淡水": 7443, 
  "热线": 7444, 
  "扣除": 7445, 
  "切实可行": 7446, 
  "地下水": 7447, 
  "集合": 7448, 
  "语@@": 7449, 
  "筛选": 7450, 
  "挖掘": 7451, 
  "视@@": 7452, 
  "全力支持": 7453, 
  "银@@": 7454, 
  "脑@@": 7455, 
  "宗教信仰": 7456, 
  "应力": 7457, 
  "接口": 7458, 
  "无须": 7459, 
  "阿尔@@": 7460, 
  "260": 7461, 
  "府": 7462, 
  "5.2": 7463, 
  "时尚": 7464, 
  "中央政府": 7465, 
  "生日": 7466, 
  "响": 7467, 
  "惩戒": 7468, 
  "温暖": 7469, 
  "性格": 7470, 
  "坐@@": 7471, 
  "传媒": 7472, 
  "传": 7473, 
  "一次性": 7474, 
  "缺口": 7475, 
  "衣": 7476, 
  "175": 7477, 
  "为例": 7478, 
  "提问": 7479, 
  "不行": 7480, 
  "永@@": 7481, 
  "总产值": 7482, 
  "逃避": 7483, 
  "洗@@": 7484, 
  "慢": 7485, 
  "项目管理": 7486, 
  "226": 7487, 
  "履行职责": 7488, 
  "美洲国家组织": 7489, 
  "否决": 7490, 
  "般": 7491, 
  "差旅费": 7492, 
  "164": 7493, 
  "罪名": 7494, 
  "客": 7495, 
  "毕竟": 7496, 
  "断@@": 7497, 
  "ay": 7498, 
  "搬迁": 7499, 
  "ana": 7500, 
  "台@@": 7501, 
  "集@@": 7502, 
  "野生": 7503, 
  "外交政策": 7504, 
  "利亚": 7505, 
  "阻挠": 7506, 
  "永久性": 7507, 
  "红十字会": 7508, 
  "结成": 7509, 
  "更是": 7510, 
  "缉获": 7511, 
  "录像": 7512, 
  "起飞": 7513, 
  "印度洋": 7514, 
  "瑞@@": 7515, 
  "实习": 7516, 
  "211": 7517, 
  "振动": 7518, 
  "巨@@": 7519, 
  "获释": 7520, 
  "沉默": 7521, 
  "163": 7522, 
  "此处": 7523, 
  "利害关系": 7524, 
  "椅子": 7525, 
  "介绍性": 7526, 
  "索偿": 7527, 
  "着重于": 7528, 
  "小岛": 7529, 
  "申请者": 7530, 
  "经济@@": 7531, 
  "国情": 7532, 
  "哥哥": 7533, 
  "XV": 7534, 
  "拿@@": 7535, 
  "教练": 7536, 
  "九个": 7537, 
  "春天": 7538, 
  "蛋白质": 7539, 
  "od@@": 7540, 
  "名誉": 7541, 
  "绝望": 7542, 
  "定型": 7543, 
  "Kh@@": 7544, 
  "阿拉伯人": 7545, 
  "扫雷": 7546, 
  "第七次": 7547, 
  "自治区": 7548, 
  "室内": 7549, 
  "驻科": 7550, 
  "当年": 7551, 
  "残酷": 7552, 
  "1976": 7553, 
  "俩": 7554, 
  "227": 7555, 
  "怎么办": 7556, 
  "ut@@": 7557, 
  "1.3": 7558, 
  "第一份": 7559, 
  "印@@": 7560, 
  "退@@": 7561, 
  "第八": 7562, 
  "星@@": 7563, 
  "种族隔离": 7564, 
  "百万": 7565, 
  "赢": 7566, 
  "牲畜": 7567, 
  "不动产": 7568, 
  "封闭": 7569, 
  "被告人": 7570, 
  "既有": 7571, 
  "决": 7572, 
  "佩@@": 7573, 
  "夏@@": 7574, 
  "手指": 7575, 
  "丹": 7576, 
  "理事国": 7577, 
  "阿拉伯文": 7578, 
  "制度化": 7579, 
  "这名": 7580, 
  "五名": 7581, 
  "护@@": 7582, 
  "严重威胁": 7583, 
  "中方": 7584, 
  "贸易协定": 7585, 
  "第六十九": 7586, 
  "央行": 7587, 
  "携手": 7588, 
  "伪造": 7589, 
  "172": 7590, 
  "审批": 7591, 
  "丝@@": 7592, 
  "领": 7593, 
  "门口": 7594, 
  "乱@@": 7595, 
  "稿": 7596, 
  "医药": 7597, 
  "客@@": 7598, 
  "值得注意": 7599, 
  "启用": 7600, 
  "优先权": 7601, 
  "某项": 7602, 
  "营造": 7603, 
  "多久": 7604, 
  "朱@@": 7605, 
  "监护": 7606, 
  "乱": 7607, 
  "两倍": 7608, 
  "硬@@": 7609, 
  "1972": 7610, 
  "适用范围": 7611, 
  "三年期": 7612, 
  "男@@": 7613, 
  "项@@": 7614, 
  "工作日": 7615, 
  "一阵": 7616, 
  "原本": 7617, 
  "机理": 7618, 
  "UN@@": 7619, 
  "义务教育": 7620, 
  "过渡政府": 7621, 
  "结构调整": 7622, 
  "时所": 7623, 
  "记@@": 7624, 
  "An@@": 7625, 
  "深远": 7626, 
  "密@@": 7627, 
  "ov": 7628, 
  "最长": 7629, 
  "局@@": 7630, 
  "为本": 7631, 
  "先例": 7632, 
  "校长": 7633, 
  "每届": 7634, 
  "投@@": 7635, 
  "特别强调": 7636, 
  "劳@@": 7637, 
  "脚@@": 7638, 
  "时光": 7639, 
  "床上": 7640, 
  "赤道几内亚": 7641, 
  "民法": 7642, 
  "掩盖": 7643, 
  "香": 7644, 
  "韦@@": 7645, 
  "悲惨": 7646, 
  "奴隶制": 7647, 
  "废料": 7648, 
  "此基础": 7649, 
  "战@@": 7650, 
  "试@@": 7651, 
  "研究生": 7652, 
  "防": 7653, 
  "总局": 7654, 
  "国际@@": 7655, 
  "模板": 7656, 
  "魅力": 7657, 
  "日本政府": 7658, 
  "封": 7659, 
  "怕": 7660, 
  "汇总": 7661, 
  "弱": 7662, 
  "短暂": 7663, 
  "苏里南": 7664, 
  "事务局": 7665, 
  "联络点": 7666, 
  "硬": 7667, 
  "28@@": 7668, 
  "ou": 7669, 
  "鸡": 7670, 
  "英格兰": 7671, 
  "导@@": 7672, 
  "祖国": 7673, 
  "改": 7674, 
  "租用": 7675, 
  "下落": 7676, 
  "念": 7677, 
  "铀": 7678, 
  ")@@": 7679, 
  "表示满意": 7680, 
  "届时": 7681, 
  "专业知识": 7682, 
  "锁": 7683, 
  "管理员": 7684, 
  "本周": 7685, 
  "角@@": 7686, 
  "一处": 7687, 
  "各届": 7688, 
  "表示遗憾": 7689, 
  "斯威士兰": 7690, 
  "火灾": 7691, 
  "第四十九届": 7692, 
  "何@@": 7693, 
  "168": 7694, 
  "早@@": 7695, 
  "信用卡": 7696, 
  "可取": 7697, 
  "最早": 7698, 
  "刊登": 7699, 
  "登记处": 7700, 
  "解放军": 7701, 
  "叛乱": 7702, 
  "帽子": 7703, 
  "万名": 7704, 
  "保护环境": 7705, 
  "温和": 7706, 
  "多万": 7707, 
  "积压": 7708, 
  "夜": 7709, 
  "折磨": 7710, 
  "限定": 7711, 
  "宪政": 7712, 
  "贿赂": 7713, 
  "射击": 7714, 
  "称之为": 7715, 
  "帮忙": 7716, 
  "速效": 7717, 
  "ig@@": 7718, 
  "继续执行": 7719, 
  "贝鲁特": 7720, 
  "丁@@": 7721, 
  "9.@@": 7722, 
  "帕": 7723, 
  "沙漠": 7724, 
  "不准": 7725, 
  "乔": 7726, 
  "头上": 7727, 
  "类@@": 7728, 
  "增值": 7729, 
  "储备金": 7730, 
  "效能": 7731, 
  "崇高": 7732, 
  "评级": 7733, 
  "扬": 7734, 
  "ro@@": 7735, 
  "正好": 7736, 
  "余地": 7737, 
  "国际金融": 7738, 
  "通往": 7739, 
  "四名": 7740, 
  "RC": 7741, 
  "般的": 7742, 
  "务实": 7743, 
  "242": 7744, 
  "io": 7745, 
  "耳@@": 7746, 
  "毁": 7747, 
  "热烈": 7748, 
  "奉行": 7749, 
  "保管": 7750, 
  "中为": 7751, 
  "欠": 7752, 
  "检讨": 7753, 
  "买@@": 7754, 
  "撒@@": 7755, 
  "248": 7756, 
  "拓展": 7757, 
  "团聚": 7758, 
  "供其": 7759, 
  "冒": 7760, 
  "ó": 7761, 
  "咨询机构": 7762, 
  "悲伤": 7763, 
  "一层": 7764, 
  "昨晚": 7765, 
  "一遍": 7766, 
  "灭绝": 7767, 
  "分阶段": 7768, 
  "隐私": 7769, 
  "雅": 7770, 
  "矿": 7771, 
  "词语": 7772, 
  "辩护律师": 7773, 
  "该科": 7774, 
  "负担得起": 7775, 
  "转运": 7776, 
  "殖民": 7777, 
  "页面": 7778, 
  "软@@": 7779, 
  "数百万": 7780, 
  "应于": 7781, 
  "依@@": 7782, 
  "情节": 7783, 
  "退休金": 7784, 
  "全氟": 7785, 
  "man": 7786, 
  "总的来说": 7787, 
  "招@@": 7788, 
  "弗": 7789, 
  "SC": 7790, 
  "Am@@": 7791, 
  "划定": 7792, 
  "保守": 7793, 
  "铜": 7794, 
  "食@@": 7795, 
  "千克": 7796, 
  "母@@": 7797, 
  "数码": 7798, 
  "骄傲": 7799, 
  "宏观": 7800, 
  "祈祷": 7801, 
  "尤@@": 7802, 
  "把握": 7803, 
  "塞浦路斯共和国": 7804, 
  "造@@": 7805, 
  "朝@@": 7806, 
  "检索": 7807, 
  "区@@": 7808, 
  "单身": 7809, 
  "巧克力": 7810, 
  "副@@": 7811, 
  "个性": 7812, 
  "受损": 7813, 
  "陪伴": 7814, 
  "已婚": 7815, 
  "舞台": 7816, 
  "Ab@@": 7817, 
  "符号": 7818, 
  "迈克尔": 7819, 
  "蓝@@": 7820, 
  "形@@": 7821, 
  "承运人": 7822, 
  "图表": 7823, 
  "伦理": 7824, 
  "轰炸": 7825, 
  "背": 7826, 
  "天主教": 7827, 
  "或非": 7828, 
  "四分之一": 7829, 
  "天使": 7830, 
  "专": 7831, 
  "Bar@@": 7832, 
  "第三节": 7833, 
  "经典": 7834, 
  "修": 7835, 
  "造林": 7836, 
  "自然人": 7837, 
  "艘": 7838, 
  "十一": 7839, 
  "耐@@": 7840, 
  "乡": 7841, 
  "税率": 7842, 
  "廉价": 7843, 
  "愚蠢": 7844, 
  "少于": 7845, 
  "调查员": 7846, 
  "兵力": 7847, 
  "道歉": 7848, 
  "反过来": 7849, 
  "倒@@": 7850, 
  "大门": 7851, 
  "家务": 7852, 
  "萨赫勒": 7853, 
  "大家庭": 7854, 
  "妹妹": 7855, 
  "主管机关": 7856, 
  "紧急状态": 7857, 
  "条所": 7858, 
  "消@@": 7859, 
  "神秘": 7860, 
  "肤色": 7861, 
  "无权": 7862, 
  "海域": 7863, 
  "下表": 7864, 
  "原告": 7865, 
  "宣告": 7866, 
  "开枪": 7867, 
  "信仰自由": 7868, 
  "174": 7869, 
  "调解人": 7870, 
  "生殖器": 7871, 
  "一百@@": 7872, 
  "本函": 7873, 
  "舆论": 7874, 
  "联络处": 7875, 
  "Dec": 7876, 
  "湿": 7877, 
  "极其重要": 7878, 
  "185": 7879, 
  "血管": 7880, 
  "伦@@": 7881, 
  "独自": 7882, 
  "电流": 7883, 
  "绿@@": 7884, 
  "船上": 7885, 
  "环节": 7886, 
  "置": 7887, 
  "以色列国防军": 7888, 
  "第48": 7889, 
  "国家主权": 7890, 
  "云@@": 7891, 
  "高校": 7892, 
  "统计局": 7893, 
  "凡是": 7894, 
  "农业部门": 7895, 
  "阿卜耶伊": 7896, 
  "偶尔": 7897, 
  "列明": 7898, 
  "酒吧": 7899, 
  "放缓": 7900, 
  "累计": 7901, 
  "种@@": 7902, 
  "轻易": 7903, 
  "耳朵": 7904, 
  "省@@": 7905, 
  "赫": 7906, 
  "联发援": 7907, 
  "ie": 7908, 
  "以致": 7909, 
  "目光": 7910, 
  "诚意": 7911, 
  "做些": 7912, 
  "每人": 7913, 
  "众议院": 7914, 
  "乃至": 7915, 
  "缺席": 7916, 
  "1000": 7917, 
  "庄严": 7918, 
  "请问": 7919, 
  "都是": 7920, 
  "升高": 7921, 
  "零件": 7922, 
  "op@@": 7923, 
  "记载": 7924, 
  "ai": 7925, 
  "结算": 7926, 
  "合计": 7927, 
  "零@@": 7928, 
  "管理者": 7929, 
  "到位": 7930, 
  "构成威胁": 7931, 
  "国防军": 7932, 
  "抽@@": 7933, 
  "结社自由": 7934, 
  "准确性": 7935, 
  "转入": 7936, 
  "第九": 7937, 
  "取缔": 7938, 
  "田": 7939, 
  "住户": 7940, 
  "极度": 7941, 
  "起点": 7942, 
  "礼貌": 7943, 
  "行政长官": 7944, 
  "大力支持": 7945, 
  "思@@": 7946, 
  "夜@@": 7947, 
  "巴勒斯坦国": 7948, 
  "非洲统一组织": 7949, 
  "机密": 7950, 
  "缓和": 7951, 
  "交货": 7952, 
  "思": 7953, 
  "214": 7954, 
  "背@@": 7955, 
  "男童": 7956, 
  "法律依据": 7957, 
  "需@@": 7958, 
  "访谈": 7959, 
  "职司": 7960, 
  "蒙": 7961, 
  "行列": 7962, 
  "放到": 7963, 
  "左@@": 7964, 
  "日程": 7965, 
  "地板": 7966, 
  "预备": 7967, 
  "爵士": 7968, 
  "碰到": 7969, 
  "保育": 7970, 
  "发表声明": 7971, 
  "壳": 7972, 
  "开来": 7973, 
  "法医": 7974, 
  "外勤人员": 7975, 
  "凭": 7976, 
  "初等教育": 7977, 
  "直": 7978, 
  "犹太": 7979, 
  "哈利": 7980, 
  "增列": 7981, 
  "薪水": 7982, 
  "及早": 7983, 
  "垄断": 7984, 
  "出示": 7985, 
  "公共汽车": 7986, 
  "引擎": 7987, 
  "并入": 7988, 
  "鸿沟": 7989, 
  "渐渐": 7990, 
  "生理": 7991, 
  "不合理": 7992, 
  "产权": 7993, 
  "登@@": 7994, 
  "地为": 7995, 
  "派@@": 7996, 
  "澳门": 7997, 
  "异议": 7998, 
  "全力": 7999, 
  "签署国": 8000, 
  "ir": 8001, 
  "那边": 8002, 
  "之害": 8003, 
  "等国": 8004, 
  "第五章": 8005, 
  "货币政策": 8006, 
  "码": 8007, 
  "181": 8008, 
  "增": 8009, 
  "173": 8010, 
  "生病": 8011, 
  "堡": 8012, 
  "侮辱": 8013, 
  "盒": 8014, 
  "秒": 8015, 
  "四周": 8016, 
  "同期": 8017, 
  "一新": 8018, 
  "战士": 8019, 
  "控诉": 8020, 
  "电子@@": 8021, 
  "分割": 8022, 
  "势": 8023, 
  "索引": 8024, 
  "上半年": 8025, 
  "说出": 8026, 
  "宁": 8027, 
  "ot@@": 8028, 
  "超级": 8029, 
  "IN@@": 8030, 
  "圣卢西亚": 8031, 
  "机会均等": 8032, 
  "借贷": 8033, 
  "会面": 8034, 
  "压缩": 8035, 
  "第二@@": 8036, 
  "双手": 8037, 
  "占用": 8038, 
  "发生变化": 8039, 
  "提供者": 8040, 
  "就此结束": 8041, 
  "三角": 8042, 
  "高昂": 8043, 
  "战术": 8044, 
  "推": 8045, 
  "挺": 8046, 
  "北非": 8047, 
  "误差": 8048, 
  "抛弃": 8049, 
  "所罗门群岛": 8050, 
  "4.5": 8051, 
  "３": 8052, 
  "力图": 8053, 
  "馆": 8054, 
  "一案": 8055, 
  "骑": 8056, 
  "街上": 8057, 
  "堂": 8058, 
  "第二十六条": 8059, 
  "忍受": 8060, 
  "虚假": 8061, 
  "问@@": 8062, 
  "肉@@": 8063, 
  "农发": 8064, 
  "25@@": 8065, 
  "我愿": 8066, 
  "灾后": 8067, 
  "中等教育": 8068, 
  "追查": 8069, 
  "完全符合": 8070, 
  "汉": 8071, 
  "管理处": 8072, 
  "访问团": 8073, 
  "都@@": 8074, 
  "随意": 8075, 
  "蛇": 8076, 
  "富": 8077, 
  "参议员": 8078, 
  "安静": 8079, 
  "3.5": 8080, 
  "发布会": 8081, 
  "186": 8082, 
  "烧@@": 8083, 
  "调用": 8084, 
  "并不": 8085, 
  "遥远": 8086, 
  "元首": 8087, 
  "无限": 8088, 
  "灌溉": 8089, 
  "建成": 8090, 
  "多达": 8091, 
  "地理信息系统": 8092, 
  "善": 8093, 
  "191": 8094, 
  "171": 8095, 
  "教廷": 8096, 
  "瓦努阿图": 8097, 
  "吸@@": 8098, 
  "刘@@": 8099, 
  "放置": 8100, 
  "有何": 8101, 
  "跟着": 8102, 
  "干燥": 8103, 
  "明星": 8104, 
  "名叫": 8105, 
  "混@@": 8106, 
  "小国": 8107, 
  "一枚": 8108, 
  "184": 8109, 
  "游@@": 8110, 
  "玉米": 8111, 
  "跳@@": 8112, 
  "177": 8113, 
  "中介": 8114, 
  "岩": 8115, 
  "噪音": 8116, 
  "东非": 8117, 
  "来讲": 8118, 
  "第十九届": 8119, 
  "牙": 8120, 
  "内政": 8121, 
  "冲": 8122, 
  "如上": 8123, 
  "序列": 8124, 
  "东欧国家": 8125, 
  "暗@@": 8126, 
  "ES": 8127, 
  "Ad@@": 8128, 
  "扩充": 8129, 
  "板@@": 8130, 
  "部位": 8131, 
  "月球": 8132, 
  "微生物": 8133, 
  "姐姐": 8134, 
  "所知": 8135, 
  "la": 8136, 
  "感染者": 8137, 
  "磁@@": 8138, 
  "财务管理": 8139, 
  "局限于": 8140, 
  "丽": 8141, 
  "视听": 8142, 
  "管理制度": 8143, 
  "党@@": 8144, 
  "负有责任": 8145, 
  "故": 8146, 
  "调度": 8147, 
  "低下": 8148, 
  "人家": 8149, 
  "结果显示": 8150, 
  "足@@": 8151, 
  "汤": 8152, 
  "Br@@": 8153, 
  "主义者": 8154, 
  "猜": 8155, 
  "精算": 8156, 
  "Sub": 8157, 
  "舞": 8158, 
  "通行": 8159, 
  "配": 8160, 
  "第十七条": 8161, 
  "水泥": 8162, 
  "1969": 8163, 
  "简称": 8164, 
  "评审": 8165, 
  "偿付": 8166, 
  "其管辖": 8167, 
  "以求": 8168, 
  "4.3": 8169, 
  "前来": 8170, 
  "磨@@": 8171, 
  "马丁": 8172, 
  "卖@@": 8173, 
  "汇": 8174, 
  "好象": 8175, 
  "增添": 8176, 
  "乌": 8177, 
  "存@@": 8178, 
  "广阔": 8179, 
  "休": 8180, 
  "议案": 8181, 
  "生产商": 8182, 
  "第纳尔": 8183, 
  "下达": 8184, 
  "付诸": 8185, 
  "支@@": 8186, 
  "散@@": 8187, 
  "烟@@": 8188, 
  "例外情况": 8189, 
  "失效": 8190, 
  "公顷": 8191, 
  "议会选举": 8192, 
  "最具": 8193, 
  "图瓦卢": 8194, 
  "与@@": 8195, 
  "公职": 8196, 
  "RES": 8197, 
  "关键性": 8198, 
  "甘@@": 8199, 
  "钱@@": 8200, 
  "画@@": 8201, 
  "白宫": 8202, 
  "执政": 8203, 
  "精度": 8204, 
  "两类": 8205, 
  "忠诚": 8206, 
  "喀布尔": 8207, 
  "233": 8208, 
  "218": 8209, 
  "拉特": 8210, 
  "加共体": 8211, 
  "利益冲突": 8212, 
  "基督": 8213, 
  "双语": 8214, 
  "178": 8215, 
  "ers": 8216, 
  "钢@@": 8217, 
  "1951": 8218, 
  "北极": 8219, 
  "弹@@": 8220, 
  "无罪": 8221, 
  "滑@@": 8222, 
  "ch": 8223, 
  "四方": 8224, 
  "坚实": 8225, 
  "脑": 8226, 
  "核设施": 8227, 
  "毒@@": 8228, 
  "写@@": 8229, 
  "造福": 8230, 
  "目睹": 8231, 
  "余@@": 8232, 
  "偏离": 8233, 
  "天基": 8234, 
  "缩减": 8235, 
  "联合体": 8236, 
  "187": 8237, 
  "199": 8238, 
  "随之": 8239, 
  "榜样": 8240, 
  "相处": 8241, 
  "牙@@": 8242, 
  "育儿": 8243, 
  "互@@": 8244, 
  "除此之外": 8245, 
  "杂项": 8246, 
  "西非国家": 8247, 
  "第一批": 8248, 
  "美联储": 8249, 
  "基本法": 8250, 
  "开关": 8251, 
  "武装力量": 8252, 
  "注视": 8253, 
  "不容": 8254, 
  "与非": 8255, 
  "屏幕": 8256, 
  "游": 8257, 
  "公共秩序": 8258, 
  "CMP": 8259, 
  "谢@@": 8260, 
  "盘@@": 8261, 
  "2.6": 8262, 
  "户主": 8263, 
  "移植": 8264, 
  "El@@": 8265, 
  "覆盖面": 8266, 
  "最少": 8267, 
  "逐字": 8268, 
  "共和党": 8269, 
  "熟练": 8270, 
  "货@@": 8271, 
  "相关者": 8272, 
  "手工": 8273, 
  "丢": 8274, 
  "评委": 8275, 
  "占领军": 8276, 
  "ic": 8277, 
  "会议厅": 8278, 
  "6.2": 8279, 
  "彻底消除": 8280, 
  "两家": 8281, 
  "225": 8282, 
  "所称": 8283, 
  "次@@": 8284, 
  "人员编制": 8285, 
  "总会": 8286, 
  "那次": 8287, 
  "改良": 8288, 
  "176": 8289, 
  "30日": 8290, 
  "急@@": 8291, 
  "阴@@": 8292, 
  "选手": 8293, 
  "岛上": 8294, 
  "欧共体": 8295, 
  "丽@@": 8296, 
  "雪": 8297, 
  "ent@@": 8298, 
  "市@@": 8299, 
  "拖@@": 8300, 
  "往@@": 8301, 
  "赛@@": 8302, 
  "堆": 8303, 
  "读书": 8304, 
  "大屠杀": 8305, 
  "偏@@": 8306, 
  "薪资": 8307, 
  "止": 8308, 
  "联保": 8309, 
  "罗姆": 8310, 
  "查验": 8311, 
  "坐下": 8312, 
  "这张": 8313, 
  "精神病": 8314, 
  "联伊": 8315, 
  "规划系统": 8316, 
  "第十五届": 8317, 
  "追@@": 8318, 
  "针": 8319, 
  "格局": 8320, 
  "qu@@": 8321, 
  "内向": 8322, 
  "法律义务": 8323, 
  "邻近": 8324, 
  "佛@@": 8325, 
  "词@@": 8326, 
  "方程": 8327, 
  "亲": 8328, 
  "AR@@": 8329, 
  "氏": 8330, 
  "断定": 8331, 
  "202": 8332, 
  "创": 8333, 
  "206": 8334, 
  "定量": 8335, 
  "校园": 8336, 
  "经营者": 8337, 
  "研究者": 8338, 
  "果@@": 8339, 
  "房@@": 8340, 
  "重大贡献": 8341, 
  "幻想": 8342, 
  "报名": 8343, 
  "198": 8344, 
  "海水": 8345, 
  "不顾": 8346, 
  "敏感性": 8347, 
  "外聘": 8348, 
  "监察组": 8349, 
  "人道": 8350, 
  "藏@@": 8351, 
  "年纪": 8352, 
  "案子": 8353, 
  "品@@": 8354, 
  "博客": 8355, 
  "稳步": 8356, 
  "分支": 8357, 
  "安南": 8358, 
  "450": 8359, 
  "aw@@": 8360, 
  "6.1": 8361, 
  "略有": 8362, 
  "在实践中": 8363, 
  "想想": 8364, 
  "风暴": 8365, 
  "你好": 8366, 
  "学费": 8367, 
  "每当": 8368, 
  "排名": 8369, 
  "信息管理": 8370, 
  "壁": 8371, 
  "颗粒": 8372, 
  "一般来说": 8373, 
  "市区": 8374, 
  "出缺": 8375, 
  "公主": 8376, 
  "脱": 8377, 
  "个人资料": 8378, 
  "律师协会": 8379, 
  "第十六届": 8380, 
  "会计师": 8381, 
  "移": 8382, 
  "浓缩": 8383, 
  "夜晚": 8384, 
  "缴": 8385, 
  "增订": 8386, 
  "发生率": 8387, 
  "防卫": 8388, 
  "判处死刑": 8389, 
  "率为": 8390, 
  "哈马斯": 8391, 
  "ai@@": 8392, 
  "尚待": 8393, 
  "黄": 8394, 
  "先后": 8395, 
  "商业银行": 8396, 
  "毒": 8397, 
  "节能": 8398, 
  "院校": 8399, 
  "粗@@": 8400, 
  "普遍认为": 8401, 
  "加勒比地区": 8402, 
  "吻": 8403, 
  "创造条件": 8404, 
  "即决": 8405, 
  "–": 8406, 
  "协": 8407, 
  "乘坐": 8408, 
  "衣@@": 8409, 
  "就算": 8410, 
  "时常": 8411, 
  "略": 8412, 
  "207": 8413, 
  "牙齿": 8414, 
  "码头": 8415, 
  "上校": 8416, 
  "混合物": 8417, 
  "精神药物": 8418, 
  "性取向": 8419, 
  "捷克": 8420, 
  "年会": 8421, 
  "键": 8422, 
  "各个领域": 8423, 
  "国际性": 8424, 
  "等候": 8425, 
  "243": 8426, 
  "祝福": 8427, 
  "194": 8428, 
  "综管": 8429, 
  "长久": 8430, 
  "商品价格": 8431, 
  "le@@": 8432, 
  "高等": 8433, 
  "罗伯特": 8434, 
  "煤": 8435, 
  "队员": 8436, 
  "５": 8437, 
  "隧道": 8438, 
  "安慰": 8439, 
  "有效期": 8440, 
  "全都": 8441, 
  "破裂": 8442, 
  "建立联系": 8443, 
  "技术人员": 8444, 
  "陪": 8445, 
  "黄色": 8446, 
  "顺@@": 8447, 
  "维尔": 8448, 
  "im": 8449, 
  "我来": 8450, 
  "得益于": 8451, 
  "克林顿": 8452, 
  "禁@@": 8453, 
  "丢失": 8454, 
  "审案": 8455, 
  "搜寻": 8456, 
  "运费": 8457, 
  "春@@": 8458, 
  "千美元": 8459, 
  "蛋": 8460, 
  "节点": 8461, 
  "造": 8462, 
  "交换意见": 8463, 
  "祝愿": 8464, 
  "规范性": 8465, 
  "人身安全": 8466, 
  "命名": 8467, 
  "低估": 8468, 
  "纸@@": 8469, 
  "野@@": 8470, 
  "最有": 8471, 
  "克制": 8472, 
  "氧": 8473, 
  "音@@": 8474, 
  "合作项目": 8475, 
  "度假": 8476, 
  "聘请": 8477, 
  "零售": 8478, 
  "―": 8479, 
  "轻微": 8480, 
  "决不": 8481, 
  "安全措施": 8482, 
  "教育领域": 8483, 
  "222": 8484, 
  "拖": 8485, 
  "数年": 8486, 
  "对面": 8487, 
  "跳舞": 8488, 
  "188": 8489, 
  "迁徙": 8490, 
  "母": 8491, 
  "其所": 8492, 
  "外籍": 8493, 
  "应立即": 8494, 
  "id": 8495, 
  "瓶": 8496, 
  "阿鲁沙": 8497, 
  "万元": 8498, 
  "ang@@": 8499, 
  "开辟": 8500, 
  "激动": 8501, 
  "石棉": 8502, 
  "新政府": 8503, 
  "各不相同": 8504, 
  "全人类": 8505, 
  "装运": 8506, 
  "水中": 8507, 
  "1.4": 8508, 
  "塞舌尔": 8509, 
  "贝尔格莱德": 8510, 
  "几周": 8511, 
  "杰": 8512, 
  "三国": 8513, 
  "卫生部门": 8514, 
  "告": 8515, 
  "封@@": 8516, 
  "193": 8517, 
  "只好": 8518, 
  "园": 8519, 
  "不可@@": 8520, 
  "第十七届": 8521, 
  "研究员": 8522, 
  "法律法规": 8523, 
  "随机": 8524, 
  "母婴": 8525, 
  "209": 8526, 
  "深深": 8527, 
  "英联邦": 8528, 
  "宗教自由": 8529, 
  "油价": 8530, 
  "开启": 8531, 
  "空气污染": 8532, 
  "ti@@": 8533, 
  "尽@@": 8534, 
  "eg@@": 8535, 
  "奖金": 8536, 
  "有所不同": 8537, 
  "众": 8538, 
  "四项": 8539, 
  "效用": 8540, 
  "24@@": 8541, 
  "感@@": 8542, 
  "浮@@": 8543, 
  "丹@@": 8544, 
  "一轮": 8545, 
  "译": 8546, 
  "残@@": 8547, 
  "死去": 8548, 
  "小组会议": 8549, 
  "射": 8550, 
  "大鼠": 8551, 
  "未成年": 8552, 
  "消极影响": 8553, 
  "菲": 8554, 
  "年龄组": 8555, 
  "牌照": 8556, 
  "食用": 8557, 
  "散": 8558, 
  "焦虑": 8559, 
  "保留意见": 8560, 
  "布林迪西": 8561, 
  "弹道导弹": 8562, 
  "Ali": 8563, 
  "亿@@": 8564, 
  "下半年": 8565, 
  "校": 8566, 
  "单词": 8567, 
  "子弹": 8568, 
  "元@@": 8569, 
  "政策措施": 8570, 
  "英国人": 8571, 
  "冬季": 8572, 
  "之处": 8573, 
  "电压": 8574, 
  "金融体系": 8575, 
  "挫折": 8576, 
  "详细情况": 8577, 
  "一艘": 8578, 
  "强加": 8579, 
  "心脏病": 8580, 
  "议事": 8581, 
  "讲@@": 8582, 
  "附@@": 8583, 
  "EC": 8584, 
  "两大": 8585, 
  "努@@": 8586, 
  "审定": 8587, 
  "灾难性": 8588, 
  "1325": 8589, 
  "动词": 8590, 
  "23@@": 8591, 
  "厚": 8592, 
  "戏剧": 8593, 
  "评定": 8594, 
  "委任": 8595, 
  "屋": 8596, 
  "答": 8597, 
  "仍@@": 8598, 
  "待@@": 8599, 
  "5.3": 8600, 
  "179": 8601, 
  "匮乏": 8602, 
  "海洋生物": 8603, 
  "3.4": 8604, 
  "有所改善": 8605, 
  "农": 8606, 
  "炸药": 8607, 
  "间隔": 8608, 
  "拘留所": 8609, 
  "轮@@": 8610, 
  "探@@": 8611, 
  "封信": 8612, 
  "啤酒": 8613, 
  "考绩": 8614, 
  "萨米": 8615, 
  "乐意": 8616, 
  "在此": 8617, 
  "诞生": 8618, 
  "Kar@@": 8619, 
  "受伤害": 8620, 
  "羊": 8621, 
  "服务提供者": 8622, 
  "总裁": 8623, 
  "IS@@": 8624, 
  "移动电话": 8625, 
  "男生": 8626, 
  "它会": 8627, 
  "从业人员": 8628, 
  "侵蚀": 8629, 
  "团@@": 8630, 
  "一封": 8631, 
  "灵@@": 8632, 
  "存货": 8633, 
  "寻@@": 8634, 
  "SBI": 8635, 
  "称@@": 8636, 
  "中应": 8637, 
  "紧@@": 8638, 
  "界面": 8639, 
  "休会": 8640, 
  "接管": 8641, 
  "第四十八届": 8642, 
  "此人": 8643, 
  "面谈": 8644, 
  "均匀": 8645, 
  "卓越": 8646, 
  "现阶段": 8647, 
  "果断": 8648, 
  "兴奋剂": 8649, 
  "演习": 8650, 
  "排列": 8651, 
  "af@@": 8652, 
  "汉语": 8653, 
  "阿里": 8654, 
  "孤独": 8655, 
  "威": 8656, 
  "检察": 8657, 
  "南极": 8658, 
  "体育运动": 8659, 
  "ine": 8660, 
  "叫@@": 8661, 
  "墙上": 8662, 
  "军用": 8663, 
  "教科书": 8664, 
  "翻修": 8665, 
  "半数": 8666, 
  "瑞": 8667, 
  "见表": 8668, 
  "夜间": 8669, 
  "警务人员": 8670, 
  "见证": 8671, 
  "竟然": 8672, 
  "谈@@": 8673, 
  "六月": 8674, 
  "听证会": 8675, 
  "1990年": 8676, 
  "城乡": 8677, 
  "法律效力": 8678, 
  "字母": 8679, 
  "一览表": 8680, 
  "27@@": 8681, 
  "余下": 8682, 
  "抵触": 8683, 
  "调拨": 8684, 
  "敌": 8685, 
  "本港": 8686, 
  "干什么": 8687, 
  "寡妇": 8688, 
  "竭尽全力": 8689, 
  "领先": 8690, 
  "所处": 8691, 
  "预警系统": 8692, 
  "简@@": 8693, 
  "203": 8694, 
  "了。": 8695, 
  "声誉": 8696, 
  "出境": 8697, 
  "eb@@": 8698, 
  "公正性": 8699, 
  "参@@": 8700, 
  "错过": 8701, 
  "执照": 8702, 
  "研": 8703, 
  "二十年": 8704, 
  "多余": 8705, 
  "应从": 8706, 
  "漏洞": 8707, 
  "思路": 8708, 
  "船长": 8709, 
  "第十八届": 8710, 
  "培育": 8711, 
  "事务所": 8712, 
  "部族": 8713, 
  "第一年": 8714, 
  "教员": 8715, 
  "知名": 8716, 
  "维生素": 8717, 
  "未曾": 8718, 
  "湿地": 8719, 
  "”@@": 8720, 
  "恶@@": 8721, 
  "喀土穆": 8722, 
  "221": 8723, 
  "酒精": 8724, 
  "搜集": 8725, 
  "欢乐": 8726, 
  "狼": 8727, 
  "29@@": 8728, 
  "借款": 8729, 
  "选举法": 8730, 
  "无限期": 8731, 
  "听众": 8732, 
  "零部件": 8733, 
  "泵": 8734, 
  "十周年": 8735, 
  "何处": 8736, 
  "241": 8737, 
  "史@@": 8738, 
  "祝": 8739, 
  "防扩散": 8740, 
  "起因": 8741, 
  "始于": 8742, 
  "订购": 8743, 
  "敌军": 8744, 
  "静@@": 8745, 
  "分析师": 8746, 
  "历来": 8747, 
  "度@@": 8748, 
  "有望": 8749, 
  "228": 8750, 
  "版权": 8751, 
  "偶然": 8752, 
  "小麦": 8753, 
  "行星": 8754, 
  "进化": 8755, 
  "充实": 8756, 
  "以至于": 8757, 
  "高风险": 8758, 
  "武@@": 8759, 
  "即时": 8760, 
  "电视节目": 8761, 
  "母语": 8762, 
  "肯": 8763, 
  "饼": 8764, 
  "转为": 8765, 
  "条约法": 8766, 
  "迈进": 8767, 
  "橡胶": 8768, 
  "官@@": 8769, 
  "水道": 8770, 
  "ya": 8771, 
  "0.7": 8772, 
  "压迫": 8773, 
  "课堂": 8774, 
  "经济合作与发展组织": 8775, 
  "ing@@": 8776, 
  "持续性": 8777, 
  "步@@": 8778, 
  "邪恶": 8779, 
  "伤残": 8780, 
  "不时": 8781, 
  "冰": 8782, 
  "没有@@": 8783, 
  "帝国": 8784, 
  "亨利": 8785, 
  "预报": 8786, 
  "宝@@": 8787, 
  "施": 8788, 
  "多于": 8789, 
  "策": 8790, 
  "短语": 8791, 
  "有必要": 8792, 
  "诽谤": 8793, 
  "菌": 8794, 
  "204": 8795, 
  "237": 8796, 
  "莉": 8797, 
  "后期": 8798, 
  "吸入": 8799, 
  "潮": 8800, 
  "怪": 8801, 
  "迟到": 8802, 
  "耳": 8803, 
  "村民": 8804, 
  "服兵役": 8805, 
  "模": 8806, 
  "分解": 8807, 
  "令人担忧": 8808, 
  "该段": 8809, 
  "减排": 8810, 
  "倾听": 8811, 
  "重新考虑": 8812, 
  "新生": 8813, 
  "善意": 8814, 
  "致@@": 8815, 
  "识字": 8816, 
  "认": 8817, 
  "极少": 8818, 
  "学到": 8819, 
  "牢固": 8820, 
  "率@@": 8821, 
  "柏林": 8822, 
  "for": 8823, 
  "催化剂": 8824, 
  "距": 8825, 
  "压制": 8826, 
  "废水": 8827, 
  "容纳": 8828, 
  "锡": 8829, 
  "钟": 8830, 
  "房地": 8831, 
  "绘制": 8832, 
  "广@@": 8833, 
  "日趋": 8834, 
  "过后": 8835, 
  "从来不": 8836, 
  "群@@": 8837, 
  "新建": 8838, 
  "鬼": 8839, 
  "氛围": 8840, 
  "195": 8841, 
  "喷@@": 8842, 
  "一期": 8843, 
  "昨日": 8844, 
  "名词": 8845, 
  "里奥": 8846, 
  "贵方": 8847, 
  "划": 8848, 
  "险": 8849, 
  "280": 8850, 
  "控制权": 8851, 
  "ta": 8852, 
  "加倍努力": 8853, 
  "来信": 8854, 
  "亿元": 8855, 
  "杂@@": 8856, 
  "百分点": 8857, 
  "义@@": 8858, 
  "急": 8859, 
  "屋顶": 8860, 
  "生活水准": 8861, 
  "移民局": 8862, 
  "纯@@": 8863, 
  "鼓掌": 8864, 
  "外交官": 8865, 
  "幼儿园": 8866, 
  "坑": 8867, 
  "与否": 8868, 
  "社会@@": 8869, 
  "函": 8870, 
  "非线性": 8871, 
  "渔船": 8872, 
  "轮胎": 8873, 
  "否决权": 8874, 
  "IV": 8875, 
  "守@@": 8876, 
  "跨境": 8877, 
  "见本": 8878, 
  "CAT": 8879, 
  "较@@": 8880, 
  "折扣": 8881, 
  "亟需": 8882, 
  "相等": 8883, 
  "卡拉": 8884, 
  "奇迹": 8885, 
  "哥": 8886, 
  "庇护所": 8887, 
  "相连": 8888, 
  "饭": 8889, 
  "216": 8890, 
  "符合国际": 8891, 
  "空调": 8892, 
  "捍卫者": 8893, 
  "百慕大": 8894, 
  "大气层": 8895, 
  "挑衅": 8896, 
  "ong": 8897, 
  "平方米": 8898, 
  "CO@@": 8899, 
  "系@@": 8900, 
  "临@@": 8901, 
  "215": 8902, 
  "阴影": 8903, 
  "粒": 8904, 
  "com": 8905, 
  "走过": 8906, 
  "差@@": 8907, 
  "段时间": 8908, 
  "押": 8909, 
  "ari": 8910, 
  "Su@@": 8911, 
  "鼻子": 8912, 
  "留给": 8913, 
  "缺@@": 8914, 
  "事后": 8915, 
  "除名": 8916, 
  "市政府": 8917, 
  "喂": 8918, 
  "一倍": 8919, 
  "266": 8920, 
  "微软": 8921, 
  "乐趣": 8922, 
  "哪@@": 8923, 
  "单纯": 8924, 
  "提出申请": 8925, 
  "尺度": 8926, 
  "读@@": 8927, 
  "越过": 8928, 
  "赔偿金": 8929, 
  "训": 8930, 
  "但须": 8931, 
  "业界": 8932, 
  "因子": 8933, 
  "它@@": 8934, 
  "谷歌": 8935, 
  "MISC": 8936, 
  "全年": 8937, 
  "大厅": 8938, 
  "已获": 8939, 
  "容许": 8940, 
  "戴@@": 8941, 
  "高峰": 8942, 
  "基金组织": 8943, 
  "记入": 8944, 
  "希尔": 8945, 
  "1963": 8946, 
  "挑战性": 8947, 
  "圆": 8948, 
  "美属": 8949, 
  "查访": 8950, 
  "歌曲": 8951, 
  "＊": 8952, 
  "使该": 8953, 
  "商标": 8954, 
  "第十四届": 8955, 
  "幅": 8956, 
  "中说": 8957, 
  "姿态": 8958, 
  "氧化": 8959, 
  "法律咨询": 8960, 
  "天堂": 8961, 
  "空军": 8962, 
  "过高": 8963, 
  "大城市": 8964, 
  "野蛮": 8965, 
  "桶": 8966, 
  "新年": 8967, 
  "搬": 8968, 
  "行政助理": 8969, 
  "第3@@": 8970, 
  "拨出": 8971, 
  "此举": 8972, 
  "继续下去": 8973, 
  "一款": 8974, 
  "矩阵": 8975, 
  "AN@@": 8976, 
  "血统": 8977, 
  "江": 8978, 
  "最不": 8979, 
  "炮弹": 8980, 
  "经济衰退": 8981, 
  "一杯": 8982, 
  "电讯": 8983, 
  "兑换": 8984, 
  "城@@": 8985, 
  "ob@@": 8986, 
  "暗杀": 8987, 
  "覆盖率": 8988, 
  "曲": 8989, 
  "流向": 8990, 
  "驻@@": 8991, 
  "197": 8992, 
  "舍": 8993, 
  "并发症": 8994, 
  "安提瓜和巴布达": 8995, 
  "准入": 8996, 
  "动力学": 8997, 
  "起着": 8998, 
  "对称": 8999, 
  "赔偿额": 9000, 
  "269": 9001, 
  "可卡因": 9002, 
  "游行": 9003, 
  "ard": 9004, 
  "刚@@": 9005, 
  "诗人": 9006, 
  "营运": 9007, 
  "医务人员": 9008, 
  "一门": 9009, 
  "灭": 9010, 
  "广义": 9011, 
  "世@@": 9012, 
  "换句话说": 9013, 
  "保护法": 9014, 
  "孔@@": 9015, 
  "舞蹈": 9016, 
  "15日": 9017, 
  "备件": 9018, 
  "az@@": 9019, 
  "ip@@": 9020, 
  "赚": 9021, 
  "光明": 9022, 
  "行为人": 9023, 
  "知@@": 9024, 
  "太平洋地区": 9025, 
  "销": 9026, 
  "容量": 9027, 
  "速": 9028, 
  "归@@": 9029, 
  "各次": 9030, 
  "吹": 9031, 
  "那条": 9032, 
  "辛@@": 9033, 
  "持有人": 9034, 
  "侧": 9035, 
  "205": 9036, 
  "必将": 9037, 
  "扶养": 9038, 
  "当今世界": 9039, 
  "替代性": 9040, 
  "生于": 9041, 
  "降@@": 9042, 
  "民用航空": 9043, 
  "观@@": 9044, 
  "例@@": 9045, 
  "亿人": 9046, 
  "总人口": 9047, 
  "碰撞": 9048, 
  "化管": 9049, 
  "微妙": 9050, 
  "人质": 9051, 
  "备用": 9052, 
  "第十一条": 9053, 
  "敬意": 9054, 
  "表情": 9055, 
  "金沙萨": 9056, 
  "253": 9057, 
  "互补": 9058, 
  "坦@@": 9059, 
  "非法行为": 9060, 
  "无线": 9061, 
  "期限内": 9062, 
  "划@@": 9063, 
  "便@@": 9064, 
  "父": 9065, 
  "资": 9066, 
  "痛@@": 9067, 
  "角度看": 9068, 
  "4.4": 9069, 
  "海滩": 9070, 
  "ey": 9071, 
  "当务之急": 9072, 
  "顶@@": 9073, 
  "原谅": 9074, 
  "纯": 9075, 
  "洲": 9076, 
  "弄@@": 9077, 
  "善@@": 9078, 
  "基会": 9079, 
  "茶@@": 9080, 
  "ec@@": 9081, 
  "办@@": 9082, 
  "不结盟": 9083, 
  "阿克拉": 9084, 
  "出差": 9085, 
  "俄文": 9086, 
  "灰色": 9087, 
  "股权": 9088, 
  "中向": 9089, 
  "累": 9090, 
  "阿拉木图": 9091, 
  "尾": 9092, 
  "原油": 9093, 
  "知": 9094, 
  "ICCD": 9095, 
  "塑造": 9096, 
  "问道": 9097, 
  "浪漫": 9098, 
  "sc": 9099, 
  "原定": 9100, 
  "青": 9101, 
  "灰@@": 9102, 
  "雨@@": 9103, 
  "皆": 9104, 
  "DNA": 9105, 
  "考": 9106, 
  "司法部长": 9107, 
  "高出": 9108, 
  "南美洲": 9109, 
  "流感": 9110, 
  "摆在": 9111, 
  "人中": 9112, 
  "某@@": 9113, 
  "另一方": 9114, 
  "一整套": 9115, 
  "阀": 9116, 
  "纺织品": 9117, 
  "根据上述": 9118, 
  "槽": 9119, 
  "办公厅": 9120, 
  "午餐": 9121, 
  "季": 9122, 
  "洁净": 9123, 
  "什@@": 9124, 
  "预料": 9125, 
  "圣经": 9126, 
  "动乱": 9127, 
  "担负": 9128, 
  "五月": 9129, 
  "薄": 9130, 
  "报销": 9131, 
  "疲劳": 9132, 
  "戏": 9133, 
  "联合声明": 9134, 
  "粒子": 9135, 
  "并行": 9136, 
  "设计师": 9137, 
  "根深蒂固": 9138, 
  "安道尔": 9139, 
  "联东": 9140, 
  "蛋糕": 9141, 
  "另@@": 9142, 
  "多边条约": 9143, 
  "款@@": 9144, 
  "折@@": 9145, 
  "完毕": 9146, 
  "比重": 9147, 
  "胜": 9148, 
  "格林纳达": 9149, 
  "惊@@": 9150, 
  "俄国": 9151, 
  "固体": 9152, 
  "渗透": 9153, 
  "际": 9154, 
  "加热": 9155, 
  "机票": 9156, 
  "回避": 9157, 
  "反思": 9158, 
  "素@@": 9159, 
  "ent": 9160, 
  "千万": 9161, 
  "要说": 9162, 
  "大自然": 9163, 
  "信息中心": 9164, 
  "口袋": 9165, 
  "按钮": 9166, 
  "杜": 9167, 
  "案@@": 9168, 
  "水源": 9169, 
  "推销": 9170, 
  "生物学": 9171, 
  "2.7": 9172, 
  "而成": 9173, 
  "入口": 9174, 
  "剑": 9175, 
  "容": 9176, 
  "早婚": 9177, 
  "交战": 9178, 
  "管理制": 9179, 
  "息": 9180, 
  "侵权": 9181, 
  "账目": 9182, 
  "期刊": 9183, 
  "结核": 9184, 
  "业@@": 9185, 
  "Z": 9186, 
  "光盘": 9187, 
  "三级": 9188, 
  "充分发挥": 9189, 
  "国民经济": 9190, 
  "年度预算": 9191, 
  "挽救": 9192, 
  "公海": 9193, 
  "摄影": 9194, 
  "科研": 9195, 
  "铜@@": 9196, 
  "早餐": 9197, 
  "检查和": 9198, 
  "奥林匹克": 9199, 
  "一月": 9200, 
  "处长": 9201, 
  "胶": 9202, 
  "航天": 9203, 
  "派别": 9204, 
  "电缆": 9205, 
  "噪声": 9206, 
  "江@@": 9207, 
  "针@@": 9208, 
  "帕劳": 9209, 
  "摩尔多瓦": 9210, 
  "曾@@": 9211, 
  "现时": 9212, 
  "Car@@": 9213, 
  "胶@@": 9214, 
  "坦克": 9215, 
  "反驳": 9216, 
  "晚餐": 9217, 
  "交由": 9218, 
  "善政": 9219, 
  "专业化": 9220, 
  "ek@@": 9221, 
  "变暖": 9222, 
  "写信": 9223, 
  "商用": 9224, 
  "负责管理": 9225, 
  "右@@": 9226, 
  "领导层": 9227, 
  "巴厘": 9228, 
  "众人": 9229, 
  "家乡": 9230, 
  "铅": 9231, 
  "订@@": 9232, 
  "刑事案件": 9233, 
  "形容": 9234, 
  "测@@": 9235, 
  "商业性": 9236, 
  "热爱": 9237, 
  "租": 9238, 
  "交流经验": 9239, 
  "资@@": 9240, 
  "休闲": 9241, 
  "公共安全": 9242, 
  "原材料": 9243, 
  "汤加": 9244, 
  "son": 9245, 
  "任@@": 9246, 
  "第十五条": 9247, 
  "反对党": 9248, 
  "组织法": 9249, 
  "本土": 9250, 
  "学家": 9251, 
  "通货膨胀率": 9252, 
  "银行业": 9253, 
  "反洗钱": 9254, 
  "小小的": 9255, 
  "棉花": 9256, 
  "灵": 9257, 
  "乐队": 9258, 
  "绝@@": 9259, 
  "烦恼": 9260, 
  "棘手": 9261, 
  "延@@": 9262, 
  "这段": 9263, 
  "苦": 9264, 
  "祖@@": 9265, 
  "ICEF": 9266, 
  "禁毒署": 9267, 
  "解读": 9268, 
  "天体": 9269, 
  "研究成果": 9270, 
  "社会工作者": 9271, 
  "东方": 9272, 
  "一头": 9273, 
  "ev@@": 9274, 
  "欠款": 9275, 
  "扬@@": 9276, 
  "布什总统": 9277, 
  "矿业": 9278, 
  "范@@": 9279, 
  "持续增长": 9280, 
  "两架": 9281, 
  "变换": 9282, 
  "海湾": 9283, 
  "IT": 9284, 
  "谷": 9285, 
  "四月": 9286, 
  "标明": 9287, 
  "狮子": 9288, 
  "马绍尔群岛": 9289, 
  "纷纷": 9290, 
  "GS": 9291, 
  "根本原因": 9292, 
  "打印": 9293, 
  "八年": 9294, 
  "ik@@": 9295, 
  "毫克": 9296, 
  "仲裁员": 9297, 
  "排定": 9298, 
  "密封": 9299, 
  "治@@": 9300, 
  "带给": 9301, 
  "预订": 9302, 
  "寄": 9303, 
  "三维": 9304, 
  "肥胖": 9305, 
  "无家可归": 9306, 
  "被动": 9307, 
  "联合国国际贸易法委员会": 9308, 
  "穿越": 9309, 
  "264": 9310, 
  "最快": 9311, 
  "第三@@": 9312, 
  "克隆": 9313, 
  "常任": 9314, 
  "免": 9315, 
  "奋斗": 9316, 
  "访问期间": 9317, 
  "盯": 9318, 
  "语法": 9319, 
  "热点": 9320, 
  "接洽": 9321, 
  "调和": 9322, 
  "晚些时候": 9323, 
  "十三": 9324, 
  "擦": 9325, 
  "竟": 9326, 
  "优良": 9327, 
  "htm": 9328, 
  "停战": 9329, 
  "个人@@": 9330, 
  "承@@": 9331, 
  "合法化": 9332, 
  "制服": 9333, 
  "ak": 9334, 
  "酸@@": 9335, 
  "态": 9336, 
  "ang": 9337, 
  "CERD": 9338, 
  "平方公里": 9339, 
  "广": 9340, 
  "第十八条": 9341, 
  "为限": 9342, 
  "查找": 9343, 
  "儿@@": 9344, 
  "贬值": 9345, 
  "圣文森特": 9346, 
  "电话号码": 9347, 
  "360": 9348, 
  "易受": 9349, 
  "激情": 9350, 
  "争辩": 9351, 
  "承包": 9352, 
  "揭露": 9353, 
  "第一节": 9354, 
  "宁愿": 9355, 
  "细": 9356, 
  "一时": 9357, 
  "场景": 9358, 
  "临时代办": 9359, 
  "起源": 9360, 
  "分支机构": 9361, 
  "备灾": 9362, 
  "一章": 9363, 
  "上将": 9364, 
  "举动": 9365, 
  "营@@": 9366, 
  "空前": 9367, 
  "途中": 9368, 
  "九龙": 9369, 
  "制图": 9370, 
  "景观": 9371, 
  "乍": 9372, 
  "以防": 9373, 
  "收缴": 9374, 
  "217": 9375, 
  "所有者": 9376, 
  "这部分": 9377, 
  "中旬": 9378, 
  "196": 9379, 
  "查尔斯": 9380, 
  "减弱": 9381, 
  "言语": 9382, 
  "if@@": 9383, 
  "法例": 9384, 
  "均@@": 9385, 
  "瓦尔": 9386, 
  "谨向": 9387, 
  "悬而未决": 9388, 
  "255": 9389, 
  "避难": 9390, 
  "El": 9391, 
  "高速公路": 9392, 
  "谋生": 9393, 
  "International": 9394, 
  "一眼": 9395, 
  "焊接": 9396, 
  "真空": 9397, 
  "数据处理": 9398, 
  "发展局": 9399, 
  "深海": 9400, 
  "静止": 9401, 
  "此一": 9402, 
  "矿@@": 9403, 
  "警报": 9404, 
  "减小": 9405, 
  "SA@@": 9406, 
  "忠实": 9407, 
  "广为": 9408, 
  "252": 9409, 
  "弟弟": 9410, 
  "不该": 9411, 
  "da": 9412, 
  "意向": 9413, 
  "准予": 9414, 
  "所在国": 9415, 
  "236": 9416, 
  "包裹": 9417, 
  "亲密": 9418, 
  "254": 9419, 
  "剥夺权利": 9420, 
  "十五": 9421, 
  "6.3": 9422, 
  "南太平洋": 9423, 
  "犯罪人": 9424, 
  "著作": 9425, 
  "格林纳丁斯": 9426, 
  "第一期": 9427, 
  "长达": 9428, 
  "上课": 9429, 
  "化石": 9430, 
  "都市": 9431, 
  "276": 9432, 
  "谢": 9433, 
  "一代": 9434, 
  "服用": 9435, 
  "科学@@": 9436, 
  "摆": 9437, 
  "绘画": 9438, 
  "缅甸政府": 9439, 
  "乳@@": 9440, 
  "模仿": 9441, 
  "胜任": 9442, 
  "欲": 9443, 
  "也@@": 9444, 
  "住院": 9445, 
  "欧": 9446, 
  "情事": 9447, 
  "终结": 9448, 
  "升值": 9449, 
  "集群": 9450, 
  "垂直": 9451, 
  "防空": 9452, 
  "甲@@": 9453, 
  "稍后": 9454, 
  "起初": 9455, 
  "热量": 9456, 
  "再生": 9457, 
  "杨@@": 9458, 
  "~": 9459, 
  "妊娠": 9460, 
  "吊@@": 9461, 
  "223": 9462, 
  "周边": 9463, 
  "多层面": 9464, 
  "东南欧": 9465, 
  "镜": 9466, 
  "渥太华": 9467, 
  "一分钟": 9468, 
  "贸易谈判": 9469, 
  "沿岸": 9470, 
  "海洛因": 9471, 
  "小男孩": 9472, 
  "联格": 9473, 
  "务必": 9474, 
  "盈利": 9475, 
  "科菲": 9476, 
  "冷静": 9477, 
  "磺酸": 9478, 
  "惊奇": 9479, 
  "差价": 9480, 
  "int": 9481, 
  "大地": 9482, 
  "退还": 9483, 
  "语音": 9484, 
  "屿": 9485, 
  "创新性": 9486, 
  "第47": 9487, 
  "吃惊": 9488, 
  "..": 9489, 
  "订阅": 9490, 
  "德黑兰": 9491, 
  "寒冷": 9492, 
  "预": 9493, 
  "辩称": 9494, 
  "一幅": 9495, 
  "265": 9496, 
  "受雇": 9497, 
  "竞争对手": 9498, 
  "似": 9499, 
  "联席会议": 9500, 
  "威廉": 9501, 
  "全盘": 9502, 
  "长期存在": 9503, 
  "周转": 9504, 
  "各项政策": 9505, 
  "三月": 9506, 
  "兹@@": 9507, 
  "7.1": 9508, 
  "助@@": 9509, 
  "改划": 9510, 
  "平面": 9511, 
  "狭窄": 9512, 
  "ST@@": 9513, 
  "腐蚀": 9514, 
  "一番": 9515, 
  "失衡": 9516, 
  "简历": 9517, 
  "备": 9518, 
  "归因于": 9519, 
  "柜": 9520, 
  "迷@@": 9521, 
  "厕所": 9522, 
  "偏远": 9523, 
  "参看": 9524, 
  "马舍尔": 9525, 
  "套@@": 9526, 
  "第四节": 9527, 
  "结社": 9528, 
  "明确指出": 9529, 
  "质量保证": 9530, 
  "责成": 9531, 
  "ach@@": 9532, 
  "罕见": 9533, 
  "淡@@": 9534, 
  "选用": 9535, 
  "00@@": 9536, 
  "害": 9537, 
  "鼠": 9538, 
  "ud@@": 9539, 
  "麦克": 9540, 
  "价值链": 9541, 
  "围@@": 9542, 
  "一封信": 9543, 
  "纳税人": 9544, 
  "几分钟": 9545, 
  "水质": 9546, 
  "6.4": 9547, 
  "芝加哥": 9548, 
  "逾": 9549, 
  "增补": 9550, 
  "网络@@": 9551, 
  "翻": 9552, 
  "改革方案": 9553, 
  "禁": 9554, 
  "6.5": 9555, 
  "另见": 9556, 
  "诚信": 9557, 
  "居@@": 9558, 
  "鸡蛋": 9559, 
  "第8@@": 9560, 
  "立法机关": 9561, 
  "文物": 9562, 
  "238": 9563, 
  "使用权": 9564, 
  "书面形式": 9565, 
  "核爆炸": 9566, 
  "如上所述": 9567, 
  "去除": 9568, 
  "eh": 9569, 
  "工商": 9570, 
  "删去": 9571, 
  "票据": 9572, 
  "5.5": 9573, 
  "描绘": 9574, 
  "桩": 9575, 
  "星期天": 9576, 
  "姐妹": 9577, 
  "香港特别行政区": 9578, 
  "恐怖活动": 9579, 
  "笔@@": 9580, 
  "纵向": 9581, 
  "身心健康": 9582, 
  "向上": 9583, 
  "礼": 9584, 
  "妮": 9585, 
  "译成": 9586, 
  "231": 9587, 
  "物项": 9588, 
  "全境": 9589, 
  "ell@@": 9590, 
  "上个月": 9591, 
  "运载工具": 9592, 
  "银": 9593, 
  "圣诞": 9594, 
  "负荷": 9595, 
  "阿比让": 9596, 
  "白人": 9597, 
  "办事": 9598, 
  "心理学": 9599, 
  "定向": 9600, 
  "服刑": 9601, 
  "政@@": 9602, 
  "友": 9603, 
  "刑警": 9604, 
  "玫瑰": 9605, 
  "量@@": 9606, 
  "财产权": 9607, 
  "调查报告": 9608, 
  "宫": 9609, 
  "价@@": 9610, 
  "代表大会": 9611, 
  "232": 9612, 
  "层@@": 9613, 
  "救@@": 9614, 
  "演奏": 9615, 
  "合金": 9616, 
  "隐@@": 9617, 
  "ep@@": 9618, 
  "降到": 9619, 
  "莎": 9620, 
  "朗": 9621, 
  "现存": 9622, 
  "坦": 9623, 
  "琳": 9624, 
  "伤@@": 9625, 
  "颇": 9626, 
  "跟进": 9627, 
  "遇见": 9628, 
  "绿": 9629, 
  "图案": 9630, 
  "干部": 9631, 
  "旅": 9632, 
  "算@@": 9633, 
  "雨水": 9634, 
  "大道": 9635, 
  "发展趋势": 9636, 
  "tr@@": 9637, 
  "一日": 9638, 
  "口译员": 9639, 
  "盆地": 9640, 
  "密切联系": 9641, 
  "刑": 9642, 
  "丝毫": 9643, 
  "腔": 9644, 
  "ER@@": 9645, 
  "服务质量": 9646, 
  "拉美": 9647, 
  "开头": 9648, 
  "论证": 9649, 
  "付给": 9650, 
  "伸出": 9651, 
  "随便": 9652, 
  "发生冲突": 9653, 
  "牢房": 9654, 
  "炎": 9655, 
  "借调": 9656, 
  "建模": 9657, 
  "瘤": 9658, 
  "ur": 9659, 
  "让步": 9660, 
  "各政党": 9661, 
  "罗斯": 9662, 
  "巨额": 9663, 
  "为准": 9664, 
  "签": 9665, 
  "航运": 9666, 
  "〕": 9667, 
  "死者": 9668, 
  "运载": 9669, 
  "精英": 9670, 
  "来临": 9671, 
  "退": 9672, 
  "抵御": 9673, 
  "废止": 9674, 
  "永恒": 9675, 
  "汇@@": 9676, 
  "偷": 9677, 
  "外表": 9678, 
  "总体而言": 9679, 
  "过剩": 9680, 
  "特许权": 9681, 
  "带领": 9682, 
  "特区": 9683, 
  "不可逆转": 9684, 
  "5.4": 9685, 
  "①": 9686, 
  "290": 9687, 
  "警@@": 9688, 
  "多大": 9689, 
  "执行官": 9690, 
  "巡逻队": 9691, 
  "这套": 9692, 
  "电源": 9693, 
  "244": 9694, 
  "欧洲理事会": 9695, 
  "科目": 9696, 
  "吴@@": 9697, 
  "唯": 9698, 
  "穿@@": 9699, 
  "刊物": 9700, 
  "辛烷": 9701, 
  "白天": 9702, 
  "从此": 9703, 
  "泽@@": 9704, 
  "每一项": 9705, 
  "19@@": 9706, 
  "CA@@": 9707, 
  "争夺": 9708, 
  "动植物": 9709, 
  "车间": 9710, 
  "两条": 9711, 
  "证@@": 9712, 
  "连贯性": 9713, 
  "摩西": 9714, 
  "进一步提高": 9715, 
  "开幕式": 9716, 
  "平均数": 9717, 
  "贵@@": 9718, 
  "1997年": 9719, 
  "Har@@": 9720, 
  "224": 9721, 
  "非暴力": 9722, 
  "仍旧": 9723, 
  "体检": 9724, 
  "发现自己": 9725, 
  "詹姆斯": 9726, 
  "退回": 9727, 
  "材": 9728, 
  "军用飞机": 9729, 
  "卢萨卡": 9730, 
  "再见": 9731, 
  "星球": 9732, 
  "泰": 9733, 
  "详述": 9734, 
  "鸦片": 9735, 
  "战略伙伴": 9736, 
  "换言之": 9737, 
  "SBSTA": 9738, 
  "Sch@@": 9739, 
  "辍学": 9740, 
  "Gu@@": 9741, 
  "应享": 9742, 
  "一度": 9743, 
  "出口国": 9744, 
  "iy@@": 9745, 
  "时才": 9746, 
  "CCW": 9747, 
  "中请": 9748, 
  "意在": 9749, 
  "上级": 9750, 
  "晚@@": 9751, 
  "保全": 9752, 
  "欲望": 9753, 
  "五岁": 9754, 
  "批准书": 9755, 
  "0.5": 9756, 
  "246": 9757, 
  "贝尔": 9758, 
  "港@@": 9759, 
  "制定者": 9760, 
  "引人注目": 9761, 
  "款中": 9762, 
  "捕获": 9763, 
  "不止": 9764, 
  "劳工法": 9765, 
  "大街": 9766, 
  "珊瑚礁": 9767, 
  "刑期": 9768, 
  "移送": 9769, 
  "内务部": 9770, 
  "检疫": 9771, 
  "助": 9772, 
  "广播电台": 9773, 
  "印制": 9774, 
  "蓝": 9775, 
  "眼光": 9776, 
  "计入": 9777, 
  "1948": 9778, 
  "247": 9779, 
  "表中": 9780, 
  "安全网": 9781, 
  "税款": 9782, 
  "全环": 9783, 
  "载@@": 9784, 
  "煤炭": 9785, 
  "缩编": 9786, 
  "出口商": 9787, 
  "刺": 9788, 
  "接替": 9789, 
  "中是": 9790, 
  "偷@@": 9791, 
  "收缩": 9792, 
  "汗": 9793, 
  "乃是": 9794, 
  "癌": 9795, 
  "第一季度": 9796, 
  "百姓": 9797, 
  "睡@@": 9798, 
  "坚强": 9799, 
  "联布": 9800, 
  "ian": 9801, 
  "AP@@": 9802, 
  "分在": 9803, 
  "ara": 9804, 
  "难度": 9805, 
  "战略部署": 9806, 
  "无知": 9807, 
  "廷": 9808, 
  "ill@@": 9809, 
  "底部": 9810, 
  "十个": 9811, 
  "七月": 9812, 
  "井@@": 9813, 
  "缺失": 9814, 
  "游说": 9815, 
  "航@@": 9816, 
  "750": 9817, 
  "四次": 9818, 
  "空间科学": 9819, 
  "免税": 9820, 
  "里约热内卢": 9821, 
  "商讨": 9822, 
  "磅": 9823, 
  "〔": 9824, 
  "隆": 9825, 
  "碎": 9826, 
  "讯息": 9827, 
  "该款": 9828, 
  "逗留": 9829, 
  "心理健康": 9830, 
  "本章": 9831, 
  "幼@@": 9832, 
  "计@@": 9833, 
  "同盟": 9834, 
  "拜": 9835, 
  "喜@@": 9836, 
  "民间组织": 9837, 
  "潘基文": 9838, 
  "野生动物": 9839, 
  "不肯": 9840, 
  "重型": 9841, 
  "保险费": 9842, 
  "悬挂": 9843, 
  "礼拜": 9844, 
  "开火": 9845, 
  "烧": 9846, 
  "非核心": 9847, 
  "使馆": 9848, 
  "234": 9849, 
  "逆转": 9850, 
  "律": 9851, 
  "完@@": 9852, 
  "检察院": 9853, 
  "陷于": 9854, 
  "通报情况": 9855, 
  "测": 9856, 
  "审计工作": 9857, 
  "261": 9858, 
  "稳固": 9859, 
  "最终目标": 9860, 
  "有益于": 9861, 
  "地铁": 9862, 
  "定制": 9863, 
  "这块": 9864, 
  "郊区": 9865, 
  "联署": 9866, 
  "撰文": 9867, 
  "女王": 9868, 
  "宗@@": 9869, 
  "凭借": 9870, 
  "ka": 9871, 
  "炉": 9872, 
  "图形": 9873, 
  "珍贵": 9874, 
  "200@@": 9875, 
  "总体目标": 9876, 
  "树林": 9877, 
  "舱": 9878, 
  "分部": 9879, 
  "境地": 9880, 
  "258": 9881, 
  "安全区": 9882, 
  "第四十六届": 9883, 
  "Le@@": 9884, 
  "门户": 9885, 
  "屋子": 9886, 
  "残割": 9887, 
  "打交道": 9888, 
  "皮特": 9889, 
  "好几个": 9890, 
  "瑙鲁": 9891, 
  "卡拉巴赫": 9892, 
  "门槛": 9893, 
  "拍@@": 9894, 
  "核武库": 9895, 
  "有序": 9896, 
  "不像": 9897, 
  "规": 9898, 
  "泄漏": 9899, 
  "偏远地区": 9900, 
  "线索": 9901, 
  "专项": 9902, 
  "光学": 9903, 
  "219": 9904, 
  "未满": 9905, 
  "贪污": 9906, 
  "衬衫": 9907, 
  "战场": 9908, 
  "不住": 9909, 
  "Ag@@": 9910, 
  "恨": 9911, 
  "输送": 9912, 
  "五十": 9913, 
  "列于": 9914, 
  "275": 9915, 
  "相比之下": 9916, 
  "贴@@": 9917, 
  "射@@": 9918, 
  "葡萄酒": 9919, 
  "周二": 9920, 
  "火山": 9921, 
  "出具": 9922, 
  "麦": 9923, 
  "玩@@": 9924, 
  "罪恶": 9925, 
  "总监": 9926, 
  "图书": 9927, 
  "国家机关": 9928, 
  "抵销": 9929, 
  "监督机制": 9930, 
  "代表权": 9931, 
  "校@@": 9932, 
  "交通@@": 9933, 
  "价格上涨": 9934, 
  "候补": 9935, 
  "经受": 9936, 
  "下雨": 9937, 
  "关怀": 9938, 
  "遵行": 9939, 
  "介质": 9940, 
  "景": 9941, 
  "吩咐": 9942, 
  "简": 9943, 
  "达格": 9944, 
  "触发": 9945, 
  "未缴": 9946, 
  "出租车": 9947, 
  "320": 9948, 
  "医疗卫生": 9949, 
  "关爱": 9950, 
  "局限": 9951, 
  "仅为": 9952, 
  "内涵": 9953, 
  "局限性": 9954, 
  "低成本": 9955, 
  "有无": 9956, 
  "嘿": 9957, 
  "左": 9958, 
  "257": 9959, 
  "宪兵": 9960, 
  "演": 9961, 
  "不懈": 9962, 
  "请洽": 9963, 
  "步行": 9964, 
  "正常化": 9965, 
  "恐怖袭击": 9966, 
  "脚注": 9967, 
  "场@@": 9968, 
  "年鉴": 9969, 
  "唐@@": 9970, 
  "获胜": 9971, 
  "ub@@": 9972, 
  "年里": 9973, 
  "资本主义": 9974, 
  "送往": 9975, 
  "爱国": 9976, 
  "性传播": 9977, 
  "机能": 9978, 
  "露出": 9979, 
  "船员": 9980, 
  "幽默": 9981, 
  "一般而言": 9982, 
  "求助": 9983, 
  "资深": 9984, 
  "uk@@": 9985, 
  "送回": 9986, 
  "这事": 9987, 
  "箱子": 9988, 
  "战时": 9989, 
  "萧条": 9990, 
  "赦免": 9991, 
  "全职": 9992, 
  "煤@@": 9993, 
  "系指": 9994, 
  "示威者": 9995, 
  "2.8": 9996, 
  "第六章": 9997, 
  "影@@": 9998, 
  "女孩子": 9999, 
  "不见": 10000, 
  "九年": 10001, 
  "多媒体": 10002, 
  "进修": 10003, 
  "插@@": 10004, 
  "应以": 10005, 
  "飘@@": 10006, 
  "制剂": 10007, 
  "出国": 10008, 
  "构架": 10009, 
  "致辞": 10010, 
  "并用": 10011, 
  "胎儿": 10012, 
  "大海": 10013, 
  "中所列": 10014, 
  "击@@": 10015, 
  "减损": 10016, 
  "以内": 10017, 
  "额@@": 10018, 
  "久@@": 10019, 
  "外出": 10020, 
  "245": 10021, 
  "举例": 10022, 
  "终端": 10023, 
  "周一": 10024, 
  "参与方": 10025, 
  "绕": 10026, 
  "停滞": 10027, 
  "军事法庭": 10028, 
  "象@@": 10029, 
  "生命周期": 10030, 
  "ow@@": 10031, 
  "早先": 10032, 
  "国旗": 10033, 
  "中型": 10034, 
  "政客": 10035, 
  "经济援助": 10036, 
  "视作": 10037, 
  "放下": 10038, 
  "7.2": 10039, 
  "世上": 10040, 
  "第四个": 10041, 
  "主计长": 10042, 
  "感到高兴": 10043, 
  "沃": 10044, 
  "九月": 10045, 
  "占@@": 10046, 
  "一是": 10047, 
  "清真寺": 10048, 
  "火焰": 10049, 
  "伤心": 10050, 
  "决@@": 10051, 
  "尔斯": 10052, 
  "看过": 10053, 
  "谘询": 10054, 
  "反射": 10055, 
  "扰乱": 10056, 
  "集成": 10057, 
  "善治": 10058, 
  "达喀尔": 10059, 
  "老挝": 10060, 
  "股价": 10061, 
  "升@@": 10062, 
  "马车": 10063, 
  "欧盟委员会": 10064, 
  "影": 10065, 
  "菜@@": 10066, 
  "日渐": 10067, 
  "民族团结": 10068, 
  "讲习": 10069, 
  "楼@@": 10070, 
  "养育": 10071, 
  "跨@@": 10072, 
  "盗窃": 10073, 
  "露@@": 10074, 
  "行之有效": 10075, 
  "视力": 10076, 
  "赴": 10077, 
  "速@@": 10078, 
  "收藏": 10079, 
  "星期日": 10080, 
  "良@@": 10081, 
  "虚@@": 10082, 
  "诱惑": 10083, 
  "第三款": 10084, 
  "滚@@": 10085, 
  "杀戮": 10086, 
  "筒": 10087, 
  "铝": 10088, 
  "东北": 10089, 
  "共同利益": 10090, 
  "字@@": 10091, 
  "第八次": 10092, 
  "本应": 10093, 
  "系统@@": 10094, 
  "电机": 10095, 
  "计算方法": 10096, 
  "航": 10097, 
  "线性": 10098, 
  "陌生人": 10099, 
  "惠及": 10100, 
  "令人不安": 10101, 
  "失": 10102, 
  "找@@": 10103, 
  "第二十二届": 10104, 
  "伊丽莎白": 10105, 
  "不然": 10106, 
  "率领": 10107, 
  "同伴": 10108, 
  "足额": 10109, 
  "照射": 10110, 
  "指认": 10111, 
  "大为": 10112, 
  "两者之间": 10113, 
  "ist@@": 10114, 
  "冷却": 10115, 
  "40@@": 10116, 
  "音乐会": 10117, 
  "改正": 10118, 
  "饥荒": 10119, 
  "笔译": 10120, 
  "付费": 10121, 
  "过滤": 10122, 
  "新近": 10123, 
  "例行": 10124, 
  "住区": 10125, 
  "她@@": 10126, 
  "表示同意": 10127, 
  "283": 10128, 
  "技术@@": 10129, 
  "中毒": 10130, 
  "尚无": 10131, 
  "As@@": 10132, 
  "露": 10133, 
  "透@@": 10134, 
  "文凭": 10135, 
  "铺": 10136, 
  "没错": 10137, 
  "看不到": 10138, 
  "1267": 10139, 
  "散布": 10140, 
  "杀虫剂": 10141, 
  "情况通报": 10142, 
  "拜@@": 10143, 
  "逆转录": 10144, 
  "展@@": 10145, 
  "固@@": 10146, 
  "未获": 10147, 
  "值@@": 10148, 
  "之地": 10149, 
  "二者": 10150, 
  "停下来": 10151, 
  "本月": 10152, 
  "离子": 10153, 
  "蒙受": 10154, 
  "致意": 10155, 
  "一行": 10156, 
  "陆军": 10157, 
  "努力提高": 10158, 
  "翻新": 10159, 
  "鼻@@": 10160, 
  "行走": 10161, 
  "驻扎": 10162, 
  "减去": 10163, 
  "不佳": 10164, 
  "宿舍": 10165, 
  "每位": 10166, 
  "文莱达鲁萨兰国": 10167, 
  "保护主义": 10168, 
  "宽带": 10169, 
  "尾@@": 10170, 
  "信徒": 10171, 
  "承": 10172, 
  "货物运输": 10173, 
  "奥斯陆": 10174, 
  "听力": 10175, 
  "阴谋": 10176, 
  "出租": 10177, 
  "休@@": 10178, 
  "坛": 10179, 
  "远距离": 10180, 
  "总值": 10181, 
  "CCPR": 10182, 
  "圣马力诺": 10183, 
  "散步": 10184, 
  "Di@@": 10185, 
  "驱逐出境": 10186, 
  "利用率": 10187, 
  "目@@": 10188, 
  "最低标准": 10189, 
  "ga": 10190, 
  "拉斯": 10191, 
  "吗？": 10192, 
  "童": 10193, 
  "泥": 10194, 
  "1966": 10195, 
  "紧急行动": 10196, 
  "公立": 10197, 
  "日益增长": 10198, 
  "逃跑": 10199, 
  "海平面": 10200, 
  "第四十七届": 10201, 
  "普京": 10202, 
  "裁": 10203, 
  "当初": 10204, 
  "东南亚国家联盟": 10205, 
  "过渡期": 10206, 
  "289": 10207, 
  "私@@": 10208, 
  "加以解决": 10209, 
  "就读": 10210, 
  "控制@@": 10211, 
  "iv@@": 10212, 
  "拜访": 10213, 
  "帽": 10214, 
  "依旧": 10215, 
  "index": 10216, 
  "伤口": 10217, 
  "几点": 10218, 
  "咬": 10219, 
  "配套": 10220, 
  "大马士革": 10221, 
  "画面": 10222, 
  "胸@@": 10223, 
  "^": 10224, 
  "医师": 10225, 
  "气味": 10226, 
  "城里": 10227, 
  "本署": 10228, 
  "谎言": 10229, 
  "丑": 10230, 
  "荣耀": 10231, 
  "吓": 10232, 
  "氮": 10233, 
  "供电": 10234, 
  "头部": 10235, 
  "Tr@@": 10236, 
  "哥@@": 10237, 
  "掠夺": 10238, 
  "伯爵": 10239, 
  "圣地亚哥": 10240, 
  "骨折": 10241, 
  "看不见": 10242, 
  "述": 10243, 
  "峰": 10244, 
  "埃厄": 10245, 
  "过失": 10246, 
  "沉@@": 10247, 
  "应予以": 10248, 
  "童年": 10249, 
  "提法": 10250, 
  "４": 10251, 
  "雄@@": 10252, 
  "牢记": 10253, 
  "变性": 10254, 
  "ass@@": 10255, 
  "手臂": 10256, 
  "公吨": 10257, 
  "Part": 10258, 
  "印尼": 10259, 
  "激进": 10260, 
  "假日": 10261, 
  "时效": 10262, 
  "备@@": 10263, 
  "讽刺": 10264, 
  "混淆": 10265, 
  "然@@": 10266, 
  "氯": 10267, 
  "里约集团": 10268, 
  "带走": 10269, 
  "紧急状况": 10270, 
  "似宜": 10271, 
  "手法": 10272, 
  "合伙": 10273, 
  "深受": 10274, 
  "轮流": 10275, 
  "联索": 10276, 
  "限期": 10277, 
  "教育部门": 10278, 
  "实现目标": 10279, 
  "难过": 10280, 
  "剪@@": 10281, 
  "上下": 10282, 
  "宁@@": 10283, 
  "亦可": 10284, 
  "搁置": 10285, 
  "再说": 10286, 
  "喝@@": 10287, 
  "外长": 10288, 
  "举@@": 10289, 
  "停车场": 10290, 
  "频道": 10291, 
  "主持会议": 10292, 
  "产科": 10293, 
  "税@@": 10294, 
  "妈": 10295, 
  "细目": 10296, 
  "高温": 10297, 
  "乙": 10298, 
  "all@@": 10299, 
  "包围": 10300, 
  "可不": 10301, 
  "摩@@": 10302, 
  "切尔诺贝利": 10303, 
  "速率": 10304, 
  "告@@": 10305, 
  "og@@": 10306, 
  "开展业务": 10307, 
  "阵": 10308, 
  "积极支持": 10309, 
  "体积": 10310, 
  "笑话": 10311, 
  "麻@@": 10312, 
  "扣": 10313, 
  "千": 10314, 
  "就职": 10315, 
  "拥抱": 10316, 
  "劫持": 10317, 
  "收容所": 10318, 
  "开端": 10319, 
  "保人": 10320, 
  "宠物": 10321, 
  "22日": 10322, 
  "全身": 10323, 
  "不良影响": 10324, 
  "q": 10325, 
  "福克兰群岛": 10326, 
  "老龄化": 10327, 
  "法则": 10328, 
  "逃": 10329, 
  "八国集团": 10330, 
  "沉积": 10331, 
  "事实证明": 10332, 
  "移@@": 10333, 
  "新娘": 10334, 
  "师@@": 10335, 
  "数据中心": 10336, 
  "全会": 10337, 
  "朝鲜半岛": 10338, 
  "话@@": 10339, 
  "㈥": 10340, 
  "隐私权": 10341, 
  "赚取": 10342, 
  "车站": 10343, 
  "张贴": 10344, 
  "站点": 10345, 
  "吉姆": 10346, 
  "根本性": 10347, 
  "森@@": 10348, 
  "击中": 10349, 
  "来源国": 10350, 
  "新任": 10351, 
  "借此": 10352, 
  "产后": 10353, 
  "士@@": 10354, 
  "来源于": 10355, 
  "梁": 10356, 
  "一股": 10357, 
  "反应堆": 10358, 
  "陛下": 10359, 
  "鸡@@": 10360, 
  "国家统计局": 10361, 
  "案中": 10362, 
  "1950": 10363, 
  "钉": 10364, 
  "昆虫": 10365, 
  "至多": 10366, 
  "恐怖组织": 10367, 
  "试着": 10368, 
  "1968": 10369, 
  "诗歌": 10370, 
  "带头": 10371, 
  "重振": 10372, 
  "汁": 10373, 
  "领地": 10374, 
  "瘫痪": 10375, 
  "潮流": 10376, 
  "oc@@": 10377, 
  "莉@@": 10378, 
  "大有": 10379, 
  "右": 10380, 
  "注定": 10381, 
  "纪念活动": 10382, 
  "就业率": 10383, 
  "怀@@": 10384, 
  "俄语": 10385, 
  "同类": 10386, 
  "第十六条": 10387, 
  "泰勒": 10388, 
  "反抗": 10389, 
  "医@@": 10390, 
  "紧紧": 10391, 
  "局局长": 10392, 
  "灯@@": 10393, 
  "CT": 10394, 
  "错@@": 10395, 
  "归咎于": 10396, 
  "切断": 10397, 
  "另一名": 10398, 
  "醇": 10399, 
  "选区": 10400, 
  "夹": 10401, 
  "心态": 10402, 
  "草地": 10403, 
  "总经理": 10404, 
  "温柔": 10405, 
  "方可": 10406, 
  "总协定": 10407, 
  "月亮": 10408, 
  "步枪": 10409, 
  "第二类": 10410, 
  "23日": 10411, 
  "259": 10412, 
  "7.5": 10413, 
  "第二次世界大战": 10414, 
  "极限": 10415, 
  "楼宇": 10416, 
  "成像": 10417, 
  "人性": 10418, 
  "百": 10419, 
  "经纪人": 10420, 
  "默@@": 10421, 
  "送达": 10422, 
  "获@@": 10423, 
  "眼泪": 10424, 
  "光线": 10425, 
  "第四十届": 10426, 
  "高水平": 10427, 
  "树脂": 10428, 
  "锡@@": 10429, 
  "本合同": 10430, 
  "门户网站": 10431, 
  "金融部门": 10432, 
  "宣扬": 10433, 
  "积@@": 10434, 
  "适用性": 10435, 
  "影像": 10436, 
  "在此之前": 10437, 
  "Pr@@": 10438, 
  "地产": 10439, 
  "菜单": 10440, 
  "获得成功": 10441, 
  "非常重视": 10442, 
  "创办": 10443, 
  "好转": 10444, 
  "人发": 10445, 
  "物业": 10446, 
  "装修": 10447, 
  "复": 10448, 
  "338": 10449, 
  "em": 10450, 
  "迈向": 10451, 
  "抽样": 10452, 
  "平稳": 10453, 
  "涂@@": 10454, 
  "嘛": 10455, 
  "负@@": 10456, 
  "可予": 10457, 
  "表现形式": 10458, 
  "10.@@": 10459, 
  "卷@@": 10460, 
  "科技委": 10461, 
  "工作岗位": 10462, 
  "瞧": 10463, 
  "行驶": 10464, 
  "默认": 10465, 
  "滑": 10466, 
  "稍@@": 10467, 
  "不去": 10468, 
  "数月": 10469, 
  "水面": 10470, 
  "圆满": 10471, 
  "农田": 10472, 
  "框": 10473, 
  "守": 10474, 
  "脉冲": 10475, 
  "控制器": 10476, 
  "身为": 10477, 
  "远景": 10478, 
  "节奏": 10479, 
  "控": 10480, 
  "分数": 10481, 
  "开创": 10482, 
  "249": 10483, 
  "总署": 10484, 
  "代表作": 10485, 
  "归类": 10486, 
  "鉴别": 10487, 
  "数据@@": 10488, 
  "高压": 10489, 
  "主观": 10490, 
  "共用": 10491, 
  "296": 10492, 
  "识字率": 10493, 
  "装有": 10494, 
  "天赋": 10495, 
  "导则": 10496, 
  "迈@@": 10497, 
  "第十次": 10498, 
  "恶意": 10499, 
  "倒退": 10500, 
  "夏": 10501, 
  "协理": 10502, 
  "书写": 10503, 
  "罐": 10504, 
  "赞成票": 10505, 
  "累@@": 10506, 
  "人均收入": 10507, 
  "陪审团": 10508, 
  "８": 10509, 
  "um": 10510, 
  "隆@@": 10511, 
  "商界": 10512, 
  "奉献": 10513, 
  "受限制": 10514, 
  "视野": 10515, 
  "归属": 10516, 
  "督察": 10517, 
  "照明": 10518, 
  "给@@": 10519, 
  "330": 10520, 
  "NPT": 10521, 
  "第一位": 10522, 
  "试行": 10523, 
  "239": 10524, 
  "安全局": 10525, 
  "放心": 10526, 
  "非常高兴": 10527, 
  "稍": 10528, 
  "降落": 10529, 
  "鼓@@": 10530, 
  "扎伊尔": 10531, 
  "领导者": 10532, 
  "餐": 10533, 
  "re": 10534, 
  "而来": 10535, 
  "288": 10536, 
  "兼职": 10537, 
  "流失": 10538, 
  "缘": 10539, 
  "宽@@": 10540, 
  "盒子": 10541, 
  "竭力": 10542, 
  "车子": 10543, 
  "崛起": 10544, 
  "享用": 10545, 
  "次要": 10546, 
  "海里": 10547, 
  "中东地区": 10548, 
  "发言权": 10549, 
  "海港": 10550, 
  "德拉": 10551, 
  "打印机": 10552, 
  "年满": 10553, 
  "芯片": 10554, 
  "侦察": 10555, 
  "志@@": 10556, 
  "MA@@": 10557, 
  "一语": 10558, 
  "元件": 10559, 
  "教导": 10560, 
  "凡@@": 10561, 
  "繁殖": 10562, 
  "旅程": 10563, 
  "清算": 10564, 
  "档": 10565, 
  "229": 10566, 
  "迈克": 10567, 
  "埋": 10568, 
  "流产": 10569, 
  "把@@": 10570, 
  "清醒": 10571, 
  "pl@@": 10572, 
  "舒@@": 10573, 
  "可望": 10574, 
  "50@@": 10575, 
  "姓": 10576, 
  "排序": 10577, 
  "国贸": 10578, 
  "html": 10579, 
  "禽流感": 10580, 
  "第4@@": 10581, 
  "击败": 10582, 
  "微观": 10583, 
  "国家级": 10584, 
  "经济效益": 10585, 
  "第九次": 10586, 
  "相互尊重": 10587, 
  "准@@": 10588, 
  "期满": 10589, 
  "谱": 10590, 
  "赶上": 10591, 
  "Ma@@": 10592, 
  "妇女儿童": 10593, 
  "贫困人口": 10594, 
  "专职": 10595, 
  "尖@@": 10596, 
  "人来": 10597, 
  "核技术": 10598, 
  "精彩": 10599, 
  "公共事务": 10600, 
  "传说": 10601, 
  "服役": 10602, 
  "宝": 10603, 
  "油田": 10604, 
  "安圭拉": 10605, 
  "聊天": 10606, 
  "放宽": 10607, 
  "是否是": 10608, 
  "州长": 10609, 
  "核销": 10610, 
  "贾": 10611, 
  "解体": 10612, 
  "课@@": 10613, 
  "沿线": 10614, 
  "罪@@": 10615, 
  "决策机构": 10616, 
  "效": 10617, 
  "膨胀": 10618, 
  "控@@": 10619, 
  "明亮": 10620, 
  "待命": 10621, 
  "判": 10622, 
  "凝聚力": 10623, 
  "克什米尔": 10624, 
  "善于": 10625, 
  "倾斜": 10626, 
  "践踏": 10627, 
  "探访": 10628, 
  "专业人士": 10629, 
  "建议书": 10630, 
  "天才": 10631, 
  "整天": 10632, 
  "第一类": 10633, 
  "不起": 10634, 
  "燃油": 10635, 
  "16日": 10636, 
  "Abu": 10637, 
  "特殊教育": 10638, 
  "净@@": 10639, 
  "半岛": 10640, 
  "枪@@": 10641, 
  "适于": 10642, 
  "德尔": 10643, 
  "购买力": 10644, 
  "卡塔赫纳": 10645, 
  "盛@@": 10646, 
  "片@@": 10647, 
  "肝": 10648, 
  "纸张": 10649, 
  "挂@@": 10650, 
  "墨@@": 10651, 
  "照会": 10652, 
  "宝贝": 10653, 
  "情势": 10654, 
  "生产国": 10655, 
  "曲@@": 10656, 
  "好多": 10657, 
  "口语": 10658, 
  "法学院": 10659, 
  "本信": 10660, 
  "教徒": 10661, 
  "族人": 10662, 
  "显@@": 10663, 
  "停车": 10664, 
  "就任": 10665, 
  "隔@@": 10666, 
  "缓冲区": 10667, 
  "水准": 10668, 
  "外国投资": 10669, 
  "生活费": 10670, 
  "272": 10671, 
  "研究院": 10672, 
  "上届": 10673, 
  "鞋子": 10674, 
  "薪": 10675, 
  "液@@": 10676, 
  "熟": 10677, 
  "涌入": 10678, 
  "而应": 10679, 
  "讯": 10680, 
  "第一轮": 10681, 
  "650": 10682, 
  "机动": 10683, 
  "施加压力": 10684, 
  "天上": 10685, 
  "最终用户": 10686, 
  "眼中": 10687, 
  "质素": 10688, 
  "感动": 10689, 
  "多种多样": 10690, 
  "望远镜": 10691, 
  "田@@": 10692, 
  "罂粟": 10693, 
  "赶@@": 10694, 
  "AL@@": 10695, 
  "收支": 10696, 
  "真主党": 10697, 
  "搭配": 10698, 
  "人力资本": 10699, 
  "感冒": 10700, 
  "终@@": 10701, 
  "危险性": 10702, 
  "第十三条": 10703, 
  "使团": 10704, 
  "笑@@": 10705, 
  "摩擦": 10706, 
  "aj@@": 10707, 
  "Gr@@": 10708, 
  "20日": 10709, 
  "杀@@": 10710, 
  "巴士": 10711, 
  "喝酒": 10712, 
  "间@@": 10713, 
  "放大": 10714, 
  "旱灾": 10715, 
  "娶": 10716, 
  "号@@": 10717, 
  "VI": 10718, 
  "LA@@": 10719, 
  "偏低": 10720, 
  "赛季": 10721, 
  "每隔": 10722, 
  "搭": 10723, 
  "金属@@": 10724, 
  "柴油": 10725, 
  "迷人": 10726, 
  "结案": 10727, 
  "布尔": 10728, 
  "从根本上": 10729, 
  "新闻记者": 10730, 
  "管理信息系统": 10731, 
  "前瞻性": 10732, 
  "额度": 10733, 
  "不带": 10734, 
  "激增": 10735, 
  "红新月会": 10736, 
  "写道": 10737, 
  "微波": 10738, 
  "地形": 10739, 
  "城市规划": 10740, 
  "第二轮": 10741, 
  "互补性": 10742, 
  "体会": 10743, 
  "亏损": 10744, 
  "DVD": 10745, 
  "地理位置": 10746, 
  "列名": 10747, 
  "后悔": 10748, 
  "end@@": 10749, 
  "占领区": 10750, 
  "启发": 10751, 
  "争吵": 10752, 
  "争@@": 10753, 
  "洛杉矶": 10754, 
  "310": 10755, 
  "增幅": 10756, 
  "我们@@": 10757, 
  "拨给": 10758, 
  "另一个": 10759, 
  "持@@": 10760, 
  "民间团体": 10761, 
  "吸毒者": 10762, 
  "废弃": 10763, 
  "归纳": 10764, 
  "示@@": 10765, 
  "喜悦": 10766, 
  "政治化": 10767, 
  "不懈努力": 10768, 
  "泽": 10769, 
  "境": 10770, 
  "寄@@": 10771, 
  "海报": 10772, 
  "南共体": 10773, 
  "PDF": 10774, 
  "议长": 10775, 
  "14日": 10776, 
  "临时性": 10777, 
  "学历": 10778, 
  "大宗": 10779, 
  "沿海地区": 10780, 
  "工商业": 10781, 
  "ter": 10782, 
  "物料": 10783, 
  "3.6": 10784, 
  "抗击": 10785, 
  "新界": 10786, 
  "一副": 10787, 
  "学业": 10788, 
  "格林": 10789, 
  "262": 10790, 
  "自力更生": 10791, 
  "判决书": 10792, 
  "西北": 10793, 
  "受灾": 10794, 
  "时会": 10795, 
  "临近": 10796, 
  "缩@@": 10797, 
  "焚烧": 10798, 
  "证明书": 10799, 
  "受众": 10800, 
  "两只": 10801, 
  "微小": 10802, 
  "整整": 10803, 
  "ell": 10804, 
  "较少": 10805, 
  "非常任": 10806, 
  "550": 10807, 
  "民族@@": 10808, 
  "又@@": 10809, 
  "布局": 10810, 
  "上述情况": 10811, 
  "醒": 10812, 
  "摩托车": 10813, 
  "演示": 10814, 
  "受访者": 10815, 
  "对立": 10816, 
  "华尔街": 10817, 
  "暂@@": 10818, 
  "维奇": 10819, 
  "克拉": 10820, 
  "Par@@": 10821, 
  "离去": 10822, 
  "爱好": 10823, 
  "碳@@": 10824, 
  "密": 10825, 
  "击": 10826, 
  "二十": 10827, 
  "解放运动": 10828, 
  "政治犯": 10829, 
  "1.6": 10830, 
  "痕迹": 10831, 
  "激素": 10832, 
  "部际": 10833, 
  "意味": 10834, 
  "马尔@@": 10835, 
  "可观": 10836, 
  "显": 10837, 
  "看电视": 10838, 
  "厉害": 10839, 
  "我家": 10840, 
  "杀伤性": 10841, 
  "来访": 10842, 
  "Sal@@": 10843, 
  "束缚": 10844, 
  "州@@": 10845, 
  "天线": 10846, 
  "社群": 10847, 
  "征服": 10848, 
  "POPS": 10849, 
  "可可": 10850, 
  "战斗机": 10851, 
  "宽松": 10852, 
  "掌控": 10853, 
  "世界杯": 10854, 
  "消息来源": 10855, 
  "改建": 10856, 
  "工程@@": 10857, 
  "开玩笑": 10858, 
  "遴选": 10859, 
  "审@@": 10860, 
  "委@@": 10861, 
  "第一天": 10862, 
  "整套": 10863, 
  "酗酒": 10864, 
  "256": 10865, 
  "役": 10866, 
  "示例": 10867, 
  "ee": 10868, 
  "哪怕": 10869, 
  "布宜诺斯艾利斯": 10870, 
  "纳税": 10871, 
  "更长": 10872, 
  "寒@@": 10873, 
  "欢@@": 10874, 
  "不足之处": 10875, 
  "第9@@": 10876, 
  "不定": 10877, 
  "提出异议": 10878, 
  "几名": 10879, 
  "功率": 10880, 
  "猜测": 10881, 
  "玉@@": 10882, 
  "主权国家": 10883, 
  "互利": 10884, 
  "监核": 10885, 
  "拉姆": 10886, 
  "加州": 10887, 
  "au@@": 10888, 
  "唱歌": 10889, 
  "居住地": 10890, 
  "棉@@": 10891, 
  "超声": 10892, 
  "陆@@": 10893, 
  "狗@@": 10894, 
  "谷物": 10895, 
  "十四": 10896, 
  "履行义务": 10897, 
  "决不能": 10898, 
  "263": 10899, 
  "＿": 10900, 
  "加利": 10901, 
  "废@@": 10902, 
  "理智": 10903, 
  "iz@@": 10904, 
  "该厅": 10905, 
  "植被": 10906, 
  "积极主动": 10907, 
  "有鉴于此": 10908, 
  "Man@@": 10909, 
  "致电": 10910, 
  "1958": 10911, 
  "半年": 10912, 
  "市场@@": 10913, 
  "不太可能": 10914, 
  "凯恩": 10915, 
  "令@@": 10916, 
  "聚": 10917, 
  "有钱": 10918, 
  "字符": 10919, 
  "尖": 10920, 
  "小女孩": 10921, 
  "倘若": 10922, 
  "印第安人": 10923, 
  "Gh@@": 10924, 
  "ug@@": 10925, 
  "身分": 10926, 
  "典范": 10927, 
  "ha": 10928, 
  "萨尔": 10929, 
  "国际海事组织": 10930, 
  "脑袋": 10931, 
  "285": 10932, 
  "受让人": 10933, 
  "矿产": 10934, 
  "翼": 10935, 
  "国防部长": 10936, 
  "睡着": 10937, 
  "秋天": 10938, 
  "赚钱": 10939, 
  "付@@": 10940, 
  "日于": 10941, 
  "叔叔": 10942, 
  "引述": 10943, 
  "人能": 10944, 
  "打断": 10945, 
  "12.@@": 10946, 
  "宴会": 10947, 
  "熊": 10948, 
  "灯光": 10949, 
  "推理": 10950, 
  "一致同意": 10951, 
  "礼@@": 10952, 
  "尔德": 10953, 
  "不断扩大": 10954, 
  "先知": 10955, 
  "环境退化": 10956, 
  "用法": 10957, 
  "所犯": 10958, 
  "征募": 10959, 
  "292": 10960, 
  "布雷": 10961, 
  "圣多美和普林西比": 10962, 
  "、@@": 10963, 
  "杜绝": 10964, 
  "型号": 10965, 
  "景象": 10966, 
  "做成": 10967, 
  "好事": 10968, 
  "316": 10969, 
  "准军事": 10970, 
  "之用": 10971, 
  "教派": 10972, 
  "可行性研究": 10973, 
  "申请表": 10974, 
  "善良": 10975, 
  "中级": 10976, 
  "礼品": 10977, 
  "弯曲": 10978, 
  "Cl@@": 10979, 
  "楼梯": 10980, 
  "民族主义": 10981, 
  "准时": 10982, 
  "递送": 10983, 
  "行人": 10984, 
  "同文信": 10985, 
  "球迷": 10986, 
  "翻译成": 10987, 
  "逃@@": 10988, 
  "IS": 10989, 
  "不致": 10990, 
  "轨": 10991, 
  "海峡": 10992, 
  "利息收入": 10993, 
  "祷告": 10994, 
  "规例": 10995, 
  "新闻媒体": 10996, 
  "喊": 10997, 
  "技术培训": 10998, 
  "托马斯": 10999, 
  "精": 11000, 
  "服务台": 11001, 
  "秋@@": 11002, 
  "尼科西亚": 11003, 
  "扣留": 11004, 
  "没事": 11005, 
  "岁月": 11006, 
  "上游": 11007, 
  "ant@@": 11008, 
  "6.6": 11009, 
  "日为": 11010, 
  "术后": 11011, 
  "一员": 11012, 
  "适用于": 11013, 
  "免@@": 11014, 
  "剧院": 11015, 
  "挣扎": 11016, 
  "会议记录": 11017, 
  "任何一方": 11018, 
  "旱地": 11019, 
  "口头报告": 11020, 
  "告诫": 11021, 
  "剧": 11022, 
  "故@@": 11023, 
  "屋里": 11024, 
  "斜@@": 11025, 
  "自由贸易": 11026, 
  "抽烟": 11027, 
  "阿布贾": 11028, 
  "歌手": 11029, 
  "4.6": 11030, 
  "滥杀": 11031, 
  "闻": 11032, 
  "可供": 11033, 
  "监@@": 11034, 
  "设@@": 11035, 
  "能为": 11036, 
  "生殖器官": 11037, 
  "称作": 11038, 
  "影子": 11039, 
  "外资": 11040, 
  "付诸实施": 11041, 
  "东北部": 11042, 
  "380": 11043, 
  "发病": 11044, 
  "安全@@": 11045, 
  "所得税": 11046, 
  "国际刑警组织": 11047, 
  "列车": 11048, 
  "春季": 11049, 
  "每种": 11050, 
  "阿卜杜拉": 11051, 
  "组织者": 11052, 
  "AS@@": 11053, 
  "司法人员": 11054, 
  "1701": 11055, 
  "指向": 11056, 
  "兴起": 11057, 
  "做事": 11058, 
  "法学家": 11059, 
  "运往": 11060, 
  "五项": 11061, 
  "均等": 11062, 
  "号召": 11063, 
  "态势": 11064, 
  "ij@@": 11065, 
  "卧室": 11066, 
  "存活": 11067, 
  "力争": 11068, 
  "劳力": 11069, 
  "求解": 11070, 
  "忽然": 11071, 
  "雷区": 11072, 
  "坚定不移": 11073, 
  "各阶层": 11074, 
  "尚@@": 11075, 
  "加勒比海": 11076, 
  "触@@": 11077, 
  "首领": 11078, 
  "财政状况": 11079, 
  "祸害": 11080, 
  "６": 11081, 
  "众@@": 11082, 
  "新闻自由": 11083, 
  "能效": 11084, 
  "三十@@": 11085, 
  "妇": 11086, 
  "专委": 11087, 
  "Bl@@": 11088, 
  "ation": 11089, 
  "国在": 11090, 
  "筹集资金": 11091, 
  "民主@@": 11092, 
  "RE@@": 11093, 
  "篇幅": 11094, 
  "新德里": 11095, 
  "控件": 11096, 
  "蓝线": 11097, 
  "不用说": 11098, 
  "寻常": 11099, 
  "倾倒": 11100, 
  "帐篷": 11101, 
  "舍@@": 11102, 
  "拒绝接受": 11103, 
  "皇帝": 11104, 
  "而不是": 11105, 
  "ab": 11106, 
  "国际贸易中心": 11107, 
  "主旨": 11108, 
  "ow": 11109, 
  "惟一": 11110, 
  "浆": 11111, 
  "半个": 11112, 
  "踢": 11113, 
  "建设项目": 11114, 
  "县级": 11115, 
  "检控": 11116, 
  "赞美": 11117, 
  "把手": 11118, 
  "时有": 11119, 
  "十二月": 11120, 
  "此刻": 11121, 
  "功效": 11122, 
  "债": 11123, 
  "动脉": 11124, 
  "容@@": 11125, 
  "遵从": 11126, 
  "功@@": 11127, 
  "Mohamed": 11128, 
  "三位": 11129, 
  "域外": 11130, 
  "犬": 11131, 
  "初中": 11132, 
  "病假": 11133, 
  "数字化": 11134, 
  "当日": 11135, 
  "在世界上": 11136, 
  "视委": 11137, 
  "AT@@": 11138, 
  "亲戚": 11139, 
  "其为": 11140, 
  "虑": 11141, 
  "检查员": 11142, 
  "非传统": 11143, 
  "长官": 11144, 
  "第三十八届": 11145, 
  "三人": 11146, 
  "可预测性": 11147, 
  "平时": 11148, 
  "Sam@@": 11149, 
  "有意思": 11150, 
  "所能": 11151, 
  "21日": 11152, 
  "拟@@": 11153, 
  "协力": 11154, 
  "兴建": 11155, 
  "输@@": 11156, 
  "阿卜杜勒": 11157, 
  "失误": 11158, 
  "304": 11159, 
  "第二十六届": 11160, 
  "警员": 11161, 
  "拦截": 11162, 
  "边防": 11163, 
  "减肥": 11164, 
  "转而": 11165, 
  "共存": 11166, 
  "写入": 11167, 
  "亚太地区": 11168, 
  "端@@": 11169, 
  "雅典": 11170, 
  "肺": 11171, 
  "避孕药": 11172, 
  "令人震惊": 11173, 
  "艾哈迈德": 11174, 
  "富人": 11175, 
  "作好": 11176, 
  "抬头": 11177, 
  "佐证": 11178, 
  "第四十三届": 11179, 
  "知名人士": 11180, 
  "电梯": 11181, 
  "弥合": 11182, 
  "非洲开发银行": 11183, 
  "厄": 11184, 
  "UN": 11185, 
  "缔造": 11186, 
  "一律": 11187, 
  "穆": 11188, 
  "推测": 11189, 
  "ok@@": 11190, 
  "稍微": 11191, 
  "其间": 11192, 
  "负债表": 11193, 
  "丹尼尔": 11194, 
  "管理司": 11195, 
  "系统对": 11196, 
  "豁免权": 11197, 
  "抽象": 11198, 
  "精心": 11199, 
  "和平谈判": 11200, 
  "公民投票": 11201, 
  "厚@@": 11202, 
  "祖先": 11203, 
  "辍学率": 11204, 
  "遍": 11205, 
  "界线": 11206, 
  "看成": 11207, 
  "ez": 11208, 
  "四十@@": 11209, 
  "扣@@": 11210, 
  "电气": 11211, 
  "正当理由": 11212, 
  "一双": 11213, 
  "摇@@": 11214, 
  "公司@@": 11215, 
  "天生": 11216, 
  "晚会": 11217, 
  "失业者": 11218, 
  "二次": 11219, 
  "糖@@": 11220, 
  "话语": 11221, 
  "文化@@": 11222, 
  "传授": 11223, 
  "367": 11224, 
  "月间": 11225, 
  "主导作用": 11226, 
  "ey@@": 11227, 
  "纽约市": 11228, 
  "万个": 11229, 
  "委派": 11230, 
  "香港@@": 11231, 
  "按计划": 11232, 
  "蒙特塞": 11233, 
  "宣誓": 11234, 
  "创造力": 11235, 
  "武装集团": 11236, 
  "爆": 11237, 
  "充@@": 11238, 
  "杂项收入": 11239, 
  "环境法": 11240, 
  "未必": 11241, 
  "并不一定": 11242, 
  "来往": 11243, 
  "33@@": 11244, 
  "醒来": 11245, 
  "逃犯": 11246, 
  "ma": 11247, 
  "泡": 11248, 
  "翅膀": 11249, 
  "７": 11250, 
  "街@@": 11251, 
  "破产法": 11252, 
  "煮": 11253, 
  "坦率": 11254, 
  "据@@": 11255, 
  "多样": 11256, 
  "洋@@": 11257, 
  "坐标": 11258, 
  "令人@@": 11259, 
  "址": 11260, 
  "浅@@": 11261, 
  "平常": 11262, 
  "四处": 11263, 
  "合伙人": 11264, 
  "镜头": 11265, 
  "理应": 11266, 
  "参考资料": 11267, 
  "2.9": 11268, 
  "第三十九届": 11269, 
  "第二份": 11270, 
  "有名": 11271, 
  "犯罪集团": 11272, 
  "不遗余力": 11273, 
  "受惠": 11274, 
  "约瑟夫": 11275, 
  "囊": 11276, 
  "每名": 11277, 
  "不成": 11278, 
  "生涯": 11279, 
  "民事诉讼": 11280, 
  "彩@@": 11281, 
  "敲定": 11282, 
  "一点点": 11283, 
  "夺取": 11284, 
  "空袭": 11285, 
  "论及": 11286, 
  "第二十七届": 11287, 
  "会同": 11288, 
  "臂": 11289, 
  "罩": 11290, 
  "4.7": 11291, 
  "The": 11292, 
  "有过": 11293, 
  "来文方": 11294, 
  "归于": 11295, 
  "请参阅": 11296, 
  "灰": 11297, 
  "推断": 11298, 
  "-@@": 11299, 
  "操作系统": 11300, 
  "点儿": 11301, 
  "肺结核": 11302, 
  "预付款": 11303, 
  "结局": 11304, 
  "底下": 11305, 
  "陈旧": 11306, 
  "签@@": 11307, 
  "非法活动": 11308, 
  "一顿": 11309, 
  "雄心勃勃": 11310, 
  "同日": 11311, 
  "养殖": 11312, 
  "amb@@": 11313, 
  "尼斯": 11314, 
  "垫": 11315, 
  "可比": 11316, 
  "斯特@@": 11317, 
  "交通工具": 11318, 
  "一带": 11319, 
  "柯@@": 11320, 
  "接受国": 11321, 
  "遇": 11322, 
  "跟随": 11323, 
  "不易": 11324, 
  "气温": 11325, 
  "硫丹": 11326, 
  "不大": 11327, 
  "私立": 11328, 
  "超支": 11329, 
  "开口": 11330, 
  "弯@@": 11331, 
  "南南": 11332, 
  "威尔士": 11333, 
  "政变": 11334, 
  "1.8": 11335, 
  "公立学校": 11336, 
  "嘉莉": 11337, 
  "注释": 11338, 
  "数次": 11339, 
  "长者": 11340, 
  "助手": 11341, 
  "盐@@": 11342, 
  "布置": 11343, 
  "珍惜": 11344, 
  "关节": 11345, 
  "305": 11346, 
  "粉@@": 11347, 
  "转到": 11348, 
  "徒": 11349, 
  "第二号": 11350, 
  "吸": 11351, 
  "上市公司": 11352, 
  "EN@@": 11353, 
  "Ham@@": 11354, 
  "第二十五届": 11355, 
  "蓝图": 11356, 
  "被盗": 11357, 
  "诉求": 11358, 
  "267": 11359, 
  "经委": 11360, 
  "工作效率": 11361, 
  "碰": 11362, 
  "责任感": 11363, 
  "脖子": 11364, 
  "所设": 11365, 
  "人民@@": 11366, 
  "履行任务": 11367, 
  "致死": 11368, 
  "达尔": 11369, 
  "余": 11370, 
  "约翰逊": 11371, 
  "净化": 11372, 
  "环己烷": 11373, 
  "一经": 11374, 
  "开曼群岛": 11375, 
  "配方": 11376, 
  "预算内": 11377, 
  "优雅": 11378, 
  "创@@": 11379, 
  "借@@": 11380, 
  "颗": 11381, 
  "佛": 11382, 
  "摆@@": 11383, 
  "式@@": 11384, 
  "所获": 11385, 
  "违规": 11386, 
  "甜@@": 11387, 
  "周转基金": 11388, 
  "财政部长": 11389, 
  "剧烈": 11390, 
  "澳大利亚政府": 11391, 
  "利马": 11392, 
  "绝不能": 11393, 
  "传统习俗": 11394, 
  "轻型": 11395, 
  "补": 11396, 
  "直线": 11397, 
  "琼斯": 11398, 
  "几何": 11399, 
  "嫁给": 11400, 
  "市中心": 11401, 
  "科学界": 11402, 
  "老婆": 11403, 
  "举止": 11404, 
  "CE@@": 11405, 
  "名人": 11406, 
  "答@@": 11407, 
  "刺@@": 11408, 
  "单证": 11409, 
  "职@@": 11410, 
  "闭@@": 11411, 
  "中起": 11412, 
  "第四十二届": 11413, 
  "祭": 11414, 
  "财产损失": 11415, 
  "生物@@": 11416, 
  "顺": 11417, 
  "更能": 11418, 
  "点燃": 11419, 
  "周三": 11420, 
  "多边合作": 11421, 
  "冲动": 11422, 
  "工作@@": 11423, 
  "缘故": 11424, 
  "着力": 11425, 
  "和平共处": 11426, 
  "可信度": 11427, 
  "阳": 11428, 
  "ex@@": 11429, 
  "服@@": 11430, 
  "地毯": 11431, 
  "登上": 11432, 
  "狂@@": 11433, 
  "广泛应用": 11434, 
  "应邀": 11435, 
  "pdf": 11436, 
  "投机": 11437, 
  "宝宝": 11438, 
  "兼@@": 11439, 
  "模@@": 11440, 
  "镜子": 11441, 
  "柔@@": 11442, 
  "边际": 11443, 
  "风景": 11444, 
  "世人": 11445, 
  "走路": 11446, 
  "领养": 11447, 
  "平安": 11448, 
  "齿": 11449, 
  "687": 11450, 
  "六氯": 11451, 
  "职业生涯": 11452, 
  "查出": 11453, 
  "ess@@": 11454, 
  "基督徒": 11455, 
  "地表": 11456, 
  "正直": 11457, 
  "适度": 11458, 
  "火星": 11459, 
  "大都": 11460, 
  "饰": 11461, 
  "通盘": 11462, 
  "发誓": 11463, 
  "通向": 11464, 
  "手上": 11465, 
  "多国": 11466, 
  "286": 11467, 
  "比如说": 11468, 
  "电网": 11469, 
  "摩": 11470, 
  "COM": 11471, 
  "敌意": 11472, 
  "紫@@": 11473, 
  "嘉宾": 11474, 
  "当事国": 11475, 
  "自营": 11476, 
  "教养": 11477, 
  "尴尬": 11478, 
  "论@@": 11479, 
  "核扩散": 11480, 
  "概率": 11481, 
  "放入": 11482, 
  "援用": 11483, 
  "年级": 11484, 
  "国土": 11485, 
  "罚金": 11486, 
  "望@@": 11487, 
  "世界@@": 11488, 
  "恒@@": 11489, 
  "飞行员": 11490, 
  "恐慌": 11491, 
  "好消息": 11492, 
  "狂热": 11493, 
  "登录": 11494, 
  "日益严重": 11495, 
  "泥@@": 11496, 
  "群组": 11497, 
  "综合症": 11498, 
  "外观": 11499, 
  "女朋友": 11500, 
  "刮@@": 11501, 
  "二十世纪": 11502, 
  "治愈": 11503, 
  "饲料": 11504, 
  "延至": 11505, 
  "外科": 11506, 
  "金牌": 11507, 
  "学期": 11508, 
  "各部委": 11509, 
  "鸟类": 11510, 
  "年届会": 11511, 
  "任务区": 11512, 
  "桑": 11513, 
  "居然": 11514, 
  "ri": 11515, 
  "执@@": 11516, 
  "无聊": 11517, 
  "公共利益": 11518, 
  "检": 11519, 
  "韦": 11520, 
  "保持联系": 11521, 
  "换取": 11522, 
  "配件": 11523, 
  "工商企业": 11524, 
  "逍遥法外": 11525, 
  "主导地位": 11526, 
  "沉积物": 11527, 
  "助益": 11528, 
  "格陵兰": 11529, 
  "唱@@": 11530, 
  "静态": 11531, 
  "什么@@": 11532, 
  "冰箱": 11533, 
  "劝": 11534, 
  "英寸": 11535, 
  "单据": 11536, 
  "租@@": 11537, 
  "John": 11538, 
  "盛行": 11539, 
  "避开": 11540, 
  "1964": 11541, 
  "警惕": 11542, 
  "贫困线": 11543, 
  "ama": 11544, 
  "大体上": 11545, 
  "民选": 11546, 
  "过期": 11547, 
  "胃": 11548, 
  "暴@@": 11549, 
  "败@@": 11550, 
  "不具": 11551, 
  "各段": 11552, 
  "积极性": 11553, 
  "En@@": 11554, 
  "深入研究": 11555, 
  "文盲率": 11556, 
  "脂": 11557, 
  "继@@": 11558, 
  "厚度": 11559, 
  "邮@@": 11560, 
  "否": 11561, 
  "载体": 11562, 
  "CH@@": 11563, 
  "伏": 11564, 
  "触犯": 11565, 
  "ish@@": 11566, 
  "连任": 11567, 
  "ot": 11568, 
  "想着": 11569, 
  "适@@": 11570, 
  "北美洲": 11571, 
  "终生": 11572, 
  "分销": 11573, 
  "美妙": 11574, 
  "自由权": 11575, 
  "带上": 11576, 
  "可比性": 11577, 
  "这本": 11578, 
  "芬": 11579, 
  "ich@@": 11580, 
  "珠": 11581, 
  "268": 11582, 
  "一会": 11583, 
  "287": 11584, 
  "281": 11585, 
  "日止": 11586, 
  "围": 11587, 
  "花钱": 11588, 
  "动物园": 11589, 
  "星星": 11590, 
  "公益": 11591, 
  "另行": 11592, 
  "神奇": 11593, 
  "旅@@": 11594, 
  "电视机": 11595, 
  "厌恶": 11596, 
  "盟友": 11597, 
  "己": 11598, 
  "交互": 11599, 
  "阳@@": 11600, 
  "志": 11601, 
  "疏忽": 11602, 
  "八月": 11603, 
  "适应性": 11604, 
  "密克罗尼西亚联邦": 11605, 
  "没能": 11606, 
  "开拓": 11607, 
  "出发点": 11608, 
  "季@@": 11609, 
  "人有": 11610, 
  "阿尔及尔": 11611, 
  "餐@@": 11612, 
  "清偿": 11613, 
  "演说": 11614, 
  "国际化": 11615, 
  "兵@@": 11616, 
  "券": 11617, 
  "非凡": 11618, 
  "置@@": 11619, 
  "中小学": 11620, 
  "哭泣": 11621, 
  "est@@": 11622, 
  "何": 11623, 
  "纳米": 11624, 
  "340": 11625, 
  "金枪鱼": 11626, 
  "重新部署": 11627, 
  "战机": 11628, 
  "英国@@": 11629, 
  "冒@@": 11630, 
  "导游": 11631, 
  "实证": 11632, 
  "商会": 11633, 
  "商业活动": 11634, 
  "Qu@@": 11635, 
  "魔@@": 11636, 
  "殿": 11637, 
  "很强": 11638, 
  "顽固": 11639, 
  "看守": 11640, 
  "核心作用": 11641, 
  "消化": 11642, 
  "经济合作组织": 11643, 
  "同工同酬": 11644, 
  "新设": 11645, 
  "工作进展": 11646, 
  "航天器": 11647, 
  "开除": 11648, 
  "村@@": 11649, 
  "获取信息": 11650, 
  "豆@@": 11651, 
  "稳": 11652, 
  "十月": 11653, 
  "往年": 11654, 
  "较长": 11655, 
  "瑟": 11656, 
  "逃脱": 11657, 
  "玩家": 11658, 
  "ev": 11659, 
  "马其顿": 11660, 
  "你方": 11661, 
  "旗帜": 11662, 
  "断裂": 11663, 
  "景@@": 11664, 
  "（@@": 11665, 
  "法郎": 11666, 
  "数十年": 11667, 
  "di": 11668, 
  "结清": 11669, 
  "个案研究": 11670, 
  "青春": 11671, 
  "算是": 11672, 
  "篇文章": 11673, 
  "敢": 11674, 
  "侧@@": 11675, 
  "分析方法": 11676, 
  "谈及": 11677, 
  "福音": 11678, 
  "印度政府": 11679, 
  "躲": 11680, 
  "非常感谢": 11681, 
  "切合实际": 11682, 
  "互惠": 11683, 
  "内为": 11684, 
  "事关": 11685, 
  "劳动@@": 11686, 
  "FAO": 11687, 
  "率先": 11688, 
  "前线": 11689, 
  "小企业": 11690, 
  "赶": 11691, 
  "内存": 11692, 
  "艺术@@": 11693, 
  "猪@@": 11694, 
  "钙": 11695, 
  "ate": 11696, 
  "一点儿": 11697, 
  "母乳喂养": 11698, 
  "解析": 11699, 
  "滥伤": 11700, 
  "嫌疑犯": 11701, 
  "厘米": 11702, 
  "垂@@": 11703, 
  "凯": 11704, 
  "房产": 11705, 
  "毗邻": 11706, 
  "粗": 11707, 
  "辉煌": 11708, 
  "缺": 11709, 
  "自由@@": 11710, 
  "涂料": 11711, 
  "试试": 11712, 
  "呼@@": 11713, 
  "第50": 11714, 
  "产品@@": 11715, 
  "RA@@": 11716, 
  "凯科": 11717, 
  "票@@": 11718, 
  "眼镜": 11719, 
  "泛@@": 11720, 
  "te@@": 11721, 
  "投票权": 11722, 
  "初审": 11723, 
  "汽车@@": 11724, 
  "27日": 11725, 
  "恪守": 11726, 
  "的。": 11727, 
  "检@@": 11728, 
  "25日": 11729, 
  "直接参与": 11730, 
  "引": 11731, 
  "就让": 11732, 
  "即应": 11733, 
  "隐瞒": 11734, 
  "筹款": 11735, 
  "光纤": 11736, 
  "折": 11737, 
  "武": 11738, 
  "损害赔偿": 11739, 
  "羞辱": 11740, 
  "威慑": 11741, 
  "钢铁": 11742, 
  "盖茨": 11743, 
  "调控": 11744, 
  "采": 11745, 
  "胳膊": 11746, 
  "插": 11747, 
  "战后": 11748, 
  "不善": 11749, 
  "严@@": 11750, 
  "困惑": 11751, 
  "编拟": 11752, 
  "核燃料": 11753, 
  "透": 11754, 
  "兼容": 11755, 
  "落入": 11756, 
  "米兰": 11757, 
  "未清": 11758, 
  "贸发会议": 11759, 
  "用地": 11760, 
  "微不足道": 11761, 
  "道义": 11762, 
  "一口": 11763, 
  "第二年": 11764, 
  "有史以来": 11765, 
  "kh@@": 11766, 
  "出自": 11767, 
  "崇拜": 11768, 
  "降解": 11769, 
  "轴承": 11770, 
  "陶瓷": 11771, 
  "男女之间": 11772, 
  "嘉@@": 11773, 
  "场址": 11774, 
  "高血压": 11775, 
  "祭司": 11776, 
  "经管": 11777, 
  "加班": 11778, 
  "安第斯": 11779, 
  "小于": 11780, 
  "方括号": 11781, 
  "乐于": 11782, 
  "洪@@": 11783, 
  "胎": 11784, 
  "主教": 11785, 
  "推移": 11786, 
  "未知": 11787, 
  "长老": 11788, 
  "本发明": 11789, 
  "重新分配": 11790, 
  "价值观念": 11791, 
  "精神@@": 11792, 
  "双边协定": 11793, 
  "角落": 11794, 
  "衷心": 11795, 
  "布隆迪政府": 11796, 
  "山脉": 11797, 
  "密切协作": 11798, 
  "合法权利": 11799, 
  "光谱": 11800, 
  "ew@@": 11801, 
  "我爱你": 11802, 
  "停火协定": 11803, 
  "周六": 11804, 
  "脸@@": 11805, 
  "电报": 11806, 
  "略@@": 11807, 
  "他于": 11808, 
  "消防": 11809, 
  "轴@@": 11810, 
  "二月": 11811, 
  "277": 11812, 
  "永不": 11813, 
  "网播": 11814, 
  "人口比例": 11815, 
  "5.6": 11816, 
  "物理学": 11817, 
  "偿债": 11818, 
  "q@@": 11819, 
  "肩膀": 11820, 
  "测验": 11821, 
  "碱": 11822, 
  "年龄段": 11823, 
  "工具包": 11824, 
  "adi": 11825, 
  "宁静": 11826, 
  "李": 11827, 
  "佣金": 11828, 
  "宗教团体": 11829, 
  "红外": 11830, 
  "ung": 11831, 
  "纽约联合国总部": 11832, 
  "贵族": 11833, 
  "一共": 11834, 
  "监督管理": 11835, 
  "颠覆": 11836, 
  "浸@@": 11837, 
  "带动": 11838, 
  "兴@@": 11839, 
  "任职者": 11840, 
  "优@@": 11841, 
  "365": 11842, 
  "本期": 11843, 
  "潘@@": 11844, 
  "小鼠": 11845, 
  "更快": 11846, 
  "中东问题": 11847, 
  "Mon@@": 11848, 
  "每项": 11849, 
  "制药": 11850, 
  "静": 11851, 
  "自助": 11852, 
  "神话": 11853, 
  "秋季": 11854, 
  "参谋": 11855, 
  "现实意义": 11856, 
  "升温": 11857, 
  "触及": 11858, 
  "逼": 11859, 
  "鲜明": 11860, 
  "57@@": 11861, 
  "肯@@": 11862, 
  "三倍": 11863, 
  "om": 11864, 
  "硬币": 11865, 
  "挤": 11866, 
  "公用事业": 11867, 
  "one": 11868, 
  "电器": 11869, 
  "乳腺癌": 11870, 
  "PR@@": 11871, 
  "价钱": 11872, 
  "信奉": 11873, 
  "Pro@@": 11874, 
  "财物": 11875, 
  "撞击": 11876, 
  "子公司": 11877, 
  "银行家": 11878, 
  "FPA": 11879, 
  "oy@@": 11880, 
  "周五": 11881, 
  "7.3": 11882, 
  "薄膜": 11883, 
  "国务卿": 11884, 
  "不曾": 11885, 
  "债权": 11886, 
  "责任制": 11887, 
  "农作物": 11888, 
  "散会": 11889, 
  "账款": 11890, 
  "城堡": 11891, 
  "宽恕": 11892, 
  "收据": 11893, 
  "覆盖范围": 11894, 
  "满意度": 11895, 
  "油漆": 11896, 
  "斟酌": 11897, 
  "北欧": 11898, 
  "私有": 11899, 
  "企业@@": 11900, 
  "汉堡": 11901, 
  "祂": 11902, 
  "架次": 11903, 
  "嘲笑": 11904, 
  "人文": 11905, 
  "财政政策": 11906, 
  "收音机": 11907, 
  "轮调": 11908, 
  "窝": 11909, 
  "对冲": 11910, 
  "患病": 11911, 
  "向下": 11912, 
  "化学@@": 11913, 
  "北京@@": 11914, 
  "上方": 11915, 
  "恢复正常": 11916, 
  "欧空局": 11917, 
  "尤为重要": 11918, 
  "独一无二": 11919, 
  "反对票": 11920, 
  "极力": 11921, 
  "坎@@": 11922, 
  "农户": 11923, 
  "眼下": 11924, 
  "数个": 11925, 
  "梁@@": 11926, 
  "行程": 11927, 
  "废弃物": 11928, 
  "讯问": 11929, 
  "通风": 11930, 
  "商事": 11931, 
  "舞弊": 11932, 
  "7.4": 11933, 
  "eh@@": 11934, 
  "邮寄": 11935, 
  "逐@@": 11936, 
  "萨拉热窝": 11937, 
  "ek": 11938, 
  "诚挚": 11939, 
  "完工": 11940, 
  "艾伦": 11941, 
  "嗣后": 11942, 
  "神经@@": 11943, 
  "短时间": 11944, 
  "训练有素": 11945, 
  "使本": 11946, 
  "遗@@": 11947, 
  "欧安会": 11948, 
  "279": 11949, 
  "辩解": 11950, 
  "第二十条": 11951, 
  "诸@@": 11952, 
  "周日": 11953, 
  "许": 11954, 
  "器材": 11955, 
  "不堪": 11956, 
  "壁垒": 11957, 
  "裁研": 11958, 
  "沦为": 11959, 
  "总统令": 11960, 
  "te": 11961, 
  "本协定": 11962, 
  "耦合": 11963, 
  "歌@@": 11964, 
  "295": 11965, 
  "二是": 11966, 
  "超市": 11967, 
  "考生": 11968, 
  "行为准则": 11969, 
  "硕士": 11970, 
  "濒危": 11971, 
  "疯": 11972, 
  "评述": 11973, 
  "报刊": 11974, 
  "麻疹": 11975, 
  "存档": 11976, 
  "〉": 11977, 
  "第二十一条": 11978, 
  "努": 11979, 
  "两届": 11980, 
  "合规": 11981, 
  "总表": 11982, 
  "后备": 11983, 
  "氯化石蜡": 11984, 
  "ica": 11985, 
  "一小部分": 11986, 
  "佛教": 11987, 
  "引爆": 11988, 
  "心理学家": 11989, 
  "必定": 11990, 
  "跑@@": 11991, 
  "一千@@": 11992, 
  "外贸": 11993, 
  "四分之三": 11994, 
  "见图": 11995, 
  "Em@@": 11996, 
  "检方": 11997, 
  "耕作": 11998, 
  "可为": 11999, 
  "溶液": 12000, 
  "一刻": 12001, 
  "窗": 12002, 
  "管理@@": 12003, 
  "随即": 12004, 
  "出版社": 12005, 
  "进口国": 12006, 
  "有所提高": 12007, 
  "水分": 12008, 
  "IMF": 12009, 
  "受权": 12010, 
  "下周": 12011, 
  "国际电联": 12012, 
  "评@@": 12013, 
  "第五委员会": 12014, 
  "备份": 12015, 
  "导演": 12016, 
  "船旗国": 12017, 
  "织物": 12018, 
  "听证": 12019, 
  "核动力": 12020, 
  "德斯": 12021, 
  "没法": 12022, 
  "小镇": 12023, 
  "十分重视": 12024, 
  "财@@": 12025, 
  "Con@@": 12026, 
  "体制改革": 12027, 
  "测试@@": 12028, 
  "名声": 12029, 
  "防备": 12030, 
  "假装": 12031, 
  "去过": 12032, 
  "小孩子": 12033, 
  "边境地区": 12034, 
  "锌": 12035, 
  "枝": 12036, 
  "铝@@": 12037, 
  "广州": 12038, 
  "第三十七届": 12039, 
  "对非": 12040, 
  "草原": 12041, 
  "打扰": 12042, 
  "样@@": 12043, 
  "不可能": 12044, 
  "断言": 12045, 
  "阶级": 12046, 
  "居所": 12047, 
  "仅@@": 12048, 
  "第二十四条": 12049, 
  "及时性": 12050, 
  "魔法": 12051, 
  "代谢": 12052, 
  "政治@@": 12053, 
  "得分": 12054, 
  "ind@@": 12055, 
  "前期": 12056, 
  "缝": 12057, 
  "阿塞拜疆共和国": 12058, 
  "In@@": 12059, 
  "轿车": 12060, 
  "文第": 12061, 
  "起码": 12062, 
  "娅": 12063, 
  "末@@": 12064, 
  "犹如": 12065, 
  "国家有关": 12066, 
  "蔑视": 12067, 
  "青年党": 12068, 
  "18.@@": 12069, 
  "借用": 12070, 
  "停顿": 12071, 
  "ano": 12072, 
  "预言": 12073, 
  "起床": 12074, 
  "帮@@": 12075, 
  "当成": 12076, 
  "静脉": 12077, 
  "山上": 12078, 
  "专题组": 12079, 
  "砍伐": 12080, 
  "国有企业": 12081, 
  "推动力": 12082, 
  "旗": 12083, 
  "非营利": 12084, 
  "欠缺": 12085, 
  "恰恰": 12086, 
  "圣保罗": 12087, 
  "不许": 12088, 
  "成见": 12089, 
  "快点": 12090, 
  "乌兹别克斯坦共和国": 12091, 
  "反倾销": 12092, 
  "口号": 12093, 
  "舞会": 12094, 
  "隔": 12095, 
  "派对": 12096, 
  "新闻@@": 12097, 
  "带薪": 12098, 
  "274": 12099, 
  "笑容": 12100, 
  "责任人": 12101, 
  "午饭": 12102, 
  "塞尔维亚共和国": 12103, 
  "刻": 12104, 
  "跌": 12105, 
  "大大增加": 12106, 
  "有损": 12107, 
  "集结": 12108, 
  "氯苯": 12109, 
  "18日": 12110, 
  "骨头": 12111, 
  "斑": 12112, 
  "个州": 12113, 
  "纺织": 12114, 
  "预约": 12115, 
  "和善": 12116, 
  "藐视": 12117, 
  "弯": 12118, 
  "gov": 12119, 
  "该局": 12120, 
  "残留": 12121, 
  "粘@@": 12122, 
  "妓女": 12123, 
  "邮局": 12124, 
  "应得": 12125, 
  "全球战略": 12126, 
  "生动": 12127, 
  "服务@@": 12128, 
  "猛烈": 12129, 
  "共同市场": 12130, 
  "乙@@": 12131, 
  "胃@@": 12132, 
  "特等": 12133, 
  "运气": 12134, 
  "留意": 12135, 
  "库克群岛": 12136, 
  "勉强": 12137, 
  "打造": 12138, 
  "严密": 12139, 
  "na": 12140, 
  "获利": 12141, 
  "转载": 12142, 
  "参阅": 12143, 
  "273": 12144, 
  "无偿": 12145, 
  "这话": 12146, 
  "14.@@": 12147, 
  "第二十五条": 12148, 
  "闪@@": 12149, 
  "耻辱": 12150, 
  "前提条件": 12151, 
  "因数": 12152, 
  "集会自由": 12153, 
  "座谈会": 12154, 
  "骚乱": 12155, 
  "人向": 12156, 
  "预示": 12157, 
  "分化": 12158, 
  "谈会": 12159, 
  "往返": 12160, 
  "我用": 12161, 
  "瓶颈": 12162, 
  "波罗的海": 12163, 
  "2030": 12164, 
  "彩色": 12165, 
  "显现": 12166, 
  "萨拉": 12167, 
  "SA": 12168, 
  "救护车": 12169, 
  "惠@@": 12170, 
  "擅长": 12171, 
  "艾": 12172, 
  "第四@@": 12173, 
  "急救": 12174, 
  "豪华": 12175, 
  "激活": 12176, 
  "一时期": 12177, 
  "体育@@": 12178, 
  "两国政府": 12179, 
  "外包": 12180, 
  "420": 12181, 
  "刀@@": 12182, 
  "非歧视": 12183, 
  "飞往": 12184, 
  "逮捕令": 12185, 
  "同居": 12186, 
  "地缘": 12187, 
  "这片": 12188, 
  "ton": 12189, 
  "归功于": 12190, 
  "宽泛": 12191, 
  "裙子": 12192, 
  "传来": 12193, 
  "海盗行为": 12194, 
  "一至": 12195, 
  "像@@": 12196, 
  "等同于": 12197, 
  "ba": 12198, 
  "催化": 12199, 
  "无比": 12200, 
  "评判": 12201, 
  "双重标准": 12202, 
  "惩教": 12203, 
  "ala": 12204, 
  "尼维斯": 12205, 
  "摸": 12206, 
  "溶@@": 12207, 
  "妇人": 12208, 
  "警": 12209, 
  "法域": 12210, 
  "绳子": 12211, 
  "路易斯": 12212, 
  "具体步骤": 12213, 
  "ii": 12214, 
  "烤": 12215, 
  "时数": 12216, 
  "不合": 12217, 
  "模具": 12218, 
  "严重后果": 12219, 
  "误@@": 12220, 
  "时要": 12221, 
  "佳@@": 12222, 
  "地步": 12223, 
  "宜": 12224, 
  "15.@@": 12225, 
  "规章制度": 12226, 
  "数以千计": 12227, 
  "ik": 12228, 
  "装配": 12229, 
  "应变": 12230, 
  "饱受": 12231, 
  "个省": 12232, 
  "业务流程": 12233, 
  "疫情": 12234, 
  "ane": 12235, 
  "Pl@@": 12236, 
  "桌上": 12237, 
  "国立": 12238, 
  "方法学": 12239, 
  "全面实施": 12240, 
  "留住": 12241, 
  "贫困者": 12242, 
  "载明": 12243, 
  "起诉书": 12244, 
  "信赖": 12245, 
  "流体": 12246, 
  "天文台": 12247, 
  "430": 12248, 
  "段@@": 12249, 
  "搞@@": 12250, 
  "前夕": 12251, 
  "今@@": 12252, 
  "责备": 12253, 
  "标准@@": 12254, 
  "耕地": 12255, 
  "想像": 12256, 
  "结婚年龄": 12257, 
  "磷": 12258, 
  "自然@@": 12259, 
  "私营企业": 12260, 
  "羊@@": 12261, 
  "军营": 12262, 
  "今天上午": 12263, 
  "60@@": 12264, 
  "解答": 12265, 
  "弟兄": 12266, 
  "快速反应": 12267, 
  "调研": 12268, 
  "护送": 12269, 
  "加权": 12270, 
  "四种": 12271, 
  "疼": 12272, 
  "从没": 12273, 
  "队长": 12274, 
  "基薪": 12275, 
  "滤@@": 12276, 
  "近几年": 12277, 
  "传单": 12278, 
  "DA@@": 12279, 
  "方框": 12280, 
  "放射": 12281, 
  "矫正": 12282, 
  "丑闻": 12283, 
  "上司": 12284, 
  "减低": 12285, 
  "架飞机": 12286, 
  "健@@": 12287, 
  "衍生": 12288, 
  "IT@@": 12289, 
  "混": 12290, 
  "坟墓": 12291, 
  "朗@@": 12292, 
  "ash@@": 12293, 
  "夜里": 12294, 
  "赫勒拿": 12295, 
  "势@@": 12296, 
  "配有": 12297, 
  "哈里": 12298, 
  "收拾": 12299, 
  "器具": 12300, 
  "妥当": 12301, 
  "〈": 12302, 
  "Is@@": 12303, 
  "19.@@": 12304, 
  "异": 12305, 
  "of@@": 12306, 
  "8.1": 12307, 
  "智@@": 12308, 
  "刻@@": 12309, 
  "丰@@": 12310, 
  "内有": 12311, 
  "启示": 12312, 
  "馀": 12313, 
  "1962": 12314, 
  "SS": 12315, 
  "波利萨": 12316, 
  "特克斯": 12317, 
  "恩德培": 12318, 
  "第三十六届": 12319, 
  "1.7": 12320, 
  "诸": 12321, 
  "逆@@": 12322, 
  "性侵犯": 12323, 
  "亲人": 12324, 
  "优于": 12325, 
  "惯常": 12326, 
  "不远": 12327, 
  "普里什蒂纳": 12328, 
  "轮换": 12329, 
  "绝": 12330, 
  "爱人": 12331, 
  "佐@@": 12332, 
  "数千": 12333, 
  "减量": 12334, 
  "耗费": 12335, 
  "轻轻": 12336, 
  "出卖": 12337, 
  "社@@": 12338, 
  "ata": 12339, 
  "不高": 12340, 
  "血清": 12341, 
  "房价": 12342, 
  "瓜@@": 12343, 
  "激起": 12344, 
  "周岁": 12345, 
  "山谷": 12346, 
  "腰": 12347, 
  "圣地": 12348, 
  "者@@": 12349, 
  "真诚地": 12350, 
  "〇": 12351, 
  "6日": 12352, 
  "all": 12353, 
  "酯": 12354, 
  "命@@": 12355, 
  "ali": 12356, 
  "第八章": 12357, 
  "自由选择": 12358, 
  "魔鬼": 12359, 
  "团结一致": 12360, 
  "返还": 12361, 
  "进驻": 12362, 
  "慢@@": 12363, 
  "悲@@": 12364, 
  "漏": 12365, 
  "大师": 12366, 
  "ova": 12367, 
  "转动": 12368, 
  "协调会议": 12369, 
  "水文": 12370, 
  "SP": 12371, 
  "误导": 12372, 
  "失踪者": 12373, 
  "兔子": 12374, 
  "走访": 12375, 
  "年限": 12376, 
  "图里": 12377, 
  "中以": 12378, 
  "沟": 12379, 
  "避难所": 12380, 
  "奶": 12381, 
  "酋长": 12382, 
  "某事": 12383, 
  "ry": 12384, 
  "愿@@": 12385, 
  "圣基茨": 12386, 
  "康": 12387, 
  "今天下午": 12388, 
  "绝大部分": 12389, 
  "远处": 12390, 
  "9日": 12391, 
  "可惜": 12392, 
  "购@@": 12393, 
  "合乎": 12394, 
  "中所作": 12395, 
  "鸟@@": 12396, 
  "各区": 12397, 
  "格外": 12398, 
  "尾巴": 12399, 
  "莱斯": 12400, 
  "取出": 12401, 
  "购": 12402, 
  "处处长": 12403, 
  "公信力": 12404, 
  "下称": 12405, 
  "氢@@": 12406, 
  "零售商": 12407, 
  "282": 12408, 
  "跟上": 12409, 
  "蒸汽": 12410, 
  "伙计": 12411, 
  "ol": 12412, 
  "平原": 12413, 
  "恶": 12414, 
  "安娜": 12415, 
  "被忽视": 12416, 
  "呼声": 12417, 
  "拔@@": 12418, 
  "切除": 12419, 
  "裤子": 12420, 
  "3.8": 12421, 
  "溶剂": 12422, 
  "甚@@": 12423, 
  "移民法": 12424, 
  "一职": 12425, 
  "可不是": 12426, 
  "油气": 12427, 
  "整": 12428, 
  "视图": 12429, 
  "非洲之角": 12430, 
  "院子": 12431, 
  "303": 12432, 
  "私下": 12433, 
  "做过": 12434, 
  "湖泊": 12435, 
  "水下": 12436, 
  "十二@@": 12437, 
  "画家": 12438, 
  "伴": 12439, 
  "极了": 12440, 
  "粮": 12441, 
  "诱导": 12442, 
  "万国宫": 12443, 
  "更为重要": 12444, 
  "有赖于": 12445, 
  "磨损": 12446, 
  "审问": 12447, 
  "302": 12448, 
  "基加利": 12449, 
  "本节": 12450, 
  "370": 12451, 
  "第二十三条": 12452, 
  "4.8": 12453, 
  "大事": 12454, 
  "周四": 12455, 
  "大片": 12456, 
  "长得": 12457, 
  "树枝": 12458, 
  "五天": 12459, 
  "割@@": 12460, 
  "ary": 12461, 
  "似@@": 12462, 
  "预付": 12463, 
  "加密": 12464, 
  "爷爷": 12465, 
  "人人平等": 12466, 
  "还给": 12467, 
  "了不起": 12468, 
  "520": 12469, 
  "市值": 12470, 
  "服务员": 12471, 
  "威尔": 12472, 
  "欧洲央行": 12473, 
  "w": 12474, 
  "当地人": 12475, 
  "里斯": 12476, 
  "任何理由": 12477, 
  "1965": 12478, 
  "万亿美元": 12479, 
  "优美": 12480, 
  "Ms": 12481, 
  "艺术品": 12482, 
  "巴拉": 12483, 
  "活产": 12484, 
  "12日": 12485, 
  "De@@": 12486, 
  "⑴": 12487, 
  "末尾": 12488, 
  "转给": 12489, 
  "以人为本": 12490, 
  "钻@@": 12491, 
  "301": 12492, 
  "蜡烛": 12493, 
  "坚固": 12494, 
  "力学": 12495, 
  "为数": 12496, 
  "IP@@": 12497, 
  "Ay@@": 12498, 
  "荷@@": 12499, 
  "第三阶段": 12500, 
  "姿势": 12501, 
  "调配": 12502, 
  "汇票": 12503, 
  "冲突地区": 12504, 
  "料@@": 12505, 
  "特殊性": 12506, 
  "三份": 12507, 
  "填@@": 12508, 
  "兴": 12509, 
  "目标群体": 12510, 
  "拨@@": 12511, 
  "SGB": 12512, 
  "渔民": 12513, 
  "卫@@": 12514, 
  "灵感": 12515, 
  "抢": 12516, 
  "好奇": 12517, 
  "觉": 12518, 
  "经纪": 12519, 
  "趋于": 12520, 
  "白俄罗斯共和国": 12521, 
  "珠宝": 12522, 
  "抛@@": 12523, 
  "受审": 12524, 
  "社会群体": 12525, 
  "东南": 12526, 
  "1514": 12527, 
  "家禽": 12528, 
  "董事长": 12529, 
  "郡": 12530, 
  "教育@@": 12531, 
  "278": 12532, 
  "性关系": 12533, 
  "储@@": 12534, 
  "地被": 12535, 
  "存入": 12536, 
  "住@@": 12537, 
  "伸张正义": 12538, 
  "水电": 12539, 
  "增长速度": 12540, 
  "肥": 12541, 
  "型@@": 12542, 
  "简述": 12543, 
  "紧迫性": 12544, 
  "伸@@": 12545, 
  "饲养": 12546, 
  "28日": 12547, 
  "口径": 12548, 
  "ale": 12549, 
  "老虎": 12550, 
  "缴费": 12551, 
  "漏@@": 12552, 
  "迷": 12553, 
  "发酵": 12554, 
  "公允": 12555, 
  "和睦": 12556, 
  "受灾国": 12557, 
  "物价": 12558, 
  "尚有": 12559, 
  "同胞": 12560, 
  "信息安全": 12561, 
  "中央@@": 12562, 
  "战俘": 12563, 
  "1244": 12564, 
  "编程": 12565, 
  "同志": 12566, 
  "优越": 12567, 
  "锅": 12568, 
  "3.7": 12569, 
  "残暴": 12570, 
  "圆桌": 12571, 
  "径": 12572, 
  "哺乳动物": 12573, 
  "说。": 12574, 
  "粗暴": 12575, 
  "发作": 12576, 
  "变异": 12577, 
  "老化": 12578, 
  "嫌犯": 12579, 
  "十八": 12580, 
  "买家": 12581, 
  "动摇": 12582, 
  "修订本": 12583, 
  "筹划": 12584, 
  "住处": 12585, 
  "倡导者": 12586, 
  "271": 12587, 
  "广泛传播": 12588, 
  "劲": 12589, 
  "篮球": 12590, 
  "叶子": 12591, 
  "需求量": 12592, 
  "求职": 12593, 
  "胜@@": 12594, 
  "作文": 12595, 
  "850": 12596, 
  "更强": 12597, 
  "欣慰": 12598, 
  "本款": 12599, 
  "AM@@": 12600, 
  "PBC": 12601, 
  "更替": 12602, 
  "许诺": 12603, 
  "鬼@@": 12604, 
  "氯@@": 12605, 
  "接入": 12606, 
  "社会工作": 12607, 
  "合理性": 12608, 
  "ain": 12609, 
  "阻力": 12610, 
  "才@@": 12611, 
  "情人": 12612, 
  "扩建": 12613, 
  "外交使团": 12614, 
  "库拉": 12615, 
  "尼克": 12616, 
  "鹰": 12617, 
  "强硬": 12618, 
  "不能@@": 12619, 
  "现正": 12620, 
  "高科技": 12621, 
  "受控": 12622, 
  "法学": 12623, 
  "鸟儿": 12624, 
  "香烟": 12625, 
  "谷@@": 12626, 
  "列示": 12627, 
  "人造": 12628, 
  "适用法律": 12629, 
  "不负责任": 12630, 
  "狭隘": 12631, 
  "新一代": 12632, 
  "不力": 12633, 
  "论据": 12634, 
  "0.1": 12635, 
  "安曼": 12636, 
  "车上": 12637, 
  "泄露": 12638, 
  "遗址": 12639, 
  "悲痛": 12640, 
  "阳性": 12641, 
  "他们@@": 12642, 
  "繁忙": 12643, 
  "离境": 12644, 
  "法院院长": 12645, 
  "烹饪": 12646, 
  "暖@@": 12647, 
  "29日": 12648, 
  "盘子": 12649, 
  "第三十四届": 12650, 
  "虽@@": 12651, 
  "笼统": 12652, 
  "跑步": 12653, 
  "gl@@": 12654, 
  "主机": 12655, 
  "传给": 12656, 
  "听从": 12657, 
  "合法权益": 12658, 
  "潮湿": 12659, 
  "截@@": 12660, 
  "杠杆": 12661, 
  "Mal@@": 12662, 
  "IM@@": 12663, 
  "十六": 12664, 
  "桥@@": 12665, 
  "网格": 12666, 
  "硫": 12667, 
  "藉": 12668, 
  "世界性": 12669, 
  "润滑油": 12670, 
  "武装人员": 12671, 
  "胚胎": 12672, 
  "遗忘": 12673, 
  "难得": 12674, 
  "1946": 12675, 
  "认@@": 12676, 
  "液压": 12677, 
  "拼@@": 12678, 
  "规避": 12679, 
  "祖母": 12680, 
  "一视同仁": 12681, 
  "具@@": 12682, 
  "性犯罪": 12683, 
  "戈马": 12684, 
  "疲软": 12685, 
  "问候": 12686, 
  "开庭": 12687, 
  "肠@@": 12688, 
  "汤@@": 12689, 
  "Mat@@": 12690, 
  "ME@@": 12691, 
  "迟": 12692, 
  "五分之一": 12693, 
  "装载": 12694, 
  "公共场所": 12695, 
  "耗氧": 12696, 
  "加拿大政府": 12697, 
  "嗨": 12698, 
  "克减": 12699, 
  "水管": 12700, 
  "迹": 12701, 
  "岩@@": 12702, 
  "上任": 12703, 
  "暴风雨": 12704, 
  "振@@": 12705, 
  "递给": 12706, 
  "一个多": 12707, 
  "历@@": 12708, 
  "哈瓦那": 12709, 
  "22@@": 12710, 
  "柄": 12711, 
  "照看": 12712, 
  "产品质量": 12713, 
  "高地": 12714, 
  "双性恋": 12715, 
  "拨付": 12716, 
  "ard@@": 12717, 
  "坎帕拉": 12718, 
  "多米尼克": 12719, 
  "庭审": 12720, 
  "副作用": 12721, 
  "之时": 12722, 
  "日增": 12723, 
  "胆@@": 12724, 
  "1945": 12725, 
  "好莱坞": 12726, 
  "坚持不懈": 12727, 
  "试用": 12728, 
  "挖": 12729, 
  "所受": 12730, 
  "无形": 12731, 
  "民主政体": 12732, 
  "限@@": 12733, 
  "国营": 12734, 
  "不算": 12735, 
  "农业部": 12736, 
  "货车": 12737, 
  "会为": 12738, 
  "级@@": 12739, 
  "特种": 12740, 
  "资历": 12741, 
  "发光": 12742, 
  "犹大": 12743, 
  "英语@@": 12744, 
  "父@@": 12745, 
  "珊瑚": 12746, 
  "定期存款": 12747, 
  "育": 12748, 
  "子孙": 12749, 
  "不公": 12750, 
  "安援": 12751, 
  "如果说": 12752, 
  "总能": 12753, 
  "间谍": 12754, 
  "快要": 12755, 
  "顿@@": 12756, 
  "直径": 12757, 
  "亚非": 12758, 
  "自给自足": 12759, 
  "维尔京群岛": 12760, 
  "充满活力": 12761, 
  "牧场": 12762, 
  "16.@@": 12763, 
  "关键词": 12764, 
  "两用": 12765, 
  "铺@@": 12766, 
  "葡萄": 12767, 
  "开出": 12768, 
  "格拉": 12769, 
  "输": 12770, 
  "适时": 12771, 
  "非裔": 12772, 
  "理查德": 12773, 
  "坚@@": 12774, 
  "锁@@": 12775, 
  "第一句": 12776, 
  "通行证": 12777, 
  "售": 12778, 
  "树上": 12779, 
  "用处": 12780, 
  "顺便": 12781, 
  "基本要素": 12782, 
  "歌唱": 12783, 
  "便会": 12784, 
  "哀悼": 12785, 
  "定额": 12786, 
  "疑虑": 12787, 
  "凭证": 12788, 
  "脉": 12789, 
  "盲人": 12790, 
  "cl@@": 12791, 
  "一审": 12792, 
  "找个": 12793, 
  "大笔": 12794, 
  "8.2": 12795, 
  "孙@@": 12796, 
  "医疗机构": 12797, 
  "各有": 12798, 
  "韩@@": 12799, 
  "感染率": 12800, 
  "阶": 12801, 
  "迪拜": 12802, 
  "17.@@": 12803, 
  "怀着": 12804, 
  "原型": 12805, 
  "牛肉": 12806, 
  "不大可能": 12807, 
  "三条": 12808, 
  "既@@": 12809, 
  "墙壁": 12810, 
  "友善": 12811, 
  "照管": 12812, 
  "鲜@@": 12813, 
  "征@@": 12814, 
  "束": 12815, 
  "IC@@": 12816, 
  "ann@@": 12817, 
  "一整天": 12818, 
  "Mu@@": 12819, 
  "侨民": 12820, 
  "自发": 12821, 
  "出门": 12822, 
  "残余": 12823, 
  "涂": 12824, 
  "方在": 12825, 
  "难以@@": 12826, 
  "纪念碑": 12827, 
  "结盟": 12828, 
  "账": 12829, 
  "284": 12830, 
  "聆听": 12831, 
  "太好了": 12832, 
  "航空器": 12833, 
  "1954": 12834, 
  "有利条件": 12835, 
  "肉体": 12836, 
  "猎@@": 12837, 
  "酌处": 12838, 
  "爬@@": 12839, 
  "判@@": 12840, 
  "一如既往": 12841, 
  "17日": 12842, 
  "瑟@@": 12843, 
  "佣工": 12844, 
  "最大化": 12845, 
  "24日": 12846, 
  "身材": 12847, 
  "毁林": 12848, 
  "匿名": 12849, 
  "靠@@": 12850, 
  "era": 12851, 
  "耽搁": 12852, 
  "辰": 12853, 
  "家政": 12854, 
  "小伙子": 12855, 
  "No": 12856, 
  "西南": 12857, 
  "掩饰": 12858, 
  "”“@@": 12859, 
  "钢琴": 12860, 
  "19日": 12861, 
  "深处": 12862, 
  "太大": 12863, 
  "蒙罗维亚": 12864, 
  "雷曼": 12865, 
  "浅": 12866, 
  "镍": 12867, 
  "或者说": 12868, 
  "简便": 12869, 
  "und@@": 12870, 
  "悬@@": 12871, 
  "吸附": 12872, 
  "播出": 12873, 
  "写信给": 12874, 
  "传唤": 12875, 
  "311": 12876, 
  "要件": 12877, 
  "OL": 12878, 
  "为首": 12879, 
  "微额": 12880, 
  "不宜": 12881, 
  "毛病": 12882, 
  "多数票": 12883, 
  "ne": 12884, 
  "居高不下": 12885, 
  "幕": 12886, 
  "景色": 12887, 
  "共产党": 12888, 
  "裂": 12889, 
  "取样": 12890, 
  "渐进": 12891, 
  "本能": 12892, 
  "少年犯": 12893, 
  "才干": 12894, 
  "发掘": 12895, 
  "检察机关": 12896, 
  "事态发展": 12897, 
[...]
